<unk>	0
<s>	0
</s>	0
▁,	-2.58784
▁.	-3.69786
▁un	-3.86379
.	-4.03414
▁``	-4.29036
▁''	-4.31136
▁ir	-4.36403
▁ka	-4.42239
▁par	-4.62796
▁ar	-4.74995
▁no	-4.90966
▁arī	-5.08158
▁kur	-5.21616
▁gad	-5.25525
▁uz	-5.32884
▁kas	-5.3498
▁kā	-5.40261
▁	-5.44834
▁valst	-5.48266
▁tik	-5.52372
▁)	-5.5466
▁(	-5.56098
▁latvij	-5.65276
▁to	-5.66578
▁–	-5.69716
▁bet	-5.70607
ot	-5.73234
i	-5.75407
▁nav	-5.7595
▁bij	-5.76195
▁vin	-5.79755
▁vai	-5.80443
u	-5.83766
a	-5.88804
▁līdz	-5.91271
▁viņ	-5.94893
▁vis	-5.95892
▁tas	-5.96713
▁laik	-5.97026
▁tā	-5.97844
▁lai	-5.98283
▁pēc	-5.99973
s	-6.00229
▁sav	-6.04246
▁vien	-6.04774
▁es	-6.07629
▁var	-6.08325
▁gan	-6.18636
▁rīg	-6.20382
▁cilvēk	-6.23967
▁:	-6.28296
▁vairāk	-6.29318
▁jau	-6.30613
▁darb	-6.30631
▁ja	-6.30945
▁kād	-6.35804
▁cit	-6.38499
▁ne	-6.40928
▁pirm	-6.42498
▁vēl	-6.47183
▁ko	-6.47722
▁partij	-6.47985
▁pie	-6.48079
▁jaun	-6.4816
▁mēs	-6.48163
▁jo	-6.49834
t	-6.52158
▁prezident	-6.53151
▁būt	-6.54142
▁krievij	-6.54232
..	-6.55875
▁eir	-6.58359
▁pret	-6.59953
as	-6.60855
▁kad	-6.62501
▁asv	-6.65814
▁div	-6.68505
▁būs	-6.71176
▁?	-6.7126
▁ministr	-6.714
▁tiek	-6.72139
▁jautājum	-6.72266
▁valdīb	-6.72787
▁viet	-6.74387
n	-6.75583
▁-	-6.77879
▁eirop	-6.79822
▁šo	-6.80205
▁vēlēšan	-6.80463
▁saeim	-6.82049
us	-6.83515
ā	-6.8361
▁man	-6.83936
▁ties	-6.8484
▁dom	-6.8505
▁...	-6.85826
▁deputāt	-6.86302
▁iespējam	-6.86516
▁nek	-6.8658
▁amat	-6.86851
▁daudz	-6.87001
▁tad	-6.87045
▁liel	-6.87495
▁spēk	-6.87985
▁tac	-6.88001
▁policij	-6.88013
▁tās	-6.88058
▁liet	-6.89762
k	-6.9102
▁informācij	-6.92538
▁person	-6.93215
▁pat	-6.9526
▁ļot	-6.95513
▁%	-6.95557
-	-6.95568
▁dien	-6.96055
▁šād	-6.96348
▁bērn	-6.9697
▁pārstāv	-6.97202
▁jā	-6.9782
▁varēt	-6.98273
▁pašvaldīb	-6.99127
▁kop	-7.01502
▁uzņēmum	-7.01621
▁tād	-7.04807
▁tur	-7.05228
in	-7.05421
▁lēmum	-7.05456
▁norādīj	-7.0637
▁likum	-7.08088
▁delf	-7.10874
▁tam	-7.11518
▁drošīb	-7.11559
▁vadītāj	-7.11967
▁ministrij	-7.13706
▁gadījum	-7.1409
▁vid	-7.14233
▁iespēj	-7.1577
▁!	-7.16097
▁noteikt	-7.16493
▁pa	-7.17174
▁dienest	-7.18546
▁sacīj	-7.19394
▁šaj	-7.19978
l	-7.20643
▁portāl	-7.23237
▁paš	-7.2446
▁mum	-7.24483
▁nu	-7.25189
▁komisij	-7.25415
▁iedzīvotāj	-7.25417
▁lab	-7.27398
▁šī	-7.27658
▁piemēr	-7.27884
▁skait	-7.28247
▁iel	-7.28623
▁savukārt	-7.28898
▁bijuš	-7.29519
▁darbīb	-7.29767
uš	-7.29839
▁otr	-7.29866
▁tieš	-7.30205
▁lielāk	-7.30635
▁politisk	-7.31054
▁satiksm	-7.31163
▁aizsardzīb	-7.31255
▁pilsēt	-7.31848
▁nepieciešam	-7.32064
▁norād	-7.32421
▁tomēr	-7.32666
▁jūs	-7.32839
▁novad	-7.32998
▁paziņoj	-7.33177
▁mūs	-7.34345
▁atbalst	-7.35027
▁sistēm	-7.35518
▁situācij	-7.35743
/	-7.36877
▁bez	-7.37115
e	-7.37235
▁trī	-7.3812
am	-7.38719
▁dažād	-7.39113
▁miljon	-7.39215
▁veid	-7.39433
▁naud	-7.39603
▁taj	-7.40041
▁iepriek	-7.40191
▁skaidr	-7.42306
▁kaut	-7.42585
▁izglītīb	-7.44343
▁'	-7.44394
▁sarun	-7.44439
▁vald	-7.4478
▁starp	-7.45598
▁projekt	-7.46225
▁katr	-7.46332
▁līdzekl	-7.46805
▁centr	-7.47049
▁nacionāl	-7.47446
▁veikt	-7.47598
▁šobrīd	-7.48946
▁padom	-7.49647
es	-7.49784
▁pus	-7.50107
▁sabiedrīb	-7.5034
▁pasaul	-7.50413
▁tāpat	-7.50446
▁liecin	-7.50489
▁veselīb	-7.51632
▁priekšsēdētāj	-7.52495
▁savienīb	-7.53007
▁dal	-7.53098
▁darbiniek	-7.54188
▁attīstīb	-7.55336
▁tāpēc	-7.55689
▁rezultāt	-7.55698
▁cel	-7.5574
▁esoš	-7.56011
▁pulksten	-7.57031
▁kandidāt	-7.57514
▁māj	-7.57615
▁proces	-7.58425
▁informēj	-7.58643
▁reiz	-7.58878
▁tiesīb	-7.59229
▁uzskat	-7.59318
▁bank	-7.59797
▁pasākum	-7.60527
▁sēd	-7.62999
▁pār	-7.63113
▁parlament	-7.6373
▁ap	-7.63819
▁sadarbīb	-7.6421
▁ziņ	-7.64234
▁īpaš	-7.6435
▁nevar	-7.64369
▁teikt	-7.6454
▁attiecīb	-7.6461
▁piec	-7.6498
j	-7.65102
gad	-7.65232
▁grup	-7.65526
iem	-7.65652
▁amatperson	-7.65744
▁līgum	-7.65855
▁tie	-7.66099
▁līder	-7.6665
▁tagad	-7.67582
▁dēļ	-7.6765
▁tramp	-7.6766
▁ukrain	-7.67713
▁pēdēj	-7.68088
▁mērķ	-7.68351
▁apmēr	-7.68521
▁medij	-7.68771
▁budžet	-7.68903
,	-7.69105
▁zem	-7.69127
▁paredzēt	-7.69199
▁sociāl	-7.69239
āk	-7.70982
▁ziņot	-7.71972
▁četr	-7.72064
▁plān	-7.72349
▁dzīv	-7.7254
▁saistīt	-7.7261
▁teritorij	-7.72973
▁000	-7.73206
▁sāk	-7.74647
▁paud	-7.74831
▁šis	-7.75341
▁esot	-7.75688
is	-7.75694
:	-7.7585
▁šīs	-7.75965
▁ģimen	-7.76131
▁aptuven	-7.76176
▁izmeklēšan	-7.77266
ja	-7.77705
o	-7.78216
;	-7.78663
▁organizācij	-7.78713
▁iestād	-7.79044
▁notik	-7.79193
▁problēm	-7.79593
▁programm	-7.79635
'	-7.79888
▁reģion	-7.79952
ās	-7.80048
▁finanš	-7.80093
▁saistīb	-7.81716
š	-7.81909
▁starptautisk	-7.82226
▁nedēļ	-7.82758
▁posm	-7.83006
▁brīvīb	-7.83106
▁vēr	-7.83213
▁rīcīb	-7.83622
▁kriminālproces	-7.84467
▁ugunsgrēk	-7.84519
▁skaidroj	-7.8454
▁jān	-7.84957
▁galven	-7.85103
▁biroj	-7.8512
▁pakalpojum	-7.85904
▁dat	-7.86636
c	-7.86661
▁aģentūr	-7.86798
▁šim	-7.8703
▁uzsvēr	-7.88476
▁paredz	-7.89042
▁mēneš	-7.89048
▁plānot	-7.89049
▁pārvald	-7.89657
▁locekl	-7.89718
▁notikuš	-7.90451
▁teic	-7.90511
▁zin	-7.90671
▁līmen	-7.90749
▁nākam	-7.90881
▁lv	-7.91209
▁militār	-7.91308
os	-7.91448
▁palīdzīb	-7.91589
ar	-7.91632
savukārt	-7.91937
▁nodokl	-7.92465
▁vec	-7.93099
▁vārd	-7.93559
▁pirmdien	-7.94437
▁tiem	-7.94448
▁slimnīc	-7.9491
▁daļ	-7.95086
▁sev	-7.95214
▁sieviet	-7.95394
▁saņemt	-7.9605
▁pārkāpum	-7.9606
par	-7.96065
▁kopum	-7.96162
▁nodrošināt	-7.96304
▁lielbritānij	-7.96497
▁pērn	-7.96937
▁apvienīb	-7.97151
▁nebij	-7.97204
▁kpv	-7.97328
▁sīrij	-7.97504
▁izmantot	-7.97774
▁politik	-7.97845
▁knab	-7.98092
▁konkrēt	-7.98783
▁otrdien	-7.98819
▁vienošan	-7.9925
▁sākum	-7.99419
▁trešdien	-7.99759
ai	-7.99802
▁ceturtdien	-7.99856
▁notikum	-7.99857
▁publisk	-7.99917
▁skol	-8.00151
▁svarīg	-8.00159
▁stāst	-8.00274
▁sabiedrisk	-8.00337
▁piektdien	-8.00442
▁svētk	-8.00504
▁notiek	-8.00524
▁20	-8.00694
▁pieņemt	-8.00956
▁dokument	-8.01259
▁īpašum	-8.01367
▁daž	-8.01645
▁cik	-8.01796
▁maz	-8.01976
▁pamat	-8.02006
oš	-8.02588
▁vismaz	-8.02634
▁žurnālist	-8.02853
▁nevien	-8.02901
▁būtisk	-8.03053
▁vīriet	-8.03346
▁uzbrukum	-8.03421
▁vācij	-8.03747
▁tikt	-8.03892
▁jom	-8.03937
um	-8.04199
▁kārtīb	-8.05143
▁frakcij	-8.05336
▁bijus	-8.05563
▁atrod	-8.05578
▁novembr	-8.05651
▁administratīv	-8.05671
▁tostarp	-8.0575
▁nozīm	-8.05756
ēt	-8.05874
▁sarakst	-8.05941
▁politiķ	-8.06008
▁vēst	-8.06104
▁esam	-8.06411
▁sākt	-8.067
▁10	-8.06994
▁augstāk	-8.07597
▁robež	-8.07822
▁atzin	-8.07837
▁desmit	-8.08259
▁šogad	-8.08454
▁mazāk	-8.08637
▁viedokl	-8.08825
▁saskaņ	-8.0929
▁aizdom	-8.1024
▁kar	-8.10283
▁pagājuš	-8.10481
▁atbild	-8.10525
ām	-8.10548
▁maij	-8.1055
▁kontrol	-8.11379
▁brīd	-8.11612
▁a	-8.12053
▁izveidot	-8.12081
▁mācīb	-8.12102
klāt	-8.12596
▁mēr	-8.12646
▁pienākum	-8.12673
▁kultūr	-8.12907
▁gais	-8.12914
▁koalīcij	-8.13287
▁labāk	-8.13321
▁turpin	-8.13356
▁valod	-8.13396
▁ilg	-8.13397
▁automašīn	-8.13647
▁nev	-8.13684
▁nozar	-8.14145
▁pres	-8.14427
g	-8.14758
▁tirg	-8.14808
▁atbilstoš	-8.14833
▁iegūt	-8.14936
▁lietuv	-8.15018
▁tīkl	-8.15127
▁ēka	-8.15419
▁aicin	-8.15607
▁ūden	-8.15614
▁zinām	-8.15692
▁1.	-8.15767
▁vadīb	-8.1586
▁jeb	-8.15871
tāpat	-8.16414
▁sod	-8.16651
▁tai	-8.16717
▁decembr	-8.16724
▁13	-8.16755
▁mart	-8.1742
▁seš	-8.1753
▁stund	-8.17598
▁joproj	-8.176
▁vecāk	-8.17611
▁ārst	-8.17876
▁latvieš	-8.17934
▁vienotīb	-8.1812
▁rakst	-8.18188
▁tālāk	-8.18224
▁vair	-8.18251
▁aizturēt	-8.18308
▁2017.	-8.18332
▁minēt	-8.18414
▁prasīb	-8.18536
▁sniegt	-8.18625
▁pilson	-8.18649
▁saņēm	-8.18802
d	-8.18817
▁tūkstoš	-8.19053
▁paziņojum	-8.19292
▁pārbaud	-8.19558
▁zzs	-8.19821
▁reform	-8.19895
▁vienkārš	-8.20226
▁apstākl	-8.20668
▁finansējum	-8.20699
pēc	-8.20954
▁ekonomik	-8.21377
▁sia	-8.21392
▁sol	-8.21441
▁noteikum	-8.22111
▁premjer	-8.22736
▁dev	-8.23132
▁ietekm	-8.23199
▁nekād	-8.23276
▁vēlāk	-8.23333
▁nē	-8.23403
▁grozījum	-8.24295
▁jkp	-8.24371
▁taut	-8.24698
▁pieejam	-8.24992
▁augst	-8.25093
▁beig	-8.2525
▁opozīcij	-8.25279
▁mež	-8.25288
▁telp	-8.25496
▁sestdien	-8.26053
▁vugd	-8.26161
▁papild	-8.26174
▁12	-8.2623
▁reģionāl	-8.26528
lv	-8.26727
m	-8.26748
▁jūr	-8.26757
▁gatav	-8.26899
▁atklāj	-8.26941
▁irān	-8.27009
▁raidījum	-8.27057
▁protam	-8.27075
▁interes	-8.27331
iet	-8.27536
▁veic	-8.27794
▁atrast	-8.27797
▁bals	-8.27925
▁ķīn	-8.28131
▁2016.	-8.28241
āt	-8.28414
▁svētdien	-8.288
▁sak	-8.28817
▁treš	-8.28894
▁iepirkum	-8.291
▁te	-8.29117
▁igaunij	-8.29466
▁janvār	-8.29524
▁panākt	-8.29753
oti	-8.29834
▁aprūp	-8.30406
▁apsūdzēt	-8.31001
▁septembr	-8.31088
▁jūlij	-8.31299
▁oktobr	-8.31496
▁ziņojum	-8.31726
▁e	-8.31746
▁2018.	-8.3202
▁atsevišķ	-8.32128
▁gal	-8.3218
▁pagaid	-8.32355
▁vēlētāj	-8.3246
at	-8.32929
▁eiro	-8.3294
▁konstatēt	-8.33032
▁vidēj	-8.33052
▁s	-8.33067
▁esm	-8.33443
▁pacient	-8.33479
▁iemesl	-8.33525
▁kuģ	-8.33675
▁atklāt	-8.34038
▁protest	-8.3415
▁tu	-8.34278
▁šodien	-8.34598
er	-8.34706
▁uzsver	-8.3489
▁grib	-8.34893
▁jūnij	-8.35372
▁risk	-8.35505
▁departament	-8.35508
▁turpmāk	-8.35531
▁piemērot	-8.35636
▁vērtīb	-8.35711
▁vakar	-8.35925
▁domāj	-8.35969
▁ep	-8.36062
▁atkritum	-8.36226
▁ekonomisk	-8.36366
▁šeit	-8.36394
▁15	-8.36446
▁august	-8.36698
▁rad	-8.36816
ēj	-8.36988
▁100	-8.37402
▁ārliet	-8.37475
▁spēj	-8.3771
▁reģistrēt	-8.38002
▁likumprojekt	-8.38194
▁nat	-8.38523
▁turcij	-8.38736
▁jābūt	-8.38935
▁nākotn	-8.39063
viņ	-8.3914
▁vienīg	-8.39193
▁30	-8.3941
īt	-8.39795
▁dalībniek	-8.39818
▁karavīr	-8.39906
▁cietuš	-8.40032
▁iepriekšēj	-8.40159
▁alg	-8.40339
īb	-8.40495
▁vecum	-8.40715
▁bruņot	-8.41167
▁tikšan	-8.41343
p	-8.41425
@	-8.41568
▁francij	-8.41882
▁nam	-8.42055
▁risinājum	-8.42173
▁korupcij	-8.42396
▁transport	-8.42439
▁baltij	-8.42583
▁vietēj	-8.42599
▁aprīl	-8.4272
▁kāpēc	-8.42924
šan	-8.43032
▁plaš	-8.43078
▁noziegum	-8.43177
▁priekšlikum	-8.43541
▁iesaistīt	-8.43561
▁piebild	-8.43596
▁uzņēmēj	-8.43674
▁satur	-8.43899
▁kopēj	-8.44024
▁stāvokl	-8.4403
▁vienlaik	-8.44229
▁izsaukum	-8.44328
▁materiāl	-8.44448
▁kompānij	-8.44666
▁darīt	-8.45105
▁noziedzīg	-8.45121
▁direktor	-8.45408
▁rīt	-8.45534
▁radīt	-8.45568
▁diskusij	-8.45588
▁izdarīt	-8.45674
▁apsūdzīb	-8.46075
▁komitej	-8.46566
▁run	-8.46611
▁zāl	-8.46804
▁universitāt	-8.46866
▁gobzem	-8.4695
isk	-8.47118
▁tos	-8.47439
▁armij	-8.47499
▁at	-8.47668
▁līdzīg	-8.47733
▁attiecīg	-8.48027
▁ekspert	-8.48112
▁veidot	-8.483
▁uzmanīb	-8.48428
▁pārēj	-8.49029
▁prot	-8.49208
▁būvniecīb	-8.49258
▁tirdzniecīb	-8.4934
▁biedr	-8.49624
▁oficiāl	-8.49791
▁sankcij	-8.49889
▁smag	-8.50205
▁maskav	-8.50332
āj	-8.5036
▁gaidām	-8.504
▁atbildīb	-8.50524
3	-8.50614
▁speciālist	-8.50698
▁veidošan	-8.511
▁pant	-8.51152
▁kabinet	-8.5118
▁baznīc	-8.5125
▁patlaban	-8.51531
▁aktīv	-8.52266
en	-8.52295
ij	-8.52387
▁februār	-8.52461
▁ņemot	-8.52532
▁uzdevum	-8.5261
▁nodot	-8.52794
▁strād	-8.52843
▁atbildīg	-8.52847
▁glābšan	-8.53082
▁atbalstīt	-8.53136
sk	-8.53402
ē	-8.53443
▁šie	-8.53516
▁partner	-8.53819
▁vadīt	-8.53975
▁juridisk	-8.54246
▁komand	-8.54252
▁pieredz	-8.54321
▁ārvalst	-8.54361
▁putin	-8.54555
▁vienmēr	-8.54884
▁ziemassvētk	-8.54958
b	-8.55027
transportlīdzekl	-8.55134
▁zinātn	-8.5514
▁punkt	-8.5525
▁kopīg	-8.55276
▁dalībvalst	-8.55548
▁tuvāk	-8.55725
ēšan	-8.55937
v	-8.5603
▁kārt	-8.56344
▁strādāt	-8.5664
▁cen	-8.56645
▁varbūt	-8.56701
▁ceļ	-8.56819
▁konkurs	-8.56845
▁parād	-8.56971
▁tādēļ	-8.57879
▁netik	-8.57917
▁vīrieš	-8.58179
▁sākotnēj	-8.58824
▁izmaks	-8.58994
▁izmaiņ	-8.59348
▁caur	-8.59472
▁ziemeļkorej	-8.59551
▁tām	-8.59602
▁norādīt	-8.59641
▁donald	-8.59872
▁11	-8.60073
▁draud	-8.60204
▁gar	-8.60469
▁summ	-8.60832
▁iesniegt	-8.60903
▁50	-8.61118
▁sport	-8.61232
▁izmantoj	-8.61255
▁tilt	-8.61458
▁piedāvājum	-8.61593
▁spēl	-8.61826
▁gandrīz	-8.61833
▁sek	-8.61934
▁mediķ	-8.6198
▁profesionāl	-8.62148
▁operācij	-8.62399
▁]	-8.62567
▁televīzij	-8.62628
▁premjerministr	-8.62634
▁sastāv	-8.6266
▁idej	-8.62662
[	-8.62708
▁institūcij	-8.62782
▁polij	-8.62828
▁īstenot	-8.62845
▁jebkur	-8.62863
▁ugunsdzēsēj	-8.63331
vien	-8.63374
▁fond	-8.63394
▁jum	-8.6347
▁kam	-8.63476
▁izvēl	-8.63708
▁objekt	-8.63806
▁ietvar	-8.63867
▁inform	-8.63971
▁izdevum	-8.64287
▁ieroc	-8.64289
▁boj	-8.64299
▁lidmašīn	-8.64305
▁fakt	-8.64458
▁satversm	-8.64763
▁virzien	-8.64866
▁lu	-8.64893
▁intervij	-8.65038
▁pilnīg	-8.65085
▁ievēlēt	-8.65209
▁2014.	-8.65433
mēr	-8.65732
▁iecirkn	-8.65778
▁rok	-8.65902
▁negadījum	-8.65911
▁tādējād	-8.66003
▁redzam	-8.66124
▁2015.	-8.66186
▁mēnes	-8.6634
▁īpašniek	-8.66398
▁austrum	-8.66436
▁pastāstīj	-8.66469
▁iekšliet	-8.66703
▁tehnoloģij	-8.6674
▁klient	-8.66853
▁slēgt	-8.66889
▁nakt	-8.66918
▁neesot	-8.67464
▁gait	-8.67543
▁redz	-8.67639
▁vēstur	-8.68047
▁biež	-8.68179
▁aiz	-8.68254
▁ārkārt	-8.6844
▁sekretār	-8.68554
▁novēršan	-8.68634
▁dzīvokl	-8.68654
▁p	-8.68895
▁konflikt	-8.69209
▁režīm	-8.69225
▁policist	-8.69298
▁vēstul	-8.69355
▁film	-8.69375
▁maks	-8.69473
▁zaļ	-8.69545
▁grupējum	-8.69622
▁piebilst	-8.69693
▁ušakov	-8.6978
▁the	-8.69842
▁kok	-8.69933
▁biznes	-8.70026
▁internet	-8.70072
r	-8.70417
▁galvaspilsēt	-8.70655
▁autocel	-8.70833
▁kilometr	-8.71038
iņ	-8.71075
▁nodaļ	-8.71221
▁termin	-8.71253
▁atņemšan	-8.71269
▁turēt	-8.715
▁iz	-8.71729
▁brīv	-8.71925
▁aicināj	-8.71978
▁vispār	-8.72157
▁kustīb	-8.72231
▁atkal	-8.7233
▁piešķirt	-8.72422
▁2019.	-8.72433
▁iekļaut	-8.72482
▁14	-8.72503
▁prokuratūr	-8.7279
▁privāt	-8.72797
▁na	-8.7289
▁18	-8.73028
▁lūdz	-8.73171
▁balsojum	-8.73337
▁īst	-8.73542
▁kung	-8.73666
▁kļuv	-8.73718
▁konservatīv	-8.73963
▁nebū	-8.74066
▁pavēstīj	-8.74433
▁organizēt	-8.74471
▁kriev	-8.7457
▁nolēm	-8.74952
▁saskan	-8.75018
▁centrāl	-8.75232
▁piln	-8.75404
▁netiek	-8.75413
▁izmantošan	-8.75978
▁vidzem	-8.76055
▁neatkarīg	-8.76152
▁ierobežojum	-8.76225
▁nebūt	-8.76413
▁diennakt	-8.76449
▁metr	-8.76466
▁dab	-8.76566
▁liek	-8.7683
▁liepāj	-8.76847
–	-8.77044
▁potenciāl	-8.77184
▁ano	-8.77212
▁spriedum	-8.77304
▁medicīnisk	-8.77468
▁piedāvāt	-8.7748
▁turpināt	-8.77618
▁kamēr	-8.77622
▁uzraudzīb	-8.77725
▁iesniegum	-8.77798
▁produkt	-8.77845
▁tehnisk	-8.77861
▁dot	-8.77874
▁rajon	-8.78065
▁apjom	-8.78151
▁biedrīb	-8.783
▁droš	-8.78371
▁radi	-8.78402
▁vienīb	-8.78551
▁vēstīt	-8.79095
▁ziņoj	-8.7927
▁pētījum	-8.79298
▁apstiprināj	-8.79345
▁saņem	-8.79581
▁akt	-8.7975
▁tv	-8.7986
▁jaunieš	-8.7993
▁advokāt	-8.80122
vin	-8.802
▁pietiekam	-8.80388
▁vējon	-8.80474
▁apkarošan	-8.80511
▁atgādin	-8.80684
▁status	-8.80784
▁nosak	-8.80843
▁”	-8.81078
▁princip	-8.8109
▁koncert	-8.81113
▁atkārtot	-8.81163
valst	-8.81179
▁2	-8.81324
▁runāt	-8.81341
▁16	-8.81458
▁deklarācij	-8.81586
▁ienākum	-8.81608
▁vad	-8.8175
▁alkohol	-8.81764
▁atzīt	-8.81767
▁sal	-8.81978
▁trim	-8.82258
▁republik	-8.82329
▁mār	-8.82467
▁dzīvīb	-8.82676
▁vp	-8.82692
īg	-8.82761
“	-8.82796
▁abu	-8.82866
▁neatkarīb	-8.83251
▁izraēl	-8.83305
▁mant	-8.83511
▁it	-8.83593
▁pagast	-8.83679
▁viegl	-8.83685
▁kvalitāt	-8.83819
▁nopietn	-8.84307
st	-8.8435
▁glābēj	-8.84728
▁prokuror	-8.84815
▁bāz	-8.85022
▁skolēn	-8.8554
▁vērt	-8.85819
▁miljard	-8.85823
▁pilnīb	-8.85892
▁pieņemšan	-8.86355
▁#	-8.86589
▁faktisk	-8.86651
▁period	-8.8698
▁pašreizēj	-8.87045
▁norm	-8.87201
▁aptauj	-8.87285
▁septi	-8.87319
▁iniciatīv	-8.87632
▁al	-8.87836
▁ātr	-8.87843
▁attīstībai	-8.88348
▁apgabal	-8.88352
▁god	-8.8841
▁pašlaik	-8.88519
▁paust	-8.88679
▁40	-8.88781
▁rietum	-8.88785
▁studij	-8.88951
▁vasar	-8.89014
▁laikrakst	-8.89079
▁daugavpil	-8.89299
▁itālij	-8.89401
▁lom	-8.89488
▁akcij	-8.89501
y	-8.89671
▁tev	-8.8972
līdz	-8.89911
▁konferenc	-8.90004
▁publicēt	-8.90056
▁model	-8.90181
aston	-8.90232
▁laukum	-8.90261
▁17	-8.90308
▁ventspil	-8.9031
▁grūt	-8.90353
▁iekšēj	-8.90369
▁prec	-8.90411
šiem	-8.90728
▁vardarbīb	-8.90845
▁tiesliet	-8.91058
▁v	-8.91243
an	-8.91364
▁braukšan	-8.91433
▁platīb	-8.91622
▁atrad	-8.91744
▁kriminālliet	-8.91909
▁baž	-8.92109
▁atzīst	-8.92148
▁balt	-8.92271
▁augstskol	-8.92379
▁izstrādāt	-8.92399
▁vēj	-8.92817
▁sagatavot	-8.92838
▁noslēgt	-8.93039
▁dar	-8.93113
▁grād	-8.93311
▁plašāk	-8.93454
▁aizvadīt	-8.93469
▁ieviest	-8.93682
▁uzsākt	-8.93731
▁apstiprināt	-8.93831
▁viel	-8.93978
▁nelikumīg	-8.94155
▁dzīvniek	-8.94205
▁personīg	-8.94577
▁2020.	-8.94578
uz	-8.94735
▁zon	-8.94882
2	-8.94904
▁varēj	-8.9493
▁nogādāt	-8.95022
▁ātrum	-8.95161
▁runāj	-8.95196
▁brexit	-8.95228
▁jur	-8.95247
▁pasažier	-8.95259
▁kolēģ	-8.95456
latvij	-8.95634
▁avot	-8.95722
▁strādāj	-8.95723
▁ikdien	-8.95936
▁de	-8.9608
▁šā	-8.96115
▁lap	-8.9616
▁mier	-8.96401
▁simtgad	-8.96527
▁latgal	-8.96703
▁ik	-8.96743
▁vietniek	-8.96816
▁priekšniek	-8.96885
▁pensij	-8.97052
▁samazināt	-8.97054
▁vdk	-8.97266
▁brit	-8.97406
▁krīz	-8.97513
▁neliel	-8.97516
tik	-8.97592
▁sniedz	-8.97865
▁fizisk	-8.97931
▁dārz	-8.98026
▁ievērojam	-8.98102
▁nekad	-8.98156
▁simt	-8.98284
▁vienot	-8.9831
▁atļauj	-8.98342
▁dolār	-8.98419
▁muzej	-8.98545
▁krimināllikum	-8.98558
▁aktivitāt	-8.98611
▁palīdz	-8.98671
▁ikvien	-8.98702
▁sabiedrot	-8.98734
▁25	-8.98816
▁bordān	-8.98927
▁maršrut	-8.98971
▁ieņēmum	-8.99021
▁as	-8.99026
▁nodarījum	-8.99227
on	-8.99425
▁vēstīj	-8.99556
▁ie	-8.99658
▁infrastruktūr	-8.99833
▁uzzināj	-8.99839
▁ieskat	-8.99987
▁gāj	-9.00041
▁noskaidrot	-9.00163
▁deg	-9.00606
▁vide	-9.00703
▁nozīmīg	-9.00705
usi	-9.00937
▁slikt	-9.01033
ž	-9.01155
▁spēcīg	-9.01173
▁11.	-9.01175
▁nepieciešamīb	-9.01209
▁tiesisk	-9.01234
▁darboj	-9.01244
▁dziesm	-9.01287
▁nedaudz	-9.01317
▁nāk	-9.01352
▁mūzik	-9.01442
▁aug	-9.01523
▁izteic	-9.01544
▁pauž	-9.01638
▁ltv	-9.01729
▁vizīt	-9.01763
▁autor	-9.01833
▁resurs	-9.01912
▁pozīcij	-9.01984
▁pārliecināt	-9.02004
▁5	-9.0206
▁parast	-9.02143
▁rīkojum	-9.02358
lnnk	-9.02466
▁2018	-9.02519
▁administrācij	-9.02607
▁uzturēšan	-9.02819
▁andr	-9.02849
▁pastāv	-9.02876
▁tuv	-9.02909
▁atalgojum	-9.03127
▁aizliegt	-9.03363
▁lūgum	-9.03513
▁mainīt	-9.03514
▁vairākum	-9.03634
▁šos	-9.03831
▁dēvēt	-9.03845
▁facebook	-9.03979
▁investīcij	-9.04102
▁gāz	-9.04182
▁sa	-9.04228
▁cer	-9.04407
▁veikal	-9.04479
▁pieņēm	-9.04497
▁demokrātisk	-9.04712
▁kurzem	-9.0478
▁apturēt	-9.04893
▁apvienot	-9.04952
▁nāv	-9.05245
▁rektor	-9.05418
im	-9.0544
▁dzīvojam	-9.05572
▁tātad	-9.05627
▁ek	-9.05883
▁notic	-9.05884
▁māksl	-9.05903
▁nezin	-9.06047
▁vēlm	-9.06047
▁samit	-9.06114
▁iet	-9.06237
▁elektronisk	-9.06271
▁ieguv	-9.06292
▁bbc	-9.06357
▁izvirzīt	-9.06419
▁atjaunošan	-9.06598
▁atpakaļ	-9.0663
▁trūkum	-9.06754
▁student	-9.06786
▁kaujiniek	-9.06792
dal	-9.06918
▁let	-9.06978
▁pilnvar	-9.07022
—	-9.07152
▁festivāl	-9.07221
▁zaudējum	-9.07236
▁reāl	-9.07311
▁2.	-9.07361
▁temperatūr	-9.07368
▁nespēj	-9.07414
▁nelegāl	-9.07544
▁normatīv	-9.07674
▁autobus	-9.07755
▁atvērt	-9.07793
▁ārp	-9.07864
▁ierobežot	-9.08347
▁līdzšinēj	-9.08427
▁piedalīti	-9.08472
▁abi	-9.08601
▁sajūt	-9.08651
▁iestāž	-9.08707
▁būv	-9.08767
▁procent	-9.09086
▁darījum	-9.09101
▁zemniek	-9.0927
▁kukul	-9.09384
▁aicināt	-9.09467
▁uzskatīt	-9.09792
▁palīdzēt	-9.09871
▁slimīb	-9.09928
▁speciāl	-9.10063
▁kauj	-9.10135
dēl	-9.10165
▁ost	-9.10204
▁rīkot	-9.10253
▁1	-9.10333
▁vēsturisk	-9.10334
▁pieteikum	-9.1039
▁4.	-9.10606
▁b	-9.10627
▁aizliegum	-9.10659
▁mēģinājum	-9.10895
▁pārtik	-9.10913
▁palielināt	-9.10939
▁vērst	-9.10978
▁19	-9.11121
▁main	-9.11155
▁60	-9.11193
▁vajadzīg	-9.11289
▁izteikt	-9.11314
▁cīņ	-9.11401
▁regulār	-9.11442
▁spānij	-9.11626
▁nedrīkst	-9.11729
▁vajadzēt	-9.11983
1	-9.11998
▁dod	-9.1216
▁novērst	-9.12247
▁pareiz	-9.12313
▁sakar	-9.12361
▁lauk	-9.12501
▁izdevi	-9.12594
▁draug	-9.1264
▁vajadzīb	-9.12651
▁atjaunot	-9.12679
▁īstenošan	-9.12832
▁pedagog	-9.12921
▁krast	-9.12977
▁post	-9.13317
▁rakstur	-9.13323
▁ziem	-9.13337
▁ugunsdzēsīb	-9.13383
▁lidost	-9.13411
▁nāc	-9.13416
▁pateikt	-9.13548
▁izskatīšan	-9.13622
▁minimāl	-9.13698
▁slepkavīb	-9.13859
▁izpild	-9.1402
▁park	-9.14064
▁grāmat	-9.14162
7	-9.14174
▁ģenerāl	-9.14529
▁kvadrātmetr	-9.14647
▁izveid	-9.14885
▁upur	-9.1499
▁saprast	-9.15045
▁pavis	-9.1506
▁atcelt	-9.15451
▁tej	-9.1557
▁pūc	-9.15778
▁visticamāk	-9.16099
▁vladimir	-9.16167
▁gaism	-9.16302
▁nogalināt	-9.1643
▁patiesīb	-9.16526
▁kart	-9.16565
▁procedūr	-9.16573
▁stāv	-9.16597
▁praks	-9.16837
▁cietum	-9.16871
▁nogal	-9.16883
▁kampaņ	-9.16889
▁atbrīvot	-9.16897
▁izvērtēt	-9.17003
▁atbalstīj	-9.1713
ir	-9.1723
▁pieder	-9.17369
▁izmant	-9.17408
▁krim	-9.17482
▁pozitīv	-9.17591
▁18.	-9.17636
h	-9.17701
▁kučinsk	-9.17803
▁diezgan	-9.18617
▁pārāk	-9.18713
asv	-9.18747
un	-9.1888
▁raimond	-9.19034
īš	-9.19041
▁sasniedz	-9.19044
▁gadsimt	-9.19106
▁pierādījum	-9.19202
▁nekustam	-9.19294
pirm	-9.1932
▁neatliekam	-9.1938
5	-9.19397
▁galv	-9.19473
▁zemāk	-9.19573
▁nodrošin	-9.19585
▁atzīm	-9.19703
▁asociācij	-9.19755
▁kurd	-9.19881
krievij	-9.19919
▁ieviešan	-9.19968
▁aicinājum	-9.20095
▁pieaugum	-9.2011
▁rd	-9.20132
▁nosaukum	-9.20221
▁jv	-9.20304
▁teritoriāl	-9.20452
▁sen	-9.20471
▁skolotāj	-9.20638
▁tic	-9.20655
▁kapitāl	-9.20784
▁apgalvoj	-9.20949
▁vir	-9.21028
man	-9.21033
▁paties	-9.21081
▁iesniedz	-9.21134
▁eglīt	-9.21314
āl	-9.21363
▁3	-9.21441
▁kim	-9.21462
▁reklām	-9.21475
▁ciet	-9.215
▁dzimuš	-9.21511
▁jelgav	-9.21541
ais	-9.21544
▁jūrmal	-9.21615
▁skat	-9.21645
z	-9.2171
▁vispārēj	-9.21791
▁sektor	-9.21978
▁kongres	-9.22062
▁apsaimniekošan	-9.22066
▁20.	-9.22094
▁200	-9.22128
▁kļūd	-9.22281
▁lietošan	-9.2233
▁15.	-9.22333
▁piedalīj	-9.2239
▁atstāt	-9.22413
▁medicīn	-9.2248
▁sasniegt	-9.22527
rīg	-9.22604
▁redzēt	-9.22634
▁noliedz	-9.22806
▁izstrād	-9.22885
▁uzreiz	-9.22897
▁kontrolēt	-9.23059
▁balsot	-9.23143
ties	-9.23208
▁21.	-9.23209
▁dzēšan	-9.23288
▁atbildēj	-9.233
▁funkcij	-9.23314
▁zviedrij	-9.23413
▁būtīb	-9.23472
▁cilvēktiesīb	-9.23556
▁prioritāt	-9.23587
▁centien	-9.23624
▁maksātnespēj	-9.23736
▁nesen	-9.23786
▁13.	-9.23833
▁meiten	-9.23837
al	-9.23843
▁teātr	-9.23972
▁saglabāt	-9.2406
▁sezon	-9.2407
▁kaimiņ	-9.24178
▁piespied	-9.2422
kopum	-9.24278
▁demokrātij	-9.24333
▁kont	-9.24334
▁stacij	-9.24434
▁ierakst	-9.2448
▁notikus	-9.24547
▁snieg	-9.24644
▁aut	-9.24687
▁vietn	-9.24688
kop	-9.2471
▁šosej	-9.24887
▁arābij	-9.24978
▁vēstniecīb	-9.24989
▁uzlabot	-9.24996
▁kļūst	-9.25024
▁neplp	-9.25261
▁cīn	-9.25404
ošan	-9.2548
▁kratīšan	-9.25523
▁ilgstoš	-9.2556
ing	-9.25583
▁nostāj	-9.25594
▁operatīv	-9.25645
▁7.	-9.25795
▁informēt	-9.25891
▁brīž	-9.26005
▁pieprasījum	-9.26108
▁saukt	-9.26204
▁ēdien	-9.26291
▁dalīb	-9.26426
▁g	-9.26448
▁ziemel	-9.26453
▁kļūt	-9.26517
com	-9.26523
▁meln	-9.26605
▁bīstam	-9.26652
▁domāt	-9.26741
▁on	-9.26751
▁nosacījum	-9.26829
▁šķiet	-9.26971
▁daesh	-9.27019
▁baltkrievij	-9.27137
ie	-9.2715
▁klub	-9.27269
▁virkn	-9.27346
▁nodrošināšan	-9.27399
▁konsultācij	-9.27439
▁kariņ	-9.27488
▁aleksandr	-9.27529
▁krav	-9.27577
▁nonāc	-9.27724
▁nmpd	-9.27725
▁egl	-9.27758
▁apliecināj	-9.27799
▁jebkād	-9.27984
▁zināšan	-9.28005
▁24	-9.28223
▁6.	-9.28349
▁stipr	-9.28616
▁strauj	-9.28629
tomēr	-9.28728
▁likumsarg	-9.29137
▁uzvar	-9.29297
▁12.	-9.29391
ov	-9.29404
'.	-9.29468
▁saprot	-9.29473
▁piedāv	-9.29508
▁zemgal	-9.29641
▁garum	-9.29814
▁aktīvist	-9.29828
▁ķīmisk	-9.2984
▁termiņ	-9.2988
▁rind	-9.30015
▁piedāvāj	-9.30027
▁pil	-9.30161
▁pretēj	-9.30184
▁ēku	-9.30276
saskaņ	-9.30357
▁pieej	-9.30399
▁23	-9.30681
4	-9.30819
ēs	-9.3101
▁krišjān	-9.31112
▁raķet	-9.31157
▁—	-9.31187
▁2013.	-9.31249
▁500	-9.31592
policij	-9.31604
▁numur	-9.31769
▁vain	-9.31804
vienlaik	-9.3181
▁tēm	-9.31971
▁mēģin	-9.31995
▁9.	-9.32072
▁aizturēšan	-9.32122
▁meit	-9.32257
▁piederoš	-9.3228
▁amerik	-9.32371
▁pārbaudīt	-9.3268
▁pārliecīb	-9.32715
▁3.	-9.32803
▁komunikācij	-9.32921
▁vīr	-9.32928
▁šīm	-9.3299
▁komentār	-9.33098
▁sanāksm	-9.33124
▁sarežģīt	-9.3313
f	-9.33191
▁izskat	-9.33383
6	-9.33538
▁paziņojus	-9.33664
▁mal	-9.33698
▁foto	-9.33753
▁regulējum	-9.33765
▁virzīt	-9.33797
▁ļauj	-9.33802
▁aģent	-9.33862
▁raķeš	-9.33869
▁uztur	-9.33893
▁muit	-9.33956
▁pretendent	-9.34074
▁priekšvēlēšan	-9.34165
▁vašington	-9.34181
▁tēv	-9.34541
▁naft	-9.34611
▁labklājīb	-9.34654
▁sadal	-9.347
▁form	-9.34706
▁re	-9.34711
▁aizvien	-9.34862
▁agrāk	-9.34866
▁konkurenc	-9.34933
▁indij	-9.34934
▁šai	-9.3501
▁pārmaiņ	-9.35053
▁apdrošināšan	-9.35082
▁mūsdien	-9.35104
▁autovadītāj	-9.35248
▁netāl	-9.35256
▁jaunāk	-9.35309
▁personāl	-9.35314
▁obligāt	-9.35412
▁mas	-9.3552
▁finansēšan	-9.35594
▁f	-9.35617
▁attieksm	-9.35706
▁ārstniecīb	-9.35717
▁dzelzce	-9.35729
▁šonedēļ	-9.35768
▁minūt	-9.3583
▁vainīg	-9.35834
▁mandāt	-9.35948
▁sapulc	-9.35972
▁pārej	-9.35996
▁blok	-9.3601
▁aba	-9.36084
▁konstatēj	-9.36297
▁kreml	-9.36437
▁dombur	-9.36453
▁atšķirīg	-9.36522
▁zīm	-9.3655
▁piegād	-9.36599
▁gājuš	-9.36659
oj	-9.36707
▁izaicinājum	-9.36744
▁pieminekl	-9.36896
▁iekārt	-9.37036
▁apcietinājum	-9.37084
▁ietekmēt	-9.37161
▁doti	-9.3722
▁meklēt	-9.37331
▁klas	-9.37391
▁plkst	-9.37944
▁vērtēt	-9.37946
▁vairākkārt	-9.37971
▁nosūtīt	-9.38017
▁debat	-9.3813
▁veiksmīg	-9.38255
▁līnij	-9.38316
▁klimat	-9.38341
▁19.	-9.38507
▁precīz	-9.38569
▁maksājum	-9.38813
▁atbalstītāj	-9.38846
▁vilcien	-9.38873
▁protokol	-9.38895
▁toreiz	-9.38953
▁tradicionāl	-9.39007
▁vidusskol	-9.39022
▁ražošan	-9.39108
▁teiks	-9.39388
▁klaj	-9.39418
▁70	-9.39799
▁kompensācij	-9.39805
▁spiedien	-9.39817
▁uzņemt	-9.39845
▁līg	-9.39888
▁cilvēki	-9.39988
▁priekš	-9.4006
▁zaudēj	-9.40102
▁gūt	-9.40121
▁kanāl	-9.40127
ed	-9.40223
▁savulaik	-9.40239
▁m	-9.40339
ār	-9.40415
▁stratēģisk	-9.40435
▁veltīt	-9.40436
▁16.	-9.40585
▁st	-9.40681
▁savstarpēj	-9.40841
▁burov	-9.41059
▁iecer	-9.41171
▁pievienot	-9.41218
ab	-9.41336
▁atsaucot	-9.41502
▁21	-9.41543
īs	-9.41794
▁daudzum	-9.41866
▁attēl	-9.41967
▁interesant	-9.41969
▁vies	-9.42051
▁štat	-9.421
▁sūdzīb	-9.42127
▁mājokl	-9.422
▁brauc	-9.42281
▁2019	-9.42295
▁laikā	-9.42325
▁nekavējoti	-9.42347
▁savienot	-9.42456
prokuratūr	-9.42511
▁dēl	-9.42578
▁veikšan	-9.42622
uši	-9.42673
▁rēzekn	-9.42706
▁izvietot	-9.42756
▁saūd	-9.42814
▁pārstāvēt	-9.42826
▁pras	-9.42874
▁sarkan	-9.4295
▁tarif	-9.42974
▁priek	-9.42978
tac	-9.43011
▁versij	-9.43074
▁rādītāj	-9.4315
▁14.	-9.4318
▁paaugstināt	-9.43258
▁stāstīj	-9.43259
▁ātrāk	-9.43327
▁saņēmus	-9.43405
▁traum	-9.43454
▁citād	-9.43474
▁kurs	-9.43492
▁lemt	-9.43527
▁izstāšan	-9.43669
▁22	-9.43674
▁varasiestād	-9.43753
it	-9.43808
▁tehnik	-9.43875
▁negatīv	-9.43884
▁izaugsm	-9.44088
▁izsludināt	-9.44108
▁ald	-9.44141
▁visvairāk	-9.44181
▁nodev	-9.44333
▁pieaug	-9.44468
bet	-9.44618
▁pamatot	-9.44632
▁izpratn	-9.44636
▁veicināt	-9.44825
▁vērs	-9.44829
▁aizturēj	-9.44941
▁daļēj	-9.44955
▁nolūk	-9.45317
▁vajag	-9.45386
▁25.	-9.4548
viet	-9.4559
8	-9.45658
veselīb	-9.45679
▁cerīb	-9.45746
▁izpēt	-9.4577
▁latvijā	-9.45808
▁milzīg	-9.45818
▁8.	-9.45853
▁sākot	-9.45961
▁latvijas	-9.46012
▁atkarīg	-9.4603
▁efektīv	-9.46213
▁levit	-9.46311
▁lok	-9.46314
▁pārvaldīb	-9.46378
▁4	-9.46643
▁pārsniedz	-9.46654
▁gaid	-9.46742
▁mašīn	-9.46806
el	-9.46895
▁venecuēl	-9.46918
▁5.	-9.46949
▁ievainot	-9.46978
▁apzināt	-9.46991
ēm	-9.47066
▁strīd	-9.47107
ācij	-9.47114
▁atzinum	-9.47256
▁priekšmet	-9.47345
▁kritērij	-9.47454
▁saul	-9.47474
▁kaln	-9.47638
▁31.	-9.4765
▁lietotāj	-9.47714
▁dzīvesviet	-9.47794
▁plānošan	-9.47967
▁dej	-9.4797
▁secināj	-9.48009
▁t	-9.48021
▁attīstīt	-9.48132
▁ražotāj	-9.48147
ei	-9.48161
▁nedz	-9.48179
▁london	-9.48269
▁samaks	-9.48271
▁paliek	-9.48287
▁māt	-9.48375
▁dāvan	-9.48421
▁protestētāj	-9.48489
▁atšķirīb	-9.48603
▁afganistān	-9.48677
▁baltic	-9.48689
▁kompetenc	-9.48777
▁izplatīt	-9.48781
▁pavasar	-9.48859
▁informatīv	-9.48917
▁ilz	-9.48923
▁krās	-9.48929
▁vispirm	-9.48936
▁led	-9.48936
▁nemaz	-9.48985
▁17.	-9.49006
▁labum	-9.49087
▁//	-9.4916
▁bojājum	-9.49292
▁brīdināj	-9.4937
▁atrašan	-9.4946
niek	-9.49509
▁gald	-9.49598
āmi	-9.49845
▁izstād	-9.50036
▁pastāvīg	-9.50069
▁noslēpum	-9.50071
▁sun	-9.50154
▁pieņem	-9.5017
▁30.	-9.50455
▁and	-9.50467
▁tāl	-9.50654
▁gājien	-9.50748
▁sakot	-9.50778
▁noris	-9.508
▁mamm	-9.50844
▁seksuāl	-9.50853
▁mās	-9.50908
▁nevarēj	-9.50913
▁kaimin	-9.50945
▁amerikān	-9.50958
▁parakst	-9.51064
vis	-9.51067
▁dienvid	-9.51119
▁mājaslap	-9.51242
▁globāl	-9.51287
▁prognoz	-9.5136
▁metod	-9.51373
▁rakstīj	-9.51425
▁cenš	-9.51491
▁sird	-9.51499
▁edgar	-9.51623
▁migrant	-9.51676
▁balsoj	-9.51799
▁izpildītāj	-9.51814
▁atgādināj	-9.51997
▁ņemt	-9.52311
▁atļaut	-9.52353
▁stingr	-9.52389
ān	-9.52472
▁skaidrot	-9.5254
▁balv	-9.52565
▁karin	-9.5274
▁migrācij	-9.52768
▁cvk	-9.52965
▁kārtēj	-9.5298
tb	-9.53009
▁administrator	-9.53011
▁referendum	-9.53055
▁10.	-9.53085
▁esat	-9.53085
▁aktuāl	-9.53225
▁normāl	-9.53264
▁izm	-9.53276
▁telefon	-9.53581
▁fotogrāfij	-9.5361
▁atcer	-9.53638
▁pabalst	-9.53667
saeim	-9.5375
▁japān	-9.53776
▁apgalv	-9.53984
▁sergej	-9.54083
▁apmeklētāj	-9.54092
▁siev	-9.54272
▁psrs	-9.54329
▁ievērot	-9.54384
▁kritisk	-9.54411
▁misij	-9.5445
▁atstāj	-9.54467
▁maksimāl	-9.5468
▁iegād	-9.54771
▁iecerēt	-9.54842
▁vairum	-9.5487
▁zvan	-9.54872
▁gkr	-9.54907
▁helikopter	-9.54912
▁labēj	-9.5493
▁andrej	-9.55025
▁veidoj	-9.55205
▁liesm	-9.55259
▁klātbūtn	-9.55294
▁brisel	-9.5537
▁institūt	-9.55371
▁izslēgt	-9.55377
▁raidsabiedrīb	-9.55379
▁finansiāl	-9.55383
▁izdev	-9.55481
▁pieejamīb	-9.55693
▁pārtraukt	-9.55743
▁noraidīj	-9.55812
▁ļaut	-9.5585
▁35	-9.55861
▁avārij	-9.56109
ul	-9.56111
▁patīk	-9.56155
▁apgabalties	-9.56177
▁piepras	-9.56185
▁300	-9.56197
▁neret	-9.56243
▁intereš	-9.56331
▁traucējum	-9.56338
▁kāj	-9.56342
▁uzdot	-9.56422
▁sodīt	-9.56449
▁sevišķ	-9.56459
▁ārzem	-9.56556
▁variant	-9.56573
▁struktūr	-9.56586
▁zinātniek	-9.56606
▁pabeigt	-9.56824
▁80	-9.56826
▁tiesneš	-9.5683
ies	-9.5685
▁patvērum	-9.56867
▁reibum	-9.56952
▁īslaicīg	-9.57057
▁uzticīb	-9.57083
▁būvdarb	-9.57103
▁klāt	-9.57197
▁solīj	-9.57235
▁degviel	-9.57294
▁ceturt	-9.57319
▁kanād	-9.57331
▁2011.	-9.57338
▁salīdzin	-9.57353
▁pic	-9.57478
▁prasm	-9.57701
▁nemierniek	-9.57754
▁lasījum	-9.57817
▁zēn	-9.57823
▁kandidatūr	-9.5787
▁rakstīt	-9.57987
▁atlīdzīb	-9.58008
▁nonāk	-9.58117
▁kriminālvajāšan	-9.58162
▁tav	-9.58172
▁maksāt	-9.58223
or	-9.58243
▁vērtējum	-9.58328
▁u	-9.58385
▁noslēdz	-9.58484
▁skaist	-9.58521
▁8	-9.58557
▁valdoš	-9.5857
▁tiesnes	-9.58593
9	-9.58638
▁23.	-9.58648
▁guv	-9.58671
▁c	-9.58772
▁ruden	-9.58974
▁ieslodzījum	-9.58987
▁notiesāt	-9.59031
▁lēm	-9.59101
▁iestāj	-9.59119
▁k	-9.5926
▁celt	-9.59278
▁runājot	-9.59299
▁konstrukcij	-9.59522
▁risināt	-9.5953
▁diemžēl	-9.59788
▁ilgāk	-9.59857
▁uzrun	-9.59869
▁sadursm	-9.59913
▁aprēķin	-9.60046
ik	-9.6017
▁incident	-9.60195
▁palik	-9.60331
▁drīz	-9.60356
▁ražot	-9.60395
▁tālrun	-9.60517
▁josl	-9.60655
▁lidojum	-9.60663
▁piekrit	-9.60819
▁alians	-9.60899
▁makron	-9.61108
▁šaub	-9.61202
▁publiskot	-9.6127
▁signāl	-9.61274
▁izvēlēti	-9.61281
▁atzīmēj	-9.61423
▁sab	-9.61785
▁dzintar	-9.61804
▁māksliniek	-9.6181
▁dienvidkorej	-9.61828
▁turpināj	-9.61833
jaun	-9.61932
▁izrād	-9.61948
▁kaitējum	-9.62038
▁lemberg	-9.62079
▁vl	-9.62123
▁likm	-9.62223
▁28	-9.62249
▁pazīstam	-9.62265
▁saprat	-9.62323
▁izdot	-9.62335
▁parlamentār	-9.62343
▁7	-9.62427
▁pārsvar	-9.62432
▁secinājum	-9.62542
▁saimniek	-9.62559
▁brīvdien	-9.62762
▁reiting	-9.62812
▁alternatīv	-9.62813
▁atlaišan	-9.62906
▁platform	-9.62938
▁blak	-9.6294
▁sadzīv	-9.6301
▁vm	-9.63227
▁radoš	-9.63288
▁piesaistīt	-9.63351
▁notikt	-9.63359
▁terorist	-9.63441
▁jumt	-9.63593
twitter	-9.63665
▁meklēšan	-9.6377
▁karog	-9.63847
▁krievijas	-9.63892
▁izteikum	-9.63923
▁islām	-9.63972
▁solījum	-9.64007
▁gribēt	-9.64064
▁ierosināt	-9.64094
▁notiekoš	-9.64095
▁tendenc	-9.64099
▁sniegšan	-9.64107
▁mej	-9.64204
▁noskaidroj	-9.64227
▁somij	-9.64389
ist	-9.64397
▁braucien	-9.64401
vēl	-9.64488
▁triecien	-9.64505
▁kor	-9.64515
▁neesm	-9.64524
▁instrument	-9.64628
▁kreis	-9.64782
▁manuprāt	-9.64795
tramp	-9.64844
▁noteic	-9.64889
▁policija	-9.64971
▁apspriest	-9.65018
▁ārēj	-9.6502
▁6	-9.65094
▁atrodam	-9.65134
▁prāt	-9.65156
▁saņēmuš	-9.6518
▁22.	-9.65288
▁sauc	-9.65401
iz	-9.65403
▁hektār	-9.65411
▁attiec	-9.655
vaicāt	-9.65534
▁enerģij	-9.65551
▁9	-9.65555
▁ieguldījum	-9.65566
▁aizstāv	-9.65787
▁apstiprināšan	-9.65887
▁likvidēt	-9.66123
▁26.	-9.66172
▁parīz	-9.66268
▁atbrīvošan	-9.66456
▁scenārij	-9.66475
▁tēvzem	-9.66484
▁cietumsod	-9.66535
▁rimšēvič	-9.6677
▁tviter	-9.66874
▁tūrism	-9.66885
▁brīvprātīg	-9.67016
tur	-9.6702
▁vāc	-9.67139
▁tradīcij	-9.67146
ne	-9.6715
▁bēgl	-9.67156
▁rīgas	-9.67159
▁inspekcij	-9.67174
▁durv	-9.67232
kā	-9.67502
▁vadīj	-9.67504
▁27	-9.67514
▁new	-9.67599
▁vadoš	-9.67626
▁aspekt	-9.6768
▁apkopot	-9.67805
▁balstīt	-9.67845
et	-9.68053
▁individuāl	-9.6809
▁federācij	-9.68096
▁29.	-9.68162
▁oik	-9.68257
▁firm	-9.68264
ņemot	-9.68304
▁karjer	-9.68362
▁veicot	-9.68414
▁juraš	-9.68443
▁ēkā	-9.68486
▁galvenokārt	-9.685
▁absolūt	-9.68501
aprāt	-9.68503
▁ģenerālprokuror	-9.68523
▁parakstīj	-9.68563
▁nonākuš	-9.68613
▁2012.	-9.6882
▁kvalitatīv	-9.68862
delfi	-9.68895
▁informācija	-9.68913
▁nosauc	-9.6901
▁reģistr	-9.69042
▁piedal	-9.69126
▁izskatīt	-9.69158
▁24.	-9.69167
▁arodbiedrīb	-9.69341
▁praktisk	-9.69458
▁ziedojum	-9.69469
▁izvēlēt	-9.69501
▁galīg	-9.69528
▁log	-9.69671
▁iegādāti	-9.69672
īn	-9.69867
▁kritik	-9.69884
▁atteic	-9.69888
▁irāk	-9.69942
▁akadēmij	-9.70153
▁atsauc	-9.70173
▁skandāl	-9.70174
ināt	-9.70306
mpan	-9.7034
▁sien	-9.70342
▁rīgā	-9.70349
▁valmier	-9.70462
▁svarīgāk	-9.7054
▁norādījus	-9.70562
▁sāc	-9.7058
▁mēģināj	-9.70629
▁kārl	-9.70715
▁analīz	-9.70717
em	-9.70718
▁gājēj	-9.708
▁ievēlēšan	-9.70853
▁demokrāt	-9.70966
▁izraisīj	-9.71016
▁katalonij	-9.71028
▁dzērien	-9.71255
▁past	-9.71453
▁zinātnisk	-9.71476
▁kontekst	-9.7157
▁cikl	-9.7157
▁faktor	-9.71701
ap	-9.71723
▁izmeklētāj	-9.71728
▁rod	-9.71883
▁saņemšan	-9.7199
▁arhīv	-9.72001
▁nodarīt	-9.72139
▁ing	-9.72145
▁policijā	-9.72197
▁epizod	-9.72283
ņem	-9.72306
▁skatīt	-9.72335
▁vērsti	-9.72465
▁vēstniek	-9.72497
▁brāl	-9.72541
▁cent	-9.72633
▁kredīt	-9.72667
▁provinc	-9.72799
▁okupācij	-9.72818
▁ierast	-9.72824
▁2021.	-9.72941
ī	-9.73109
▁žurnāl	-9.73117
▁nīderland	-9.73183
▁vērtēj	-9.73223
▁pāvest	-9.73308
▁nodošan	-9.73384
▁kaspar	-9.73588
▁piekrast	-9.73613
▁mūž	-9.73621
▁stratēģij	-9.73669
si	-9.7378
▁medikament	-9.73806
▁ārstēšan	-9.73896
▁apgalvojum	-9.74007
▁apmērā	-9.74012
▁min	-9.74168
▁samazināšan	-9.74535
▁revīzij	-9.74574
▁brīdinājum	-9.74576
▁futbol	-9.74675
▁ceļojum	-9.74688
▁piešķiršan	-9.7469
▁atbilst	-9.74715
▁muižniek	-9.74746
▁federāl	-9.74978
▁tūrist	-9.7513
▁ciem	-9.75138
▁lielisk	-9.7519
▁statistik	-9.75197
▁cieš	-9.75241
▁tobrīd	-9.7532
▁neskatoti	-9.75363
▁reputācij	-9.75398
▁mazināt	-9.75464
▁krietn	-9.75553
▁sej	-9.75612
▁padomniek	-9.75664
▁gadā	-9.75691
▁izlūkdienest	-9.75842
▁demonstrācij	-9.75876
▁pētniek	-9.75889
_	-9.75983
▁ārā	-9.76005
▁ierad	-9.76108
▁nees	-9.76118
▁piesaist	-9.76214
▁dzīvoj	-9.76262
▁tekst	-9.76271
▁tēl	-9.76296
▁aprit	-9.76335
▁piedalīsi	-9.76342
▁strādājoš	-9.76369
▁septiņ	-9.76417
▁lūgt	-9.76437
▁secināt	-9.76438
▁esi	-9.76567
▁pastiprināt	-9.76585
▁austrij	-9.76618
▁trauksm	-9.76674
▁45	-9.76719
▁atrisināt	-9.76723
portāl	-9.76732
▁pakāpenisk	-9.76739
▁pildīt	-9.76756
▁am	-9.7676
▁ogr	-9.76774
▁nevajadzēt	-9.76869
▁merkel	-9.76922
īšan	-9.77006
ep	-9.77038
▁pussal	-9.77039
▁pirmsskol	-9.77039
▁pazīm	-9.77116
▁rast	-9.77154
jā	-9.77161
▁nil	-9.77182
▁pamest	-9.77324
▁pilsonīb	-9.77443
▁lauksaimniecīb	-9.77462
▁kompleks	-9.7747
▁redzējum	-9.77492
▁režisor	-9.77494
▁gatavīb	-9.77562
▁plašsaziņ	-9.77614
▁vadīšan	-9.77626
▁ieteikum	-9.77703
▁pabrik	-9.77793
▁pamet	-9.77864
▁kolektīv	-9.77913
▁noslēgum	-9.77942
▁dzīvot	-9.77965
▁standart	-9.77977
▁mark	-9.78056
▁imigrant	-9.78093
▁profesor	-9.78156
▁devi	-9.78197
▁nbs	-9.78209
mp	-9.78272
▁pieauguš	-9.78362
▁konvencij	-9.78368
▁terorism	-9.78382
▁mērog	-9.78422
▁apmeklēt	-9.78668
▁90	-9.78706
▁nepamatot	-9.78811
▁paaudz	-9.78826
▁diplomātisk	-9.78831
▁sievieš	-9.78835
w	-9.78882
▁beidzot	-9.78947
▁piespriest	-9.78971
▁palikt	-9.79006
▁lik	-9.79154
▁jūt	-9.79169
▁vk	-9.79239
▁pakļaut	-9.79248
▁reaģēj	-9.79252
▁apmācīb	-9.79288
▁mobil	-9.7931
▁valsts	-9.7936
▁tolaik	-9.79369
▁viesnīc	-9.79577
▁ieņemt	-9.79708
▁iesaist	-9.79733
ministr	-9.79847
▁pieprasīt	-9.79853
▁neilg	-9.7994
▁bail	-9.80034
▁lēn	-9.80167
▁2009.	-9.8018
▁liecīb	-9.80199
▁sagaid	-9.80251
▁ugun	-9.80258
▁mais	-9.80282
▁palielināšan	-9.80319
ieš	-9.80398
▁mehānism	-9.8049
▁patērētāj	-9.80497
▁nometn	-9.80507
ami	-9.80541
▁luksofor	-9.80643
▁pavļut	-9.80732
kārt	-9.80779
▁atgriezti	-9.80835
dien	-9.80851
▁ierodoti	-9.80906
▁izsniegt	-9.81109
▁palīg	-9.81113
vēstīt	-9.81217
00	-9.81224
▁pakāp	-9.81242
▁stāj	-9.81343
▁26	-9.81367
▁godīg	-9.81369
▁sprādzien	-9.81459
il	-9.8148
▁iemaks	-9.81635
▁paveikt	-9.8169
▁plūsm	-9.81734
▁pēcpusdien	-9.81799
▁tīr	-9.81807
runājot	-9.8193
▁argument	-9.82089
▁dānij	-9.82108
▁diplomāt	-9.8213
▁kamer	-9.82162
ējot	-9.82239
▁komandier	-9.82309
▁zādzīb	-9.82348
▁likt	-9.82349
▁ierosinājum	-9.82371
▁izpildīt	-9.82375
ek	-9.82435
▁vienoj	-9.82471
▁prom	-9.82522
▁28.	-9.82573
no	-9.82724
▁minēj	-9.82744
▁apliecin	-9.82749
▁iepazīti	-9.82802
▁padarīt	-9.82834
▁apmaksāt	-9.8285
▁vēlreiz	-9.82865
▁izņemt	-9.82885
ic	-9.82909
▁atbildēt	-9.82967
▁iesak	-9.83004
▁dombrovsk	-9.83025
▁brigād	-9.83138
▁gluž	-9.83306
▁vietniec	-9.83334
▁400	-9.83354
▁ministrs	-9.83544
▁uzlabošan	-9.8357
▁pārvietošan	-9.83603
▁bojāgājuš	-9.83606
ak	-9.83632
▁aizsargāt	-9.83795
▁sacensīb	-9.83932
▁ret	-9.83935
▁saslimšan	-9.83937
▁jurist	-9.83969
▁29	-9.842
▁beidz	-9.84216
▁robert	-9.84246
kapitālsabiedrīb	-9.84268
▁vilt	-9.84305
▁apkārtn	-9.84429
▁devēj	-9.84453
▁iespaid	-9.84476
▁tiesībsarg	-9.84528
▁rīk	-9.84551
▁apdraudējum	-9.84722
▁uzskatām	-9.84843
▁izcelsm	-9.84878
▁gribēj	-9.84883
▁būvēt	-9.85043
▁eksport	-9.85077
ism	-9.85116
▁akmen	-9.85259
liet	-9.85269
▁pieļauj	-9.8538
knab	-9.85411
▁mārtiņ	-9.85493
▁digitāl	-9.85496
▁izlūkošan	-9.85536
▁of	-9.85563
▁svēt	-9.85576
▁pateic	-9.85691
▁pārskat	-9.85718
▁ungārij	-9.85734
▁mekl	-9.85758
▁vienoti	-9.85768
▁ļaunprātīg	-9.85845
▁skatītāj	-9.85895
▁rūpīg	-9.85971
▁narkotisk	-9.86007
▁grip	-9.86025
▁tim	-9.86052
▁gadiem	-9.86095
▁video	-9.86125
▁izbeigt	-9.86179
▁nosaukt	-9.864
▁27.	-9.86402
▁šoreiz	-9.86412
▁dibināt	-9.86473
▁likumdošan	-9.865
▁katol	-9.86508
▁nepiln	-9.86663
▁sākus	-9.86714
č	-9.86802
▁izraisīt	-9.86816
▁pārbūv	-9.86821
▁atkarīb	-9.8684
▁viln	-9.8687
iepriek	-9.86899
▁spiest	-9.86904
▁stiprināt	-9.8693
▁spēlētāj	-9.87002
▁uzstāj	-9.87053
▁fktk	-9.87169
▁atbilstīb	-9.87174
▁vest	-9.87223
ol	-9.87313
▁ablv	-9.87509
▁serbij	-9.87552
▁tals	-9.87683
▁astoņ	-9.87735
▁vicemēr	-9.87809
▁r	-9.87817
▁piekt	-9.87821
▁ķermen	-9.87967
▁daugav	-9.88012
▁miruš	-9.88088
▁nepareiz	-9.88139
▁jāveic	-9.88144
▁izcēli	-9.88178
▁tramps	-9.88186
▁datum	-9.88212
▁agresīv	-9.88431
▁sagatavošan	-9.88473
▁uzsāk	-9.88477
▁pārdot	-9.88483
▁cilvēku	-9.88592
▁nepaties	-9.88622
ti	-9.88779
▁elektroenerģij	-9.88803
▁mir	-9.88894
▁izriet	-9.8897
▁kancelej	-9.88981
▁pieteikt	-9.88982
▁pārvad	-9.89
▁pirmkārt	-9.89007
▁trij	-9.89028
▁lietot	-9.89073
▁parakstīt	-9.8922
ip	-9.8925
▁mierīg	-9.89296
▁2010.	-9.89305
▁iecelt	-9.89318
▁fiksēt	-9.89319
▁kādēļ	-9.89378
▁grieķij	-9.89384
▁honkong	-9.89433
▁remont	-9.89436
▁reakcij	-9.89474
▁lidaparāt	-9.89486
▁imigrācij	-9.89488
▁grūtīb	-9.89533
▁organizēšan	-9.8955
▁panākum	-9.89602
▁saimniecīb	-9.89679
▁patieš	-9.89774
▁drīkst	-9.89777
▁apskat	-9.90019
▁kap	-9.90063
▁tiesībsargājoš	-9.90156
▁lnt	-9.90327
▁balsošan	-9.90385
▁zvaigzn	-9.90399
▁zied	-9.90498
▁kalpot	-9.90728
▁čehij	-9.90776
past	-9.90832
▁in	-9.90839
0	-9.90846
▁dp	-9.90895
▁vēlēt	-9.90995
▁reuter	-9.90996
▁karalist	-9.90998
▁senāt	-9.91082
▁propagand	-9.91335
▁topoš	-9.91383
▁kontakt	-9.91505
▁salīdzinoš	-9.91565
ksn	-9.91633
▁36	-9.91697
▁paredzēj	-9.91737
īj	-9.91737
▁pas	-9.91792
▁realizēt	-9.91836
partij	-9.91938
▁prieks	-9.92061
▁kritizēj	-9.92081
▁narkotik	-9.92094
▁pievērst	-9.92096
▁draudz	-9.92251
▁nobalsoj	-9.92279
▁pild	-9.92433
▁slepen	-9.92537
▁gruzij	-9.92613
▁izskanējuš	-9.9263
▁lra	-9.92643
▁alu	-9.92649
▁1000	-9.92653
▁šit	-9.92713
▁kosmos	-9.92749
▁nodrošinot	-9.92749
▁oļeg	-9.92898
▁dialog	-9.93063
▁uzstādīt	-9.93119
▁siguld	-9.93231
▁ētik	-9.93239
▁trener	-9.93241
▁apmeklēj	-9.9325
▁paskaidroj	-9.93264
▁kūl	-9.93288
▁vas	-9.9331
▁peln	-9.93324
▁pol	-9.93326
▁īrij	-9.93337
▁ieņem	-9.93394
▁ebrej	-9.93412
▁gatavoj	-9.93487
▁asad	-9.93514
▁som	-9.93712
ziņot	-9.93724
▁instanc	-9.93762
▁remontdarb	-9.94087
▁reliģisk	-9.9412
▁diev	-9.94215
▁tautsaimniecīb	-9.94291
▁pagarināt	-9.9447
▁tiesvedīb	-9.94472
▁papīr	-9.94481
▁mēdz	-9.94485
▁piekrīt	-9.94487
av	-9.94545
▁negrib	-9.94549
▁cēs	-9.94625
▁aivar	-9.94653
▁garš	-9.94668
tr	-9.94797
▁biežāk	-9.948
dzan	-9.94856
▁krēsl	-9.94869
▁rēķin	-9.94908
▁kopien	-9.94928
▁emocionāl	-9.95017
▁vēlēšanās	-9.95066
▁bild	-9.95066
▁dzim	-9.95162
▁saglabāšan	-9.95175
▁īsten	-9.95255
▁ikp	-9.95412
▁jādar	-9.95413
▁veicin	-9.95437
▁martinson	-9.95481
▁km	-9.95485
▁civil	-9.95493
▁vesel	-9.95497
▁priekšpilsēt	-9.95532
▁uzņēmējdarbīb	-9.95534
▁liegt	-9.9572
▁izveidošan	-9.958
ozol	-9.95808
▁radīj	-9.95838
▁kuldīg	-9.95921
▁paraug	-9.95934
▁kosov	-9.95947
la	-9.96018
▁karst	-9.96136
▁sekoj	-9.96166
▁izmaksāt	-9.96218
▁izdarīj	-9.96309
▁izveidoj	-9.96314
▁iev	-9.9633
▁akcionār	-9.96426
▁profesij	-9.96427
▁ček	-9.96496
▁paziņojumā	-9.96504
▁150	-9.9657
▁robežsardz	-9.96646
▁nevēl	-9.96697
▁ierīc	-9.96806
▁prasīt	-9.96838
▁rs	-9.96898
▁nodarboj	-9.96906
▁orķestr	-9.96923
▁sāksi	-9.97115
▁thi	-9.97215
▁populār	-9.97286
▁amp	-9.97321
▁akadēmisk	-9.97335
▁gaļ	-9.97335
▁d	-9.97396
▁izlas	-9.97428
šobrīd	-9.97443
▁31	-9.9747
▁aģitācij	-9.97513
▁restorān	-9.97524
▁ivar	-9.97528
▁int	-9.97584
▁izcēl	-9.9766
▁izskanēj	-9.97688
▁ieslodzīt	-9.977
▁brīdin	-9.97734
▁identitāt	-9.97754
▁uzņemšan	-9.97892
▁salīdzinājum	-9.97918
▁atlikt	-9.97926
▁novērot	-9.97959
▁palikuš	-9.98058
▁pieminēt	-9.98061
▁integrācij	-9.98075
▁oligarh	-9.98157
▁shēm	-9.98243
▁atteikti	-9.98284
▁ezer	-9.98288
ņ	-9.98315
▁ievēroj	-9.98347
▁pē	-9.98365
▁mantojum	-9.98435
▁dūm	-9.98453
▁nolikum	-9.98474
▁ārkārtīg	-9.98479
ter	-9.98492
▁gaidīt	-9.98544
▁palestīnieš	-9.98593
▁progres	-9.98698
▁apģērb	-9.98809
▁ceremonij	-9.98812
▁agr	-9.9885
▁atklāšan	-9.98997
▁neredz	-9.99198
▁jauniet	-9.99227
▁āfrik	-9.99237
▁apdraud	-9.99338
▁i	-9.99363
▁piemiņ	-9.99364
▁apstrīdēt	-9.99386
▁detaļ	-9.99408
▁lielākoti	-9.99461
▁element	-9.99538
▁kategorij	-9.9955
▁nākamgad	-9.99565
▁saistoš	-9.9958
▁by	-9.99617
▁ozol	-9.9965
▁rimšēvic	-9.99745
▁bērnudārz	-9.99915
▁dac	-9.99949
▁noformēt	-9.99949
▁neatbilst	-10.0005
▁komentēt	-10.001
▁ārpolitik	-10.001
▁paralēl	-10.0015
▁izdošan	-10.002
▁33	-10.0021
▁iesaistīti	-10.0021
▁front	-10.0023
▁pensionār	-10.0023
▁vi	-10.0025
▁segum	-10.003
▁pārrunāt	-10.0031
▁š	-10.0035
▁sadarboti	-10.0042
&	-10.0047
▁rīkoti	-10.0047
▁rād	-10.0049
ain	-10.0054
▁top	-10.0061
▁tuvum	-10.0063
kād	-10.0064
▁šveic	-10.0066
▁enerģētik	-10.0068
▁iegūst	-10.0069
▁dain	-10.0073
▁sāp	-10.0076
▁ierašan	-10.008
▁rom	-10.0082
▁stabilitāt	-10.0084
▁kundz	-10.0086
▁novērtēt	-10.009
▁32	-10.0108
▁redzēj	-10.0113
kad	-10.0117
▁izplatīšan	-10.0122
▁prettiesisk	-10.0123
▁realitāt	-10.0123
▁kristīn	-10.0124
▁pieļāv	-10.0131
▁sald	-10.0131
▁biļet	-10.0139
▁tramvaj	-10.0142
▁elektrīb	-10.0147
▁laim	-10.0156
id	-10.0157
▁jautāj	-10.016
▁attālum	-10.0161
▁atvēlēt	-10.0161
▁palīdzēj	-10.0163
▁pazuduš	-10.0164
▁sākuš	-10.0171
aizvadīt	-10.0174
▁skar	-10.0174
▁prognozēt	-10.0189
▁izvērtēj	-10.019
▁viktor	-10.0197
▁palāt	-10.0199
▁džonson	-10.0199
▁sakārtot	-10.0199
▁paplašināt	-10.0218
▁2008.	-10.022
▁krist	-10.0232
▁sprūd	-10.0234
▁kancler	-10.0238
http	-10.025
▁ved	-10.0254
▁nosūtīj	-10.0255
▁džihādist	-10.0276
▁būvvald	-10.0278
vairāk	-10.0281
▁tuviniek	-10.0289
▁mirkl	-10.0294
▁akcīz	-10.0294
ien	-10.0307
▁atpūt	-10.0312
▁aviācij	-10.0313
▁nvd	-10.0318
▁kin	-10.032
▁pretrun	-10.0327
▁nes	-10.0336
kar	-10.035
▁zaudējuš	-10.0352
▁eksāmen	-10.0353
▁apdzīvot	-10.0355
▁norvēģij	-10.0374
▁matīs	-10.0388
▁likumdevēj	-10.0392
▁traģēdij	-10.0397
▁skan	-10.0397
▁noteikšan	-10.0397
▁lībij	-10.0398
▁pēter	-10.0398
▁pieļaut	-10.041
var	-10.0419
▁start	-10.0427
▁pārstāvji	-10.0429
▁krāpšan	-10.0441
▁vienād	-10.0442
▁em	-10.0444
▁kļū	-10.0453
▁fon	-10.0454
▁māc	-10.0455
▁pilot	-10.0456
kriminālatbildīb	-10.0459
▁radikāl	-10.0464
▁trolejbus	-10.0469
▁īsi	-10.0472
abām	-10.0495
▁bērz	-10.0504
▁izmeklēt	-10.0507
▁garantij	-10.0508
▁rīdziniek	-10.0508
▁paldi	-10.0513
▁darboti	-10.0513
▁75	-10.0518
▁nepilngadīg	-10.0527
lab	-10.0528
▁pateicoti	-10.0534
▁modern	-10.0538
▁angl	-10.0542
▁jēkabpil	-10.0543
▁piekļuv	-10.0547
▁devuši	-10.0552
▁pvn	-10.0567
▁pavadīt	-10.0568
▁art	-10.057
▁pētniecīb	-10.0571
▁piemērošan	-10.0572
▁celšan	-10.0583
▁madur	-10.0587
▁nevalstisk	-10.0587
▁sekmīg	-10.06
▁apliecīb	-10.0606
▁saskaņot	-10.0616
darb	-10.0619
▁mk	-10.063
▁dārg	-10.0638
eirop	-10.064
▁zināt	-10.0644
▁publicēj	-10.0648
▁stabil	-10.0651
▁pusotr	-10.0651
▁dzīvojoš	-10.0652
▁vislielāk	-10.0666
▁39	-10.0667
▁skatuv	-10.068
▁saprotam	-10.0686
▁aktier	-10.0687
▁34	-10.0695
▁neiz	-10.0698
▁uzvarēj	-10.0699
▁tikpat	-10.0705
▁uzvedīb	-10.0706
āšan	-10.0706
▁procesuāl	-10.0708
▁pūl	-10.0714
▁zelt	-10.0716
▁austrālij	-10.0724
▁sarīkot	-10.0726
▁atlas	-10.0729
▁vēstījum	-10.0736
▁stūr	-10.0736
ojot	-10.074
▁/	-10.0743
▁vērojam	-10.0748
▁identificēt	-10.0749
▁pamatojum	-10.0749
▁skaitl	-10.0749
▁dzimt	-10.0754
▁tiesiskum	-10.0755
▁skaidrīb	-10.0758
▁pārmetum	-10.0759
▁čenun	-10.0761
▁gabal	-10.0765
▁ikgadēj	-10.0767
▁mākslīg	-10.0769
▁pierādīt	-10.0787
▁aizdevum	-10.0788
▁rosināt	-10.0792
▁laur	-10.0796
▁ann	-10.08
▁kļuvus	-10.0805
▁tikti	-10.0805
▁katastrof	-10.0806
▁pārdošan	-10.0807
▁uzbrucēj	-10.0809
▁sekund	-10.081
▁skripa	-10.0813
▁aiziet	-10.082
▁tip	-10.0837
son	-10.0841
▁aicina	-10.0845
▁ērik	-10.0847
▁pieprasīj	-10.0856
▁rezerv	-10.0859
▁pamatojoti	-10.0859
ējuš	-10.087
▁garīg	-10.087
▁iekš	-10.0873
▁lat	-10.0875
saistīb	-10.0878
▁fact	-10.0882
▁separātist	-10.0888
▁nodibinājum	-10.0889
▁ines	-10.0894
10	-10.0899
▁groz	-10.0902
x	-10.0911
gobzem	-10.0925
▁investor	-10.0928
▁tikuš	-10.0928
▁h	-10.093
▁saimniecisk	-10.093
▁risināšan	-10.0934
▁paziņojuš	-10.0939
▁izdarīšan	-10.094
▁j	-10.0947
▁forum	-10.0953
▁apmaiņ	-10.0962
▁sekot	-10.0985
▁novirzīt	-10.1018
▁apdraudēt	-10.1022
▁atcelšan	-10.1023
▁iejaukšan	-10.1027
▁ašeraden	-10.1036
▁uzturēt	-10.1042
▁apkalp	-10.1046
▁podkāst	-10.1048
▁zelensk	-10.1053
▁olimpisk	-10.1053
▁uzskait	-10.1057
▁rosin	-10.1059
▁svinīg	-10.1061
▁apšaud	-10.1069
▁pārmet	-10.1069
▁aptaujāt	-10.1079
▁iznīcinātāj	-10.1084
▁parādīt	-10.1085
▁aculieciniek	-10.1087
▁reis	-10.1088
▁beļģij	-10.1095
▁mēģināt	-10.1101
▁atmazgāšan	-10.1106
▁šaujamieroc	-10.1114
▁rot	-10.1118
▁uzzināt	-10.1118
▁nācij	-10.1125
▁atmiņ	-10.1135
▁tiešraid	-10.1136
▁iebildum	-10.1136
▁formāt	-10.1142
▁cien	-10.1149
▁šofer	-10.1154
pulksten	-10.1154
▁pārsniegšan	-10.1156
▁stambul	-10.1156
▁ieguldīt	-10.116
▁personisk	-10.1165
▁sasaukum	-10.1166
▁aplēs	-10.118
pat	-10.1181
▁dator	-10.1193
ējoš	-10.1195
▁ieraduši	-10.1197
▁nevajag	-10.1198
ad	-10.121
▁ļau	-10.1211
▁neatbilstoš	-10.1212
up	-10.1216
pēdēj	-10.1217
▁paaugstināšan	-10.1219
▁pasak	-10.1223
▁met	-10.1228
▁atliek	-10.1229
▁sēž	-10.1235
▁veicināšan	-10.1238
▁noziedzīb	-10.124
▁ādaž	-10.1243
▁kaimiņvalst	-10.1243
▁braukt	-10.1251
▁apstiprin	-10.1259
▁stikl	-10.1262
pix	-10.1264
▁apgrozījum	-10.1264
▁raksturoj	-10.1267
▁raduš	-10.1273
▁intensīv	-10.1279
▁norādījuš	-10.1289
▁ietver	-10.1292
▁parādīj	-10.1304
▁savlaicīg	-10.1304
▁bezmaks	-10.1312
▁laiv	-10.1319
ķ	-10.1322
▁avīz	-10.1326
▁galēj	-10.1327
▁trūkst	-10.1345
▁mazākumtautīb	-10.1346
images	-10.1346
est	-10.135
▁rezolūcij	-10.1352
▁pauduš	-10.1365
▁piešķir	-10.1368
▁tras	-10.1378
▁plānoj	-10.1395
▁tap	-10.1403
▁vērienīg	-10.1408
▁grafik	-10.141
▁marij	-10.1419
▁ieskaitot	-10.1435
▁lvc	-10.1436
▁invaliditāt	-10.1443
pagājuš	-10.1451
▁pagātn	-10.1453
▁sakārtošan	-10.1453
▁objektīv	-10.1454
▁medīb	-10.1455
▁publikācij	-10.1455
▁l	-10.1464
▁stil	-10.1465
▁pieļaujam	-10.1467
▁vieglāk	-10.1471
▁apsūdz	-10.1477
▁ekspertīz	-10.1496
▁darbaviet	-10.1497
▁klīnisk	-10.1497
▁infekcij	-10.1497
▁meksik	-10.1498
▁abiem	-10.1501
▁panorām	-10.1518
▁apl	-10.153
▁virs	-10.1534
▁stiprināšan	-10.1537
▁prezidents	-10.1544
▁bojā	-10.155
▁putn	-10.1559
▁efektivitāt	-10.1562
▁konstitūcij	-10.1562
▁pieaudz	-10.1567
▁pārskatīt	-10.157
▁svar	-10.1572
▁pusgad	-10.1574
▁noskaņot	-10.1575
▁darīj	-10.1576
▁mīlestīb	-10.1584
▁mūziķ	-10.1586
▁garantēt	-10.1586
▁mies	-10.1589
▁personīb	-10.1596
pērn	-10.1606
▁instagram	-10.1609
mart	-10.161
▁janson	-10.1622
▁nodal	-10.1626
▁nākamnedēļ	-10.163
▁la	-10.1635
▁uzticēt	-10.1646
▁izsol	-10.1652
▁izbūv	-10.1655
▁pavadīj	-10.1657
▁0	-10.1658
▁sanāk	-10.1669
▁rūpnīc	-10.1672
▁adres	-10.1697
▁sākšan	-10.17
▁izcil	-10.171
▁izvērtēšan	-10.1714
▁savākt	-10.1716
▁padar	-10.172
▁būvniek	-10.172
▁dan	-10.1725
▁purv	-10.1727
▁dzīvesbiedr	-10.1738
▁malt	-10.1738
▁bērziņ	-10.1739
▁pakistān	-10.1739
▁zināj	-10.1748
▁nom	-10.1765
▁palielin	-10.178
▁kompromis	-10.1782
ajiem	-10.1787
▁lem	-10.179
▁organizator	-10.1796
▁berlīn	-10.1802
▁nelaim	-10.1803
▁jāsaprot	-10.1805
▁uzsākšan	-10.1808
▁ldz	-10.1808
▁vajadzēj	-10.181
▁dekor	-10.1813
▁apsūdzēj	-10.1813
▁dizain	-10.1818
▁viļņ	-10.1818
valdīb	-10.182
▁55	-10.1825
▁51	-10.1825
▁karaspēk	-10.1827
▁nepietiekam	-10.1828
▁korej	-10.1828
▁kritiķ	-10.1831
▁ieņēm	-10.1839
▁share	-10.1841
▁sociāldemokrāt	-10.1845
▁uzlikt	-10.1845
▁norisināsi	-10.1849
▁2007.	-10.185
▁virsniek	-10.185
▁basketbol	-10.1851
▁rumānij	-10.1861
▁acīmredzam	-10.1872
maij	-10.1874
▁atgūt	-10.1875
▁imant	-10.1875
▁apkaim	-10.1879
▁kūdr	-10.1881
▁ziv	-10.1884
vid	-10.1884
▁atšķir	-10.1894
▁plakāt	-10.1894
▁atlaist	-10.1895
▁torn	-10.1897
▁veikus	-10.1898
▁pretiniek	-10.1902
▁artus	-10.191
▁izskaņ	-10.1917
▁likvidācij	-10.1917
▁unikāl	-10.1918
▁vētr	-10.1927
▁apmierināt	-10.1938
▁bruņojum	-10.194
▁atgriešan	-10.194
▁izvairīti	-10.1941
▁guvuš	-10.1948
▁literatūr	-10.1963
▁vardarbīg	-10.1963
▁samaksāt	-10.1971
laik	-10.1974
▁pavad	-10.1982
▁terorakt	-10.1983
reizēj	-10.1985
▁zakatistov	-10.1986
▁reģistrācij	-10.1988
▁bāzēt	-10.2
atīv	-10.2001
▁37	-10.2007
▁profil	-10.201
▁svinīb	-10.202
▁silt	-10.202
▁test	-10.2027
▁laulīb	-10.2032
▁tonn	-10.2044
▁komentēj	-10.205
▁pasūtījum	-10.2054
▁zaudēt	-10.2055
deputāt	-10.2056
▁nozīmēt	-10.2069
▁samazin	-10.2076
▁aizliedz	-10.2079
▁800	-10.208
▁dzimum	-10.208
▁nenozīm	-10.2083
▁krustojum	-10.2089
▁skaidrojum	-10.2091
▁dzēst	-10.2094
▁trīs	-10.2095
likum	-10.2098
▁spējīg	-10.2104
▁sadalīt	-10.2111
▁ģenerāldirektor	-10.2122
▁erdogan	-10.2127
▁novadā	-10.213
▁bīstamīb	-10.2138
▁virzīb	-10.2142
▁musulman	-10.2145
▁nesaistīt	-10.2147
▁tīmekl	-10.2147
▁republikān	-10.215
▁prezidentūr	-10.2154
ēn	-10.2156
▁glabāšan	-10.2163
▁aukst	-10.2165
▁turl	-10.2166
▁parādniek	-10.2175
▁twitter	-10.2177
▁sniedzēj	-10.2182
▁audit	-10.2191
▁rehabilitācij	-10.2192
▁cukur	-10.2193
▁spīt	-10.2194
▁38	-10.2197
▁43	-10.2199
▁ņujork	-10.2206
▁krūm	-10.2213
▁sportist	-10.2219
▁nesniedz	-10.2236
izmeklēšan	-10.2242
▁balstoti	-10.2245
▁varon	-10.225
▁2000	-10.2253
▁tukum	-10.226
▁apzin	-10.226
▁for	-10.2261
▁cēlon	-10.2262
▁rotājum	-10.2264
▁visbiežāk	-10.2264
▁kristīg	-10.2266
▁gunt	-10.2272
▁meklētāj	-10.2281
▁liedz	-10.2285
▁sasaukt	-10.2286
▁atzinus	-10.2291
▁arest	-10.2304
▁600	-10.2308
▁konteiner	-10.231
▁sapn	-10.2312
.1	-10.2323
▁atkāpšan	-10.233
▁draudzīg	-10.2331
▁baib	-10.2335
▁o	-10.2336
▁pirmsties	-10.2339
▁kāpn	-10.2346
▁šaurum	-10.2347
▁ietvert	-10.2349
▁jēg	-10.2356
▁filiāl	-10.2356
▁bulvār	-10.2356
▁redakcij	-10.236
▁šķērsl	-10.2369
▁ieradi	-10.2377
▁izdarījus	-10.2378
▁rang	-10.2382
otr	-10.2383
uzņēmum	-10.2383
▁veselīg	-10.2387
▁augstum	-10.2392
▁ekspluatācij	-10.2392
▁uzsvērt	-10.2395
▁aizgāj	-10.2402
▁okupēt	-10.2403
▁kilogram	-10.2403
▁elit	-10.2406
šogad	-10.2408
ušakov	-10.2409
šād	-10.241
▁tikk	-10.2415
▁nepieļaut	-10.2427
▁lind	-10.2436
▁debes	-10.245
▁viceprezident	-10.2451
gal	-10.2451
▁morāl	-10.2451
▁automātisk	-10.2452
▁vislabāk	-10.2453
patlaban	-10.2455
▁dzelten	-10.2455
▁tallin	-10.2466
▁sasniegum	-10.2476
▁noraidīt	-10.2478
▁jūtam	-10.2478
▁gerhard	-10.2479
▁naid	-10.2488
dz	-10.2491
jū	-10.2492
▁ieej	-10.2493
▁asin	-10.2501
▁formāl	-10.2502
▁brazīlij	-10.2502
▁pretrunīg	-10.251
▁lieciniek	-10.2523
▁pilnvērtīg	-10.2523
▁pārmain	-10.2524
▁neuzticīb	-10.2524
▁skatījum	-10.2524
▁rinkēvič	-10.2535
▁vīn	-10.2536
▁strādniek	-10.2553
▁izvērt	-10.2567
▁mīt	-10.2568
▁auto	-10.2569
▁popularitāt	-10.2571
▁slodz	-10.2571
▁sudrab	-10.2576
▁spried	-10.2576
▁700	-10.2583
▁citur	-10.2585
▁pievienoj	-10.2594
▁41	-10.2595
▁nosacīt	-10.2595
mi	-10.261
▁bausk	-10.262
▁konceptuāl	-10.2637
▁ierobež	-10.2639
▁darbaspēk	-10.2644
▁slimnīcā	-10.2648
▁svec	-10.2665
▁konsultant	-10.2668
▁slēgšan	-10.2668
▁nolemt	-10.2669
▁nodrošinājum	-10.2671
▁ievietot	-10.2673
▁strīķ	-10.2682
▁likumīg	-10.2686
▁apstrād	-10.2688
▁licenc	-10.2693
▁ēdināšan	-10.2694
▁plūd	-10.2697
▁jut	-10.2712
▁labvēlīg	-10.2713
▁celtniecīb	-10.2717
▁izmēģinājum	-10.2717
▁deklarēt	-10.2719
▁phenjan	-10.272
▁dron	-10.2727
▁48	-10.2728
▁nokris	-10.2737
▁ikšķil	-10.2739
▁aizstāvēt	-10.274
▁plastmas	-10.2743
▁kandidēt	-10.2743
▁pašreiz	-10.2748
▁augš	-10.275
▁liberāl	-10.2751
▁rekord	-10.2753
▁iesniegšan	-10.2766
▁pienācīg	-10.277
▁zar	-10.2771
▁apsardz	-10.279
▁delegācij	-10.2792
▁saus	-10.2796
▁aizturējus	-10.2808
plānot	-10.2811
▁pārkāpšan	-10.2812
▁ģenerālsekretār	-10.2815
▁klātesoš	-10.2817
▁zīl	-10.2818
view	-10.2821
▁kvalifikācij	-10.284
▁līdzdalīb	-10.2841
▁pirmoreiz	-10.2843
ant	-10.2844
▁ilgtspējīg	-10.2849
▁pārkāpt	-10.2851
▁maķedonij	-10.2853
▁īpatsvar	-10.2864
▁agresij	-10.2864
▁finansēt	-10.2865
▁neapmierinātīb	-10.2866
▁apelācij	-10.2867
▁balst	-10.2873
▁piegādāt	-10.2875
gan	-10.288
▁kijev	-10.2881
▁las	-10.2883
▁mēnešalg	-10.2902
▁poligon	-10.2904
▁organizēj	-10.2907
▁detalizēt	-10.291
minēt	-10.291
▁prasīj	-10.2911
▁pārkāpj	-10.2912
▁42	-10.2912
▁ieinteresēt	-10.2912
▁jānodrošin	-10.2914
▁turpināsi	-10.2918
▁apvid	-10.2919
▁progresīv	-10.2941
▁vizuāl	-10.2947
▁pārrun	-10.2951
▁apspried	-10.2956
▁krust	-10.2959
▁sauszem	-10.2964
▁pārsteigum	-10.2964
▁precizēt	-10.2969
▁pvd	-10.2972
▁evakuēt	-10.2974
▁novērtējum	-10.2975
▁izteici	-10.299
▁sīk	-10.2996
▁be	-10.2996
▁rūp	-10.2997
uk	-10.3003
▁efektīvāk	-10.3004
▁viņķel	-10.3005
▁centimetr	-10.3012
▁iepakojum	-10.3015
▁kristap	-10.3017
▁ietilpst	-10.3021
▁iesniedzēj	-10.3023
▁drīzāk	-10.3024
▁saucam	-10.3026
▁sagaidīt	-10.3027
▁sliktāk	-10.3031
▁iekšzem	-10.304
▁brīvost	-10.304
septembr	-10.3047
▁navaļnij	-10.3048
▁probācij	-10.3065
▁realizācij	-10.3065
▁iem	-10.3069
▁kp	-10.3069
▁dibinātāj	-10.3069
▁apkārt	-10.3074
▁spriedz	-10.3074
▁legalizācij	-10.3087
▁iznīcināt	-10.309
▁rail	-10.3092
▁zīmol	-10.3092
▁cenšoti	-10.3103
▁populārāk	-10.3103
▁120	-10.3107
▁izglābt	-10.3114
▁ilmār	-10.3116
▁pārtraukum	-10.3116
▁ierēdn	-10.3117
▁komisār	-10.3117
▁vākšan	-10.312
▁pielaid	-10.3123
▁recept	-10.3123
▁kodol	-10.3126
▁cīnīti	-10.3137
▁paziņot	-10.3139
▁amatu	-10.3141
▁uzvarētāj	-10.3143
▁diskutēt	-10.3147
▁pārstāvniecīb	-10.3147
▁kļuvuš	-10.3157
▁straum	-10.3159
▁solīt	-10.3162
▁gaz	-10.3171
▁vdd	-10.3174
kur	-10.3175
▁import	-10.3189
▁izvešan	-10.3193
▁zvērināt	-10.3194
▁vērtīg	-10.3203
▁emanuel	-10.3219
▁bibliotēk	-10.3219
▁atlaid	-10.3223
▁papildināt	-10.3226
▁vērtējam	-10.323
▁mudināj	-10.3232
▁veidotāj	-10.3235
▁pamatīg	-10.3237
▁primār	-10.3245
▁deviņ	-10.3245
▁sērij	-10.3249
▁simbol	-10.3256
▁vēlēšanām	-10.3268
▁amata	-10.3268
▁klus	-10.3272
▁ļāv	-10.3277
▁ieguvum	-10.3281
▁250	-10.3289
▁inovācij	-10.3296
▁rūpniecīb	-10.33
▁pienāk	-10.3304
▁piespried	-10.3307
▁skal	-10.3309
▁citviet	-10.3315
▁lūk	-10.3318
▁pieņēmus	-10.3322
▁talib	-10.3322
▁iegūšan	-10.3324
▁saeimas	-10.3335
▁tiksi	-10.3338
re	-10.3342
▁der	-10.3346
▁svaig	-10.3348
▁čempionāt	-10.3349
▁pekin	-10.3352
▁veikuš	-10.3358
▁bar	-10.3363
▁turētāj	-10.3364
▁saglabāj	-10.3371
▁apskatīt	-10.3372
▁kategorisk	-10.3374
▁labdarīb	-10.3376
▁līc	-10.3376
▁mudin	-10.3379
▁oper	-10.3389
▁mainīj	-10.3395
▁uzdev	-10.3398
▁negaidīt	-10.3402
▁boris	-10.3405
janvār	-10.3409
ģ	-10.3411
▁veik	-10.3415
ēr	-10.3418
▁emocij	-10.3426
▁mel	-10.3427
▁respondent	-10.3428
▁operator	-10.3429
▁ģirģen	-10.3434
▁65	-10.3435
▁lasīt	-10.3436
▁organiz	-10.344
▁stadij	-10.3451
▁46	-10.3451
▁sveš	-10.3453
▁jēkab	-10.3454
ajā	-10.3458
kučinsk	-10.3462
vugd	-10.3462
▁sm	-10.3469
▁ņem	-10.347
▁izņēmum	-10.3481
▁uld	-10.3483
▁iegādāt	-10.3485
▁bumb	-10.3485
▁darbnīc	-10.3488
dzīvokl	-10.3489
▁miller	-10.3497
▁indeks	-10.3502
▁jārēķin	-10.3503
▁izpilddirektor	-10.3506
▁lietvedīb	-10.3506
▁loģisk	-10.3508
▁novērošan	-10.3508
▁krimināl	-10.3509
▁spēcīgāk	-10.3523
▁apmekl	-10.3524
▁apkārtēj	-10.3535
▁vvd	-10.3536
▁turam	-10.3547
▁uzvārd	-10.3551
▁motivācij	-10.3559
▁okeān	-10.356
▁sug	-10.3564
▁49	-10.3568
▁regul	-10.3571
ļ	-10.3572
▁marihuān	-10.3573
▁nolēmus	-10.358
▁konfiscēj	-10.3581
▁ierobežošan	-10.3584
▁fakultāt	-10.3585
▁prēmij	-10.3585
▁rihard	-10.3585
▁mazliet	-10.3589
▁uzskatīj	-10.3597
▁akcentēj	-10.3609
,5	-10.3613
▁ilgtermiņ	-10.3613
▁starpniecīb	-10.3614
▁strādājot	-10.3615
▁rīkotāj	-10.3616
▁francisk	-10.362
▁vēlami	-10.363
▁izsludināj	-10.363
▁neno	-10.3633
▁piemaks	-10.3633
▁nominēt	-10.3639
▁pārsūdzēt	-10.3639
▁industrij	-10.3641
▁rpp	-10.3643
▁pretgais	-10.3644
▁uztver	-10.366
▁110	-10.3665
▁vnī	-10.3666
▁rekonstrukcij	-10.3667
,7	-10.3669
▁izvērtējum	-10.3671
▁istab	-10.3671
▁domstarpīb	-10.3694
atgādin	-10.3704
▁vēlēj	-10.3706
,6	-10.3707
▁centrāltirg	-10.3709
▁nezinām	-10.3711
▁franc	-10.3718
▁konfiskācij	-10.372
▁vienlaicīg	-10.372
▁veidojot	-10.3722
▁komunistisk	-10.3724
▁rīkoj	-10.3729
▁izrādīj	-10.3731
▁ilgtermi	-10.3736
▁virz	-10.374
vp	-10.3741
▁paudus	-10.3742
▁star	-10.3744
▁siltum	-10.3745
▁komponist	-10.3747
▁uzmanīg	-10.3747
▁piemēroj	-10.3749
▁bergman	-10.3752
▁diaspor	-10.3774
▁kukuļošan	-10.3775
▁orden	-10.3776
▁sadaļ	-10.3777
▁aprakst	-10.3777
▁tiesā	-10.3787
▁atbrīvoj	-10.3792
▁pamanīj	-10.3794
▁apakš	-10.3798
▁seg	-10.3803
▁uzkrājum	-10.3804
▁aptiek	-10.3804
▁rietumvalst	-10.3808
▁http	-10.3809
▁lm	-10.3812
ver	-10.382
▁vīrus	-10.3822
▁uzņemti	-10.3826
dž	-10.3827
▁latvisk	-10.3828
▁nākt	-10.3829
▁fiskāl	-10.383
▁apgūt	-10.3832
▁jemen	-10.3836
▁ziedot	-10.3836
▁aktīvāk	-10.3837
▁vienalg	-10.3838
▁vāj	-10.3841
▁steidz	-10.3849
▁1991.	-10.3856
▁nerv	-10.3857
▁muzikāl	-10.3857
▁maiņ	-10.3858
▁pasludināj	-10.3866
▁izstrādāj	-10.387
▁upe	-10.3876
▁amatā	-10.3878
men	-10.388
▁kādreizēj	-10.3882
▁igor	-10.3884
▁civiliedzīvotāj	-10.3884
▁nodēvēj	-10.3884
▁turpinās	-10.3886
▁viltot	-10.3892
jūnij	-10.3896
▁ām	-10.3901
pant	-10.3906
▁hašog	-10.391
▁egil	-10.3911
▁apcietināt	-10.3911
niec	-10.3914
pa	-10.3915
▁raksturīg	-10.3923
▁paskaidrojum	-10.3933
▁bagāt	-10.3935
▁munīcij	-10.3939
▁kodolieroc	-10.3939
▁rīkošan	-10.3939
▁mācītāj	-10.394
▁prezidij	-10.394
▁dosi	-10.3943
▁latvi	-10.3951
lielbritānij	-10.3951
▁uzraug	-10.3966
▁porošenk	-10.3968
▁sand	-10.3968
▁pamatskol	-10.3971
▁aizstāvīb	-10.3971
▁augl	-10.3971
▁tīš	-10.3972
▁nonākt	-10.3972
▁madon	-10.3975
oktobr	-10.3978
▁jāskat	-10.3981
▁neraugoti	-10.3982
▁jāmaks	-10.3985
projekt	-10.3987
▁konkurent	-10.3994
▁sadalījum	-10.3995
▁noved	-10.3995
▁maksātāj	-10.3999
izņemot	-10.4008
▁būd	-10.4009
▁aci	-10.4014
▁būtiskāk	-10.4018
▁piedzīvot	-10.4025
▁neatbalst	-10.4041
▁neatklāj	-10.4045
▁stradi	-10.4049
▁radiniek	-10.405
▁privātperson	-10.4051
▁ierosināj	-10.4052
▁rit	-10.4058
20	-10.4066
▁54	-10.4066
ian	-10.4066
▁novērtēj	-10.4067
▁pulcēj	-10.4077
▁apsvērum	-10.4079
▁angel	-10.408
▁motīv	-10.4085
▁rosināj	-10.4101
▁katedrāl	-10.4101
▁stāsi	-10.4106
▁afp	-10.4106
▁saist	-10.4106
▁ilggadēj	-10.4107
▁sasniegšan	-10.4108
▁stre	-10.4109
▁telekanāl	-10.4109
▁vīz	-10.4109
▁sakāt	-10.4127
▁atzinuš	-10.4132
▁norisināj	-10.4133
▁fiktīv	-10.4134
▁piesārņojum	-10.4134
▁izdosi	-10.4134
▁atstādināt	-10.4134
▁aiziešan	-10.4135
▁etnisk	-10.4136
▁opozicionār	-10.4137
▁izstrādājum	-10.4142
īgāk	-10.4148
▁lej	-10.415
cel	-10.4162
▁atgriez	-10.4169
▁laboratorij	-10.4173
▁spē	-10.4174
▁2006.	-10.4174
▁saņēmēj	-10.4179
▁nodarbināt	-10.4189
▁saindēšan	-10.419
▁bāriņties	-10.4192
▁magon	-10.4192
▁dzirdēt	-10.4193
▁lemj	-10.4193
▁velt	-10.4196
▁konstitucionāl	-10.4198
▁klātien	-10.4198
▁taisnīb	-10.4204
▁nr	-10.4207
▁krastmal	-10.4209
▁damask	-10.4209
▁komersant	-10.422
▁uzlabojum	-10.4221
▁uzturētāj	-10.4223
▁zemkopīb	-10.4223
▁z	-10.4226
ur	-10.4226
▁piederīb	-10.4227
ion	-10.4228
▁85	-10.4231
▁redzeslok	-10.4237
▁lks	-10.4248
▁apspriešan	-10.4248
▁neizpratn	-10.4248
▁meteoroloģij	-10.425
▁deficīt	-10.425
▁kaķ	-10.4252
▁sait	-10.4252
▁val	-10.4258
▁ticīb	-10.426
▁domāšan	-10.4263
▁pien	-10.4264
▁dedzināšan	-10.4276
▁izvest	-10.4277
▁inspektor	-10.4277
▁elīn	-10.4279
▁rull	-10.4279
▁streik	-10.4281
▁ankar	-10.4283
▁secin	-10.4284
▁nord	-10.4292
co	-10.4293
▁gru	-10.4294
▁pilsonisk	-10.4298
▁tranzīt	-10.4303
▁autonom	-10.4304
▁dmitrij	-10.4305
▁dzemdīb	-10.431
50	-10.4312
▁neoficiāl	-10.4312
▁aizdomīg	-10.4313
▁jādom	-10.4315
sav	-10.4321
▁slēpt	-10.4325
▁kodeks	-10.4334
▁ieguvus	-10.4352
▁liecināj	-10.4357
▁slaven	-10.4359
▁kontraband	-10.4362
▁ievainojum	-10.4363
▁pareizticīg	-10.4364
▁parlamentārieš	-10.4366
▁baraņņik	-10.4371
▁atmin	-10.4374
▁64	-10.4376
apstākl	-10.4377
▁spēt	-10.438
cin	-10.4381
▁mazināšan	-10.4391
▁nomaks	-10.4391
▁koncertzāl	-10.4392
▁prioritār	-10.4392
▁atmosfēr	-10.4392
▁revolūcij	-10.4392
▁izvietošan	-10.4393
▁taivān	-10.4393
ent	-10.4394
▁nikol	-10.4395
▁izsauc	-10.4405
▁grant	-10.4407
▁aleksej	-10.441
latvenerg	-10.4421
www	-10.4422
▁slog	-10.4423
▁kalnmeier	-10.4427
▁vērsi	-10.4442
▁mērķtiecīg	-10.4445
▁slim	-10.4449
▁sarg	-10.4451
▁bīskap	-10.4451
▁došan	-10.4452
▁pompe	-10.4452
▁manevr	-10.4456
▁atdot	-10.4456
▁idb	-10.4459
▁gatavošan	-10.446
otrdien	-10.4465
▁mēren	-10.4465
▁ierakstīt	-10.4472
▁rekomendācij	-10.4479
▁nodarbinātīb	-10.4481
▁vēlam	-10.4484
▁kāp	-10.4496
▁vanag	-10.4502
▁izsak	-10.4504
▁velosipēd	-10.4507
▁zemessardz	-10.4509
▁dobel	-10.451
▁divpusēj	-10.451
▁lff	-10.451
▁pārliecinoš	-10.4511
▁mācīti	-10.4515
▁piemin	-10.4537
▁mugur	-10.4537
▁ēnu	-10.4537
▁bataljon	-10.4538
▁damb	-10.4538
▁viestur	-10.4539
▁paul	-10.4539
▁atcēl	-10.4543
▁nokļūt	-10.4544
▁stingrāk	-10.455
▁pilnveidot	-10.4551
▁reizniece	-10.4554
▁apjomīg	-10.4566
▁komercbank	-10.4567
▁kerč	-10.4567
▁gatavot	-10.4567
▁kriminālpolicij	-10.4568
▁desmitgad	-10.4568
▁53	-10.4571
▁mod	-10.4576
▁citādāk	-10.4579
decembr	-10.4581
▁arhitekt	-10.4595
▁pieņemam	-10.4596
▁redaktor	-10.4596
▁tehnoloģisk	-10.4596
▁pārtrauc	-10.4597
▁piesardzīg	-10.4597
▁milz	-10.4597
▁ievērošan	-10.4597
▁biļeš	-10.4598
▁apvienošan	-10.4599
▁ģeoloģi	-10.4603
▁tm	-10.4606
▁lamp	-10.461
▁iesaistīj	-10.4612
▁saskar	-10.4626
▁skatām	-10.463
▁apgrūtin	-10.463
▁uzbūvēt	-10.4634
▁alkoholisk	-10.4637
▁papildin	-10.4644
▁bezpilot	-10.4657
12	-10.4662
āboliņ	-10.4675
▁tak	-10.4677
▁stāstīt	-10.4679
▁taksometr	-10.4686
▁procentpunkt	-10.4686
▁vadītājs	-10.4686
.19	-10.4699
▁parādsaistīb	-10.4707
▁nominēj	-10.4713
▁temat	-10.4713
▁klāst	-10.4714
▁jāpieņem	-10.4715
▁grīd	-10.4715
▁krājum	-10.4716
▁lasītāj	-10.4717
▁bulgārij	-10.4718
▁ieguvuš	-10.4721
▁mūrniec	-10.4727
▁atkāp	-10.4733
,3	-10.4735
▁apgrūtināt	-10.4736
▁bloķēt	-10.4744
▁artūr	-10.4747
▁spriest	-10.4753
▁piedalījuši	-10.4758
▁atkāpti	-10.4768
ka	-10.4772
▁47	-10.4774
▁gudr	-10.4775
▁terēz	-10.4775
▁virtuv	-10.4775
▁44	-10.4775
▁null	-10.4782
▁aizmirst	-10.479
zin	-10.4794
▁cnn	-10.4805
▁nominācij	-10.4805
nacionāl	-10.4813
komisij	-10.4822
▁arāb	-10.4834
▁inženier	-10.4835
▁igaun	-10.4836
▁publicēšan	-10.4836
▁novērojum	-10.4838
▁lētāk	-10.4839
▁pievienošan	-10.4843
▁aglon	-10.4843
▁tērp	-10.4844
▁paredzam	-10.4845
▁bērnīb	-10.4849
▁apguv	-10.4859
▁kalendār	-10.4866
▁motocikl	-10.4866
▁nelabvēlīg	-10.4868
▁spiegošan	-10.4868
▁ziemeļīrij	-10.4868
▁oecd	-10.4868
▁darbiniec	-10.4869
▁ejam	-10.487
▁izvirzīj	-10.4873
dom	-10.4885
znotin	-10.4886
▁tumš	-10.4892
▁audzēkn	-10.4896
▁gadadien	-10.4902
▁vilk	-10.4907
▁lūdzot	-10.4921
▁automobil	-10.4926
der	-10.4927
▁uzrādīt	-10.4928
▁fm	-10.4929
▁krituš	-10.4943
▁mat	-10.4944
▁pēd	-10.4947
▁viesoj	-10.4952
▁mediji	-10.4955
▁galamērķ	-10.4957
▁perspektīv	-10.4957
▁štāb	-10.4957
sarun	-10.4959
▁džon	-10.4961
▁demonstrant	-10.4962
▁neveiksmīg	-10.4964
▁900	-10.4966
▁ārkārtēj	-10.4971
▁novēroj	-10.4979
▁atvaļinājum	-10.4979
▁amatpersonas	-10.4983
▁specdienest	-10.4988
▁apmain	-10.4991
▁pst	-10.4992
▁dzimšan	-10.4993
▁is	-10.4994
▁aiztur	-10.5009
▁apsaimniekotāj	-10.5019
▁simbolisk	-10.5021
▁jāstrād	-10.5021
▁kādreiz	-10.5032
▁pienāc	-10.5049
▁iestāšan	-10.5049
▁armand	-10.5051
▁neizdev	-10.5051
▁konstruktīv	-10.5052
br	-10.5061
ton	-10.5064
piektdien	-10.5068
,8	-10.5076
▁52	-10.5076
▁an	-10.5082
▁piedzīvojum	-10.5083
▁izej	-10.5089
,4	-10.5093
▁atzīmēt	-10.5099
▁noraid	-10.5105
▁saikn	-10.5111
▁tūlīt	-10.5111
▁riep	-10.5112
▁mākon	-10.5112
▁romān	-10.5113
▁nozagt	-10.512
▁fragment	-10.5141
▁valūt	-10.5143
▁n	-10.5143
▁aprīkojum	-10.5144
▁slovākij	-10.5145
▁atsaukt	-10.5146
▁jan	-10.5147
▁zil	-10.5148
▁sandr	-10.515
▁vainag	-10.5154
▁57	-10.5168
▁elektroapgād	-10.5168
▁pudel	-10.517
▁finans	-10.5172
▁izbeigšan	-10.5177
▁ulman	-10.5186
▁asar	-10.5187
aprīl	-10.5193
turcij	-10.5193
starp	-10.5195
pirmdien	-10.5195
▁taisnīg	-10.5198
▁nesaprot	-10.5198
▁attīst	-10.5205
▁šuplinsk	-10.5211
▁62	-10.5221
▁metāl	-10.5238
▁norisin	-10.5238
ej	-10.524
▁advent	-10.5241
▁junker	-10.5247
ok	-10.525
▁dabisk	-10.5254
jūlij	-10.5257
▁ideāl	-10.5261
▁sāl	-10.5262
▁ies	-10.5264
▁norit	-10.5267
▁nevienlīdzīb	-10.5268
▁bašar	-10.5268
▁likten	-10.5278
bordān	-10.5288
▁satiksmes	-10.529
▁politiķis	-10.5295
reiz	-10.5298
▁pildīšan	-10.5301
▁stāšan	-10.5301
▁tank	-10.5302
▁deglav	-10.5302
▁nekur	-10.5303
iesniedz	-10.5312
▁redzat	-10.5317
▁skatīti	-10.5317
▁turpat	-10.5317
▁acīmredzot	-10.5331
▁piparkūk	-10.5333
▁satelīt	-10.5334
▁stres	-10.5335
▁ķirs	-10.5337
▁aizturējuš	-10.5338
▁uzņem	-10.5338
▁distanc	-10.534
▁rig	-10.5345
▁apmaks	-10.535
▁pārņēm	-10.5358
▁domājam	-10.5361
▁pieteic	-10.5362
▁domniek	-10.5363
āš	-10.5363
▁akcent	-10.5364
▁izbraukt	-10.5365
▁radīšan	-10.5368
▁uzlidojum	-10.537
▁1,5	-10.5387
▁tiesa	-10.539
▁izklaid	-10.5395
▁interesent	-10.5399
tek	-10.5422
▁2022.	-10.5427
▁priekšstat	-10.5427
▁sazināti	-10.5428
▁nabadzīb	-10.5428
ator	-10.5439
om	-10.5442
▁nostiprināt	-10.5444
lielāk	-10.5447
▁lieldien	-10.5449
▁likvidēts	-10.5454
▁hokej	-10.5459
▁brāzm	-10.5459
▁sašutum	-10.546
▁jāiz	-10.547
sestdien	-10.5481
▁labprāt	-10.5491
▁neatļaut	-10.5492
▁apsver	-10.5495
▁drīzum	-10.55
▁gulben	-10.5505
rīt	-10.5507
berg	-10.551
▁vietā	-10.5512
kaln	-10.5514
▁izrādīt	-10.5514
▁samazināji	-10.5515
▁cilvēks	-10.5516
▁izvairīt	-10.5522
ev	-10.5523
▁apturēj	-10.5526
▁traģisk	-10.5526
▁vīzij	-10.5526
▁čakš	-10.5544
ministrij	-10.555
▁trauc	-10.5555
▁pievienoti	-10.5557
▁izplatīb	-10.5558
▁novietot	-10.5559
▁bedr	-10.5563
▁osinovsk	-10.5564
▁apvedce	-10.5572
politiķ	-10.5578
▁dr	-10.5582
ū	-10.5584
▁postījum	-10.5585
▁līķ	-10.5586
▁komunist	-10.5588
▁kritum	-10.5592
▁iesniegus	-10.56
▁bunk	-10.5608
▁atskait	-10.5611
▁skaņ	-10.5613
▁uzņēm	-10.5614
▁gvaid	-10.5625
▁piedzīvoj	-10.5626
,2	-10.5633
▁bern	-10.5638
▁kadr	-10.5642
▁krievija	-10.5647
dr	-10.5648
▁rādius	-10.5655
▁tankkuģ	-10.5656
▁debaš	-10.5657
▁skatoti	-10.5659
▁jāsak	-10.566
▁jāturpin	-10.5662
▁kodolvienošan	-10.568
▁leģitīm	-10.5687
▁ivet	-10.5688
▁psiholoģisk	-10.5689
▁analītiķ	-10.5691
▁anti	-10.5692
▁diriģent	-10.5692
▁atņemt	-10.5699
▁izvēlēj	-10.5701
▁krauz	-10.5703
▁mak	-10.5704
▁63	-10.5708
▁veicam	-10.5716
▁meistar	-10.572
▁inār	-10.5722
▁maldinājum	-10.5722
▁pusaudž	-10.5724
▁brok	-10.5732
▁tikus	-10.5736
▁kalp	-10.5738
▁grūtāk	-10.5744
▁kandid	-10.5752
▁barjer	-10.5754
▁izraudzīt	-10.5754
▁iznākum	-10.5756
▁atturēj	-10.5763
▁pārņemt	-10.5764
▁nonākus	-10.5765
sen	-10.5766
▁fot	-10.5769
▁66	-10.577
▁centrisk	-10.577
▁valk	-10.5775
▁jūrniek	-10.5783
▁maik	-10.5785
▁specializēt	-10.5788
▁mar	-10.5803
▁ministrija	-10.5809
▁secinājus	-10.581
▁lietotn	-10.5814
ig	-10.5819
▁suverenitāt	-10.582
▁sesij	-10.5821
▁bār	-10.5821
▁māksliniecisk	-10.5822
▁izsaukt	-10.5823
▁skaidrojot	-10.5832
▁atklātīb	-10.5841
brexit	-10.5844
▁vit	-10.5851
▁daniel	-10.5854
▁lekcij	-10.5855
▁piekrišan	-10.5856
▁ķēd	-10.5856
▁iepazīt	-10.5856
▁dome	-10.5864
▁priecīg	-10.5866
▁vēlēšanas	-10.5866
▁izskan	-10.5869
▁izmain	-10.5873
▁patīkam	-10.5874
aj	-10.5876
▁varēs	-10.5877
kriminālproces	-10.5877
▁samēr	-10.5881
▁atlikuš	-10.5891
▁56	-10.5891
▁pārcelt	-10.5894
▁pļav	-10.5905
▁per	-10.5907
piemēr	-10.5916
▁co	-10.5918
▁nepārtraukt	-10.5919
▁senior	-10.5921
▁lojāl	-10.5922
▁padziļināt	-10.5922
▁zemesgabal	-10.5922
▁koncepcij	-10.5923
▁izmeklējum	-10.5923
▁klasisk	-10.5928
▁el	-10.593
▁nodom	-10.5941
▁bioloģisk	-10.5955
▁2004.	-10.5955
▁kartotēk	-10.5955
▁nepiekrīt	-10.5955
▁atteikšan	-10.5955
▁teorētisk	-10.5956
▁taizem	-10.5958
▁lietuvieš	-10.5961
▁gūst	-10.5965
▁nopirkt	-10.5969
▁sv	-10.597
▁gram	-10.5973
▁ienaidniek	-10.5989
▁raiv	-10.5989
▁jāsāk	-10.5989
▁noliktav	-10.5989
▁spīker	-10.5989
▁pāvilost	-10.599
trenin	-10.5991
▁maiz	-10.5992
▁tiesīg	-10.5993
▁apturēšan	-10.5995
atbilstoš	-10.5997
▁pazud	-10.5998
▁šmit	-10.6002
▁stiprin	-10.6004
novembr	-10.6013
▁neie	-10.6018
▁minimum	-10.6023
▁uzstādījum	-10.6023
▁stacionār	-10.6023
▁pagalm	-10.6024
▁žan	-10.6027
▁cūk	-10.6028
▁ēkām	-10.6029
▁sadarboj	-10.6032
punkt	-10.6042
▁meklēj	-10.6049
▁doņeck	-10.6057
▁ugunsdrošīb	-10.6057
▁monitoring	-10.6057
▁īre	-10.6057
▁balod	-10.6057
▁specifisk	-10.6059
▁klāstīj	-10.606
▁nepilnīb	-10.6063
▁posten	-10.6065
▁ļaud	-10.608
▁armēnij	-10.608
div	-10.6084
▁iespējamīb	-10.6084
▁zaud	-10.6086
▁šķūn	-10.609
▁anotācij	-10.6091
▁pasargāt	-10.6092
▁pārvadājum	-10.6092
▁medi	-10.6094
▁izrais	-10.6106
q	-10.611
▁izgāj	-10.6111
13	-10.6111
▁atrasti	-10.6114
oz	-10.6115
▁masveid	-10.6117
irān	-10.6118
▁konkurētspēj	-10.6121
▁oskar	-10.6125
▁sacīt	-10.6126
ojum	-10.6129
▁paziņo	-10.6131
▁zemūden	-10.6133
▁deputāti	-10.6136
▁valstisk	-10.6138
vācij	-10.6147
▁izdar	-10.6149
▁eko	-10.615
trešdien	-10.6151
▁dalīt	-10.6153
▁nobalsojuš	-10.6155
▁58	-10.6156
▁novest	-10.6157
▁emisij	-10.616
▁konsulāt	-10.616
▁mājsaimniecīb	-10.6161
▁pamanīt	-10.6161
komentējot	-10.6161
▁jādod	-10.6162
▁pircēj	-10.6163
▁medijs	-10.6163
▁partnerīb	-10.6178
▁uzklausīt	-10.6184
priekšsēdētāj	-10.6192
▁ērt	-10.6192
▁auditorij	-10.6195
▁taisnīgum	-10.6198
▁nedomāj	-10.6201
▁piešķīr	-10.6202
▁le	-10.6206
▁palic	-10.6215
▁urbanovič	-10.6222
▁ierasti	-10.6228
▁jēdzien	-10.6229
▁azartspēl	-10.6229
▁dzil	-10.6229
▁pagriezien	-10.623
▁iekļūt	-10.623
▁vaicāj	-10.6231
▁jok	-10.6232
▁ceļotāj	-10.6236
▁pludmal	-10.6238
▁salaspil	-10.624
ber	-10.6248
▁red	-10.625
▁nesa	-10.6254
▁ļaujot	-10.6254
lietuv	-10.6256
▁pierobež	-10.6257
▁vērš	-10.6262
▁atstādināšan	-10.6264
▁laimīg	-10.6265
▁novičok	-10.6269
▁sūtīt	-10.6283
▁izstāj	-10.6289
likumprojekt	-10.6291
prezident	-10.6294
af	-10.6299
▁pamier	-10.6302
▁cigareš	-10.6308
▁sūt	-10.6313
▁piedalīšan	-10.6332
▁ēģipt	-10.6335
▁kvalificēt	-10.6337
▁platībā	-10.6339
▁servis	-10.634
▁pieaugoš	-10.6349
▁parlamentāriet	-10.635
▁piket	-10.6351
▁nenotik	-10.6354
▁iebilst	-10.6369
▁utt	-10.6369
▁intelekt	-10.637
▁evakuācij	-10.637
▁ārzemniek	-10.6371
▁pārsniegt	-10.6374
▁tamlīdzīg	-10.6376
▁atsaukšan	-10.6377
cit	-10.6395
de	-10.6401
▁kartupel	-10.6405
▁koncentrācij	-10.6405
▁vēsturniek	-10.6412
▁dziļāk	-10.6412
mācīb	-10.6414
▁smiltēn	-10.6415
▁gint	-10.6429
ceturtdien	-10.6432
▁efekt	-10.6433
august	-10.6434
▁atslēg	-10.6435
▁kapacitāt	-10.644
▁pirmsvēlēšan	-10.644
▁iznīcināšan	-10.644
▁albānij	-10.6444
▁plec	-10.6444
▁pielietot	-10.6445
▁izdod	-10.6445
ināšan	-10.6457
▁zep	-10.6462
▁mor	-10.6469
▁tukš	-10.6472
▁dati	-10.6475
▁ždanok	-10.6476
▁kafejnīc	-10.6477
▁kukuļņemšan	-10.6482
▁sīrijā	-10.6485
▁tēraud	-10.6489
▁ain	-10.6493
kov	-10.6496
▁salāt	-10.6501
▁bojāt	-10.6503
▁šķit	-10.6512
▁raidorganizācij	-10.6513
▁samazinājum	-10.6514
▁jāno	-10.6516
▁gvard	-10.6516
▁viennozīmīg	-10.6522
▁iezīm	-10.6524
▁apliecinājum	-10.6524
▁izmēr	-10.6524
protam	-10.6526
▁mīl	-10.6528
▁lietā	-10.6534
▁pag	-10.6536
▁aprīkot	-10.6547
▁koledž	-10.6547
▁mikroautobus	-10.6547
▁tiešsaist	-10.6548
▁vjačeslav	-10.6548
▁alūksn	-10.6548
▁med	-10.6549
▁svin	-10.655
▁sastrēgum	-10.6555
▁zatler	-10.6569
sākotnēj	-10.6576
▁izjūt	-10.6583
▁nomainīt	-10.6587
▁noziedzniek	-10.6587
▁divdesmit	-10.6587
āti	-10.6591
▁konstatējus	-10.6595
kariņ	-10.6607
▁solsber	-10.6617
▁bad	-10.662
▁likumpārkāpum	-10.662
▁anglij	-10.6623
▁jaud	-10.6629
▁arestēt	-10.6629
▁nosūtījus	-10.6631
▁eksperiment	-10.6631
▁pro	-10.6634
▁ārpus	-10.6639
▁atbalstīšan	-10.6642
▁izplatīj	-10.6644
sal	-10.6645
▁pelēk	-10.6647
pavļut	-10.6648
▁nodarbīb	-10.6649
▁kreditor	-10.6655
▁satraukum	-10.6657
▁ķekav	-10.6657
▁singapūr	-10.6657
▁aparāt	-10.6659
▁melnkaln	-10.6659
▁dotācij	-10.6661
▁mazul	-10.6663
,9	-10.6673
ād	-10.6673
ēš	-10.6674
▁san	-10.6679
▁izdevīg	-10.6688
▁dabasgāz	-10.6692
▁vēder	-10.6692
▁motivēt	-10.6693
▁krāsn	-10.6695
▁tirgotāj	-10.6697
▁noderīg	-10.6698
▁ivan	-10.6699
▁neiespējam	-10.6699
▁vējonis	-10.672
▁59	-10.6723
▁veicēj	-10.6725
,1	-10.6725
▁lb	-10.6727
▁atsākt	-10.6727
а	-10.6727
▁sfēr	-10.6728
▁profilaks	-10.6728
▁normund	-10.6729
▁slēdz	-10.673
▁lielveikal	-10.6731
▁pateicīb	-10.6733
▁respektīv	-10.6742
ieti	-10.6744
bijuš	-10.6747
▁su	-10.6756
īsi	-10.6759
▁legalizēšan	-10.6763
▁inkriminēt	-10.6766
▁mirstīg	-10.6766
▁garīdzniek	-10.6766
▁portugāl	-10.6767
▁ģimnāzij	-10.6767
▁ķuz	-10.6768
▁kūk	-10.6768
▁analizēt	-10.6768
▁aplūkot	-10.6769
▁senator	-10.6769
▁iepriekš	-10.6771
▁nepatīkam	-10.6771
▁nemain	-10.6782
▁ražotn	-10.6789
aģentūr	-10.6795
▁61	-10.6801
▁serb	-10.6802
ag	-10.6804
▁puš	-10.6805
▁apkur	-10.6807
▁teherān	-10.6807
▁izbūvēt	-10.6808
▁zan	-10.6817
▁karstum	-10.6817
▁uzliek	-10.6824
tad	-10.6827
▁atvainoj	-10.6828
īti	-10.6834
▁iekļaušan	-10.6839
▁petrov	-10.684
▁gubernator	-10.684
▁baig	-10.684
▁dzimten	-10.6841
▁virten	-10.6841
▁islāmist	-10.6842
ināj	-10.6843
▁kāpum	-10.6843
raidījum	-10.6845
▁konstatējuš	-10.6846
▁novērojam	-10.6847
▁pieņemot	-10.6849
lij	-10.6855
▁nožēl	-10.6855
īd	-10.6857
▁šov	-10.6866
ukrain	-10.6868
▁ypg	-10.6876
▁darbu	-10.6877
▁mīkl	-10.6877
▁disciplīn	-10.6877
▁pasniegt	-10.6878
▁būšot	-10.6889
▁reir	-10.6897
▁sakn	-10.6902
▁spēlēt	-10.6906
▁2,5	-10.6907
▁kalniņ	-10.6908
▁balsstiesīg	-10.6913
▁šaušan	-10.6914
iķ	-10.6915
▁aviokompānij	-10.6916
▁organism	-10.6917
▁drosm	-10.6918
▁nomain	-10.6921
▁ceļošan	-10.6924
▁atbalstu	-10.6925
▁pabeidz	-10.6932
sabiedrīb	-10.6937
pašvaldīb	-10.6944
▁atzīšan	-10.695
▁priester	-10.6951
▁klīnik	-10.6952
▁pēcāk	-10.6956
▁lūgus	-10.6959
▁lēmus	-10.6964
▁spēlēj	-10.6965
▁netanjah	-10.6968
▁uzrunāj	-10.6969
▁gulb	-10.6971
▁di	-10.6971
mal	-10.6972
bl	-10.6973
▁izglāb	-10.6973
▁solidaritāt	-10.6988
▁skarb	-10.699
▁apkalpošan	-10.6991
▁minsk	-10.7
▁gruškevic	-10.7002
▁divreiz	-10.7002
ūr	-10.701
▁atļauti	-10.7013
е	-10.7018
▁pieteikti	-10.7018
▁ministrijā	-10.7022
▁ras	-10.7023
▁darbosi	-10.7024
▁negodīg	-10.7025
▁aes	-10.7027
▁skripaļ	-10.7027
▁67	-10.7032
▁robežsarg	-10.7034
▁dokumentācij	-10.7037
▁noteik	-10.7037
▁dienestā	-10.7038
▁tagadēj	-10.7038
▁prognozēj	-10.7041
?	-10.7045
protest	-10.7057
ugunsgrēk	-10.7057
▁apgalvot	-10.7058
▁nejauš	-10.7061
▁autostāvviet	-10.7063
▁zolitūd	-10.7063
▁dum	-10.7066
▁abā	-10.7072
▁nāci	-10.7072
▁68	-10.7073
▁sasnieguš	-10.7073
ib	-10.7073
▁āzij	-10.7075
▁vērsusi	-10.7076
▁kr	-10.7082
▁tērēt	-10.7088
▁super	-10.709
▁gaiš	-10.7097
▁izredz	-10.7098
▁šomēn	-10.7099
nav	-10.71
▁tirdziņ	-10.7101
▁jaunzēland	-10.7101
▁svinēt	-10.7102
▁tabak	-10.7102
▁pietur	-10.7103
▁ludz	-10.7104
▁spēkrat	-10.7106
kuģ	-10.7106
▁litr	-10.7108
▁tici	-10.7108
ier	-10.711
▁turpinot	-10.7112
▁95	-10.7118
▁neparast	-10.7141
▁nepieņemam	-10.7144
40	-10.7148
▁kalnciem	-10.7151
▁kandidēj	-10.7154
▁iesākt	-10.7155
▁baid	-10.7158
▁nomir	-10.7166
▁traucēt	-10.7169
vīriet	-10.7172
maxim	-10.7175
▁visur	-10.7175
▁aneksij	-10.7177
▁direktīv	-10.7177
▁intensitāt	-10.7177
▁karadarbīb	-10.7177
▁sul	-10.7178
▁aigar	-10.7178
▁dos	-10.718
jot	-10.7181
▁spkc	-10.719
▁dzelzceļ	-10.7197
▁deputāts	-10.72
▁jaunuzņēmum	-10.7202
▁tiekot	-10.7213
▁international	-10.7215
▁sūtījum	-10.7216
▁flot	-10.7219
▁ilgum	-10.7219
▁rtab	-10.722
▁ainaž	-10.722
▁paņemt	-10.7234
vel	-10.7235
▁ietekmēšan	-10.7239
▁dibināšan	-10.7254
▁dziedātāj	-10.7254
▁raisīj	-10.7255
▁definēt	-10.7255
▁koordinācij	-10.7255
▁provizorisk	-10.7257
▁nekā	-10.7258
▁vārt	-10.7264
▁netieš	-10.7268
▁skatāmi	-10.7269
▁salvīn	-10.7269
▁vienlīdzīg	-10.7272
▁tēr	-10.7277
▁atsak	-10.7282
liel	-10.7285
▁nepatīk	-10.7287
uāl	-10.7287
▁elizabet	-10.7292
▁stadion	-10.7292
▁fasād	-10.7292
▁ievēl	-10.7293
▁šadursk	-10.7295
▁reaģēt	-10.7296
▁iesaistīšan	-10.7296
▁turpinājum	-10.7306
▁aizsarg	-10.7309
▁mask	-10.7312
▁petr	-10.7319
ac	-10.7321
daļ	-10.7322
kaimiņ	-10.7327
▁dubult	-10.7329
▁or	-10.733
▁dzīvesveid	-10.7331
▁pārraudzīb	-10.7331
▁medniek	-10.7332
▁ab	-10.7332
▁nenotiek	-10.7332
▁fib	-10.7334
▁ecb	-10.7334
▁saukl	-10.7335
▁dārgāk	-10.7341
▁uzrakst	-10.7346
▁mut	-10.7354
▁nosodīj	-10.7358
▁plu	-10.7365
▁2001.	-10.7371
▁bezdarbniek	-10.7372
▁atvēršan	-10.7372
▁austrumeirop	-10.7373
▁sodu	-10.7375
▁nacionālist	-10.7385
▁gadu	-10.7388
▁šķir	-10.739
nij	-10.7392
▁kras	-10.7393
▁pārkāp	-10.7395
▁vidusjūr	-10.7398
▁vienojuši	-10.7403
▁ziemeļaustrum	-10.7405
▁atnāk	-10.7405
▁nov	-10.7408
▁oriģināl	-10.7409
▁orgān	-10.7409
▁struktūrvienīb	-10.7409
▁pērkon	-10.741
▁izcelt	-10.7412
▁noņemt	-10.7414
▁nato	-10.7415
▁valdība	-10.7425
▁degšan	-10.7426
▁brīvībai	-10.7433
▁varētu	-10.7433
▁sākusi	-10.7439
▁nozīmīgāk	-10.7442
pūc	-10.7445
▁nepiederoš	-10.7449
▁kompensējam	-10.7451
▁breksit	-10.7451
▁mainīji	-10.7453
▁ieteicam	-10.7454
▁visād	-10.7477
▁pazem	-10.7477
▁trast	-10.7479
▁pierīg	-10.7483
▁gult	-10.7486
ta	-10.7487
nsl	-10.7488
▁datubāz	-10.7488
▁birž	-10.7488
▁korpus	-10.7488
▁apvērsum	-10.7489
▁autonomij	-10.7491
▁dievkalpojum	-10.7491
▁nogādāj	-10.7499
▁iksten	-10.7501
▁upē	-10.7502
11	-10.7504
▁apbūv	-10.7507
▁tiekoti	-10.7509
▁sagaidām	-10.7509
▁iezīmēj	-10.7509
▁neskaidr	-10.7511
▁kompetent	-10.7527
▁mārketing	-10.7527
▁humān	-10.7529
▁jāmekl	-10.753
▁ingun	-10.753
▁dodoti	-10.7531
▁prāv	-10.7531
▁ii	-10.7538
▁nesp	-10.7539
▁saprātīg	-10.7542
▁atzinīg	-10.7548
▁valstīm	-10.7552
▁izceļ	-10.7554
▁pievērs	-10.7554
▁nākuš	-10.7556
▁netikt	-10.756
▁okupēj	-10.7567
▁2002.	-10.7567
▁vēž	-10.7567
▁kukuļdošan	-10.7567
▁truksn	-10.7569
▁neatbilstīb	-10.7572
.2017	-10.7572
▁zvej	-10.758
zem	-10.7585
▁āda	-10.7597
rīgas	-10.7599
▁lin	-10.76
▁paplašināšan	-10.7603
▁aizbrauc	-10.7604
▁1990.	-10.7607
▁uzticēšan	-10.7608
▁jeruzalem	-10.7609
▁terapij	-10.7609
▁āgenskaln	-10.761
▁liegum	-10.7612
▁nodrošināj	-10.7615
▁izveidojuš	-10.7615
▁pudždemon	-10.7615
▁uzbrukt	-10.7615
▁raž	-10.7616
▁nopelnīj	-10.7621
▁gail	-10.7621
▁ielikt	-10.7622
▁kartīt	-10.7622
▁guvēj	-10.7622
▁dokumentāl	-10.7625
pret	-10.7633
▁ell	-10.7637
▁pārvietot	-10.764
▁cie	-10.7644
▁iebild	-10.7646
▁prezentācij	-10.7647
▁krit	-10.7647
▁2005.	-10.7647
▁būvprojekt	-10.7648
▁sest	-10.7652
▁demisij	-10.7658
▁aicinājus	-10.7659
▁vērtēšan	-10.766
.30	-10.7661
▁robot	-10.7664
▁tom	-10.7666
▁ati	-10.7667
▁vaļ	-10.7674
kl	-10.7677
min	-10.768
▁palīdzību	-10.7681
▁prestiž	-10.7687
▁cdu	-10.7687
▁attīstīšan	-10.7688
▁maraton	-10.769
▁atvieglot	-10.7699
▁parakstījuš	-10.7703
▁ēst	-10.7704
▁negais	-10.771
▁pārvietoj	-10.7716
▁mi	-10.7717
▁neļauj	-10.772
▁krieviju	-10.7723
▁asamblej	-10.7727
▁ierīkot	-10.7727
▁aij	-10.7732
▁regulēt	-10.7732
▁ērgl	-10.7733
▁dzinēj	-10.7734
▁atradi	-10.7741
▁pakt	-10.7741
▁dzird	-10.7746
▁jāiet	-10.7755
rd	-10.7755
▁cietus	-10.7756
▁lietoj	-10.776
▁brīnum	-10.7768
▁izšķiroš	-10.7769
▁apņemšan	-10.7769
▁centralizēt	-10.7769
▁tribīn	-10.777
▁noslīkuš	-10.777
▁lāčplēš	-10.7771
▁mihail	-10.7771
▁līdzfinansējum	-10.7771
▁apmeklējum	-10.7775
▁ābol	-10.7776
vēlāk	-10.7777
▁kozlovsk	-10.7777
▁71	-10.7793
▁3000	-10.7798
▁swedbank	-10.781
▁gandarījum	-10.781
▁pirt	-10.7812
▁koļegov	-10.7812
▁putniņ	-10.7814
▁ziņotāj	-10.7823
▁karal	-10.7824
▁laikmet	-10.7847
▁vīrietis	-10.7849
▁vjetnam	-10.7852
-1	-10.7852
▁netīr	-10.7853
▁talk	-10.7854
▁uzkrāt	-10.7855
▁nolikt	-10.7855
▁skanst	-10.7856
▁saskaņošan	-10.7863
▁dzirdēj	-10.7866
▁pieņēmum	-10.7867
▁72	-10.787
▁izskatīj	-10.7884
▁tikšot	-10.7886
▁elektrotīkl	-10.789
▁aizvest	-10.7891
▁mer	-10.7891
▁kiberuzbrukum	-10.7891
▁agnes	-10.7893
▁jāmain	-10.7894
▁pārdomāt	-10.7894
▁cietuši	-10.7898
▁iziet	-10.791
▁tiesāt	-10.7911
▁mantisk	-10.7911
▁šķietam	-10.7912
▁uzrunāt	-10.7913
▁77	-10.7918
▁spriež	-10.7918
▁otrkārt	-10.7919
▁sarīkoj	-10.7919
▁cigaret	-10.793
▁rais	-10.793
▁troksn	-10.7933
▁mežapark	-10.7933
▁trauk	-10.7933
▁pārziņ	-10.7933
▁kājniek	-10.7934
▁orbān	-10.7937
▁gatv	-10.7939
▁likvidēšan	-10.7945
▁interesēj	-10.7958
▁neap	-10.7961
▁mūsdienīg	-10.7962
▁asi	-10.7963
▁5000	-10.7965
▁forš	-10.7966
▁instagr	-10.7966
▁pirkst	-10.7976
▁pieteicēj	-10.7977
▁bondar	-10.7978
.13	-10.7978
.2016	-10.7981
▁pārstrād	-10.7983
▁pasaulē	-10.7987
▁degoš	-10.7995
▁ham	-10.8
ējus	-10.8003
▁apstiprinājus	-10.8011
▁zemestrīc	-10.8014
▁patstāvīg	-10.8014
▁pastrādāt	-10.8014
▁skart	-10.8015
▁vecrīg	-10.8016
▁neplān	-10.802
▁lokomotīv	-10.8022
▁spārn	-10.8027
▁sji	-10.8028
ra	-10.803
ētāj	-10.804
nb	-10.804
skaidr	-10.804
pasākum	-10.804
gar	-10.8042
ati	-10.8042
▁2000.	-10.8044
līdzīg	-10.8047
tiek	-10.8056
▁zemessarg	-10.8056
▁sēn	-10.8058
▁izlemt	-10.8061
▁protestēj	-10.8061
▁domes	-10.8062
▁izteikuš	-10.8063
▁iesnieguš	-10.8063
▁pastaig	-10.8072
▁āboliņ	-10.8074
▁trimd	-10.8075
▁kod	-10.8079
aizsardzīb	-10.8089
▁ha	-10.8092
▁martin	-10.8093
▁priekšrocīb	-10.8098
▁pretestīb	-10.8098
▁oct	-10.8098
▁legāl	-10.8098
▁iekšien	-10.8099
▁lelb	-10.8099
▁telefonsarun	-10.8101
niecīb	-10.8107
daudz	-10.8115
▁vispārīg	-10.8118
gr	-10.8127
▁350	-10.8128
▁sanāc	-10.8138
▁publik	-10.8139
▁denuklearizācij	-10.814
▁arhitektūr	-10.814
▁promil	-10.8141
▁album	-10.8142
▁neuzskat	-10.8144
▁leiborist	-10.8144
▁demonstrēt	-10.8146
▁piedalīji	-10.8147
▁izskaidrot	-10.8147
▁apgād	-10.8147
▁vēršan	-10.8152
lin	-10.8155
▁lēmumprojekt	-10.8157
ju	-10.8164
▁99	-10.817
likumsarg	-10.8181
▁jubilej	-10.8182
▁atteikum	-10.8182
▁izspiešan	-10.8182
▁drusk	-10.8182
▁samaksāj	-10.8182
ez	-10.8183
▁nba	-10.8188
▁raidījums	-10.8196
▁rein	-10.8207
ch	-10.8214
▁nemier	-10.8215
▁kurien	-10.8221
▁pretend	-10.8222
▁izgatavošan	-10.8224
▁ofensīv	-10.8225
▁komerciāl	-10.8227
▁neizslēdz	-10.8227
▁piegādātāj	-10.8228
19	-10.8228
▁īstenīb	-10.823
▁sekotāj	-10.8231
▁sniedzot	-10.8231
▁atraduš	-10.8232
vil	-10.8242
▁140	-10.8247
▁kub	-10.8247
▁all	-10.8248
▁kopšan	-10.825
▁apsarg	-10.8251
▁paņem	-10.8259
▁ciemat	-10.8259
▁interpretācij	-10.8267
▁vadlīnij	-10.8267
▁kopprodukt	-10.8268
▁dabūt	-10.827
▁nemainīg	-10.827
▁ieteikt	-10.8271
▁līdzvērtīg	-10.8271
▁neskaidrīb	-10.8273
▁baudīt	-10.8273
▁lien	-10.8277
▁personas	-10.8278
▁nolēmum	-10.8279
▁draudēj	-10.8281
itāt	-10.8292
▁epizode	-10.8298
▁slēpj	-10.8299
grozījum	-10.8304
nākam	-10.8305
▁nepa	-10.8308
▁devus	-10.8308
svētdien	-10.8309
▁produkcij	-10.8309
▁ziemeļrietum	-10.8309
▁griest	-10.831
▁apsekošan	-10.831
▁komponent	-10.8311
▁jāievēr	-10.8311
▁paziņ	-10.8315
▁skatīj	-10.8315
▁nepār	-10.8317
ēti	-10.8317
katr	-10.8322
▁steidzam	-10.8325
▁apkop	-10.8329
▁nāvessod	-10.8332
▁skaits	-10.8333
▁gāzt	-10.8336
▁180	-10.8337
▁turk	-10.8341
▁zarn	-10.8342
▁katalā	-10.8343
▁atsaukti	-10.8352
▁maksāšan	-10.8356
▁varšav	-10.8356
▁neskait	-10.8359
▁olain	-10.8359
▁teroristisk	-10.8359
▁ceļu	-10.8363
▁kokaīn	-10.8368
iniek	-10.8371
▁van	-10.8372
▁acī	-10.8382
о	-10.8385
▁nepie	-10.8387
▁atteici	-10.8389
▁īsā	-10.8392
▁izveidojusi	-10.8395
▁paliatīv	-10.8395
▁iebraukšan	-10.8397
▁ansambl	-10.8397
▁izpausm	-10.8397
▁izrakstīt	-10.8398
▁gada	-10.8399
▁lēst	-10.8402
▁74	-10.8404
▁uzaicināt	-10.8405
▁zariņ	-10.8406
▁noslēgšan	-10.8409
▁izvirz	-10.841
▁impīčment	-10.8413
▁88	-10.8421
jan	-10.8422
▁sasnieg	-10.8423
uprāt	-10.8425
▁jomā	-10.8438
▁ceturksn	-10.8439
▁simptom	-10.8439
▁deviņdesmit	-10.8439
▁arvil	-10.8439
▁loģistik	-10.8439
▁noturēt	-10.8441
▁madrid	-10.8442
▁horvātij	-10.8443
▁piedzīv	-10.8445
36	-10.8446
▁pamatoj	-10.8447
▁vītol	-10.8459
otāj	-10.8475
▁audz	-10.8475
▁spilgt	-10.8478
▁kaun	-10.8481
▁vakcīn	-10.8482
▁iespaidīg	-10.8483
▁mārtin	-10.8484
▁ievest	-10.8484
▁nepilson	-10.8485
▁algotn	-10.8486
▁jārun	-10.8487
▁vienpusēj	-10.8488
▁pārstāve	-10.8492
lēmum	-10.8496
ko	-10.8497
▁uztvert	-10.8507
▁ietekmēj	-10.8522
▁nāksi	-10.8524
▁anonīm	-10.8526
▁pasludināt	-10.8527
▁ainār	-10.8527
▁idlib	-10.8528
▁bosnij	-10.8528
▁73	-10.8531
tagad	-10.8531
▁ienāk	-10.8538
▁tirgošan	-10.854
▁ect	-10.854
▁78	-10.8558
▁pārstāvis	-10.856
▁hronisk	-10.857
▁visdrīzāk	-10.857
▁savākšan	-10.857
▁dīvain	-10.8571
▁akūt	-10.8573
▁kazahstān	-10.8573
▁latviet	-10.8573
▁bin	-10.858
▁valdības	-10.8583
▁saulīt	-10.8584
ut	-10.8586
▁noteikus	-10.859
17	-10.8591
▁uzrakstīt	-10.8596
▁nest	-10.8597
▁iedvesm	-10.8598
▁apdegum	-10.8603
▁dienvidrietum	-10.8614
▁izsniegšan	-10.8614
▁pasūtītāj	-10.8616
▁valdību	-10.8618
▁atņem	-10.8618
▁tapšan	-10.8619
▁sencov	-10.8621
▁izlietot	-10.8627
▁kaitīg	-10.8632
▁derīg	-10.8633
▁putins	-10.8639
▁nerad	-10.8643
▁zob	-10.8652
bern	-10.8653
▁pārvaldīt	-10.8655
▁ierod	-10.8656
▁garāk	-10.8657
▁veiksm	-10.8658
▁pretlikumīg	-10.8658
▁group	-10.8659
▁baron	-10.866
▁spieg	-10.8662
▁pietiek	-10.8664
▁izmeklēj	-10.8665
▁tēj	-10.8668
▁ker	-10.8672
ard	-10.8672
▁pieredzēt	-10.869
▁publiskošan	-10.869
▁izmaksāj	-10.869
eg	-10.8695
▁analizēj	-10.8696
▁abo	-10.8701
„	-10.8703
▁jālemj	-10.8703
▁luhansk	-10.8703
▁iecelšan	-10.8703
▁iebrukum	-10.8704
▁rotācij	-10.8704
▁temp	-10.8705
▁gat	-10.8706
▁studējoš	-10.8706
▁haos	-10.8706
▁otrād	-10.8707
rl	-10.8708
▁žog	-10.8709
▁retorik	-10.8709
и	-10.8711
▁bezdarb	-10.8714
▁izslēdz	-10.8717
▁lic	-10.8718
▁rak	-10.8726
ah	-10.8731
▁firmas	-10.8747
▁ekskluzīv	-10.8747
▁virsstund	-10.8747
▁izteikšan	-10.8748
-35	-10.8748
▁amazon	-10.8749
▁ieplānot	-10.8749
ļa	-10.8751
airbaltic	-10.8752
▁skuj	-10.8752
▁asanž	-10.8753
▁uzskata	-10.8753
▁rain	-10.8757
▁kol	-10.8765
▁viltošan	-10.8766
▁iebrauc	-10.8773
▁just	-10.8776
▁segt	-10.8776
▁amatam	-10.8777
▁strādājus	-10.8778
▁googl	-10.8781
▁divi	-10.8784
▁ver	-10.8789
▁adekvāt	-10.8792
▁valter	-10.8794
▁elektrisk	-10.8794
▁staļin	-10.8794
▁tūlītēj	-10.8796
▁izstāti	-10.8798
▁atbalsta	-10.8802
sīrij	-10.8803
30	-10.8804
▁žurnālistik	-10.8805
▁spert	-10.8806
▁salīdzināt	-10.8807
▁ietekmīg	-10.8808
▁pieredzējuš	-10.881
▁dzirdam	-10.8812
▁neparedz	-10.8818
▁atrodoti	-10.8822
▁liep	-10.8828
ovsk	-10.8829
▁1995.	-10.8837
▁frāz	-10.8837
▁diagnoz	-10.8837
▁sponsor	-10.8837
▁pieturviet	-10.8838
iv	-10.8839
francij	-10.8839
▁mate	-10.8841
▁pirmizrād	-10.8843
▁pulk	-10.8845
▁mon	-10.8847
▁sociālist	-10.8856
▁apledojum	-10.8858
▁ugunsgrēkā	-10.8875
▁biez	-10.8876
▁aploksn	-10.8882
▁demogrāfij	-10.8883
▁lauksaimniek	-10.8883
▁fotoradar	-10.8883
▁valdgal	-10.8893
▁melbārd	-10.8894
▁īpašīb	-10.8894
▁ptac	-10.8898
▁sniegum	-10.8899
▁kast	-10.8903
ary	-10.8903
▁diez	-10.8904
▁nemir	-10.8907
▁brīdina	-10.8912
▁vismazāk	-10.8922
kin	-10.8922
▁guvus	-10.8928
▁moment	-10.8928
▁brauktuv	-10.8928
▁−	-10.8928
▁garāž	-10.8929
▁apsvērt	-10.8934
▁vērot	-10.8934
liepin	-10.8934
▁mazākum	-10.8936
▁lāc	-10.8936
▁sēt	-10.8939
▁pūt	-10.8946
▁ra	-10.8962
▁šaur	-10.8967
▁vienbalsīg	-10.8975
izraēl	-10.8976
satiksm	-10.8976
▁sekmēt	-10.8976
▁smagāk	-10.8977
▁turpināšan	-10.8977
+	-10.8978
▁cipar	-10.898
▁pārliecināti	-10.898
▁li	-10.898
tieš	-10.8981
▁valstī	-10.8981
▁grozīt	-10.8984
▁īpašniec	-10.8998
▁atgriež	-10.9015
▁zviedr	-10.902
▁pusnakt	-10.9024
▁magņitsk	-10.9024
▁draudzen	-10.9025
▁novērotāj	-10.9028
▁virzītāj	-10.9031
▁aud	-10.9043
▁roz	-10.9045
va	-10.9047
▁izdarījuš	-10.9054
▁plus	-10.9057
koncert	-10.9058
sa	-10.9058
ajam	-10.9062
▁dienaskārtīb	-10.9065
▁jaunatn	-10.9066
▁za	-10.9066
▁2003.	-10.9066
▁grāmatvedīb	-10.9066
▁apbalvojum	-10.9067
▁čempion	-10.9067
▁helsink	-10.9067
informācij	-10.9068
▁trešdaļ	-10.9068
pašlaik	-10.9068
▁kritizēt	-10.907
▁ķīnieš	-10.9073
▁slav	-10.9073
▁nopelnīt	-10.9081
and	-10.9087
▁samazināj	-10.9087
▁izmantojuš	-10.9088
▁izņem	-10.9094
pagaid	-10.9097
ič	-10.91
▁ceļot	-10.9105
▁mainījusi	-10.9106
▁imunitāt	-10.9112
▁ambīcij	-10.9112
▁lidlauk	-10.9112
▁ekrān	-10.9112
▁titul	-10.9114
▁saskatām	-10.9116
pār	-10.9122
▁kāz	-10.9124
tin	-10.9133
▁neat	-10.914
▁gadus	-10.914
▁bit	-10.9144
▁iznāk	-10.9147
▁neveiksm	-10.9149
▁sola	-10.915
▁virsm	-10.9152
с	-10.9152
▁pārdom	-10.9154
▁saskat	-10.9157
▁minūš	-10.9158
▁sirēn	-10.9158
▁eirozon	-10.9159
▁piekļūt	-10.916
▁nogalināj	-10.916
▁radar	-10.9162
taujāt	-10.9163
▁plāno	-10.9195
▁peld	-10.9201
▁ma	-10.9201
▁york	-10.9202
▁slieksn	-10.9205
▁kafij	-10.9205
▁karakuģ	-10.9205
▁maksāj	-10.9205
▁mārup	-10.9205
▁pabeigšan	-10.9206
▁pārtraukšan	-10.9206
▁pieminēj	-10.9218
▁patik	-10.9218
▁velosipēdist	-10.9223
▁cerēt	-10.9225
ly	-10.9226
per	-10.9227
▁ievēlēj	-10.9229
▁austrumukrain	-10.9243
▁indivīd	-10.9252
▁1999.	-10.9252
▁izslēgšan	-10.9252
▁seminār	-10.9254
ķīn	-10.9257
▁ans	-10.9261
aš	-10.9262
medij	-10.9265
14	-10.9265
eļ	-10.9268
▁pod	-10.9273
pm	-10.9278
balt	-10.9279
▁tēt	-10.9283
▁aptver	-10.9286
▁donbas	-10.9288
▁atsāk	-10.9293
▁izvarošan	-10.9299
▁virtuāl	-10.9299
▁nepārprotam	-10.9299
▁panāc	-10.93
ob	-10.9301
▁smarž	-10.9302
vējon	-10.9304
▁eiropadom	-10.9304
▁piekrist	-10.9306
▁pieķert	-10.9313
▁nosūt	-10.9317
vad	-10.9321
▁nost	-10.9322
▁130	-10.933
▁spilv	-10.9333
▁cilvēkus	-10.9339
▁pretenzij	-10.9346
▁oponent	-10.9346
▁kodolprogramm	-10.9347
▁maldinoš	-10.9347
▁balon	-10.9347
▁visaptveroš	-10.9348
▁bvkb	-10.9353
▁izmekl	-10.9354
▁pusdien	-10.9357
▁sankcijas	-10.9357
▁rakstniek	-10.9358
▁pusstund	-10.9364
insk	-10.9366
▁darām	-10.9369
▁augoš	-10.9372
od	-10.9372
pr	-10.9373
▁jakrin	-10.9376
▁prezidenta	-10.9383
▁atvas	-10.9384
▁indonēzij	-10.9387
▁ticam	-10.9388
▁ainav	-10.9393
▁drēb	-10.9394
▁jārisin	-10.9394
▁ballistisk	-10.9394
▁diktator	-10.9394
▁noskaņojum	-10.9394
▁march	-10.9395
▁didz	-10.9395
▁kašmir	-10.9396
▁sver	-10.9396
▁kapsēt	-10.9396
▁novērtēšan	-10.9396
▁pieprasīšan	-10.9396
▁teikum	-10.9397
▁bras	-10.9397
▁parakstīšan	-10.9398
aizturēt	-10.9398
militār	-10.9399
▁nošaut	-10.9403
▁plānojum	-10.9408
15	-10.941
▁premjers	-10.9425
▁dzimus	-10.9427
▁grādiem	-10.9429
▁novērt	-10.944
▁1994.	-10.9442
24	-10.9443
▁stipendij	-10.9443
▁paturēt	-10.9444
▁libān	-10.9444
▁argentīn	-10.9445
▁snieguš	-10.9445
▁vakcinācij	-10.9446
▁eigim	-10.9446
taliban	-10.9449
▁87	-10.9458
▁briesm	-10.9463
▁lr	-10.9466
▁izplat	-10.9471
▁iegādāj	-10.9482
▁puis	-10.9487
▁krāslav	-10.9489
▁klausītāj	-10.949
▁pacelt	-10.949
▁izveidoji	-10.9491
▁teorij	-10.9491
▁pārvarēt	-10.9492
▁grūtniecīb	-10.9493
▁uzpild	-10.9493
▁pretkorupcij	-10.9494
▁pārņem	-10.9497
▁izraisījus	-10.9505
▁lukašenk	-10.9507
▁ilguš	-10.9507
▁eds	-10.951
ger	-10.9512
▁kariņš	-10.9514
putin	-10.9527
▁mērc	-10.9529
▁dziļ	-10.9531
▁ūdens	-10.9531
▁nepietiek	-10.9532
▁laupīšan	-10.9538
▁stokholm	-10.954
▁plaukt	-10.9541
▁vanš	-10.9541
▁kvartāl	-10.9541
▁virzīšan	-10.9542
moneyval	-10.9542
▁veterinār	-10.9545
▁riga	-10.9547
▁kaus	-10.9548
▁jāpa	-10.955
▁kl	-10.955
▁sekojoš	-10.955
▁ciešāk	-10.9553
▁pal	-10.9556
▁neievērošan	-10.9558
▁komplekt	-10.9559
▁straujāk	-10.9562
▁ierindoj	-10.9566
▁jautājumiem	-10.9568
▁naz	-10.957
▁dēv	-10.9584
▁pārsteidz	-10.9584
▁dvēsel	-10.9587
▁genocīd	-10.9587
▁smadzen	-10.9587
▁fāz	-10.9587
▁pētniecisk	-10.9588
▁luksemburg	-10.9588
▁ozolniek	-10.9589
▁pētīt	-10.9589
▁ekonomist	-10.9589
▁palkavniec	-10.9592
▁en	-10.9593
▁puķ	-10.9593
▁glābt	-10.9593
▁bērniem	-10.9595
▁nezināj	-10.9599
▁čak	-10.9605
▁grāv	-10.9608
▁sarežģītāk	-10.9613
▁dzied	-10.9614
▁cilvēc	-10.962
▁epp	-10.9635
▁absurd	-10.9636
▁noregulējum	-10.9636
▁atdev	-10.9636
▁rubl	-10.9638
▁palielinājum	-10.9638
▁kļaviņ	-10.964
laikrakst	-10.9642
▁izglītot	-10.9644
▁160	-10.9647
▁x	-10.965
▁pārvaldniek	-10.9652
▁nesaskaņ	-10.9652
▁mainīti	-10.9652
▁ej	-10.9658
▁veidojoš	-10.9658
▁tuvoj	-10.9661
▁nopeln	-10.9663
▁saglabājot	-10.9669
▁sam	-10.9671
▁sasniegus	-10.9674
▁strasbūr	-10.9674
jautājum	-10.9683
▁sludinājum	-10.9685
▁disciplinārliet	-10.9685
▁olu	-10.9685
▁trampa	-10.9686
▁gaidīšan	-10.9687
▁autotransport	-10.9688
svētk	-10.9691
▁startēt	-10.9693
▁vācijas	-10.9698
▁vērsuši	-10.9698
▁ievieš	-10.9698
35	-10.971
▁strādājuš	-10.9718
ec	-10.9724
ņu	-10.9724
▁drosmīg	-10.9727
▁izbeidz	-10.9731
▁nemitīg	-10.9734
▁ralf	-10.9734
▁jāizvērt	-10.9734
▁donor	-10.9734
▁paralizējoš	-10.9734
▁aprind	-10.9735
▁plais	-10.9735
▁izgatavot	-10.9735
▁reliģij	-10.9735
▁miljardier	-10.9736
▁sižet	-10.9737
▁air	-10.9737
▁pamatizglītīb	-10.9737
izsaukum	-10.974
▁izpelnīj	-10.9741
spd	-10.9742
▁po	-10.9742
▁nestrād	-10.9749
▁petravi	-10.9749
būv	-10.9749
▁samazinot	-10.9753
stāv	-10.9771
▁uzņēmi	-10.9771
ker	-10.9773
▁mainīg	-10.9782
og	-10.9782
▁elektrolīnij	-10.9783
▁lzs	-10.9783
▁valērij	-10.9784
▁matemātik	-10.9784
▁6.30	-10.9785
šķ	-10.9785
▁māksliniec	-10.9786
▁pietiekoš	-10.9787
▁saeimā	-10.9792
▁visaugstāk	-10.9798
▁uzticam	-10.9805
▁līdzsvar	-10.9807
di	-10.9814
▁pirms	-10.9818
pl	-10.9819
▁tomas	-10.982
▁kārtīg	-10.9822
▁izsludin	-10.9826
▁izvērst	-10.9828
▁pusaudz	-10.9832
▁dezinformācij	-10.9833
▁tatjan	-10.9833
▁bmw	-10.9833
▁vācieš	-10.9835
▁limbaž	-10.9835
▁neatzīst	-10.9837
▁sīkā	-10.984
▁atbrauc	-10.9842
▁pēt	-10.9844
▁rup	-10.9845
▁pārkāpēj	-10.9846
▁liekot	-10.9852
-5	-10.9852
▁pieaugt	-10.9854
▁aptur	-10.9855
▁rūpēj	-10.9858
▁atvēr	-10.9866
▁pielāgot	-10.9872
▁jun	-10.9882
▁piedzīt	-10.9883
▁brūc	-10.9884
▁vagon	-10.9884
▁mafij	-10.9885
▁kolumbij	-10.9885
▁moldov	-10.9886
▁csdd	-10.9888
padom	-10.9889
▁šovasar	-10.989
▁kipr	-10.989
šot	-10.9894
▁rām	-10.9896
▁ur	-10.9897
▁ievies	-10.9909
ler	-10.9911
▁malk	-10.9913
▁izvairīšan	-10.993
▁maģistr	-10.9932
▁ugunskur	-10.9934
▁nacist	-10.9934
▁sakāv	-10.9934
▁pirmstermi	-10.9936
▁savienojum	-10.9938
ziemeļkorej	-10.994
▁iedomāti	-10.9942
▁ekstrēmist	-10.9943
sm	-10.9945
51	-10.9952
▁talant	-10.9952
▁personām	-10.9956
▁izraisījuš	-10.9958
▁diskutēj	-10.9959
▁arhibīskap	-10.9961
▁politolog	-10.9965
▁teik	-10.9969
▁evakuēj	-10.998
▁kaptein	-10.9984
▁neformāl	-10.9984
▁patversm	-10.9984
▁provokācij	-10.9984
▁sertifikāt	-10.9984
▁rnp	-10.9984
▁totalitār	-10.9984
▁muiž	-10.9985
▁nedar	-10.999
▁sastādīt	-10.999
pabrik	-10.9991
opozīcij	-10.9992
▁abort	-10.9992
skaitām	-10.9995
▁pastāvēšan	-10.9998
▁apskatām	-11.0001
enc	-11.0009
▁vil	-11.0018
▁smej	-11.0026
▁lielvar	-11.0031
▁atradīsi	-11.0031
▁daudzveidīb	-11.0035
▁piedūmot	-11.0035
▁reorganizācij	-11.0035
▁dāvinājum	-11.0035
▁šķidrum	-11.0036
▁pārcelšan	-11.0036
▁apņēmīb	-11.0036
▁noslēgsi	-11.0036
▁tirdzin	-11.004
▁iecav	-11.0041
iepriekšēj	-11.0042
▁zaķ	-11.0046
▁smak	-11.0047
т	-11.0047
▁projektēšan	-11.0049
▁stab	-11.005
▁nobalsot	-11.0055
▁atmaks	-11.0058
▁vainot	-11.0067
vēlēšan	-11.0069
▁da	-11.0071
▁sit	-11.0071
▁atgriezt	-11.0081
▁fizik	-11.0085
▁producent	-11.0086
▁balkon	-11.0086
▁ēdienkart	-11.0086
▁kabat	-11.0086
▁direkcij	-11.0087
▁skeptisk	-11.0087
▁garkaln	-11.0089
han	-11.0089
▁devuš	-11.009
▁beigsi	-11.0093
▁itāl	-11.0094
▁pārrunāj	-11.0096
beidzot	-11.0096
-2	-11.0096
▁iezīmēt	-11.0098
▁stāvēj	-11.0099
▁zagl	-11.0105
ert	-11.0107
bank	-11.0107
▁radījuš	-11.0111
▁paskaidrot	-11.0111
▁atzīstot	-11.0112
land	-11.0117
▁ram	-11.012
▁arvīd	-11.0121
▁aizved	-11.0124
▁slēg	-11.013
▁plat	-11.0132
bar	-11.0133
▁nians	-11.0134
▁aktualitāt	-11.0137
▁zirg	-11.0137
▁luterisk	-11.0138
▁realizēšan	-11.0138
▁pārvadāšan	-11.0138
▁ziņojumā	-11.0138
▁izlēm	-11.0141
▁rietumeirop	-11.0141
▁noplūd	-11.015
▁vist	-11.0153
▁ietv	-11.0154
▁pamaz	-11.0155
▁nor	-11.016
▁sniegus	-11.0163
gov	-11.0163
▁sazin	-11.0174
▁mūr	-11.0188
▁nvo	-11.0189
▁nostiprināšan	-11.0189
▁notriekt	-11.0189
▁atvieglojum	-11.0189
▁izglītojam	-11.019
▁uzsvērus	-11.0192
▁izskatot	-11.0193
▁lēt	-11.0193
▁vladov	-11.0195
▁aprakstīt	-11.0196
▁pārsteigt	-11.0197
februār	-11.0197
▁izmantojus	-11.02
ved	-11.0201
▁pilsoņkar	-11.0207
slīd	-11.0215
▁centi	-11.0218
▁uzvarēt	-11.0222
op	-11.0226
▁eiropieš	-11.0227
▁sēdē	-11.0228
▁šķērsoj	-11.023
▁sanktpēterburg	-11.0231
▁brigman	-11.024
▁diskriminācij	-11.024
▁jaunievēlēt	-11.0242
▁afrīn	-11.0243
▁smilten	-11.0245
eb	-11.0246
▁piededz	-11.0247
▁sastopam	-11.0248
ner	-11.025
nat	-11.0251
▁pazin	-11.0251
▁ievēr	-11.0256
37	-11.0258
cij	-11.0259
▁stop	-11.0259
aug	-11.0264
ation	-11.0266
▁lūs	-11.0272
▁he	-11.0273
val	-11.0281
▁reibumā	-11.0285
▁elp	-11.0288
▁pagatavot	-11.0292
▁jāatrod	-11.0292
▁jāuzņem	-11.0293
▁trak	-11.0293
▁izlietojum	-11.0293
▁artilērij	-11.0293
▁koncern	-11.0294
▁aplikācij	-11.0294
▁kristieš	-11.0294
▁vitālij	-11.0294
▁kaņep	-11.0295
▁izraidīt	-11.0295
▁apris	-11.0295
▁sākumskol	-11.0296
45	-11.0296
▁aizkraukl	-11.0298
▁4000	-11.0299
▁valodā	-11.0301
▁tautieš	-11.0301
▁leon	-11.0304
▁attaisnot	-11.0313
ūn	-11.0314
▁ielā	-11.0314
▁rtu	-11.0318
▁kara	-11.0327
enk	-11.0332
▁uzdod	-11.0334
▁veltīj	-11.0335
▁pierād	-11.0335
.2018	-11.0337
▁cip	-11.0337
▁robežas	-11.0339
▁sāpīg	-11.0339
▁kroņprinc	-11.0341
▁uzrakstīj	-11.0345
▁skaņdarb	-11.0345
▁pretterorism	-11.0346
▁šleser	-11.0347
▁ž	-11.0348
▁sazināj	-11.0348
▁zvanīt	-11.035
▁jāspēj	-11.035
▁revident	-11.0351
▁1,2	-11.0352
▁bērnu	-11.0356
līgum	-11.0356
▁delfi	-11.0356
▁atgriežoti	-11.0357
sniedz	-11.0358
▁žēl	-11.036
▁č	-11.0366
▁vienošanos	-11.0369
▁klāj	-11.0374
▁piespriedus	-11.0374
gul	-11.0375
▁dabīg	-11.0376
▁atzinīb	-11.0388
▁pārdaugav	-11.0388
▁cīnīj	-11.0393
▁īstenoj	-11.0393
▁pazīst	-11.0397
▁ekipējum	-11.0397
▁racionāl	-11.0397
▁tīrīšan	-11.0402
▁kaudz	-11.0405
sistēm	-11.0408
▁pirkt	-11.0411
▁raug	-11.0413
▁nik	-11.0416
liek	-11.0418
▁ziedoj	-11.0419
▁centrā	-11.0423
▁motor	-11.043
▁har	-11.0432
▁politic	-11.0433
.12	-11.0435
ējam	-11.0437
▁pametuš	-11.0444
▁dec	-11.0448
▁mošej	-11.045
▁kiberdrošīb	-11.0452
▁ziedotāj	-11.0455
▁pārliek	-11.0458
▁vied	-11.0459
konkurs	-11.0463
▁mīļ	-11.0471
▁ind	-11.0471
▁sīrijas	-11.0473
▁me	-11.0476
▁nekomentēj	-11.0478
▁aicinājuš	-11.0479
▁krievijā	-11.048
papild	-11.0491
▁īstenojot	-11.0491
az	-11.0498
▁del	-11.0498
▁sistemātisk	-11.0504
▁uzstāšan	-11.0504
▁1989.	-11.0504
▁florid	-11.0504
▁iztērēt	-11.0504
▁izmēģināt	-11.0504
▁populistisk	-11.0505
▁ziemeļvalst	-11.0506
īz	-11.0509
▁pmlp	-11.0509
kaut	-11.0512
▁patēr	-11.0513
met	-11.0514
levit	-11.0517
-400	-11.0518
▁sarunas	-11.0522
34	-11.0528
▁sasaist	-11.053
▁apstiprinājum	-11.0534
▁rsu	-11.0535
.20	-11.0538
▁klaus	-11.0539
▁rakstisk	-11.0541
▁aizsāk	-11.0541
▁76	-11.0548
▁mikro	-11.055
mer	-11.0551
▁lēš	-11.0553
▁pieprasījus	-11.0553
▁youtub	-11.0555
▁ideoloģisk	-11.0557
▁sunnīt	-11.0557
▁dīķ	-11.0557
▁lietderīg	-11.0557
▁graust	-11.0557
▁saziņ	-11.0558
▁akreditācij	-11.0559
▁basketbolist	-11.0559
▁slān	-11.0561
ējum	-11.0564
▁gard	-11.0565
▁kokin	-11.0567
▁termināl	-11.0567
▁kaul	-11.0569
treš	-11.0569
▁lps	-11.0569
▁piedaloti	-11.0572
21	-11.0579
▁pieaugus	-11.059
▁peļņ	-11.0591
▁up	-11.0592
▁ola	-11.0593
▁gras	-11.0603
▁kakl	-11.0606
▁dubultaģent	-11.0611
▁atcerēti	-11.0612
▁šiīt	-11.0612
kok	-11.0613
▁izcīnīj	-11.0613
▁preil	-11.0614
izglītīb	-11.0618
▁iestāti	-11.0621
80	-11.0629
▁kvot	-11.063
▁skaitīšan	-11.0635
ņev	-11.0638
▁gaidīj	-11.0639
jān	-11.0639
▁89	-11.064
▁bēr	-11.0643
▁garant	-11.0647
▁vainoj	-11.0664
▁pārmērīg	-11.0665
▁1998.	-11.0665
▁obam	-11.0665
▁citadel	-11.0665
▁graut	-11.0665
▁rfe	-11.0665
▁privātmāj	-11.0666
▁laicīg	-11.0667
▁vatikān	-11.0668
▁pārbaudījum	-11.0669
▁diž	-11.0669
▁ekvador	-11.067
▁meklējum	-11.0671
ceļ	-11.0671
▁deklarēj	-11.0672
▁skatīšan	-11.0674
▁vienojuš	-11.0675
▁augt	-11.0676
▁ceļoj	-11.0677
▁tirān	-11.0679
▁taisīt	-11.0683
▁rasti	-11.0685
▁formul	-11.0687
▁vienkāršāk	-11.0689
▁ķezber	-11.0698
▁pilnveid	-11.07
▁judin	-11.0702
▁dusm	-11.0709
uļ	-11.0709
ojoš	-11.0709
ciem	-11.0714
▁vent	-11.0714
▁satrauc	-11.0716
▁apdrošināt	-11.0717
▁neattiec	-11.0717
▁pagrab	-11.0719
▁noguldījum	-11.0719
▁pasludināšan	-11.072
▁sasauc	-11.072
▁futbolist	-11.0722
▁pasniedzēj	-11.0722
▁si	-11.0723
р	-11.0728
plašāk	-11.0731
▁bēdīg	-11.0732
▁lid	-11.0734
▁band	-11.0736
▁domē	-11.0745
▁radījus	-11.0747
inājum	-11.075
▁sekm	-11.0755
▁cilvēkiem	-11.0758
▁nepastāv	-11.0764
▁konkurētspējīg	-11.0771
▁īsu	-11.0772
iš	-11.0773
▁inovatīv	-11.0774
▁eksprezident	-11.0774
▁pilnveidošan	-11.0775
▁kolekcij	-11.0775
▁pansionāt	-11.0775
▁madar	-11.0776
▁piepildīt	-11.0776
▁fincen	-11.0776
у	-11.0776
▁puiš	-11.0776
▁saspīlējum	-11.0779
▁nodar	-11.0779
▁sant	-11.0781
▁uzzin	-11.0783
▁lauzt	-11.0783
▁notriec	-11.0787
ment	-11.0793
▁beton	-11.0793
▁atbalstījus	-11.0795
▁pastāvēt	-11.0798
▁eiropas	-11.08
▁ku	-11.08
▁starpniek	-11.0802
▁br	-11.0807
ri	-11.0809
▁atklājuš	-11.0809
▁ieteic	-11.0823
▁korekt	-11.0825
▁w	-11.0825
▁pl	-11.0828
▁brīnišķīg	-11.0829
▁nesamērīg	-11.0829
▁sīrieš	-11.0829
▁1992.	-11.0829
▁nojaukt	-11.0829
▁klod	-11.0829
▁palaišan	-11.0829
▁atnāc	-11.0829
▁fan	-11.083
▁nerezident	-11.083
▁в	-11.0831
▁psihoterapeit	-11.0831
inot	-11.0832
▁tematisk	-11.0833
bērn	-11.0834
▁jāvērt	-11.0834
▁atteikusi	-11.084
▁baum	-11.084
▁īsāk	-11.0843
īv	-11.0845
▁palikšan	-11.0845
▁iekļuv	-11.0848
▁82	-11.0848
▁lēmumu	-11.0851
▁turien	-11.0855
▁balsu	-11.0856
▁69	-11.0862
ma	-11.0864
▁liecināt	-11.0865
-20	-11.0867
▁uztic	-11.087
▁austrumos	-11.087
▁jautāt	-11.0871
▁mun	-11.0876
▁bemhen	-11.0884
▁tunel	-11.0885
▁azerbaidžān	-11.0885
▁atbalstoš	-11.0887
▁memoriāl	-11.0887
16	-11.0889
▁izdien	-11.089
▁prasītāj	-11.0891
▁jautājumos	-11.0894
▁iespējams	-11.0895
▁tusk	-11.0898
ojuš	-11.0899
▁āboltiņš	-11.0903
sēd	-11.091
▁aizdomās	-11.091
to	-11.0914
▁valstspiederīg	-11.0915
▁risin	-11.0934
▁stepaņenk	-11.0939
▁paradum	-11.094
▁skds	-11.094
▁čečenij	-11.0942
▁militārperson	-11.0943
▁audzēšan	-11.0946
▁palielinot	-11.0947
▁masal	-11.0949
▁iepazīstin	-11.0952
▁džo	-11.0953
▁vietas	-11.0958
▁mīn	-11.0964
▁81	-11.0972
nakt	-11.0973
▁1200	-11.0975
▁eiropā	-11.0979
eh	-11.0986
▁kārtībā	-11.0987
▁specifik	-11.0991
▁lza	-11.0993
▁ēd	-11.0995
▁ideoloģij	-11.0995
▁order	-11.0996
▁nepildīšan	-11.0996
▁depozīt	-11.0996
▁pārgājien	-11.0998
▁rakstveid	-11.0998
▁pasniedz	-11.1
▁iztik	-11.1001
dienest	-11.1009
▁ogl	-11.1009
▁divstāv	-11.1009
▁neparedzēt	-11.1015
▁paņēm	-11.1015
asprāt	-11.1025
▁veicināj	-11.1035
▁palikus	-11.1036
▁2030.	-11.1037
▁naudu	-11.104
▁lielum	-11.1045
▁cauruļvad	-11.1052
▁saglabāsi	-11.1052
▁mobilitāt	-11.1052
▁izprast	-11.1053
▁sabrukum	-11.1053
daž	-11.1055
▁animācij	-11.1055
▁portfel	-11.1057
▁pieteikšan	-11.1057
▁guntar	-11.106
▁apliecināt	-11.1062
▁kait	-11.1065
25	-11.1073
▁ievietoj	-11.1079
klas	-11.1086
▁ūdenstilp	-11.1089
▁noslēdzot	-11.109
▁nenāk	-11.1095
sp	-11.1099
skol	-11.11
▁atbalstījuš	-11.1102
▁ierosin	-11.1107
▁konfrontācij	-11.1108
▁psihotrop	-11.1108
▁lidsabiedrīb	-11.1108
▁apakškomisij	-11.1109
▁kinoteātr	-11.111
▁taktik	-11.111
▁vēz	-11.1111
rakst	-11.1113
▁koordinēt	-11.1115
▁bezdarbīb	-11.1115
str	-11.1117
▁atkārtoj	-11.1118
policist	-11.1121
▁izpētīt	-11.1122
▁bi	-11.1128
if	-11.113
▁neuz	-11.1131
▁radusi	-11.1135
▁starpīb	-11.1138
▁atlikšan	-11.1138
▁informējus	-11.1142
▁iedzīvotāju	-11.1153
▁bul	-11.1154
▁invalīd	-11.1165
▁vienisprāt	-11.1165
▁noslepkavot	-11.1165
▁savādāk	-11.1166
▁jāatzīst	-11.1166
▁jānotiek	-11.1166
▁savvaļ	-11.1167
▁paciņ	-11.1168
в	-11.1168
▁platum	-11.1168
▁laulāt	-11.1169
▁iekļūšan	-11.117
▁lau	-11.117
aizdom	-11.1172
▁tart	-11.1176
▁šāvien	-11.118
▁8000	-11.1183
▁nevarot	-11.1183
▁aizgājuš	-11.1185
jum	-11.1191
▁nākus	-11.1193
čenk	-11.1195
▁vecīt	-11.1203
▁tautīb	-11.1204
▁papildināj	-11.1205
▁drošības	-11.1205
▁iegū	-11.1205
▁90.	-11.1206
ziņ	-11.1207
▁sagatavoj	-11.121
nik	-11.1215
▁asistent	-11.1222
▁represij	-11.1222
▁uzglabāšan	-11.1222
▁ietaupīt	-11.1223
▁pazušan	-11.1223
▁nas	-11.1224
▁austrumgut	-11.1224
▁konfiscēt	-11.1225
▁puntul	-11.1225
▁lpsr	-11.1225
▁malaizij	-11.1227
▁hes	-11.1229
▁piederīg	-11.1232
▁apsekoj	-11.1234
▁ieradusi	-11.1235
▁jūsuprāt	-11.1236
▁1500	-11.1237
▁izdevīgāk	-11.1237
▁kino	-11.1238
▁teritorijā	-11.124
▁pārstāvēj	-11.1247
▁evij	-11.1252
▁atspoguļot	-11.1253
▁piemērojus	-11.1254
▁vadītāja	-11.1264
▁pāraug	-11.1265
mat	-11.1267
▁saglab	-11.1269
▁ak	-11.1275
▁radio	-11.1275
▁volodim	-11.1279
▁neizdosi	-11.128
▁kanalizācij	-11.128
▁psiholog	-11.128
▁videoierakst	-11.128
▁modernizācij	-11.128
▁apbruņot	-11.1283
▁bried	-11.1289
▁mac	-11.129
lu	-11.13
▁pagāj	-11.1302
▁palīdzējuš	-11.1314
▁domin	-11.1324
▁mācīt	-11.1327
▁reģionā	-11.1332
▁decemb	-11.1334
▁preventīv	-11.1337
▁prokremlisk	-11.1337
▁1987.	-11.1337
▁statūt	-11.1337
▁fundamentāl	-11.1337
▁svešvalod	-11.1337
▁intelektuāl	-11.1338
▁gobzems	-11.1338
▁gauj	-11.1339
▁pamattiesīb	-11.1339
▁attiecinām	-11.1339
▁fināl	-11.134
▁dziļum	-11.1341
▁atjaunojam	-11.1343
▁dažreiz	-11.1343
vk	-11.1344
▁draudzīb	-11.1345
▁kopij	-11.1347
▁vēršot	-11.1351
▁pastrādāj	-11.1351
negadījum	-11.1353
▁92	-11.1354
▁ball	-11.1355
▁sastāvdaļ	-11.1357
▁šķirn	-11.1361
05	-11.1361
▁precīzāk	-11.1363
▁parādīb	-11.1366
▁labot	-11.1369
▁linkait	-11.1371
▁vienošanās	-11.1375
▁vienreiz	-11.1378
▁dolāru	-11.1379
.11	-11.1381
▁dāv	-11.1382
▁dienvidaustrum	-11.1389
bez	-11.139
▁vajāšan	-11.1395
▁patvaļīg	-11.1396
▁naidīg	-11.1396
▁skār	-11.1396
▁saulkrast	-11.1398
▁nacistisk	-11.1398
▁regulator	-11.1399
▁neapliekam	-11.1399
▁izdzīvot	-11.1406
▁pievien	-11.1406
▁mītn	-11.1407
▁nodevus	-11.1408
▁ņēm	-11.1408
igaunij	-11.1411
▁audzēj	-11.1416
▁noraidījus	-11.1416
▁ukrainas	-11.1419
▁šķērs	-11.142
tv	-11.1421
dar	-11.1421
55	-11.1423
▁valstīs	-11.1423
▁so	-11.1423
▁izpaušan	-11.1425
▁79	-11.1425
▁sāks	-11.1429
maz	-11.1429
▁ierakstīj	-11.143
▁aizstā	-11.1439
jautāt	-11.1442
ņa	-11.1444
▁neapsaimniekot	-11.1454
▁uzstāsi	-11.1454
▁xvi	-11.1454
▁zvērest	-11.1454
▁paņēmien	-11.1454
▁uzliesmojum	-11.1455
▁varasiestāž	-11.1455
▁ugunsnelaim	-11.1456
▁darboji	-11.1457
iņš	-11.146
▁nekārtīb	-11.1461
aptauj	-11.1464
▁izpaust	-11.1465
▁solist	-11.1466
▁aizņem	-11.147
bij	-11.1474
▁nesak	-11.1478
▁neatbalstīt	-11.148
▁briesmīg	-11.1488
iešan	-11.1489
▁baud	-11.1489
▁pūce	-11.1509
▁fotogrāf	-11.1511
▁febru	-11.1512
▁proporcionāl	-11.1513
▁rezonans	-11.1513
▁mediķiem	-11.1513
▁nepārsniedz	-11.1513
▁leonīd	-11.1513
▁getli	-11.1514
▁apņēmusi	-11.1514
▁septīt	-11.1514
▁skulptūr	-11.1514
▁komandējum	-11.1515
▁burtisk	-11.1515
▁gid	-11.1516
▁prāg	-11.1518
▁zinot	-11.1519
▁ziniet	-11.1519
atbildot	-11.1522
vald	-11.1524
▁siltāk	-11.1524
▁zal	-11.1525
▁frank	-11.1527
▁piemērotāk	-11.1528
apsūdzēt	-11.1529
▁padomniec	-11.1531
ell	-11.1536
▁apstiprinājuš	-11.154
tikšan	-11.1544
▁bordāns	-11.1548
▁palielināji	-11.1548
▁burt	-11.1554
stājoti	-11.1554
▁kalifornij	-11.1566
▁koridor	-11.1572
▁1996.	-11.1572
▁iedalījum	-11.1572
▁turnīr	-11.1572
▁konsulār	-11.1572
▁ierosināšan	-11.1572
▁šķēl	-11.1572
▁atgūšan	-11.1573
▁mērījum	-11.1574
▁izsniedz	-11.1574
▁kaitēt	-11.1576
▁sky	-11.1576
▁stabiņ	-11.1578
▁satik	-11.1584
▁atteikt	-11.16
▁sistēmisk	-11.1607
▁izsakot	-11.1607
22	-11.1609
▁nokļuv	-11.1613
le	-11.1624
▁mantkārīg	-11.1631
▁mēbel	-11.1631
▁pamatprincip	-11.1632
▁dienvidslāvij	-11.1632
▁aizsargājam	-11.1632
▁peldviet	-11.1632
paredzēt	-11.1633
▁valdemār	-11.1633
▁haker	-11.1636
▁sp	-11.1636
▁mazin	-11.1639
▁nonākšan	-11.1643
▁lasām	-11.1644
kompānij	-11.1648
▁atgriezīsi	-11.1656
te	-11.1656
▁renār	-11.1657
▁nesaņem	-11.1659
▁nākoš	-11.166
kāpēc	-11.166
pu	-11.167
▁loc	-11.1671
āž	-11.1681
▁tais	-11.1686
▁iecienīt	-11.1687
▁partijas	-11.1689
▁ruben	-11.1691
▁bērnunam	-11.1692
▁kauper	-11.1692
▁nodarbošan	-11.1692
▁centīsi	-11.1692
▁kompensēt	-11.1692
▁atmod	-11.1692
▁pārvadātāj	-11.1693
▁estrād	-11.1693
▁slepkav	-11.1693
▁iebraukt	-11.1694
ba	-11.1699
▁lia	-11.1699
▁spējuš	-11.17
▁lielvārd	-11.17
▁limit	-11.1704
▁tuvojoti	-11.1708
▁izvirzījus	-11.1711
▁94	-11.1712
▁170	-11.1712
▁pamanījuš	-11.1716
▁iegāj	-11.1716
▁sēdēj	-11.1721
▁rus	-11.1722
▁dodot	-11.1727
tāl	-11.1736
▁jaunum	-11.174
▁noraida	-11.1745
▁aizstāvēj	-11.1747
▁smalk	-11.1747
audž	-11.1748
īr	-11.1752
▁lursoft	-11.1752
▁sagūstīt	-11.1752
▁visdažādāk	-11.1752
▁prorektor	-11.1752
▁vicepremjer	-11.1752
▁lža	-11.1752
▁indriķ	-11.1752
▁taktisk	-11.1752
▁rūpēti	-11.1752
▁kultūrvēsturisk	-11.1752
▁skotij	-11.1753
▁evaņģēlisk	-11.1753
▁apmācīt	-11.1753
▁opcw	-11.1755
▁ķīmij	-11.1755
▁pārdevēj	-11.1756
▁mis	-11.1758
▁telt	-11.1758
▁kartel	-11.1761
▁bagātāk	-11.1761
▁priecāj	-11.1761
▁saldum	-11.1762
person	-11.1762
▁uztrauc	-11.1762
89	-11.1763
▁pildīj	-11.1764
ang	-11.1766
▁pierādīj	-11.1767
sieviet	-11.1769
th	-11.1775
▁devusi	-11.1778
škod	-11.1778
▁siliņ	-11.1781
▁ferm	-11.1782
▁pārdal	-11.1789
ziņojum	-11.179
▁gājuši	-11.1791
▁gribat	-11.1793
38	-11.1793
▁neietekm	-11.1795
▁attīstīti	-11.1797
▁rog	-11.1797
▁ieraksts	-11.1799
▁vet	-11.18
▁pretendē	-11.18
▁seb	-11.1801
▁policijas	-11.1802
▁lod	-11.1808
▁saimniec	-11.1811
▁basein	-11.1812
▁holokaust	-11.1812
▁proporcij	-11.1812
▁spektr	-11.1812
▁1993.	-11.1812
▁ielūgum	-11.1812
▁dūmvad	-11.1813
▁pusmiljon	-11.1813
▁šķirošan	-11.1814
▁rt	-11.1815
▁spējus	-11.1817
▁jebkad	-11.1822
▁cieņ	-11.1822
▁ledāj	-11.1823
▁norēķin	-11.1828
▁ziemassvētku	-11.1829
▁kļavin	-11.1832
▁uzskaitīt	-11.1834
▁ciklon	-11.1836
▁līdak	-11.1839
▁laikmetīg	-11.1844
▁kabul	-11.1845
▁bal	-11.1854
▁nedarboj	-11.1855
▁svētku	-11.1856
pie	-11.1864
▁viens	-11.1864
▁aizej	-11.1866
▁nepras	-11.1867
▁komunāl	-11.1873
▁augsn	-11.1874
▁izsludināšan	-11.1874
▁uzsākus	-11.1874
▁tamuž	-11.1875
▁farmācij	-11.1875
▁blumberg	-11.1876
▁šoruden	-11.1876
▁skrējien	-11.1877
▁uzstādīšan	-11.1879
kļūst	-11.1879
▁jāsa	-11.188
▁lizd	-11.188
▁redž	-11.1881
▁negras	-11.1882
▁maizīt	-11.1887
prokuror	-11.189
kr	-11.189
intervij	-11.1891
eš	-11.1891
▁piesaistīj	-11.1897
▁ieguvēj	-11.1898
latvijas	-11.1901
▁pārcēl	-11.1914
▁pentagon	-11.1917
32	-11.1925
▁nikolaj	-11.193
▁cēl	-11.1933
▁impērij	-11.1935
▁washington	-11.1935
▁pasūtīt	-11.1935
▁atlūgum	-11.1935
▁skandināvij	-11.1935
▁stāž	-11.1936
▁apšaubīt	-11.1936
▁vulkān	-11.1937
▁patruļ	-11.1938
▁iekļuvuš	-11.1944
42	-11.1944
▁patēriņ	-11.1948
▁mik	-11.1953
ren	-11.1954
▁ieguld	-11.1979
▁raduši	-11.1982
▁rūķ	-11.1987
▁lietas	-11.1992
▁džordž	-11.1994
▁higiēn	-11.1996
▁neizbēgam	-11.1996
▁dievnam	-11.1997
▁izraidīšan	-11.1997
▁slēdzien	-11.1997
▁pastāst	-11.1997
▁ilon	-11.1997
▁atraduši	-11.1998
▁dalīti	-11.1998
▁nogalināšan	-11.1998
▁barselon	-11.1999
▁ērc	-11.1999
▁klinton	-11.1999
▁boeing	-11.1999
▁orientēt	-11.1999
▁redzējuš	-11.2
▁prezentēt	-11.2
▁burkān	-11.2
▁190	-11.2001
▁sāci	-11.2004
▁kontrolēj	-11.2005
▁vainojam	-11.2005
▁neslēpj	-11.2006
▁neesat	-11.2007
▁mājaslapā	-11.2018
▁y	-11.202
▁jaunzem	-11.2025
▁ministre	-11.2027
▁pateiks	-11.2041
▁veidoti	-11.2041
▁stāti	-11.2051
▁prombūtn	-11.2056
▁jauk	-11.2057
▁konfesij	-11.2058
▁1997.	-11.2058
▁videonovērošan	-11.2058
▁izolator	-11.2058
▁kredītiestād	-11.2059
▁dalīj	-11.2059
▁apšaubām	-11.2061
▁reaģēšan	-11.2064
▁iedegt	-11.2065
▁leien	-11.2065
▁cepum	-11.2065
▁huan	-11.2065
▁līdzīpašniek	-11.2065
▁jaukt	-11.2066
▁steig	-11.2072
▁uzvedum	-11.2074
attiecīb	-11.2075
piebilst	-11.2077
▁96	-11.2081
▁demonstrēj	-11.2082
▁jāveid	-11.2084
▁vēlēji	-11.2084
▁dzelz	-11.2093
ober	-11.2094
▁palaist	-11.2096
▁tri	-11.2106
amin	-11.2107
▁pagastā	-11.2109
veicot	-11.2111
▁līderis	-11.2115
▁netic	-11.2116
▁nobel	-11.2116
▁amatpersona	-11.2117
▁piedzin	-11.2119
▁iemītniek	-11.2121
▁ģeogrāfisk	-11.2121
▁absolvent	-11.2121
▁virsotn	-11.2121
▁izcelšan	-11.2121
▁startēj	-11.2122
▁nolik	-11.2123
▁sistēmu	-11.2123
▁gazprom	-11.2123
▁investēt	-11.2123
▁bezvienošan	-11.2127
▁baiden	-11.2127
▁mūžīg	-11.2127
ēk	-11.213
▁ok	-11.2133
māj	-11.2135
▁darbību	-11.2137
▁bah	-11.2139
▁izveidojot	-11.2139
▁jurij	-11.214
ugunsdzēsēj	-11.214
tāpēc	-11.2143
▁neveic	-11.2146
▁atjaun	-11.215
▁stāvēt	-11.2153
▁naudas	-11.216
▁asa	-11.2173
▁iekļauj	-11.2178
▁sēkl	-11.2182
▁neapmierināt	-11.2183
▁doktor	-11.2183
▁relatīv	-11.2184
▁interjer	-11.2184
▁jugl	-11.2184
▁segment	-11.2184
▁saredz	-11.2184
▁filozofij	-11.2185
▁patriot	-11.2186
▁iepazīstināt	-11.2187
▁sohr	-11.2188
▁aizpildīt	-11.2188
▁ad	-11.2188
▁pavār	-11.2188
▁kūtr	-11.2191
▁babiš	-11.2191
▁prām	-11.2191
▁apstāti	-11.2192
▁tūkstot	-11.2193
mar	-11.2197
ef	-11.2197
▁nobalsošan	-11.2198
paziņojum	-11.2204
▁iesaistot	-11.2207
▁piemērojam	-11.2209
▁gadam	-11.2214
▁sif	-11.2221
kor	-11.2224
▁acu	-11.2226
mej	-11.2227
ajām	-11.2228
▁vēber	-11.2229
▁bo	-11.2229
mb	-11.2243
▁slied	-11.2246
▁cienījam	-11.2247
▁demontāž	-11.2247
▁smēķēšan	-11.2247
▁ienāc	-11.2247
▁kolonij	-11.2247
▁spridzekl	-11.2248
▁iedegšan	-11.2248
▁pāragr	-11.2248
▁pretizlūkošan	-11.2249
▁kavēšan	-11.2249
▁līvān	-11.2249
▁ignorēt	-11.2249
▁carnikav	-11.2249
▁identificēj	-11.2257
▁ciešan	-11.2258
sh	-11.226
▁nokrit	-11.2262
▁norādījum	-11.2265
▁3,5	-11.2268
▁dienests	-11.2273
▁piederēj	-11.2281
▁šķērsošan	-11.2283
cik	-11.2296
▁inficēt	-11.2311
▁sodrēj	-11.2311
▁komercdarbīb	-11.2311
▁psihisk	-11.2311
▁jāapstiprin	-11.2311
▁teicāt	-11.2317
▁pašmāj	-11.2318
▁izlasīt	-11.2319
▁ber	-11.2326
49	-11.2327
ro	-11.2333
я	-11.2336
▁aiv	-11.2343
▁apkopoj	-11.2346
▁ieņēmuš	-11.2347
▁noder	-11.2349
▁piedalīt	-11.2353
▁135	-11.2355
▁pieņēmuš	-11.2358
▁nepild	-11.2361
▁psiholoģ	-11.2363
▁sagrāb	-11.2366
▁dienas	-11.2367
kal	-11.2372
▁vsa	-11.2372
▁brauk	-11.2373
▁meklējot	-11.2374
▁anket	-11.2375
▁plauš	-11.2375
▁island	-11.2375
▁robežkontrol	-11.2376
▁atzar	-11.2378
▁lvsad	-11.2378
▁rosļikov	-11.2378
▁monēt	-11.2379
▁iesnieg	-11.2385
▁piespiest	-11.2386
▁lāb	-11.2386
▁laiku	-11.2387
▁iejaukti	-11.2389
▁98	-11.2396
▁piespriež	-11.2397
▁uzcelt	-11.2404
▁eco	-11.2404
▁84	-11.2405
▁pārkāpus	-11.2408
▁86	-11.2413
▁pe	-11.2413
▁sadūmojum	-11.2415
ļu	-11.2419
▁justi	-11.2421
▁bolton	-11.2425
▁neitrāl	-11.2439
▁karalien	-11.244
▁gāzesvad	-11.2441
ierodoti	-11.2441
▁ņēmēj	-11.2442
▁gibraltār	-11.2442
▁nodarboti	-11.2443
▁brandav	-11.2444
▁pirkum	-11.2445
▁sier	-11.2447
noskaidrot	-11.2462
▁kasācij	-11.2462
kpv	-11.2464
▁lapiņ	-11.2467
▁paskaidr	-11.2469
▁patēri	-11.2476
nd	-11.2482
▁ielas	-11.2487
▁marin	-11.2487
▁vel	-11.2491
▁gredzen	-11.2504
▁paradīz	-11.2504
▁apgaismojum	-11.2504
▁97	-11.2504
▁krūt	-11.2505
▁pamatkapitāl	-11.2505
▁palielināj	-11.2505
▁slovēnij	-11.2506
▁uzkrāj	-11.2506
▁zīmējum	-11.2506
▁maksim	-11.2507
▁bur	-11.2519
▁cert	-11.2519
▁uzsvar	-11.2519
▁smaid	-11.2524
diskusij	-11.2526
▁līderi	-11.2527
▁kavēj	-11.2529
lej	-11.2536
▁vēstniec	-11.2539
▁jost	-11.2543
▁nevēlēj	-11.2547
▁nedod	-11.2548
▁atjaunoj	-11.255
▁ros	-11.2557
▁asiņain	-11.2565
▁uzturlīdzek	-11.2567
ten	-11.2568
▁edvard	-11.257
▁latīņamerik	-11.257
▁nepiekrit	-11.257
▁konsultatīv	-11.257
▁iecēl	-11.257
▁gunār	-11.257
▁ekskursij	-11.2571
▁izdomāt	-11.2571
▁filipīn	-11.2573
▁pārdod	-11.2573
▁pašinjan	-11.2575
▁pēctec	-11.2578
▁bagātīb	-11.2578
▁apzināti	-11.2579
tirdzniecīb	-11.2585
▁integrēt	-11.2585
▁public	-11.259
▁atbalstot	-11.2591
▁sasniedzam	-11.2592
aļ	-11.2594
▁informēšan	-11.2596
▁ignorēj	-11.2617
▁nodod	-11.2619
▁beidzi	-11.2622
▁apgūst	-11.2632
▁loģik	-11.2635
olainfarm	-11.2635
▁koordinator	-11.2636
▁dekān	-11.2636
▁priekšrok	-11.2636
▁pietuvināt	-11.2636
▁kopīpašum	-11.2638
▁daugavgrīv	-11.2639
▁afd	-11.2641
rod	-11.2642
maskav	-11.2643
▁taisn	-11.2643
▁ierind	-11.2643
▁ivanov	-11.265
▁koknes	-11.2651
bo	-11.2651
▁maikl	-11.2653
н	-11.266
▁iztur	-11.2664
▁jāie	-11.2664
▁mainījuš	-11.2669
▁alp	-11.2671
▁stiprāk	-11.2672
▁piezīm	-11.2674
▁ēšan	-11.2675
▁iesāk	-11.2677
kovsk	-11.268
▁han	-11.2681
▁aus	-11.2685
vienošan	-11.2688
▁drošāk	-11.2694
▁asu	-11.2695
▁taujāt	-11.2697
▁atvēl	-11.2698
▁neliecin	-11.2699
▁novemb	-11.27
ex	-11.27
▁kontinent	-11.2702
▁uguņošan	-11.2702
▁vakanc	-11.2702
▁sarežģījum	-11.2702
▁deleģēt	-11.2703
▁izved	-11.2706
▁ekspedīcij	-11.2706
▁publiskoj	-11.2706
▁nosodījum	-11.2707
▁neiet	-11.2709
▁paspēj	-11.2709
▁sdf	-11.2709
▁noskatīti	-11.2713
skont	-11.2717
▁sagatav	-11.2717
▁93	-11.2719
▁rosina	-11.2723
▁guardia	-11.2724
ekspert	-11.2724
organizācij	-11.2724
premjer	-11.2724
▁cept	-11.2726
he	-11.2728
▁kandidātu	-11.2737
▁sagatavojus	-11.2743
▁ievad	-11.2748
▁arēn	-11.275
▁ietvaros	-11.2753
veid	-11.2754
▁piedzīvojus	-11.2758
▁vietu	-11.2758
▁beigām	-11.2763
▁pārkāpumiem	-11.2763
film	-11.2765
braukšan	-11.2765
▁apakšpalāt	-11.2768
▁1940.	-11.2768
▁trump	-11.2768
▁kurdistān	-11.2769
▁saskarsm	-11.2769
▁reiž	-11.2769
▁pārskaitījum	-11.277
▁vēstnes	-11.2771
▁strupceļ	-11.2772
▁socioloģi	-11.2772
▁acīm	-11.2776
ait	-11.2777
▁sadarbojoti	-11.2777
▁mājas	-11.2779
saņem	-11.2789
▁alis	-11.279
▁sagaidīj	-11.2795
▁eva	-11.2798
zz	-11.2801
▁paveic	-11.2813
▁solījus	-11.2816
▁izmantojam	-11.2823
▁kurp	-11.2826
▁precizēj	-11.2826
48	-11.2833
▁komerc	-11.2834
sod	-11.2835
▁detektor	-11.2835
▁smilš	-11.2835
39	-11.2836
▁pavērsien	-11.2836
▁ģeopolitisk	-11.2836
▁pagarinājum	-11.2837
▁čūsk	-11.2839
▁karalisk	-11.2839
▁lepoj	-11.2839
▁ekspozīcij	-11.2841
vakar	-11.2841
▁audzināšan	-11.2841
▁peldoš	-11.2842
▁dubl	-11.2843
iņa	-11.2843
▁sančes	-11.2844
▁adresēt	-11.2845
▁uztaisīt	-11.285
se	-11.2851
itālij	-11.2853
▁jāatbild	-11.2854
ud	-11.2855
dp	-11.2857
▁tapuš	-11.2857
ziemassvētk	-11.286
▁vadot	-11.2863
▁leta	-11.2872
▁pašnāvīb	-11.2874
▁nosod	-11.2875
▁panāk	-11.2878
▁bolsonar	-11.2885
▁atst	-11.2886
ījuš	-11.2889
▁demonstr	-11.2891
▁aizskar	-11.2896
programm	-11.2898
▁populist	-11.2901
▁puik	-11.2903
▁saruc	-11.2903
▁manipulācij	-11.2903
▁jārīkoj	-11.2903
▁zīdain	-11.2903
▁kodollīgum	-11.2903
▁formējum	-11.2904
▁folklor	-11.2906
▁saražot	-11.2908
ha	-11.2909
▁glabāt	-11.2912
▁ētisk	-11.2914
м	-11.2921
▁satikt	-11.2921
▁kuģošan	-11.2921
18	-11.2924
▁kolēģij	-11.2925
▁iedot	-11.2925
▁saeima	-11.2926
%	-11.2928
▁tapus	-11.2945
▁pielietošan	-11.2949
▁ala	-11.2955
▁tēri	-11.2955
▁krus	-11.2962
apstiprināt	-11.2964
1.	-11.2968
▁aktivitāš	-11.2971
▁ambulator	-11.2971
▁karaflot	-11.2971
▁garšviel	-11.2971
▁traktor	-11.2971
tan	-11.2972
▁azov	-11.2973
▁viesuļvētr	-11.2974
▁iepazīstināj	-11.2978
▁pārraidīt	-11.2979
▁barīb	-11.2981
▁klaš	-11.2981
▁modul	-11.2982
uzbrukum	-11.2982
▁darīs	-11.2983
▁pērk	-11.2989
▁jāzin	-11.2992
▁koment	-11.2994
▁prezentēj	-11.3002
▁īsa	-11.3003
▁transportēšan	-11.3005
▁pretošan	-11.3006
▁izteikus	-11.3009
▁nerunāj	-11.3016
▁kalpoj	-11.3025
braucam	-11.3034
▁darbiniekiem	-11.3035
▁cīrul	-11.304
▁dramatisk	-11.304
▁ernest	-11.304
▁reportier	-11.304
▁1941.	-11.304
▁capital	-11.304
▁aktris	-11.304
▁ramon	-11.3041
▁neuzmanīb	-11.3041
▁audzēt	-11.3041
▁rait	-11.3042
▁sibīrij	-11.3043
ēsi	-11.3043
▁kļūdain	-11.3043
▁uzlab	-11.3044
star	-11.3045
oņ	-11.305
26	-11.3052
33	-11.3055
dat	-11.3056
▁dump	-11.306
▁darbinieki	-11.3064
▁katl	-11.3065
▁jebk	-11.3066
▁postoš	-11.3068
▁tan	-11.3069
▁iestāji	-11.3078
▁dail	-11.3079
▁pārstāvoš	-11.3083
▁ielej	-11.3084
▁zm	-11.3084
▁graud	-11.3086
gl	-11.3088
▁gadījumā	-11.3089
▁ļaun	-11.309
na	-11.3096
▁vic	-11.3103
▁krīt	-11.3105
▁bagāž	-11.3108
▁inficēšan	-11.3108
▁izšaut	-11.3109
▁tripol	-11.3111
▁pārskaitīt	-11.3111
▁instalācij	-11.3111
▁neapšaubām	-11.3112
▁valdījum	-11.3114
▁uzraugoš	-11.3118
egner	-11.3121
▁šausmīg	-11.3122
▁salman	-11.3123
▁sliden	-11.3123
▁uzbruk	-11.3123
▁decembrī	-11.3127
▁83	-11.3129
▁solot	-11.3133
slimnīc	-11.3135
gādāt	-11.3138
64	-11.3138
▁atgriezi	-11.3139
▁izmeš	-11.3141
▁vienstāv	-11.3141
▁varot	-11.3144
▁rāv	-11.3151
▁spēkiem	-11.3154
▁zīmīg	-11.3158
.10	-11.316
▁stend	-11.3162
▁vēlēšanu	-11.3164
07	-11.3164
vārd	-11.3166
▁informāciju	-11.3168
▁stāji	-11.3175
▁esamīb	-11.3175
▁aizmugur	-11.3176
▁noliegt	-11.3178
▁young	-11.3178
▁izglītošan	-11.3178
▁noskaidrošan	-11.3178
▁šķist	-11.3178
▁praid	-11.3179
▁dūklav	-11.3181
▁dislocēt	-11.3181
▁rigvir	-11.3181
▁rūdolf	-11.3181
▁sabalansēt	-11.3184
▁nomniek	-11.3192
▁pietik	-11.3193
▁detalizētāk	-11.3194
▁don	-11.3194
pil	-11.3198
▁atklājus	-11.32
zatler	-11.3204
▁apav	-11.3205
▁lielup	-11.3217
▁tiesāšan	-11.3221
vilkt	-11.3221
osi	-11.3231
dot	-11.3231
▁ben	-11.3236
▁nenoliedz	-11.3242
▁princ	-11.3245
lav	-11.3245
▁protestēt	-11.3246
pārbaud	-11.3247
▁alumīnij	-11.3248
▁milimetr	-11.3248
▁ziemeļmaķedonij	-11.3248
▁priekšnoteikum	-11.3248
▁atpazīt	-11.3249
▁aktualizēt	-11.3249
▁leģend	-11.3249
▁neatcer	-11.325
anc	-11.325
▁augul	-11.3251
▁inflācij	-11.3254
▁jānorād	-11.3255
▁krāsain	-11.3258
▁rotāt	-11.3258
rij	-11.3266
▁riten	-11.3269
▁sējān	-11.3269
▁iekļāv	-11.3272
huaw	-11.3272
▁iekārtot	-11.3274
dombrovsk	-11.3275
▁kriminālties	-11.328
ser	-11.3285
▁zaudējus	-11.3285
▁priec	-11.3286
▁komisija	-11.3286
zied	-11.3289
▁ilgst	-11.329
▁vēroj	-11.3292
▁uzbrūk	-11.3293
▁teikuš	-11.3295
▁apkārtnē	-11.3296
▁neatbild	-11.3297
▁mēģinājuš	-11.3299
▁anc	-11.33
▁go	-11.3301
nedēļ	-11.3302
▁pielik	-11.3303
▁im	-11.3305
▁ro	-11.3307
▁ligzd	-11.3318
▁simfonisk	-11.3318
▁saindēt	-11.3318
▁revolucionār	-11.3318
▁asociēt	-11.3319
▁mezgl	-11.3321
▁lepnum	-11.3321
▁kaļķ	-11.3322
▁pietrūkst	-11.3322
▁izdalīt	-11.3323
▁rezident	-11.3324
▁1,7	-11.3326
▁uzlaboj	-11.3327
▁jāap	-11.3342
▁samērīg	-11.3344
finanš	-11.3346
starptautisk	-11.3346
▁pastāvēj	-11.3349
ron	-11.335
our	-11.3359
▁car	-11.336
drošīb	-11.3363
▁skap	-11.3366
▁virzīti	-11.3367
▁gov	-11.3378
ēd	-11.3384
▁filip	-11.3389
▁hospitalizēt	-11.3389
▁humanitār	-11.3389
▁mandarīn	-11.3389
▁piesardzīb	-11.3389
▁seriāl	-11.3389
▁specialitāt	-11.3389
▁sacelšan	-11.3389
▁maisījum	-11.339
▁ķīlniek	-11.339
▁nodarīšan	-11.339
▁izvirzīšan	-11.339
▁112	-11.3392
▁vienprātīb	-11.3393
▁fe	-11.3393
▁reinbah	-11.3393
vec	-11.3399
▁indīg	-11.3403
▁lī	-11.3405
▁paver	-11.3411
▁piedzim	-11.3413
ve	-11.3413
▁dalīšan	-11.3415
ovič	-11.3415
▁studēj	-11.3417
šodien	-11.3418
▁ton	-11.3422
▁skaitu	-11.3425
▁apvien	-11.3426
īm	-11.3429
▁padomāt	-11.3439
▁neredzam	-11.3445
▁mil	-11.3448
alg	-11.345
▁izstrādājus	-11.3452
▁plaukst	-11.3461
volkswagen	-11.3461
▁mežacūk	-11.3461
▁sertificēt	-11.3461
▁ojār	-11.3461
▁anrij	-11.3461
▁iepirkšan	-11.3461
▁tulkojum	-11.3462
▁ieceļošan	-11.3462
▁miljonus	-11.3462
▁statuj	-11.3463
▁cenšami	-11.3464
▁labprātīg	-11.3465
▁aizbraukt	-11.3465
▁karotāj	-11.3467
41	-11.3471
▁kirštein	-11.3472
▁eglīš	-11.3473
▁apvienojot	-11.3474
▁paskatām	-11.3481
▁līmenī	-11.3481
vēstul	-11.3489
komitej	-11.3489
notikum	-11.3489
neskatoti	-11.349
▁dep	-11.349
▁1,1	-11.3495
▁citēj	-11.3499
▁izskatām	-11.3503
▁noslēgus	-11.3506
dij	-11.3506
▁laboratori	-11.3506
▁atkl	-11.3509
▁er	-11.3511
▁meža	-11.3512
д	-11.3518
mon	-11.3526
▁gun	-11.3527
▁ali	-11.3528
aut	-11.353
▁aizturēts	-11.3532
▁autoritār	-11.3532
▁kūrort	-11.3532
▁naudassod	-11.3533
▁secīb	-11.3533
▁pacelšan	-11.3535
▁šokolād	-11.3535
▁pkk	-11.3536
▁paskat	-11.3536
zvan	-11.3536
▁neaiz	-11.3536
▁etiopij	-11.3538
▁sakrīt	-11.3539
▁mācīšan	-11.3539
▁pārvēlēšan	-11.3539
▁ritm	-11.3542
▁salikt	-11.3542
06	-11.3546
▁atlik	-11.3546
▁izmantošanu	-11.3552
▁vmd	-11.3553
rad	-11.3553
▁lasīj	-11.3553
▁aktualizēj	-11.3562
polij	-11.3563
▁tec	-11.3563
▁pārbaudīj	-11.3571
▁nošāv	-11.3574
aņ	-11.3579
▁pusē	-11.3585
▁sagād	-11.3586
▁cienīg	-11.3592
▁piesavināšan	-11.3601
23	-11.3602
▁aizbildn	-11.3605
▁jāgaid	-11.3605
▁visnotaļ	-11.3605
▁audžuģimen	-11.3605
▁pienesum	-11.3605
▁perimetr	-11.3605
▁hitler	-11.3605
▁iemaņ	-11.3605
▁pārsegum	-11.3605
▁nepiedalīj	-11.3605
▁atpazīstamīb	-11.3606
▁pārvērst	-11.3606
▁ambicioz	-11.3607
▁salacgrīv	-11.3608
▁atrunāt	-11.3608
▁pārbauž	-11.3609
▁sviest	-11.3609
▁nerun	-11.361
▁vērsīsi	-11.361
▁daudzveidīg	-11.361
▁noskaņ	-11.3612
▁hom	-11.3617
▁lietu	-11.3618
▁redzēs	-11.3618
lnb	-11.3618
▁pak	-11.3619
▁0,5	-11.3621
▁nokļūšan	-11.3622
mār	-11.3623
▁boks	-11.3626
panāk	-11.3627
▁guļ	-11.3629
eniek	-11.363
▁nosūtīšan	-11.3632
▁astot	-11.3633
paldi	-11.3635
▁skaistāk	-11.3636
jkp	-11.3637
▁turpret	-11.3638
▁izbrauc	-11.3638
▁sar	-11.3641
▁pavēl	-11.3642
▁bažīj	-11.3643
▁olimpiād	-11.3646
▁atbrīvoti	-11.3649
▁dpa	-11.3651
art	-11.3661
ers	-11.3663
▁uzklaus	-11.3665
grup	-11.367
pēt	-11.3673
▁pielietoj	-11.3673
▁savāc	-11.3676
▁šaut	-11.3677
▁emirāt	-11.3678
▁tualet	-11.3678
▁abpusēj	-11.3678
▁kukain	-11.3678
▁izšķērdēšan	-11.3678
▁solvit	-11.3679
▁dīzeļdegviel	-11.3679
▁netraucēt	-11.368
▁optimāl	-11.368
▁memorand	-11.368
▁izsūtīt	-11.3681
▁jāatcer	-11.3681
▁bebr	-11.3681
▁slej	-11.3681
▁pārskatīšan	-11.3681
▁himn	-11.3682
▁ār	-11.3682
.15	-11.3682
▁pastāstīt	-11.3682
47	-11.3685
und	-11.3686
kan	-11.3688
▁radiācij	-11.3688
▁atbildētāj	-11.3696
▁kļūšan	-11.3696
▁pilsētvid	-11.37
▁1,6	-11.3703
▁retāk	-11.3704
46	-11.3712
▁pārdev	-11.3717
▁vēlētāju	-11.3718
▁jautājumā	-11.3724
īst	-11.3727
▁liepiņ	-11.3731
▁net	-11.3731
▁do	-11.3739
izēt	-11.3739
▁ter	-11.3742
▁domburu	-11.3743
▁brīdināt	-11.3744
▁iedzīvotājiem	-11.3744
pilsēt	-11.3745
▁zvanīj	-11.375
▁pārzin	-11.3751
▁saspringt	-11.3752
▁vakant	-11.3752
▁viduslaik	-11.3752
▁īpatnīb	-11.3752
▁planēt	-11.3753
▁izolēt	-11.3753
▁ieradīsi	-11.3753
▁atsavināt	-11.3754
▁zup	-11.3754
▁kozak	-11.3754
▁agrīn	-11.3755
cilvēk	-11.3755
▁pārsteidzoš	-11.3757
vi	-11.3759
▁blog	-11.3759
.2015	-11.376
tīrīg	-11.376
▁satiksme	-11.3761
tisk	-11.3763
uc	-11.3764
▁zarin	-11.3765
▁280	-11.3766
▁krekl	-11.3766
▁seim	-11.3767
lan	-11.3767
sankcionēt	-11.3767
▁reid	-11.3768
▁nogalinot	-11.377
ult	-11.3774
▁mīnus	-11.3777
▁filmēšan	-11.3779
▁stāvoš	-11.3782
pētījum	-11.3782
▁nenodrošin	-11.3791
ajev	-11.3792
▁veidā	-11.3793
▁koncentrēj	-11.3795
ind	-11.3805
▁nopietnāk	-11.3808
uv	-11.381
ož	-11.3811
▁des	-11.3813
▁sedz	-11.3816
56	-11.3821
▁buš	-11.3823
▁vācijā	-11.3825
▁garāmgājēj	-11.3826
▁skrund	-11.3826
▁ernst	-11.3826
▁godprātīg	-11.3826
▁ēter	-11.3826
▁virsprokuror	-11.3826
▁paket	-11.3827
psihoneiroloģisk	-11.3827
▁pārmest	-11.3827
▁lūgšan	-11.3829
▁fdd	-11.383
▁iznāc	-11.383
▁seržant	-11.3832
▁lzp	-11.3832
▁cilvēcisk	-11.3835
▁katar	-11.384
▁lūg	-11.3842
▁may	-11.3844
ze	-11.3845
▁iepazin	-11.3854
▁patur	-11.3854
▁brak	-11.3858
aiz	-11.3859
▁slēp	-11.388
▁brīdinājus	-11.3884
▁ušakovs	-11.3885
▁2017	-11.3893
pārēj	-11.3894
▁sarunāj	-11.3894
▁krāšņ	-11.3897
▁koncept	-11.39
▁izstāsi	-11.39
▁iztiesāšan	-11.39
▁veterān	-11.39
▁volkinštein	-11.39
▁definīcij	-11.39
▁2024.	-11.39
▁pakaļ	-11.39
▁ieslēgt	-11.3901
▁nevajadzīg	-11.3901
▁mūžīb	-11.3901
▁konsekvent	-11.3902
▁kolonn	-11.3904
87	-11.3905
▁līdzīb	-11.3907
izācij	-11.3907
▁izcilīb	-11.3908
▁saslimuš	-11.391
▁nodevīb	-11.3916
.18	-11.3922
▁cietumā	-11.3922
▁pārvietoti	-11.3922
▁karavīri	-11.3925
▁līdzcilvēk	-11.3928
▁ievainoti	-11.3931
ovic	-11.3931
rimšēvič	-11.3932
57	-11.3934
gadījum	-11.3945
▁gall	-11.3946
▁pagarināšan	-11.3947
kul	-11.3952
eņ	-11.3953
▁sk	-11.3955
▁pienākumus	-11.3957
03	-11.3957
▁nepatik	-11.396
▁1,4	-11.3962
▁dis	-11.3967
▁milt	-11.3972
▁meteoroloģi	-11.3974
▁teror	-11.3975
▁uzsākot	-11.3975
▁vladislav	-11.3975
▁likvidator	-11.3976
▁miermīlīg	-11.3976
▁airlin	-11.3976
▁ielaist	-11.3977
▁sargsjan	-11.3978
▁briež	-11.3978
▁anit	-11.3982
▁lokāl	-11.3982
umtirdzniecīb	-11.3984
▁izdzīvojuš	-11.3985
▁lūguš	-11.3986
▁pārveidot	-11.3987
▁dām	-11.3988
▁pdt	-11.3989
▁darbnespēj	-11.399
▁dienā	-11.399
politisk	-11.3991
▁jaungad	-11.3992
▁asfalt	-11.3994
▁pilsētiņ	-11.3998
▁mīkst	-11.4002
ča	-11.4018
▁vīrieti	-11.4023
▁dabūj	-11.4024
▁rat	-11.4024
▁1,3	-11.4025
▁pastiprin	-11.4026
jād	-11.403
60	-11.4031
▁še	-11.4034
▁pot	-11.4035
▁izbaudī	-11.4037
▁vajadz	-11.404
▁jāni	-11.4042
▁aprēķinā	-11.4043
▁makrons	-11.4046
▁uzbrauc	-11.4047
sociāl	-11.4048
▁vitamīn	-11.4051
▁ģirt	-11.4051
▁kubikmetr	-11.4051
▁raktuv	-11.4051
▁dievmāt	-11.4051
▁neatņemam	-11.4052
▁izcīnīt	-11.4052
▁tums	-11.4052
▁vienlīdzīb	-11.4053
▁put	-11.4053
▁civilliet	-11.4053
▁rozentāl	-11.4055
▁gāšan	-11.4055
▁saskatīt	-11.4055
gadā	-11.4056
▁nestspēj	-11.4058
▁biļeten	-11.4059
▁berg	-11.4061
▁ārvalstniek	-11.4064
▁negribēt	-11.4065
▁uzaicinājum	-11.4065
▁maltīt	-11.4068
▁novembrī	-11.4068
▁deln	-11.4068
norvik	-11.407
▁neveid	-11.4071
▁sastapt	-11.408
▁uzklausīj	-11.4081
makron	-11.4084
oloģisk	-11.4085
ūden	-11.4086
▁pateicīg	-11.4091
▁reģistrēj	-11.4102
▁caurum	-11.4105
rin	-11.4106
53	-11.4106
▁smagum	-11.411
▁il	-11.4112
▁lietusgāz	-11.4122
▁maig	-11.4125
▁trūcīg	-11.4125
▁emīl	-11.4127
▁brigāž	-11.4128
▁iepazīšan	-11.4128
▁ponton	-11.4128
▁prokrievisk	-11.4128
▁apriņķ	-11.4128
▁figūr	-11.4128
▁mikrorajon	-11.4128
▁purgail	-11.4128
▁skvēr	-11.4128
▁čīl	-11.4128
▁riņķ	-11.4128
▁jāizdar	-11.4128
▁nolaidīb	-11.4129
▁aizraujoš	-11.4129
▁lasīšan	-11.4129
▁inaugurācij	-11.413
▁netaisnīg	-11.413
▁iepret	-11.413
▁nomainīj	-11.4132
▁nāvējoš	-11.4132
▁apsveic	-11.4134
▁druviet	-11.4134
▁balti	-11.4137
▁atradīs	-11.4141
▁daudzstāv	-11.4144
spēl	-11.4144
02	-11.4145
▁izteiksm	-11.4148
▁mītiņ	-11.4155
parlament	-11.4158
▁beigt	-11.4162
tiesliet	-11.4166
lt	-11.4169
▁piegādāj	-11.417
▁lielbritānijas	-11.4173
▁atspoguļ	-11.4174
▁с	-11.4174
form	-11.4175
43	-11.4179
rik	-11.4183
▁balsojuš	-11.419
▁biks	-11.419
of	-11.4192
kim	-11.4194
▁global	-11.4201
▁valain	-11.4201
aid	-11.4201
▁psihiatr	-11.4202
▁latkovsk	-11.4204
▁sazvērestīb	-11.4204
▁vagner	-11.4204
▁priekštec	-11.4205
▁sarmīt	-11.4205
▁krūmiņ	-11.4205
▁cilvēkresurs	-11.4208
▁klein	-11.4209
▁noraidoš	-11.4213
▁turēj	-11.4213
▁vienreizēj	-11.4214
▁brūn	-11.4217
god	-11.422
▁afgā	-11.422
publisk	-11.4222
▁atļāv	-11.4227
▁dzen	-11.4234
▁her	-11.4234
plkst	-11.4239
pašreizēj	-11.4239
▁ā	-11.4241
▁uzturēti	-11.4257
▁divus	-11.4261
▁91	-11.4263
ens	-11.4263
▁lam	-11.427
▁izskanējus	-11.4273
▁neizdod	-11.4273
rok	-11.4276
▁onkoloģij	-11.4282
▁pārspēt	-11.4282
▁holding	-11.4282
▁aae	-11.4282
▁tokij	-11.4283
▁ieskaitīt	-11.4284
▁programmatūr	-11.4284
▁aptumsum	-11.4284
▁industriāl	-11.4284
▁dzirnav	-11.4285
▁divīzij	-11.4285
▁pavēr	-11.4289
▁attēlot	-11.4291
▁mitr	-11.4292
▁meklē	-11.4292
▁aukstum	-11.4293
▁ugunsgrēks	-11.4293
iedzīvotāj	-11.4296
▁apliecinoš	-11.4298
▁akn	-11.4299
▁pārbūvēt	-11.4299
.2	-11.4299
▁kopumā	-11.4307
▁atklājot	-11.431
▁bas	-11.4317
▁nolikšan	-11.4317
▁cietis	-11.4322
din	-11.4323
▁puses	-11.4329
audz	-11.4334
bul	-11.4338
▁spēku	-11.434
▁atradus	-11.4343
▁git	-11.4351
raugoti	-11.4351
▁stimul	-11.4352
▁domājoš	-11.4353
let	-11.4355
▁ukrainā	-11.4359
▁komfort	-11.436
▁anulēt	-11.436
▁inčukaln	-11.436
▁pionier	-11.436
▁priekšnesum	-11.436
▁identifikācij	-11.436
▁gundar	-11.436
▁right	-11.436
▁rituāl	-11.4361
л	-11.4361
▁autortiesīb	-11.4361
▁sasilšan	-11.4361
▁kaļiņingrad	-11.4361
▁iestrādāt	-11.4362
▁pipar	-11.4362
▁izmest	-11.4363
▁steidzamīb	-11.4364
▁grezn	-11.4364
▁izpildvar	-11.4364
▁nebaid	-11.4365
▁skaitītāj	-11.4365
▁sten	-11.4371
▁virzienā	-11.4374
▁domnīc	-11.4374
▁meklējam	-11.4375
▁migl	-11.4378
▁izraisot	-11.438
iespējam	-11.4381
▁mari	-11.4386
▁piekrituš	-11.4387
▁helman	-11.4387
den	-11.4392
▁pried	-11.4392
▁neslēp	-11.4395
▁mācīj	-11.4396
▁veiksmīgāk	-11.4396
▁atzīmējam	-11.44
lvc	-11.4403
▁uzspiest	-11.4405
▁tū	-11.4405
▁tirgot	-11.4406
▁analiz	-11.4408
▁pārraid	-11.4417
▁zvēr	-11.4419
▁paman	-11.4419
▁bēg	-11.4419
▁apsolīj	-11.4426
be	-11.4427
▁tatār	-11.4437
▁ekipāž	-11.4439
▁identisk	-11.4439
▁integritāt	-11.4439
▁džeims	-11.4439
▁strēlniek	-11.4439
▁sarīkošan	-11.4439
▁raidīt	-11.4439
▁ieraudzīt	-11.4439
▁simon	-11.4439
▁metodoloģij	-11.4439
▁son	-11.444
▁izšķiršan	-11.444
▁human	-11.444
▁izrunāt	-11.4441
▁deivid	-11.4442
▁golunov	-11.4443
▁hutieš	-11.4444
▁ballīt	-11.4446
▁inf	-11.4455
▁nebūs	-11.4456
▁likumīb	-11.4456
▁we	-11.4457
iļ	-11.4462
▁benj	-11.4464
▁gatavojoti	-11.4465
▁tuvēj	-11.4466
nīc	-11.4468
▁savien	-11.4468
fr	-11.4471
▁drošību	-11.4471
ci	-11.4473
▁vecīš	-11.4473
rinkēvič	-11.4475
saūd	-11.4475
▁baltijas	-11.4476
▁redzamīb	-11.4476
ekl	-11.4477
▁varbūtīb	-11.4482
kom	-11.4484
▁op	-11.449
vietēj	-11.4491
▁dzīvojuš	-11.4495
ald	-11.4496
oc	-11.4499
nupat	-11.4505
▁fiksēj	-11.4507
tā	-11.4508
▁minot	-11.4508
▁spēr	-11.4509
olog	-11.4514
▁vēs	-11.4517
▁krievvalodīg	-11.4518
▁pašsaprotam	-11.4518
▁domubiedr	-11.4518
▁energoresurs	-11.4518
▁dāsn	-11.4518
▁neatrod	-11.4518
▁degradējoš	-11.4519
▁rūjien	-11.452
▁kardināl	-11.452
▁atvest	-11.452
▁ieraudzīj	-11.4521
vir	-11.4521
▁attiecināt	-11.4522
▁neļaut	-11.4522
▁pirkšan	-11.4523
▁lvģmc	-11.4527
▁kopdzīv	-11.4528
▁funkcionāl	-11.4528
▁negribēj	-11.4528
▁pimenov	-11.453
▁braucam	-11.4536
▁levits	-11.4537
gen	-11.4541
ējusi	-11.4542
▁pr	-11.4542
▁aizbēg	-11.455
▁piekritus	-11.4551
aptuven	-11.4555
▁pauz	-11.4557
▁ziņojuš	-11.4558
31	-11.456
▁atradusi	-11.4565
▁raid	-11.4567
▁mājās	-11.457
▁amatpersonām	-11.4572
ūt	-11.4577
▁mij	-11.4578
▁jautājumu	-11.4584
▁saasināj	-11.459
▁pētīj	-11.4592
▁padev	-11.4595
▁smilt	-11.4596
▁mārc	-11.4597
▁sajūsm	-11.4598
▁depresij	-11.4598
▁dālij	-11.4598
▁parūpēti	-11.4598
▁politieslodzīt	-11.4598
▁aizsargjosl	-11.4598
▁kombinācij	-11.4598
▁uģi	-11.4598
▁šūn	-11.4599
▁hobij	-11.4599
▁balet	-11.4599
▁universāl	-11.46
▁svārstīb	-11.46
volv	-11.46
▁slimniek	-11.46
▁bēgšan	-11.4602
▁sudān	-11.4602
ārst	-11.4603
▁nereģistrēt	-11.4603
▁kalnozol	-11.4603
▁kontrolier	-11.4607
▁neticam	-11.461
▁uzturēj	-11.4613
bel	-11.4613
ong	-11.4614
▁xxv	-11.4615
pus	-11.4617
▁panākuš	-11.4618
▁aizseg	-11.4623
turpinot	-11.4623
pak	-11.4624
▁žanr	-11.4625
▁sil	-11.4629
▁partijām	-11.463
▁nolīgum	-11.4631
har	-11.4632
▁izgājuš	-11.4632
▁apiet	-11.4633
▁aizsardzības	-11.4633
ojam	-11.4633
muiž	-11.4635
▁nesēj	-11.4636
▁sas	-11.4639
▁runājuš	-11.464
kurzem	-11.4642
▁nīc	-11.4642
▁izņēm	-11.4646
▁izklāst	-11.4651
▁apstiprina	-11.4653
▁mars	-11.4655
prast	-11.4657
▁nesaskat	-11.4658
▁nevēlam	-11.466
tuv	-11.4664
▁pierakst	-11.4665
▁uzved	-11.4668
▁pētniec	-11.4668
▁krūz	-11.4677
▁soctīkl	-11.4679
▁diversant	-11.4679
▁ieraug	-11.4679
▁ledusskap	-11.4679
▁pāvel	-11.4679
▁termometr	-11.4679
▁sprāgstviel	-11.4679
▁1979.	-11.4679
▁jāizmant	-11.4679
▁roland	-11.4679
▁auditor	-11.4679
▁dinamisk	-11.468
▁bezatbildīg	-11.468
▁busines	-11.468
▁resor	-11.4681
▁soros	-11.4681
bi	-11.4681
▁pārstāvjiem	-11.4682
▁audzētāj	-11.4682
▁mamikin	-11.4683
▁240	-11.4683
▁kandidēšan	-11.4684
▁barg	-11.4684
evic	-11.4685
▁koncentrēt	-11.4686
▁iecerēj	-11.4686
▁sausum	-11.4689
▁panik	-11.469
▁atpūsti	-11.4691
▁reformu	-11.4691
▁uzraudzīt	-11.4694
▁uzlik	-11.4695
mor	-11.4699
vest	-11.4705
ši	-11.4705
▁tauk	-11.4706
▁glezn	-11.4708
iekšliet	-11.4717
tātad	-11.4717
▁mājviet	-11.4717
▁aizņemt	-11.4718
▁jul	-11.4718
▁dit	-11.4719
nīn	-11.472
▁senāk	-11.4722
▁ruhan	-11.4734
▁līgumu	-11.4735
▁laist	-11.4736
▁piemērojot	-11.4737
pol	-11.4737
▁cietumsodu	-11.4737
▁godin	-11.4739
▁ac	-11.4742
rīk	-11.4745
▁bel	-11.475
▁cirk	-11.4751
▁gam	-11.476
▁astravjec	-11.476
▁minoritāt	-11.476
▁allaž	-11.476
▁muskul	-11.476
▁žūrij	-11.476
▁sajust	-11.476
▁lokalizēt	-11.4761
▁pis	-11.4762
▁diagnostik	-11.4762
▁diān	-11.4762
▁resorisk	-11.4762
▁izklāstīt	-11.4762
▁apsteidz	-11.4763
▁izpildījum	-11.4764
▁niš	-11.4764
▁feldman	-11.4765
▁glabāj	-11.4766
▁pieaicināt	-11.4766
▁pirmsākum	-11.4766
▁segšan	-11.4768
▁disk	-11.4769
▁veikum	-11.477
▁jāpievēr	-11.4773
▁manām	-11.4776
▁ābel	-11.4776
▁vārīt	-11.4777
▁priekšniec	-11.4777
lap	-11.4778
likt	-11.4778
-16	-11.4778
▁sān	-11.4779
▁reaģ	-11.4779
▁centusi	-11.478
▁на	-11.4781
▁pelnīt	-11.4783
▁bojāšan	-11.4786
▁vairākkārtēj	-11.4787
▁vol	-11.4789
▁tomāt	-11.4789
zan	-11.4792
dokument	-11.4798
▁mest	-11.4801
▁darījuš	-11.4804
idž	-11.4808
▁virzīj	-11.4808
▁neievēroj	-11.4811
▁paslēpt	-11.4813
rat	-11.4821
▁seks	-11.4821
▁sēr	-11.4825
pavis	-11.4831
▁vietām	-11.4836
▁spān	-11.4842
interfax	-11.4842
▁jeļen	-11.4842
▁kvorum	-11.4842
▁neadekvāt	-11.4842
▁fantastisk	-11.4842
▁lietderīb	-11.4842
▁nodibināt	-11.4842
▁grenland	-11.4842
▁iekšpus	-11.4843
▁farmaceit	-11.4844
▁treniņ	-11.4846
▁svinēšan	-11.4846
▁atpaliek	-11.4848
▁atmaksāt	-11.4849
▁mieg	-11.4852
▁paskatīti	-11.4852
▁babīt	-11.4852
ho	-11.4853
▁izcēluš	-11.4854
▁vākt	-11.4854
90	-11.4858
▁iepirkt	-11.4859
formulēt	-11.4862
▁aizturēti	-11.4862
▁pārvaldīšan	-11.4863
▁izvilk	-11.4875
▁pļaviņ	-11.4883
▁rotaļ	-11.4887
cvk	-11.4887
▁novirz	-11.4888
▁valstis	-11.489
▁dienu	-11.4891
ņi	-11.4892
▁rīga	-11.4892
▁uzbrukumu	-11.4894
▁ilgtspēj	-11.4895
▁notriekšan	-11.4896
▁čigān	-11.4897
jon	-11.4897
run	-11.4899
▁vēlas	-11.4904
▁pievērsti	-11.4907
zīm	-11.4912
▁sarakstā	-11.4917
▁līm	-11.4918
▁ziņo	-11.4923
dansk	-11.4924
▁mjanm	-11.4925
▁torņakaln	-11.4925
▁perfekt	-11.4925
ļi	-11.4926
▁neatbalstīj	-11.4926
▁kreditēšan	-11.4927
▁lībiņa	-11.4927
▁nigērij	-11.4928
▁piecdesmit	-11.4928
▁sadalīšan	-11.493
▁|	-11.493
▁ļauž	-11.493
▁naur	-11.493
▁gaisotn	-11.493
▁mīļāk	-11.4932
▁krēsliņ	-11.4933
▁lift	-11.4933
▁nenoliedzam	-11.4936
▁ērtāk	-11.4939
for	-11.4942
▁jāpie	-11.4944
▁450	-11.4946
▁apstrīd	-11.495
rīd	-11.4951
kār	-11.4952
▁attāl	-11.4953
▁noslēguš	-11.4953
▁from	-11.4954
onij	-11.4957
ay	-11.4957
▁irānas	-11.4957
▁manīt	-11.4961
▁kaimiņš	-11.4962
biedrīb	-11.4963
▁nepieņem	-11.4963
sil	-11.4967
evič	-11.497
▁imper	-11.4973
▁uzaicināj	-11.4975
hu	-11.4985
▁bērni	-11.4986
▁parlamentā	-11.5
ūk	-11.5004
▁aukl	-11.5007
dur	-11.5007
▁saulain	-11.5007
▁paātrināt	-11.5007
▁nevainīg	-11.5008
▁sajut	-11.5008
▁vokāl	-11.5008
▁iesaldēt	-11.5008
▁tvertn	-11.5008
▁telekomunikācij	-11.5008
▁sabojāt	-11.5008
▁rūpniecisk	-11.5008
▁balož	-11.5008
▁gados	-11.501
▁bak	-11.5011
▁priekšgal	-11.5011
▁kandav	-11.5011
▁porziņģ	-11.5012
▁balkān	-11.5012
▁kopskait	-11.5012
▁zimbabv	-11.5012
▁argumentācij	-11.5012
▁celsij	-11.5013
▁pašpārvald	-11.5013
▁sagādāt	-11.5013
▁gardum	-11.5013
▁izdomāj	-11.5014
▁’	-11.5016
▁koš	-11.5018
▁jaht	-11.5022
01	-11.5026
▁iemaksāt	-11.5026
▁dēvēj	-11.5026
▁ierobežoj	-11.5034
▁pieci	-11.5034
▁iestājusi	-11.5037
▁iecerējus	-11.5037
▁politiku	-11.5037
dzīv	-11.5042
▁kon	-11.5044
▁fr	-11.5046
▁nezinot	-11.5047
urbanovič	-11.5049
ven	-11.505
59	-11.5052
▁neizmantot	-11.5055
sim	-11.5058
▁izpauž	-11.5061
▁fo	-11.5066
plān	-11.5072
simt	-11.5073
▁lavrov	-11.5073
▁rasnač	-11.5074
▁saturoš	-11.5079
▁tūr	-11.5082
▁kav	-11.5082
▁tiesības	-11.5087
▁cepur	-11.5089
▁indr	-11.5091
▁joprojām	-11.5092
▁marg	-11.5092
▁noliegus	-11.5092
▁skrejcel	-11.5092
▁vērtspapīr	-11.5092
▁baldon	-11.5092
▁bilanc	-11.5092
▁apgrozīj	-11.5092
▁lūzum	-11.5093
▁rotaļliet	-11.5093
▁sasaukšan	-11.5093
▁dominējoš	-11.5094
▁izbraukšan	-11.5095
▁jāizvēl	-11.5095
▁barikāž	-11.5096
▁bloķēj	-11.5096
▁black	-11.5097
▁drām	-11.51
▁valstiskum	-11.51
ey	-11.5101
▁ainar	-11.5101
ču	-11.5101
▁lampiņ	-11.5103
▁apstrādāt	-11.5105
▁nežēlīg	-11.5106
▁sākumā	-11.5107
pasaul	-11.5107
▁priekšsēdētājs	-11.5116
▁kalv	-11.5116
▁pārskatām	-11.5121
kon	-11.5122
siet	-11.5126
▁antoni	-11.5126
▁darbojusi	-11.5128
protestētāj	-11.5134
▁alt	-11.5139
▁pamatojot	-11.514
▁airb	-11.5141
▁1,8	-11.5143
juš	-11.5144
▁dažādīb	-11.5145
nes	-11.5148
▁talantīg	-11.5148
▁bezvēst	-11.5153
▁4,5	-11.5155
▁uzticēj	-11.5161
▁darba	-11.5162
▁šok	-11.5165
egl	-11.5166
п	-11.5171
▁spož	-11.5173
▁eiroskeptiķ	-11.5177
▁onkoloģisk	-11.5177
▁neguv	-11.5177
▁prognozējam	-11.5177
▁2023.	-11.5177
▁1918.	-11.5177
▁neesamīb	-11.5177
▁lubān	-11.5177
▁persij	-11.5177
▁privatizācij	-11.5178
▁strukturāl	-11.5178
▁rīkoji	-11.518
▁lielgabal	-11.518
▁šrilank	-11.518
▁šķelšan	-11.5181
▁rašan	-11.5181
toyot	-11.5181
▁dombrav	-11.5183
▁zaudēšan	-11.5187
▁neefektīv	-11.5196
pel	-11.5196
▁skrid	-11.5197
▁meitenīt	-11.5199
▁vēlēsi	-11.52
▁savēj	-11.52
▁atgriezusi	-11.5207
izstād	-11.5208
▁noskan	-11.5211
▁ķīnas	-11.5211
▁atgriezuši	-11.5211
▁dizainer	-11.5214
kultūr	-11.5219
tādējād	-11.5219
▁vērtībā	-11.5219
▁atjaunota	-11.522
66	-11.5223
▁nul	-11.5225
▁novēr	-11.5227
69	-11.5232
▁respekt	-11.5234
▁nogāz	-11.5234
▁domājat	-11.5235
spiest	-11.5235
ks	-11.524
▁maijā	-11.524
▁izveidojus	-11.5248
▁with	-11.5254
▁kritiz	-11.5255
▁centuš	-11.5257
onāl	-11.5258
▁attīstību	-11.5258
▁dzej	-11.5259
▁zālīt	-11.526
▁nolaupīt	-11.526
cer	-11.526
▁lepn	-11.5262
▁loterij	-11.5262
▁ratifikācij	-11.5262
▁2025.	-11.5262
▁ieturēt	-11.5264
▁hasan	-11.5264
▁enap	-11.5264
▁gulēt	-11.5264
▁produktivitāt	-11.5264
▁pārtap	-11.5264
▁cepšan	-11.5265
▁viltojum	-11.5265
gur	-11.5265
▁patriotisk	-11.5265
▁skaļ	-11.5265
▁respektēt	-11.5265
▁gandarīt	-11.5268
her	-11.5268
▁namiņ	-11.5269
▁ieceļ	-11.5274
▁kv	-11.528
▁šķ	-11.5282
▁pārliecināj	-11.5282
.4	-11.5285
▁sanākuš	-11.5289
54	-11.529
▁vajadzībām	-11.5295
▁mainot	-11.5296
spēj	-11.53
▁sapratn	-11.5304
krauz	-11.5305
dam	-11.5313
▁runājoš	-11.5315
▁skujiņ	-11.5319
▁peskov	-11.5327
dzin	-11.5329
▁1400	-11.5331
▁stoltenberg	-11.5334
▁savu	-11.5335
▁vask	-11.5338
▁izs	-11.5338
▁proj	-11.5343
▁centrs	-11.5343
rauj	-11.5344
▁laikraksts	-11.5345
▁nogalināti	-11.5348
▁gustav	-11.5349
▁ilūzij	-11.5349
▁sensitīv	-11.5349
▁nepiemērot	-11.5349
▁mobilizēt	-11.5349
▁rinkēvičs	-11.535
▁maģistrāl	-11.535
▁mazgadīg	-11.535
28	-11.5351
▁nopērkam	-11.5352
▁atved	-11.5352
▁pašnāvniek	-11.5352
▁ķirb	-11.5352
▁dzeram	-11.5353
▁turēšan	-11.5354
▁tavar	-11.5359
▁tepat	-11.5359
▁apliecinājuš	-11.536
▁papildinot	-11.5361
▁olg	-11.5368
▁nesāk	-11.5368
▁vilkt	-11.5369
▁procesā	-11.537
▁iesaistījuši	-11.5377
▁lietojum	-11.5381
▁varam	-11.5386
▁interesantāk	-11.5386
lp	-11.5386
▁veidojum	-11.5387
▁matis	-11.5388
sodīt	-11.5391
spānij	-11.5392
▁nodarīj	-11.5393
▁spēkā	-11.5394
visvairāk	-11.5396
▁labi	-11.5398
▁lp	-11.5399
▁attur	-11.54
▁ierosinājus	-11.5401
▁lidot	-11.5411
▁nākti	-11.5412
istisk	-11.5416
▁pamatn	-11.5425
ng	-11.5426
▁amatniek	-11.5428
▁kiber	-11.543
▁rīkojot	-11.543
▁gūstot	-11.5432
▁pērl	-11.5434
▁prasībām	-11.5434
▁korekcij	-11.5436
▁koruptīv	-11.5436
▁krāpniek	-11.5436
▁pensionēšan	-11.5436
▁sīpol	-11.5436
▁kompozīcij	-11.5436
▁nelikumīb	-11.5436
▁paļauti	-11.5436
▁populācij	-11.5436
▁samaņ	-11.5436
▁patrulēšan	-11.5436
▁pazudus	-11.5437
▁aizņēmum	-11.5437
▁bagdad	-11.5438
▁transportation	-11.5439
▁iereibuš	-11.544
▁metodik	-11.5441
▁līgumsod	-11.5442
▁likvidēj	-11.5442
▁attīrīšan	-11.5443
▁ikvd	-11.5443
▁spēki	-11.5444
▁avarēj	-11.5445
▁cēlēj	-11.5445
lo	-11.5446
ļaušan	-11.5448
▁piesak	-11.5461
▁270	-11.5461
▁ņemam	-11.5466
▁noķert	-11.5466
▁spriedums	-11.5475
ih	-11.5478
debat	-11.548
ekonomik	-11.548
četr	-11.548
recept	-11.548
galven	-11.5481
▁kučinskis	-11.5482
▁iedzīvotāji	-11.5488
▁būš	-11.549
▁sēdi	-11.5494
būt	-11.5494
▁cerēj	-11.5494
▁ārkārtas	-11.5495
▁sekmēj	-11.5496
▁pacēl	-11.5504
▁turcijas	-11.5504
teikuš	-11.5509
▁zēhofer	-11.551
po	-11.5511
▁apkalpoj	-11.5513
▁norāda	-11.5513
▁ābolti	-11.5513
▁teritorijas	-11.5514
▁izmeklēšanu	-11.5515
▁izmaiņas	-11.5517
▁kriminālprocesu	-11.5517
▁degus	-11.5518
▁vēsta	-11.5519
08	-11.5519
62	-11.5522
▁līdzjutēj	-11.5523
▁nesekmīg	-11.5523
▁paviljon	-11.5523
▁subsīdij	-11.5523
▁sirmgalv	-11.5523
▁niecīg	-11.5523
▁sanders	-11.5524
▁demogrāfisk	-11.5524
▁zemitān	-11.5524
▁leģendār	-11.5524
▁pārvēlēt	-11.5525
▁zvejniek	-11.5525
▁profesionalitāt	-11.5526
▁astoņdesmit	-11.5527
▁jaundzimuš	-11.5527
▁sagrābšan	-11.5527
▁pierad	-11.5528
▁jāmāc	-11.5528
▁griezum	-11.5528
▁satraucoš	-11.5529
▁apziņ	-11.5529
▁palaid	-11.5532
▁recepš	-11.5532
ajai	-11.5532
▁rezultāti	-11.5534
▁diplomātij	-11.5535
▁atsakoti	-11.5536
▁ietekmīgāk	-11.554
▁kong	-11.5541
▁vairākkārtīg	-11.5542
▁vadon	-11.5543
▁urn	-11.5545
▁dalībniec	-11.5546
▁bijāt	-11.5552
▁burovs	-11.5555
▁apstāj	-11.5557
▁budžeta	-11.5559
km	-11.5559
▁tvīt	-11.556
zvaigzn	-11.5566
▁beigusi	-11.5567
prot	-11.5567
▁rim	-11.5574
▁miz	-11.5579
nevien	-11.558
▁kavēt	-11.5583
▁salīdzinām	-11.5585
▁dud	-11.5588
▁pop	-11.5591
kst	-11.5591
tion	-11.5604
▁oranž	-11.5612
▁kohēzij	-11.5612
▁provokatīv	-11.5612
▁raņķ	-11.5612
▁putekl	-11.5612
▁subjektīv	-11.5612
▁priekšnosacījum	-11.5612
▁dienvidāfrik	-11.5612
▁demontēt	-11.5612
▁virsrakst	-11.5612
▁dejotāj	-11.5613
▁nederīg	-11.5614
▁rātslaukum	-11.5614
▁atvilkt	-11.5614
▁gaidot	-11.5615
▁apņēmuš	-11.5615
▁pielietojum	-11.5616
▁muceniek	-11.5616
▁vef	-11.5617
▁iub	-11.5618
▁rīcību	-11.5618
▁biezum	-11.5618
▁institucionāl	-11.562
▁korbin	-11.562
▁liepājniek	-11.5624
izm	-11.5625
▁rādīt	-11.5629
ež	-11.5633
▁vilnīt	-11.5634
▁letāl	-11.5635
▁spilgtāk	-11.5636
bin	-11.564
bur	-11.5651
▁uzrād	-11.5652
vāc	-11.5653
eks	-11.5654
alitāt	-11.5655
net	-11.5655
ty	-11.5656
pakalpojum	-11.5658
▁vienojusi	-11.5659
▁vaivar	-11.5661
▁darbības	-11.5663
▁izkrāpšan	-11.5673
pres	-11.5674
▁devīt	-11.5674
gais	-11.5676
▁veselības	-11.5676
▁deputātiem	-11.5679
58	-11.5679
▁pel	-11.5694
nergoefektivitāt	-11.5701
▁bezprecedent	-11.5701
▁deportēt	-11.5701
▁negodprātīg	-11.5701
▁precedent	-11.5701
▁restaurant	-11.5701
▁kopsaucēj	-11.5701
▁konfederācij	-11.5701
▁kron	-11.5701
▁mišel	-11.5701
▁gilen	-11.5702
▁orlov	-11.5702
▁pārrobež	-11.5704
▁die	-11.5705
▁tenis	-11.5706
▁that	-11.5706
▁līdzekļiem	-11.5706
▁notvert	-11.5708
▁šķērsot	-11.5715
▁tar	-11.5715
▁pārvadāt	-11.5716
▁119	-11.5722
▁koen	-11.5729
▁izgaismot	-11.5729
laiž	-11.5735
▁atskat	-11.5737
rakstīt	-11.5739
▁vienības	-11.5739
▁pārnes	-11.5739
eck	-11.5742
▁mērs	-11.5742
▁izteikusi	-11.5743
▁ieskic	-11.5745
▁statisti	-11.5745
)	-11.5748
daugavpil	-11.5748
▁kandidāts	-11.5748
kaspar	-11.5751
▁termiņu	-11.5752
▁atceļ	-11.5753
▁pasaules	-11.5755
▁eksperti	-11.5756
▁likvid	-11.5756
▁kļav	-11.5757
▁iedev	-11.5765
▁cep	-11.5768
▁sign	-11.5772
▁definēj	-11.5777
spriedum	-11.5778
burov	-11.5781
95	-11.5781
▁darījus	-11.5789
▁con	-11.5789
▁elektorāt	-11.5791
▁stereotip	-11.5791
▁viendzimum	-11.5791
▁zoodārz	-11.5791
▁specializācij	-11.5791
▁tērvet	-11.5791
▁biezpien	-11.5791
▁krājbank	-11.5791
▁seans	-11.5791
▁trīsdesmit	-11.5791
▁pagarin	-11.5792
▁pasliktināšan	-11.5792
▁aizrādījum	-11.5792
▁cba	-11.5792
▁vilšan	-11.5795
▁jautr	-11.5795
▁major	-11.5796
▁pārņemšan	-11.5796
▁ieguldīj	-11.5796
▁eksplozij	-11.5796
▁krjaček	-11.5796
▁lepēn	-11.5797
▁ācm	-11.5798
ļauj	-11.58
▁bu	-11.58
▁prasījum	-11.5803
▁varmāk	-11.5804
▁degun	-11.5806
▁porošenko	-11.5806
▁play	-11.5807
▁pērnav	-11.5809
lov	-11.5814
sarg	-11.5815
▁salon	-11.5816
▁nošķirt	-11.5816
jaze	-11.5817
▁lēnāk	-11.5818
▁valdībā	-11.5828
▁figur	-11.5829
▁ast	-11.583
▁dap	-11.5832
▁noskaidrojus	-11.5832
▁hu	-11.5833
▁pārsūdzēj	-11.5835
▁velk	-11.5837
▁jautājums	-11.5838
daesh	-11.5839
▁pilns	-11.5839
70	-11.5839
▁lūsiņ	-11.584
gatav	-11.584
▁strīdīg	-11.5841
67	-11.5846
centr	-11.5848
ltv	-11.5853
▁automašīnas	-11.586
▁pog	-11.5861
▁krievu	-11.5862
▁izraid	-11.5863
▁soc	-11.5864
.2014	-11.5868
▁cīnīt	-11.5869
▁lidoj	-11.587
▁appl	-11.5874
▁merced	-11.5877
▁igaunijas	-11.5877
▁gaum	-11.5879
darbīb	-11.5882
▁pornogrāfij	-11.5882
▁dividend	-11.5882
▁iesprostot	-11.5882
▁kulminācij	-11.5882
▁rezidenc	-11.5882
▁nojaukšan	-11.5882
▁dinamik	-11.5882
▁jēz	-11.5882
▁mācībspēk	-11.5884
▁iziešan	-11.5885
▁līgumcen	-11.5885
▁ķirurg	-11.5886
▁zeil	-11.5887
▁sakaut	-11.5887
▁ienākšan	-11.5887
▁belgrad	-11.5889
▁derīgum	-11.5889
▁pārstrādāt	-11.5891
▁dibināj	-11.5891
▁slok	-11.5892
▁cipul	-11.5894
▁likumu	-11.5903
▁garšīg	-11.5903
▁vsi	-11.5906
▁izpildīj	-11.5914
▁skaidro	-11.5924
▁konstat	-11.5925
oh	-11.5928
šonedēļ	-11.593
▁atspoguļoj	-11.5932
izstrādāt	-11.5944
▁piedāvājus	-11.5948
skat	-11.5948
▁nesteidz	-11.595
▁negadījumos	-11.5951
▁apmeklējuš	-11.5951
▁lielvalst	-11.5958
sist	-11.5961
▁750	-11.5963
▁com	-11.5965
▁izpaud	-11.5967
▁bio	-11.5968
▁evakuēti	-11.597
52	-11.597
▁pieplūdum	-11.5974
hezbollah	-11.5974
▁bakalaur	-11.5974
▁grobiņ	-11.5974
▁kontingent	-11.5974
▁kalifāt	-11.5974
▁nospried	-11.5974
▁interpol	-11.5974
▁marok	-11.5974
▁slēpošan	-11.5975
▁attālināt	-11.5976
▁somālij	-11.5976
▁radioaktīv	-11.5976
▁izlīgum	-11.5977
▁nesaprat	-11.5977
▁mitrum	-11.5978
▁ļaunum	-11.5978
▁klip	-11.5978
04	-11.598
▁testēšan	-11.5981
▁piemīt	-11.5986
▁skaļāk	-11.5986
▁rozenberg	-11.5987
▁pakļautīb	-11.5987
▁aizstāj	-11.5987
▁bil	-11.5993
3.	-11.5993
▁vērienīgāk	-11.5993
▁sper	-11.5994
ham	-11.5995
▁līdztiesīb	-11.5995
▁aizdeg	-11.5999
▁izcēluši	-11.5999
▁izdevēj	-11.5999
▁piedzīvojuš	-11.6
▁invest	-11.6003
▁iestājoti	-11.6003
▁neesoš	-11.6005
līg	-11.6008
▁saskaņoj	-11.6008
māmin	-11.6015
▁gāt	-11.6016
end	-11.6017
▁māl	-11.6018
▁sveik	-11.6018
▁toti	-11.6019
lidmašīn	-11.6023
▁rezumēj	-11.6024
▁piekritēj	-11.603
▁apšaub	-11.6034
▁neatrad	-11.6035
▁uzrādīj	-11.6041
▁lietav	-11.6052
▁ķēr	-11.6059
▁parādīti	-11.6059
▁vadītāju	-11.6061
▁bojāgājušie	-11.6064
▁ziemeļ	-11.6065
▁medvedev	-11.6066
▁partizān	-11.6066
▁populism	-11.6066
▁ģenerālštāb	-11.6066
▁specvienīb	-11.6066
▁bolīvij	-11.6066
▁sindrom	-11.6066
▁huligānism	-11.6067
▁siltumnīc	-11.6067
▁pārpratum	-11.6067
▁krišan	-11.6067
▁blīv	-11.6067
▁detal	-11.6067
▁masīv	-11.6068
▁prigožin	-11.6069
▁cīnītāj	-11.6069
▁elksniņ	-11.607
nam	-11.6071
vide	-11.6073
▁world	-11.6074
rp	-11.6077
▁pieņems	-11.6077
▁līdzekļus	-11.6078
▁smieklīg	-11.6079
ы	-11.6083
▁pievēršot	-11.6085
▁sap	-11.6088
▁brun	-11.609
▁sin	-11.6091
▁ni	-11.6096
▁sea	-11.6098
▁mač	-11.6098
rūpēj	-11.6101
onov	-11.6103
▁teikus	-11.6105
▁lauz	-11.6105
▁līdzfinans	-11.6107
▁vakariņ	-11.6109
▁ticīg	-11.6112
▁tūkstošiem	-11.6117
▁pašvaldības	-11.6118
▁iznīcin	-11.6119
▁slepkavību	-11.6123
anov	-11.6126
77	-11.6128
▁parādījuš	-11.6131
▁krastiņ	-11.6131
▁saskarti	-11.6135
▁7000	-11.6136
▁117	-11.6138
ūd	-11.6139
ījus	-11.6146
▁neapdraud	-11.6147
īpaš	-11.6148
▁elektro	-11.6149
▁ike	-11.6151
▁janvārī	-11.6152
▁you	-11.6153
▁liepājā	-11.6153
▁sieviete	-11.6157
▁dūr	-11.6159
ш	-11.616
▁izskaust	-11.616
▁lucavsal	-11.616
▁prospekt	-11.616
▁bezjēdzīg	-11.616
▁1985.	-11.616
▁digitalizācij	-11.616
▁interaktīv	-11.616
▁kadirov	-11.616
▁atrisināšan	-11.616
▁sadārdzinājum	-11.616
▁zand	-11.6161
▁līdzjūtīb	-11.6162
▁satraukt	-11.6163
▁mērām	-11.6164
▁piedzimšan	-11.6164
▁jāvērš	-11.6165
▁gailīt	-11.6165
▁klasificēt	-11.6166
▁bargāk	-11.6168
▁6000	-11.6168
▁tikai	-11.6169
▁bildīt	-11.6172
cent	-11.6172
naud	-11.6174
arlamentārieš	-11.6179
▁neērt	-11.6182
▁izvēlēji	-11.6186
▁tiesai	-11.6189
▁cehs	-11.619
spiež	-11.6192
▁ieceļot	-11.6193
▁gaisa	-11.62
cil	-11.6201
▁aptauja	-11.6203
viel	-11.6203
lend	-11.6205
ce	-11.6209
rād	-11.621
▁inter	-11.6221
▁apņem	-11.6222
del	-11.6223
▁rer	-11.6223
▁lietuvas	-11.6223
▁2500	-11.6224
▁serv	-11.6225
▁pielikum	-11.6227
▁pasliktin	-11.6232
▁problēmas	-11.6235
▁saprāt	-11.6237
reaģējo	-11.6237
▁retori	-11.6246
▁ārstēt	-11.6252
▁plenārsēd	-11.6254
▁pieslēgum	-11.6254
▁pistol	-11.6254
▁televizor	-11.6254
▁transatlantisk	-11.6254
▁vienaldzīg	-11.6254
▁laureāt	-11.6254
▁portret	-11.6254
▁pulkvež	-11.6254
▁grēk	-11.6254
▁analītisk	-11.6254
▁medmās	-11.6254
▁īstermi	-11.6255
▁lsm	-11.6255
▁priekšvakar	-11.6255
▁žest	-11.6256
▁bloķēšan	-11.6256
▁salūt	-11.6256
▁street	-11.6256
▁sproģ	-11.6257
▁izlaidum	-11.6257
▁jordānij	-11.6258
▁piekab	-11.6258
▁ūdeņraž	-11.626
tehnisk	-11.6264
▁sezonāl	-11.6265
.3	-11.6269
▁kavējum	-11.6269
▁eur	-11.627
ciest	-11.627
piln	-11.6271
▁vienkāršot	-11.6274
▁jātiek	-11.6276
day	-11.628
▁sirsnīg	-11.6282
sit	-11.6282
▁vienojoti	-11.6284
▁likumsargi	-11.6285
▁apsūdzības	-11.6286
mil	-11.6289
ēl	-11.6293
▁katrīn	-11.6294
▁reformas	-11.6296
▁ca	-11.6296
▁ķer	-11.6299
▁eiroparlament	-11.6303
ašeraden	-11.6306
mediķ	-11.6306
▁vietvar	-11.6312
▁stat	-11.6313
▁apņēm	-11.6316
▁pievēr	-11.632
▁stāt	-11.632
▁stād	-11.6325
▁neizmant	-11.6326
▁sēdēt	-11.633
ban	-11.633
▁šausm	-11.633
86	-11.6335
me	-11.6337
▁attīstot	-11.6338
▁nabadzīg	-11.6345
▁atklājum	-11.6346
▁skum	-11.6348
▁korpor	-11.6349
▁bolderāj	-11.6349
▁bundestāg	-11.6349
▁labiekārtošan	-11.6349
▁rms	-11.635
68	-11.635
▁paspārn	-11.635
▁brutāl	-11.6351
▁urān	-11.6351
▁padotīb	-11.6351
▁zīd	-11.6352
▁enter	-11.6352
▁atturēšan	-11.6352
▁leģionār	-11.6352
▁gudrīb	-11.6357
▁ger	-11.6357
▁eiropeisk	-11.6357
▁iespējas	-11.6361
▁klusum	-11.6361
▁zeķ	-11.6363
▁pompeo	-11.6363
▁tilta	-11.6366
▁ievainojot	-11.6367
▁paaugstināj	-11.6369
▁sirm	-11.6371
▁inft	-11.6376
šķiet	-11.6376
▁apmetn	-11.6377
▁se	-11.6378
▁vr	-11.6383
▁vidū	-11.6383
kopēj	-11.6386
▁zirn	-11.6389
▁padarīj	-11.639
.16	-11.6391
▁ron	-11.6391
▁bankrot	-11.6392
ēz	-11.6394
▁ait	-11.6395
▁vadībā	-11.6401
palīdzīb	-11.6402
▁lietuvā	-11.6404
neplp	-11.6405
▁apspriež	-11.6415
09	-11.6417
▁saistībā	-11.6424
▁līs	-11.6428
▁apcietinājumu	-11.6433
▁nekoment	-11.6434
▁dzīvību	-11.6438
▁uzņēmumā	-11.6438
▁neliek	-11.6443
sol	-11.6443
spriegum	-11.6443
▁bazilik	-11.6446
▁būvatļauj	-11.6446
▁edvīn	-11.6446
▁menedžer	-11.6446
▁šengen	-11.6446
▁1980.	-11.6446
▁iniciator	-11.6446
▁administrēšan	-11.6446
▁dimant	-11.6446
▁gumij	-11.6446
▁uzvarējus	-11.6446
▁tolstoj	-11.6447
▁vīķe	-11.6448
▁svf	-11.6448
▁iestrēguš	-11.6448
▁piesārņot	-11.6449
▁vēsāk	-11.6451
oloģij	-11.6451
▁ķengarag	-11.6451
▁haftar	-11.6452
pras	-11.6452
▁atēn	-11.6454
▁nedarīt	-11.6455
▁manafort	-11.6455
▁šāvēj	-11.6456
▁nepilnīg	-11.6457
▁epidēmij	-11.6459
▁was	-11.6459
▁rītdien	-11.6459
▁saskatīj	-11.6459
▁skaidrāk	-11.646
▁sagatavoti	-11.6462
▁sad	-11.6462
▁lāp	-11.6463
▁četri	-11.6463
▁attīstītāj	-11.6464
▁bēgt	-11.6464
▁lent	-11.6465
▁piedev	-11.6465
▁spēkstacij	-11.6465
▁kārtošan	-11.6466
к	-11.6474
▁advokāts	-11.6477
▁satiksmi	-11.6478
lm	-11.6478
100	-11.6482
▁rest	-11.6484
lauz	-11.6484
▁lec	-11.6486
▁iemācīti	-11.6488
▁trenēj	-11.6489
▁realizēj	-11.649
▁aizvadīj	-11.6492
▁nerunājot	-11.6498
incident	-11.6499
▁sūdz	-11.6503
▁gājis	-11.6507
▁atsauk	-11.6513
▁saruk	-11.6515
▁izraisīšan	-11.6515
ick	-11.6518
brīd	-11.6523
▁simtgades	-11.6527
▁atnes	-11.6529
sc	-11.6534
gin	-11.6537
▁atturēti	-11.6537
▁eksperts	-11.6537
▁aps	-11.6537
▁pieteikuši	-11.6539
▁neaizmirst	-11.654
▁sāncens	-11.654
▁apkarot	-11.6542
▁baktērij	-11.6543
▁honorār	-11.6543
▁lgbt	-11.6543
manabalss	-11.6543
▁1986.	-11.6543
▁1983.	-11.6543
▁asinsvad	-11.6543
▁kapelān	-11.6543
▁benzīn	-11.6543
▁remontposm	-11.6543
▁saulgriež	-11.6543
▁hiv	-11.6544
▁arktik	-11.6544
▁muļķīb	-11.6544
▁anatolij	-11.6545
▁noformējum	-11.6545
▁1988.	-11.6546
▁baņķier	-11.6546
▁nier	-11.6546
▁netrūkst	-11.6546
▁slēpšan	-11.6546
▁plīt	-11.6546
▁peldēšan	-11.6547
▁sagraut	-11.6547
▁zemsedz	-11.6547
▁pulcēšan	-11.6548
▁sakopt	-11.6548
▁jābrauc	-11.6548
lid	-11.6548
▁riskant	-11.6552
▁darīšan	-11.6552
!'	-11.6554
deg	-11.6555
▁id	-11.6557
jam	-11.6559
▁neatbildēj	-11.656
▁prokuratūra	-11.6565
oļ	-11.6566
▁80.	-11.6567
▁lielbritānijā	-11.6571
▁priekšsēdētāja	-11.6572
ster	-11.6572
▁kolk	-11.6579
jaut	-11.658
▁iesauk	-11.658
▁rob	-11.658
▁valdīšan	-11.6581
▁bagātīg	-11.6581
▁tiec	-11.6582
▁plos	-11.6582
▁izklaus	-11.6584
▁zinoš	-11.6585
▁organizētāj	-11.659
▁sc	-11.6595
▁pieprasījuš	-11.6599
kamēr	-11.6609
pin	-11.6609
▁bombardēšan	-11.6612
čer	-11.6617
▁saka	-11.6618
ārliet	-11.6627
rov	-11.6627
▁atstājus	-11.6628
▁iin	-11.6632
mir	-11.6633
▁delegāt	-11.6641
▁edmund	-11.6641
▁neatgriezenisk	-11.6641
▁pazūd	-11.6641
▁simpātij	-11.6641
▁nodzēst	-11.6641
▁hormuz	-11.6641
▁eiroatlantisk	-11.6641
▁radiostacij	-11.6641
▁1944.	-11.6641
▁krāpniecīb	-11.6641
▁segvārd	-11.6641
▁bavārij	-11.6642
▁izbraukum	-11.6642
▁sakritīb	-11.6642
▁psihiatrij	-11.6643
▁mugurkaul	-11.6644
▁galerij	-11.6644
▁pilsoņi	-11.6644
▁akceptēt	-11.6644
▁koģenerācij	-11.6645
▁iekasēt	-11.6645
▁jurģ	-11.6645
▁fail	-11.6646
▁strikt	-11.6646
▁ziedošan	-11.6646
▁jāpār	-11.6647
▁pārvērt	-11.6647
▁gapoņenk	-11.6647
▁csu	-11.6649
▁celtn	-11.665
▁sods	-11.6651
▁daudzgad	-11.6651
▁papildinājum	-11.6651
▁320.	-11.6657
▁nodevuš	-11.666
▁skriet	-11.666
▁uzticēti	-11.666
▁modernāk	-11.6663
▁nesankcionēt	-11.6663
ekonomisk	-11.6667
▁izaug	-11.6671
▁uzteic	-11.6671
lūk	-11.6672
▁apturējus	-11.6673
▁ziemeļkoreja	-11.6673
▁balsotāj	-11.6676
ējuši	-11.6679
▁ri	-11.6679
▁krievisk	-11.668
ņik	-11.668
▁vēsturē	-11.6684
ņikov	-11.6687
▁putinu	-11.669
zi	-11.6693
▁radītāj	-11.6694
festivāl	-11.6696
vm	-11.6699
▁raķetes	-11.6699
strād	-11.6699
sarakst	-11.6705
▁bara	-11.6707
▁sūtn	-11.6715
▁uzdevus	-11.6719
▁meklēšanā	-11.6721
▁atbalstām	-11.673
▁uzsākuš	-11.6732
▁grībauskait	-11.6737
▁deportācij	-11.674
▁nausēd	-11.674
▁šķīv	-11.674
▁oglekl	-11.674
▁bns	-11.674
▁pasniegšan	-11.674
▁boķ	-11.674
▁pusdienlaik	-11.674
▁dzejniek	-11.6741
▁izturēj	-11.6741
▁medaļ	-11.6741
▁apvainojum	-11.6741
▁tadžikistān	-11.6742
▁dān	-11.6742
▁našķ	-11.6743
▁barošan	-11.6743
▁neierast	-11.6743
▁sanitār	-11.6744
▁turīg	-11.6744
▁apsveikum	-11.6745
▁sējum	-11.6746
▁pieredzēj	-11.6749
▁ant	-11.6749
▁iebruk	-11.675
▁izmainīt	-11.675
▁rosinājum	-11.6751
ost	-11.6752
▁pann	-11.6752
▁publiskojam	-11.6753
▁gatavojot	-11.6754
▁pin	-11.6754
talon	-11.6754
▁darītav	-11.6754
▁septembrī	-11.6757
▁diskut	-11.6758
▁daudzbērn	-11.6759
▁nesoš	-11.6759
▁asp	-11.6762
▁trampu	-11.6763
bor	-11.6764
▁skāb	-11.6764
▁karton	-11.6765
eik	-11.6767
freiberg	-11.6772
▁ūdenstilpn	-11.6773
▁piecpadsmit	-11.6775
▁vidzemē	-11.6776
▁uzbrukuš	-11.6781
sedz	-11.6783
▁izturēt	-11.6789
▁reizi	-11.679
▁prasot	-11.6791
eglīt	-11.6791
▁visc	-11.6796
amatperson	-11.6796
kandidāt	-11.6797
▁aizklāt	-11.6799
▁my	-11.68
▁miljonār	-11.68
▁iestādē	-11.6807
▁cimd	-11.6808
kav	-11.6811
▁situāciju	-11.6813
vilk	-11.6815
▁nododot	-11.6815
▁uzlabojot	-11.6828
ann	-11.6834
▁entuziast	-11.6838
▁badastreik	-11.684
▁nopratināt	-11.684
▁angār	-11.684
▁klementjev	-11.684
▁sensor	-11.684
▁eļļ	-11.684
▁serget	-11.684
▁bumbvedēj	-11.684
▁prototip	-11.684
▁nolaupīšan	-11.684
▁ekspremjer	-11.684
▁kadastrāl	-11.684
▁antonov	-11.6841
▁iedarbīb	-11.6841
▁bis	-11.6841
▁hlor	-11.6841
▁ēna	-11.6842
▁pulcējuši	-11.6843
▁iesit	-11.6844
▁ķirš	-11.6844
▁bat	-11.6845
▁izplatījus	-11.6845
tic	-11.6846
bol	-11.6847
▁fabrik	-11.6847
▁satiek	-11.6849
▁meja	-11.6851
▁rezervēt	-11.6855
▁tram	-11.6855
▁vājāk	-11.6856
▁ārstēj	-11.6856
▁pastiprināj	-11.6863
73	-11.6864
▁kristi	-11.6865
▁turp	-11.6866
▁nejūt	-11.6867
▁šipkēv	-11.6867
▁labā	-11.6871
▁paiet	-11.6872
sab	-11.6873
▁hav	-11.6873
▁pēterson	-11.6875
▁ozoliņ	-11.6876
īšot	-11.6878
▁jaunu	-11.6881
ast	-11.689
ījum	-11.6897
dienvidkorej	-11.6897
griež	-11.6897
▁akcept	-11.6904
▁modr	-11.6904
bild	-11.6911
▁auguš	-11.6916
▁neapstiprin	-11.6924
▁sekas	-11.6926
▁pik	-11.6926
▁carg	-11.6928
▁reformēt	-11.6933
▁korumpēt	-11.6938
▁solidār	-11.6941
▁ulbrok	-11.6941
▁poliklīnik	-11.6941
▁makein	-11.6941
▁insult	-11.6941
▁filtr	-11.6941
▁sašķelt	-11.6941
▁humor	-11.6941
▁korporācij	-11.6942
▁izkļūt	-11.6942
▁herman	-11.6942
▁nodarb	-11.6943
▁atgriežami	-11.6944
▁divarp	-11.6947
▁131	-11.6947
▁pieteikus	-11.6948
▁lietišķ	-11.6948
▁latgalieš	-11.6949
▁pulkved	-11.6951
▁saukšan	-11.6953
▁ādamson	-11.6954
▁likus	-11.6956
▁apstrīdēj	-11.6958
burg	-11.6959
▁izlaid	-11.6959
▁metodisk	-11.6959
▁115	-11.6961
▁ēkas	-11.6967
▁eksist	-11.6968
▁europ	-11.6969
▁monopol	-11.6969
▁izstrādātāj	-11.6974
▁ticēt	-11.6978
da	-11.698
grib	-11.6983
▁ķīna	-11.6988
▁alf	-11.6992
▁izmet	-11.6994
varasiestād	-11.6999
advokāt	-11.6999
▁rezum	-11.7
▁privātum	-11.7003
▁nostrādāj	-11.7004
▁trāpīj	-11.7005
▁kiril	-11.7008
▁zemes	-11.7008
▁noritēj	-11.7011
▁nezināt	-11.7011
krist	-11.7024
▁ria	-11.7027
vidzem	-11.7029
▁latvija	-11.703
▁hol	-11.7035
veikt	-11.7037
▁raķešu	-11.7039
▁dežūr	-11.7042
▁notiks	-11.7042
▁dimensij	-11.7043
▁favorīt	-11.7043
▁sliež	-11.7043
▁apbedījum	-11.7043
▁bruņiniek	-11.7043
▁vbta	-11.7043
▁ķiver	-11.7043
▁deklarēšan	-11.7043
▁giel	-11.7043
▁nepieļauj	-11.7044
▁pilngadīg	-11.7044
▁notār	-11.7044
▁norobežot	-11.7044
▁kriptovalūt	-11.7045
▁mājdzīvniek	-11.7045
▁notiesājoš	-11.7045
▁cāl	-11.7046
▁riekst	-11.7048
▁aplūkojam	-11.7048
demokrātisk	-11.7049
▁erdogans	-11.7049
ejot	-11.7051
▁šef	-11.7052
▁parlamenta	-11.7055
▁zagt	-11.7057
▁augstien	-11.7057
▁lav	-11.7059
▁iemantoj	-11.7059
▁procesu	-11.7059
▁ga	-11.7059
jev	-11.7061
▁gej	-11.7068
▁klausīti	-11.7068
main	-11.7073
▁otrreizēj	-11.7077
lok	-11.7079
▁skrien	-11.7079
vār	-11.7079
▁aktuālāk	-11.7082
44	-11.7083
▁eks	-11.7086
▁ēdam	-11.7087
▁novērs	-11.7088
▁gor	-11.7088
tād	-11.7089
▁skudr	-11.709
▁maskavā	-11.7095
▁liv	-11.7096
dan	-11.7097
kat	-11.7098
▁hant	-11.7099
▁garumā	-11.7101
operācij	-11.7102
renār	-11.7104
vairum	-11.7104
rit	-11.7104
▁padome	-11.7106
▁mainīsi	-11.7108
▁maksas	-11.7109
▁iekļaujot	-11.7111
▁vairot	-11.7113
pur	-11.7114
sēsti	-11.712
attieksi	-11.7129
fot	-11.713
▁slakti	-11.7131
▁partija	-11.7131
▁0,1	-11.7133
▁zond	-11.7134
▁iegādāji	-11.7136
▁mēģinājus	-11.7136
з	-11.7141
▁mh	-11.7142
▁iedvesmot	-11.7142
▁korespondent	-11.7142
▁mirst	-11.7143
▁eduard	-11.7146
▁neitralitāt	-11.7146
▁spīdzināšan	-11.7146
▁principiāl	-11.7146
▁1919.	-11.7146
▁burbul	-11.7146
▁zarif	-11.7146
▁syrian	-11.7146
▁rietumkrast	-11.7147
▁apzīmējum	-11.7147
▁plāksn	-11.7147
▁ekoloģisk	-11.7147
▁patriarhāt	-11.7148
▁csp	-11.7148
▁jāpavad	-11.7148
▁sarūpēt	-11.7148
▁studēt	-11.7148
▁autoritāt	-11.7149
▁dagm	-11.7149
▁naiv	-11.715
▁freiman	-11.7151
▁19.00	-11.7151
▁piesauc	-11.7161
▁kupl	-11.7164
▁nedroš	-11.7165
īsimi	-11.7165
▁pens	-11.7166
▁likumā	-11.7171
pūt	-11.7172
▁svītrot	-11.718
▁latgalē	-11.7182
ēst	-11.7182
▁hart	-11.7185
▁salm	-11.7192
▁ev	-11.7195
▁senc	-11.7197
▁kabel	-11.7198
strīd	-11.7199
▁inovus	-11.7203
▁jak	-11.7213
▁statistika	-11.7217
cietuš	-11.7223
zaļ	-11.7225
▁apvienojuš	-11.7232
▁valdes	-11.7238
▁līdzeklis	-11.7241
orij	-11.7245
▁gūstekn	-11.725
▁magnitūd	-11.725
▁mārrutk	-11.725
▁nevainojam	-11.725
▁gigant	-11.725
▁biķerniek	-11.725
▁zva	-11.725
▁nodalījum	-11.725
▁birokrātij	-11.725
▁norīkot	-11.725
▁modernizēt	-11.7251
▁mihelson	-11.7252
▁džerem	-11.7252
jur	-11.7252
▁nokārtot	-11.7252
▁konstatēšan	-11.7253
▁psihiatrisk	-11.7253
▁bauman	-11.7253
▁palestīn	-11.7253
▁atsauks	-11.7254
▁pedagoģ	-11.7254
▁spridzināšan	-11.7254
▁citāt	-11.7254
▁nemaks	-11.7255
put	-11.7256
▁pamanām	-11.7257
▁sis	-11.7258
▁savdabīg	-11.7259
▁importēt	-11.7261
▁iespēju	-11.7261
▁izdeguš	-11.7263
▁neierobežot	-11.7265
▁iedomāj	-11.7265
▁januar	-11.7266
▁ke	-11.7267
▁čeh	-11.7268
▁spar	-11.727
▁izvēlējuši	-11.7271
▁čekist	-11.7276
▁nesaprotam	-11.7277
▁oktobrī	-11.7277
▁kursīte	-11.7281
▁nākšan	-11.7284
▁izteikti	-11.7284
▁ceļā	-11.7288
ros	-11.729
▁buk	-11.7292
▁gād	-11.7294
▁iznīcināj	-11.7297
▁izkāp	-11.7302
rak	-11.7308
▁ser	-11.7311
▁sadūr	-11.7312
▁neievēr	-11.7313
zīl	-11.7314
▁pabriks	-11.7317
pakul	-11.7318
dab	-11.732
▁atņēm	-11.7322
▁izvair	-11.7323
▁publicējus	-11.7325
▁miljonu	-11.733
▁simboliz	-11.7336
▁plānveid	-11.7336
mo	-11.7336
▁atkāpi	-11.7339
▁redzamāk	-11.7346
▁parunāt	-11.7352
▁albān	-11.7353
▁teterovsk	-11.7354
▁bezpalīdzīg	-11.7355
▁diecēz	-11.7355
▁džēin	-11.7355
▁pašlikvidācij	-11.7355
▁viļān	-11.7355
▁ārštat	-11.7355
▁cunam	-11.7355
▁orientācij	-11.7355
▁botānisk	-11.7355
▁pratināšan	-11.7355
▁engur	-11.7355
▁iesūtīt	-11.7356
▁elastīg	-11.7356
▁kliedēt	-11.7356
▁pamatnostādn	-11.7357
▁sesk	-11.7358
▁rezervist	-11.7359
▁balsstiesīb	-11.7359
▁pulcēsi	-11.7359
▁nenosauc	-11.736
▁laizān	-11.736
▁laušan	-11.736
▁šah	-11.7363
▁drukāt	-11.7366
▁saim	-11.7366
new	-11.7367
▁skrīver	-11.7368
▁ķuzis	-11.7368
▁ze	-11.7369
▁grauj	-11.737
▁ce	-11.7371
jus	-11.7371
las	-11.7372
▁apstiprinoš	-11.7372
▁anet	-11.7372
▁ievp	-11.7373
▁svārst	-11.7374
▁trud	-11.7374
▁pāl	-11.7376
sēž	-11.7378
▁vērtīgāk	-11.7379
▁vidus	-11.738
▁grāvīt	-11.7384
▁sākuši	-11.7387
▁vār	-11.7388
▁atteikuši	-11.7389
▁audio	-11.7395
.14	-11.7395
▁artur	-11.7396
▁prezidentu	-11.7405
▁mol	-11.7407
šo	-11.7417
▁neņem	-11.7419
▁apzinot	-11.7426
šī	-11.7429
▁iestādes	-11.743
▁francijā	-11.7433
▁fa	-11.7438
▁birojā	-11.744
▁parādīsi	-11.744
azij	-11.7442
▁va	-11.7449
▁deputātu	-11.7454
lūgt	-11.7454
75	-11.7455
klāj	-11.7457
▁fenomen	-11.7459
▁volejbol	-11.7461
▁boširov	-11.7462
▁jāsamazin	-11.7462
▁pārbrauktuv	-11.7462
▁pēkšņ	-11.7462
▁ķiplok	-11.7462
▁ūdenslīdēj	-11.7462
▁diktatūr	-11.7462
▁dīvān	-11.7462
▁precizitāt	-11.7462
▁ļaundar	-11.7462
▁spekulācij	-11.7462
▁ndf	-11.7462
▁ūdensvad	-11.7462
▁tēz	-11.7463
▁lell	-11.7463
▁konkurēt	-11.7463
▁kontinentāl	-11.7463
▁atslēgt	-11.7464
▁lepoti	-11.7464
▁mirstīb	-11.7464
▁atlaiž	-11.7464
▁sasteigt	-11.7464
▁blokād	-11.7464
lis	-11.7464
▁grozīšan	-11.7465
ēšot	-11.7466
▁ievērīb	-11.7466
▁izsekot	-11.7467
▁linderman	-11.7468
▁pārvest	-11.7468
▁celtniek	-11.7468
▁darot	-11.7468
▁qaed	-11.7468
▁audum	-11.7469
▁politiķi	-11.7472
▁kaljulaid	-11.7473
▁lektor	-11.7474
redz	-11.7474
▁mm	-11.7474
▁kult	-11.7475
▁parādīšan	-11.7477
▁brokast	-11.7478
▁pavadīb	-11.7478
▁ieved	-11.7481
▁118	-11.7485
▁diplom	-11.7491
7.	-11.7495
ājuš	-11.7497
▁martā	-11.7498
velt	-11.7499
lc	-11.7501
▁apkalpot	-11.7501
▁jāsaglab	-11.7501
ning	-11.7501
▁mīlēt	-11.7502
▁dzirdējuš	-11.7502
▁latvijai	-11.7502
rc	-11.7505
▁drup	-11.7505
▁pilsētās	-11.7506
▁goda	-11.7511
lūdz	-11.7511
ans	-11.7513
▁sadarboji	-11.7513
til	-11.7514
ērij	-11.7515
▁samazināsi	-11.7515
go	-11.7518
▁delt	-11.752
radi	-11.7522
enberg	-11.7524
▁veselovsk	-11.7525
gail	-11.7526
liepāj	-11.7527
▁pievērš	-11.7528
▁tr	-11.753
▁men	-11.754
▁kažok	-11.7546
▁has	-11.7547
▁psr	-11.7555
▁preciz	-11.7563
▁ignor	-11.7566
▁ki	-11.7567
▁glāz	-11.7568
▁subjekt	-11.7569
▁baterij	-11.7569
▁augšpalāt	-11.7569
▁instrukcij	-11.7569
▁performanc	-11.7569
▁ventilācij	-11.7569
▁uzsāc	-11.7569
▁currenttim	-11.7569
▁liellop	-11.7569
▁peldlīdzekl	-11.7569
▁jāizstrād	-11.7569
▁emigrācij	-11.757
▁papul	-11.757
▁daudzkārt	-11.757
▁sagrāv	-11.757
▁jāpalielin	-11.757
▁starojum	-11.757
▁aizdedzināt	-11.757
▁sirdsapziņ	-11.7571
▁sekretariāt	-11.7571
▁pavadīšan	-11.7572
ht	-11.7572
▁grūtniec	-11.7573
▁iekļūst	-11.7574
▁ziepniekkaln	-11.7575
▁atziņ	-11.7575
▁pārspēj	-11.7575
▁nomin	-11.7576
▁mēnešiem	-11.7576
▁stāvviet	-11.758
▁organizatorisk	-11.758
▁sastap	-11.7582
līdzināt	-11.7583
▁zander	-11.7584
▁ofac	-11.7585
▁nesanāk	-11.7589
▁druv	-11.7589
sauc	-11.7591
▁labojum	-11.7591
▁piepilsēt	-11.7592
▁hut	-11.7593
▁polijā	-11.7594
▁karavīru	-11.7597
droš	-11.7602
▁175	-11.7603
▁260	-11.7605
sak	-11.7605
▁merkele	-11.7607
▁periodisk	-11.7607
▁apmaksāj	-11.7608
mel	-11.7609
▁runājat	-11.761
▁sagrābt	-11.761
▁dže	-11.7614
vēj	-11.7616
▁izziņ	-11.7617
▁rīkosi	-11.7618
auk	-11.7619
▁izraēlas	-11.762
▁piedalījusi	-11.762
īji	-11.7626
▁atbilstošāk	-11.7627
▁irānu	-11.7629
▁uziet	-11.7635
▁sks	-11.7637
9.	-11.7638
▁skaidrojus	-11.7639
▁nepalīdz	-11.764
▁iestādēs	-11.7644
tor	-11.7654
log	-11.7655
▁ekstrēm	-11.7657
▁aizvad	-11.7659
▁mehānis	-11.7661
▁tāde	-11.7665
iegādāšan	-11.767
▁caurspīdīg	-11.7673
▁optimistisk	-11.7674
▁ziben	-11.7676
▁nepieder	-11.7677
▁automatizēt	-11.7678
▁bruņumašīn	-11.7678
▁cenzūr	-11.7678
▁restaurācij	-11.7678
▁skeps	-11.7678
▁viedtālrun	-11.7678
▁jāinform	-11.7678
▁einār	-11.7678
▁speķ	-11.7678
▁1984.	-11.7678
▁atpazīšan	-11.7678
▁kalorij	-11.7678
▁būvinženier	-11.7678
▁apmierināšan	-11.7678
▁iznomāt	-11.7678
▁atvilkšan	-11.7678
▁atbilž	-11.7678
▁zaig	-11.7679
▁izrakstīšan	-11.7679
▁rasol	-11.768
▁izvietojum	-11.768
▁lattelecom	-11.768
▁kopsumm	-11.7681
▁līgatn	-11.7682
▁solījuš	-11.7682
spriežot	-11.7682
▁divpadsmit	-11.7682
▁aizskaroš	-11.7683
▁pārklāj	-11.7684
▁padot	-11.7685
▁izolācij	-11.7685
▁nemainīsi	-11.7685
▁disciplinār	-11.7687
▁alej	-11.7688
▁iepazīstoti	-11.769
▁cirst	-11.769
▁patron	-11.7692
sij	-11.7696
▁censti	-11.7699
uzņēmēj	-11.7702
▁jūrmalā	-11.7704
▁220	-11.7704
▁ša	-11.7705
▁pielāgoti	-11.7708
▁360	-11.772
▁2,4	-11.7722
qu	-11.7725
▁merk	-11.7726
▁šin	-11.7728
▁vietās	-11.7728
▁izrakst	-11.7731
▁apvedceļ	-11.7737
▁medijiem	-11.7738
▁vēloti	-11.7739
▁nomal	-11.774
▁protestē	-11.774
konflikt	-11.7744
juraš	-11.7745
tal	-11.7753
▁alc	-11.7758
▁nepiedal	-11.7759
▁jens	-11.7765
ill	-11.7773
-8	-11.7773
▁daļā	-11.7777
▁pastarpin	-11.7778
apsūdzīb	-11.7779
▁iedod	-11.7779
▁palielināsi	-11.7782
▁nodibināj	-11.7785
▁vegān	-11.7785
▁koleģi	-11.7788
▁antidoping	-11.7788
▁jurisdikcij	-11.7788
▁komplikācij	-11.7788
▁piedūmojum	-11.7788
▁ričard	-11.7788
▁suverēn	-11.7788
▁ultimāt	-11.7788
▁apcietināšan	-11.7788
▁1981.	-11.7788
▁nogruvum	-11.7788
▁zeiļ	-11.7788
▁pārspīlēt	-11.7788
▁izelp	-11.7788
▁labsajūt	-11.7788
▁rossij	-11.7789
▁zudum	-11.7789
▁izciešan	-11.7789
▁bišķ	-11.779
▁piedošan	-11.779
▁ražojum	-11.7791
▁izšķīr	-11.7791
▁deripask	-11.7791
▁teoloģij	-11.7791
▁izjaukt	-11.7791
▁skult	-11.7792
▁petīcij	-11.7792
▁nolemj	-11.7793
▁patērēt	-11.7794
▁miķelson	-11.7795
▁taur	-11.7796
▁turpinoti	-11.7797
▁sociālistisk	-11.7799
▁uzklausīšan	-11.78
▁pārcelti	-11.78
▁nokļuvuš	-11.78
▁ieņemšan	-11.7802
▁sauk	-11.7802
▁neparād	-11.7803
▁113	-11.7807
▁eksportēt	-11.7807
▁teicien	-11.781
▁sac	-11.7811
▁atlaišanu	-11.7812
▁respektēj	-11.7821
desmit	-11.7829
the	-11.7829
▁izvairīj	-11.7831
tālāk	-11.7834
nodrošināt	-11.7835
▁saskāruš	-11.7836
ļot	-11.7838
▁filmēt	-11.7841
▁pašvaldībā	-11.7843
▁izturēti	-11.785
▁sastād	-11.7854
▁izgāz	-11.7855
glābēj	-11.7855
viņķel	-11.7858
▁intereses	-11.7862
čuk	-11.7867
▁nez	-11.7868
▁109	-11.7882
▁ulm	-11.7885
▁satikti	-11.7885
▁georg	-11.7885
ndk	-11.7891
lasīt	-11.7893
▁ch	-11.7896
▁analytic	-11.7899
▁nopratināšan	-11.7899
▁problemātisk	-11.7899
▁reaktor	-11.7899
▁zigfrīd	-11.7899
▁grāmatved	-11.7899
▁autobraucēj	-11.7899
▁skriešan	-11.7899
▁skābekl	-11.7899
▁idiot	-11.7899
▁jānosak	-11.7899
▁izdzīvošan	-11.7899
▁regīn	-11.7899
▁iedarbināt	-11.79
▁jurēvic	-11.79
▁apraid	-11.7901
▁siltumtīkl	-11.7901
▁izrotāt	-11.7901
▁saraksta	-11.7903
▁apdrošinātāj	-11.7903
▁apzināšan	-11.7903
▁risinām	-11.7905
▁skumj	-11.7905
▁līv	-11.7906
▁noslēpt	-11.7907
▁lidmašīnas	-11.7909
īsiet	-11.791
fa	-11.7914
▁fu	-11.7921
▁spied	-11.7922
▁bon	-11.7922
▁uzkod	-11.7923
▁nedēļas	-11.7927
▁ina	-11.7928
kodolizmēģinājum	-11.7931
▁nogādājuš	-11.7933
▁audi	-11.7933
mak	-11.7934
▁mirus	-11.7939
▁pirmo	-11.7944
▁dža	-11.7948
▁pieslēgt	-11.7949
▁izvēlēsi	-11.7949
▁vpd	-11.7952
▁dzīvošan	-11.7954
▁sat	-11.7957
▁raidīj	-11.7961
ausk	-11.7962
▁kurator	-11.7968
▁projektu	-11.7968
▁nag	-11.7969
▁daļu	-11.7969
▁francijas	-11.797
▁ez	-11.7972
▁jāat	-11.7978
▁neuztic	-11.7994
jer	-11.7998
dedz	-11.8003
▁maldinājumi	-11.8006
▁klint	-11.801
▁filozof	-11.801
▁adopcij	-11.8011
▁instruktor	-11.8011
▁konvoj	-11.8011
▁optimizācij	-11.8011
▁prostitūcij	-11.8011
▁pārraug	-11.8011
▁represēt	-11.8011
▁skrejrite	-11.8011
▁system	-11.8011
▁1968.	-11.8011
▁žagar	-11.8011
▁nestabilitāt	-11.8011
▁džamal	-11.8011
▁karastāvokl	-11.8012
▁konstantīn	-11.8012
▁daig	-11.8012
▁sitien	-11.8012
▁snigšan	-11.8013
▁regulējoš	-11.8014
▁tematik	-11.8014
▁mikroblogošan	-11.8014
▁nekontrolēt	-11.8016
▁krustpil	-11.8016
▁neizskat	-11.8019
▁asins	-11.802
▁iestudējum	-11.8021
▁izjut	-11.8022
cenš	-11.8022
akcij	-11.8023
▁mēnesī	-11.8025
▁kalniņš	-11.8025
▁trūkstoš	-11.8029
▁ziemeļkorejas	-11.803
▁armija	-11.803
▁jirgen	-11.8034
▁parunāj	-11.8035
▁glud	-11.8035
nov	-11.8037
▁noslēdzoš	-11.8041
.17	-11.8042
▁noraidījum	-11.8042
▁atgādinājum	-11.8043
▁reizes	-11.8046
▁brut	-11.8047
▁premjera	-11.8058
78	-11.806
mas	-11.8061
▁vēli	-11.8064
do	-11.8064
▁tml	-11.8067
!	-11.8068
▁ss	-11.8071
▁pazemināt	-11.8074
▁pavļuts	-11.8078
respektīv	-11.8081
kriminālliet	-11.8082
rast	-11.8084
▁nolasīt	-11.8087
▁mērij	-11.8093
apgrūtināt	-11.8093
▁apmierināj	-11.8099
don	-11.81
āz	-11.8102
▁krievijai	-11.8102
▁atviegl	-11.8105
▁izpelnīji	-11.8109
▁iesil	-11.8111
▁neatkarību	-11.8112
▁mai	-11.8114
▁skaidrojam	-11.8117
27	-11.812
▁bra	-11.8122
▁hibrīd	-11.8124
▁konfidenciāl	-11.8125
▁privilēģij	-11.8125
▁izstāž	-11.8125
▁nvs	-11.8125
▁zooloģisk	-11.8125
▁ronald	-11.8125
▁sadrumstaloj	-11.8125
▁jaudīg	-11.8125
▁sašaut	-11.8125
▁struktūrfond	-11.8125
▁lāsm	-11.8125
▁rekordliel	-11.8126
▁caurlaid	-11.8126
▁izstāstīt	-11.8126
▁smuk	-11.8127
▁elpošan	-11.8127
▁indeksācij	-11.8128
▁demonstrēšan	-11.8129
▁jācīn	-11.8129
▁neatzin	-11.8129
▁hosam	-11.813
akmen	-11.813
▁luksus	-11.813
▁mutisk	-11.8131
▁kuģniecīb	-11.8131
▁nepārtrauktīb	-11.8132
▁regulēšan	-11.8133
▁nolaišan	-11.8133
▁apaļ	-11.8133
▁ķegum	-11.8135
▁tirgū	-11.8135
paš	-11.8135
▁atturēt	-11.8136
▁nodalīt	-11.8137
▁telpaug	-11.8137
▁mo	-11.8137
▁kriminālprocess	-11.8139
▁kair	-11.814
▁apsaimniekot	-11.814
▁lappus	-11.8141
▁telefonisk	-11.8146
▁darināt	-11.8146
piemin	-11.8146
▁uzrādījus	-11.8149
▁pievakar	-11.8151
▁meloj	-11.8155
▁varen	-11.8156
▁manuāl	-11.8158
▁bor	-11.8158
iņu	-11.8158
▁sabruk	-11.8163
▁nosēšan	-11.8169
▁noklausīt	-11.8171
sekoj	-11.8175
arlamentāriet	-11.8176
▁195.	-11.8178
▁nākotnē	-11.8185
▁varasiestādes	-11.8185
▁dzer	-11.8187
▁rakstniec	-11.8187
▁policijai	-11.8189
▁pen	-11.8191
▁draudēt	-11.8191
▁pārsnieg	-11.8194
pe	-11.8194
gruškevic	-11.8196
katalonij	-11.8196
▁105	-11.8197
▁parlaments	-11.8197
bert	-11.8197
aust	-11.82
▁valdībai	-11.8201
▁lo	-11.8202
izrād	-11.8203
▁0,2	-11.8203
▁mēnešus	-11.821
▁zeman	-11.8214
▁143	-11.8215
▁atbrīv	-11.8217
▁pārliecin	-11.8218
▁pārgāj	-11.8219
▁kopā	-11.8219
piec	-11.8221
▁paaugstin	-11.8222
▁juhņēvi	-11.8226
▁loceklis	-11.8229
godināt	-11.8232
▁afganistānā	-11.8233
▁aprakstīj	-11.8236
▁lja	-11.8237
▁finansējumu	-11.8238
▁observator	-11.8238
▁apstādījum	-11.824
▁atkusn	-11.824
▁pacietīb	-11.824
▁svobod	-11.824
▁vienpersonisk	-11.824
▁mikrofon	-11.824
▁vingrinājum	-11.824
▁atsavināšan	-11.824
▁kleit	-11.824
▁parametr	-11.824
▁komiķ	-11.824
▁rijād	-11.824
▁iekštelp	-11.824
▁troll	-11.824
air	-11.824
▁sveicien	-11.824
▁1945.	-11.824
▁nva	-11.8241
▁pazemināšan	-11.8241
▁formulējum	-11.8241
▁bojāej	-11.8241
▁brīvdab	-11.8242
▁urīn	-11.8242
▁zaharov	-11.8242
▁debij	-11.8242
▁rud	-11.8243
▁jāapzin	-11.8243
▁jūrā	-11.8243
▁kronberg	-11.8243
▁būšan	-11.8243
zar	-11.8244
▁novecojuš	-11.8244
▁pārdalīt	-11.8244
▁denis	-11.8244
▁136	-11.8245
▁izrādīšan	-11.8245
▁slapj	-11.8246
▁piesaukt	-11.8249
▁iešan	-11.825
▁dziesmu	-11.825
▁cimdar	-11.825
▁saakašvil	-11.8251
▁izvairīg	-11.8252
▁iv	-11.8252
▁latviešu	-11.8252
▁viktorij	-11.8253
zāl	-11.8255
▁reģistrēšan	-11.8256
▁šovakar	-11.8259
▁silin	-11.8261
▁ag	-11.8265
▁turpina	-11.8269
▁miris	-11.827
▁kurzemē	-11.8271
▁saf	-11.8272
▁hanz	-11.8273
▁but	-11.8274
ow	-11.8277
iq	-11.8278
ulman	-11.8282
▁tro	-11.8284
▁produktīv	-11.8284
▁miljoniem	-11.8285
▁naktī	-11.8298
▁raud	-11.8301
▁vāk	-11.8303
▁arod	-11.8308
▁izvirzījuš	-11.8308
▁daugavpilī	-11.8308
▁energ	-11.8309
▁nodrošinājus	-11.8309
avot	-11.8311
venecuēl	-11.8313
ventspil	-11.8313
▁rītā	-11.8314
▁attaisnoj	-11.832
▁avots	-11.8321
▁pāvests	-11.8322
▁tet	-11.8328
▁piešķīrus	-11.8329
▁sistēmā	-11.8331
▁atver	-11.8333
▁pievienojot	-11.834
▁grupā	-11.8341
▁2,2	-11.8343
ač	-11.8345
či	-11.8347
▁izdzīvoj	-11.8353
▁septemb	-11.8353
▁izrādījuš	-11.8355
▁apstākļus	-11.8356
▁diabēt	-11.8356
▁iemīļot	-11.8356
▁izmitināšan	-11.8356
▁kokteil	-11.8356
▁maģisk	-11.8356
▁nekorekt	-11.8356
▁apbalvot	-11.8356
▁galaziņojum	-11.8356
▁natālij	-11.8356
▁aviobāz	-11.8356
▁ietaupījum	-11.8356
▁1967.	-11.8356
▁intrig	-11.8356
▁rezidentūr	-11.8356
▁krējum	-11.8357
▁atstāšan	-11.8357
▁manipulēt	-11.8357
▁audzinātāj	-11.8357
▁pilotprojekt	-11.8358
▁komunicēt	-11.8358
▁motociklist	-11.8359
▁zvērīb	-11.8359
▁mežeck	-11.8359
▁izzin	-11.836
▁apmierinoš	-11.8362
▁vaškevič	-11.8364
▁paklāj	-11.8364
▁atkāpj	-11.8365
▁nenoteikt	-11.8366
▁igaunijā	-11.8367
▁paraž	-11.8368
▁eņģel	-11.837
▁ķe	-11.8373
raž	-11.8374
▁peldēti	-11.8374
▁koncentrēti	-11.8377
▁paļauj	-11.8377
▁iekrit	-11.8378
▁izviet	-11.8379
▁novietn	-11.8385
▁skaistum	-11.8386
▁ugunsgrēki	-11.8393
▁pārdzīvoj	-11.8394
-3	-11.8404
▁vo	-11.8407
▁valdīj	-11.8409
▁varējus	-11.8409
▁vidien	-11.841
▁šķirot	-11.8411
▁nozīmēj	-11.8413
sv	-11.8417
▁braucēj	-11.8421
▁ieskicēj	-11.8422
▁minūtes	-11.8423
▁irāna	-11.8426
materiāl	-11.8427
▁audzin	-11.8427
▁saūda	-11.8427
▁176	-11.8428
latgal	-11.8429
▁gulēj	-11.8429
▁112.	-11.843
stabilizācij	-11.843
zviedrij	-11.8431
biroj	-11.8431
▁rēzeknes	-11.8431
sadarbīb	-11.8433
kurs	-11.8434
palīdzot	-11.8437
▁dob	-11.8438
▁125	-11.845
5.	-11.845
▁mont	-11.8468
▁pievilcīg	-11.8469
▁izprot	-11.847
▁uzbruc	-11.847
▁kūt	-11.847
▁spa	-11.8471
▁leģion	-11.8473
▁advokatūr	-11.8474
whatsapp	-11.8474
▁apelsīn	-11.8474
▁bļod	-11.8474
▁ierīkošan	-11.8474
▁kopsavilkum	-11.8474
▁renovācij	-11.8474
▁rct	-11.8474
▁prostat	-11.8474
▁jāsek	-11.8474
▁popularizēšan	-11.8474
▁novost	-11.8474
▁nekvalitatīv	-11.8475
▁varēš	-11.8475
▁džim	-11.8475
▁austr	-11.8475
▁savainojum	-11.8476
▁armēn	-11.8476
▁darbošan	-11.8476
▁likumpārkāpēj	-11.8476
▁vdi	-11.8477
▁jūlijā	-11.8478
▁grand	-11.8478
▁ahuna	-11.848
▁priekul	-11.8482
uh	-11.8483
▁pabeigus	-11.8483
▁jaunizveidot	-11.8484
▁aprūpē	-11.8484
▁bla	-11.8485
▁ienest	-11.8485
▁neteic	-11.8486
▁apvienoj	-11.8486
▁iegādājoti	-11.8486
▁dns	-11.8487
▁ziemeļkorejieš	-11.8488
▁atšķirt	-11.849
65	-11.849
▁sīkum	-11.849
▁can	-11.8491
▁uzglabāt	-11.8494
tiesīb	-11.8494
▁nocirst	-11.8495
▁britu	-11.8497
▁maduro	-11.8499
▁0,3	-11.8499
lat	-11.8503
▁dol	-11.8505
ītāj	-11.8505
▁pilsētas	-11.8513
▁straujum	-11.8515
▁today	-11.8517
stāst	-11.852
dzen	-11.8521
▁737	-11.8522
▁sniegs	-11.8523
▁apmāc	-11.8524
▁128	-11.8526
▁sportisk	-11.8528
▁nekandid	-11.8532
.5	-11.8533
▁rūt	-11.8535
box	-11.8536
rom	-11.8536
▁neinteres	-11.8538
▁kir	-11.8539
▁sievietes	-11.854
▁ugunsdzēsēji	-11.8541
pārvald	-11.8541
▁izplatījuš	-11.8543
▁rezultātus	-11.8544
avārij	-11.8549
▁būvēj	-11.8554
▁sadarbību	-11.8555
▁uzvarējuš	-11.8556
dod	-11.8557
lec	-11.8559
roz	-11.856
▁bull	-11.8561
▁spānijas	-11.8562
▁reglament	-11.8564
▁spārnot	-11.8567
▁mad	-11.857
▁и	-11.8575
▁ceram	-11.8578
▁aromāt	-11.8591
▁automāt	-11.8591
▁jaroslav	-11.8593
▁1970.	-11.8593
▁jāstāj	-11.8593
▁vangaž	-11.8593
▁1953.	-11.8593
▁izejviel	-11.8593
▁publicitāt	-11.8593
▁ģenerālleitnant	-11.8593
▁tkb	-11.8593
▁pastiprināšan	-11.8593
frēd	-11.8594
▁seul	-11.8594
▁atsūtīt	-11.8594
▁noturīb	-11.8594
▁jāiesaist	-11.8594
▁lēmums	-11.8595
▁spirt	-11.8596
▁metropolīt	-11.8597
▁kušner	-11.8597
▁uzbūvēj	-11.8599
▁bumbiņ	-11.8602
tilt	-11.8602
▁mantiniek	-11.8602
ра	-11.8605
▁lemšan	-11.8608
▁plūst	-11.8608
▁jāpārbaud	-11.8609
91	-11.8612
▁sapulcējuš	-11.8616
ķel	-11.8616
▁policisti	-11.8617
▁ietilp	-11.8619
▁priekšēj	-11.8619
▁sagādāj	-11.862
-15	-11.8625
▁namej	-11.8627
▁pārņēmuš	-11.8629
▁trans	-11.8633
▁sub	-11.8635
ry	-11.8636
▁ana	-11.8638
▁skot	-11.8645
▁col	-11.8647
▁lvm	-11.8647
rac	-11.8648
▁230	-11.8652
▁gas	-11.8662
salīdzin	-11.8662
▁noticis	-11.8665
▁argumentēt	-11.8668
mūzik	-11.8668
rezultāt	-11.867
taut	-11.8673
▁karš	-11.8676
▁dzēs	-11.868
▁rakstot	-11.8681
▁ielik	-11.8682
▁din	-11.8689
▁ge	-11.8691
▁tele	-11.8692
ijev	-11.8692
▁sarunāti	-11.8694
▁velo	-11.8697
andr	-11.8699
▁103	-11.87
saskaņa	-11.8701
▁2,1	-11.8703
▁izglābuš	-11.8703
▁balans	-11.8705
ч	-11.871
▁baltkriev	-11.8712
▁dakter	-11.8713
▁enciklopēdij	-11.8713
▁ratiņkrēsl	-11.8713
▁kvadrātkilometr	-11.8713
▁termisk	-11.8713
▁trausl	-11.8713
▁padzīt	-11.8713
▁nobrauktuv	-11.8713
▁elektrostacij	-11.8713
▁krātuv	-11.8713
▁pastmark	-11.8714
▁sajauc	-11.8714
▁mūk	-11.8714
▁nogādāšan	-11.8715
▁palēnināt	-11.8715
▁aizskārum	-11.8715
▁treij	-11.8716
▁rotāšan	-11.8716
▁izvirdum	-11.8716
▁izsit	-11.8716
▁sīv	-11.8716
▁mehanizēt	-11.8717
▁lddk	-11.8717
▁neierad	-11.8717
▁venecuēlieš	-11.8719
▁aizvērt	-11.8719
▁jāzep	-11.8719
▁sta	-11.872
85	-11.872
▁paguv	-11.872
▁mugab	-11.872
▁lūp	-11.8722
īc	-11.8722
.45	-11.8726
▁145	-11.8728
▁aig	-11.8728
▁svītr	-11.8732
▁tipisk	-11.8733
▁dombrovskis	-11.8747
▁aplūkoj	-11.8748
saul	-11.8748
van	-11.876
▁nevarat	-11.876
ārij	-11.8762
ēji	-11.8763
▁nevēlēšan	-11.8766
▁neveicin	-11.877
▁novērojuš	-11.8774
hen	-11.8775
rm	-11.8777
ajos	-11.8781
āv	-11.8781
ovs	-11.8783
▁nedraud	-11.8784
▁aizsilniec	-11.8785
▁kāpt	-11.879
▁sākti	-11.879
ran	-11.8791
produktīv	-11.8792
pilsoņkar	-11.8792
strīķ	-11.8792
turpmāk	-11.8792
▁du	-11.8793
▁atkārtoti	-11.8795
▁bijis	-11.8795
▁runās	-11.8795
▁daļa	-11.8801
.2019	-11.8806
▁izlikt	-11.8812
ling	-11.8813
▁nod	-11.8819
▁650	-11.883
▁motiv	-11.883
▁pan	-11.883
▁mohamm	-11.8835
▁miķel	-11.8835
▁fantāzij	-11.8835
▁likumsakarīg	-11.8835
▁nevainagoj	-11.8835
▁pornogrāfisk	-11.8835
▁proklamēšan	-11.8835
▁sazvanīt	-11.8835
▁skursten	-11.8835
▁zaķusal	-11.8835
▁prettank	-11.8835
▁zaļumball	-11.8835
▁galapunkt	-11.8835
▁afēr	-11.8835
▁iemūžināt	-11.8836
▁luterān	-11.8836
▁bung	-11.8836
▁indieš	-11.8837
▁pamatvērtīb	-11.8837
▁viesosi	-11.8837
▁pļavniek	-11.8838
▁budapešt	-11.8838
▁šašlik	-11.8838
aud	-11.8838
▁mazsalac	-11.8839
▁izturīb	-11.8839
▁nazarbajev	-11.884
celt	-11.884
▁lāčplēs	-11.8841
▁open	-11.8841
▁maksimum	-11.8841
▁vārpiņ	-11.8842
▁repertuār	-11.8842
▁stāvokli	-11.8842
▁fox	-11.8842
▁sarunām	-11.8843
▁piejūr	-11.8844
▁piezvanīj	-11.8845
▁muļķīg	-11.8845
▁sargāt	-11.8846
▁ba	-11.8846
▁rož	-11.8848
▁pelos	-11.885
▁eskalācij	-11.8851
▁kauņ	-11.8851
▁svētīb	-11.8852
▁deguš	-11.886
dev	-11.886
▁apēd	-11.886
▁laum	-11.8862
▁brīvības	-11.8863
▁interesēm	-11.8864
ge	-11.8866
99	-11.8869
▁mājien	-11.8869
▁braucoš	-11.8874
▁114	-11.8875
▁sakārtoj	-11.8881
▁prasības	-11.8883
▁izziņot	-11.8883
akt	-11.8884
▁gājus	-11.8885
▁palm	-11.8891
▁ziņas	-11.8896
▁aplam	-11.8903
▁izsludinājus	-11.8903
▁če	-11.8904
žep	-11.8905
▁bremz	-11.8906
▁atz	-11.8907
▁dūš	-11.8909
iniciatīv	-11.8915
administratīv	-11.8915
neilg	-11.8916
sagaidām	-11.8916
▁līdzsvarot	-11.8916
▁māk	-11.8917
▁kalniet	-11.8918
▁novada	-11.8921
▁veidojuš	-11.8921
▁reģionos	-11.893
ll	-11.8931
▁karot	-11.8931
▁sūdzēj	-11.8932
▁konkrētāk	-11.8933
▁noraidījuš	-11.8935
▁laš	-11.8936
laist	-11.8942
▁70.	-11.8945
ю	-11.8946
▁nobrauc	-11.8947
tel	-11.8948
▁kail	-11.8949
ли	-11.8952
▁izrādīji	-11.8955
bruk	-11.8956
paredz	-11.8957
▁ielai	-11.8958
▁alerģisk	-11.8959
▁algoritm	-11.8959
▁dālder	-11.8959
▁monetār	-11.8959
▁mūkusal	-11.8959
▁simulācij	-11.8959
▁stjuart	-11.8959
=	-11.8959
▁junior	-11.8959
▁nedraudzīg	-11.8959
▁uzbekistān	-11.8959
▁jāvienoj	-11.8959
▁doping	-11.8959
fidesz	-11.8959
▁anklāv	-11.8959
▁nelson	-11.8959
▁jāatgriež	-11.8959
▁ijab	-11.8959
▁resocializācij	-11.8959
▁mugursom	-11.8959
▁krapān	-11.8959
▁stagnācij	-11.8959
▁eraf	-11.8959
▁jēgpiln	-11.8959
▁pedr	-11.8959
▁atrakcij	-11.8959
▁traucēj	-11.8959
▁dzimstīb	-11.8959
▁nolietot	-11.8961
▁apspiešan	-11.8961
▁velkon	-11.8961
▁mičigan	-11.8962
▁vectēv	-11.8962
▁mierizlīgum	-11.8963
▁pārraudzīt	-11.8963
▁jāpaliek	-11.8964
▁ierobežojoš	-11.8965
jaunāk	-11.8965
▁vecpilsēt	-11.8965
▁17.00	-11.8965
▁meteorolog	-11.8965
▁pildījum	-11.8966
▁ltrk	-11.8967
▁neiman	-11.8967
▁food	-11.8967
▁neprecīz	-11.8967
cs	-11.8968
▁noslēdzi	-11.897
▁atskaņot	-11.8972
▁divas	-11.8972
vīd	-11.8972
pastāv	-11.8972
▁iecirknī	-11.8974
▁rīkojusi	-11.8975
▁mudināt	-11.8978
▁nepiedalīsi	-11.8979
▁staigāj	-11.8979
▁skin	-11.8988
▁interesēs	-11.8993
▁vann	-11.8995
▁91.	-11.8995
liec	-11.8996
▁izlaist	-11.8997
▁janis	-11.8997
84	-11.9007
▁deklarējus	-11.9014
▁skatot	-11.9016
▁bīstamāk	-11.9021
▁piebūv	-11.9022
▁attiecības	-11.9023
.2019.	-11.9025
▁apliecinājus	-11.9025
▁slimnīcas	-11.9026
pināt	-11.9034
▁kurš	-11.9034
▁ietriec	-11.9036
▁budžetā	-11.9036
dārz	-11.9037
▁kancelejā	-11.9037
džonson	-11.904
▁jāatzīm	-11.9041
▁iepazīst	-11.9041
▁aleks	-11.9042
way	-11.9042
▁hall	-11.9046
▁nosprau	-11.9048
stacij	-11.9051
▁finiš	-11.9053
▁2016	-11.9054
indij	-11.9056
▁augustā	-11.9056
▁atstājuš	-11.9058
▁samazinājusi	-11.9061
skrien	-11.9063
▁apstiprinot	-11.9066
▁pulver	-11.907
▁puc	-11.9075
▁pilnveidoj	-11.9081
▁priekšsēd	-11.9082
čik	-11.9083
▁pārmeklēj	-11.9083
▁dīkstāv	-11.9084
▁formastērp	-11.9084
▁koeficient	-11.9084
▁lnvm	-11.9084
▁lojalitāt	-11.9084
▁noslodz	-11.9084
▁pianist	-11.9084
▁attiekt	-11.9084
▁melodij	-11.9084
▁kapaviet	-11.9084
▁legalizēt	-11.9084
▁omeg	-11.9084
▁zirnekl	-11.9084
▁pastiprināsi	-11.9084
▁elektronik	-11.9084
▁ikmēneš	-11.9084
▁bronz	-11.9084
▁ritvar	-11.9086
▁bill	-11.9086
▁izturēšan	-11.9088
▁zemesgrāmat	-11.9088
▁are	-11.909
▁sākoti	-11.909
▁lidostā	-11.9091
▁kliedz	-11.9092
▁karojoš	-11.9093
▁klasik	-11.9093
▁navigācij	-11.9094
▁ņemšan	-11.9095
nk	-11.9096
▁pārbaudi	-11.9098
▁den	-11.9099
▁redzējus	-11.9099
▁atlikum	-11.9101
▁mītoš	-11.9101
▁sūtīj	-11.9104
▁izvēlējus	-11.9108
skatoti	-11.9109
▁izplatītāj	-11.9109
▁templ	-11.9111
atisk	-11.9115
▁manier	-11.9122
▁patent	-11.9125
▁2,3	-11.9127
iegūst	-11.9127
▁sagatavotīb	-11.9128
▁poli	-11.9129
▁pievienosi	-11.9129
▁mig	-11.9131
iev	-11.9132
.21	-11.9132
▁algu	-11.9133
▁nenotikt	-11.9139
▁auc	-11.9141
dombur	-11.9143
▁lop	-11.9143
▁rēķināti	-11.9152
domāj	-11.9153
parād	-11.9153
8.	-11.9156
▁dzē	-11.9157
ret	-11.9157
fer	-11.9159
▁stabin	-11.9162
koalīcij	-11.9167
attiecīg	-11.9167
departament	-11.9167
▁izlem	-11.9169
▁reg	-11.917
▁vij	-11.9172
▁čakša	-11.9172
inātāj	-11.9174
▁augus	-11.9176
▁pārdēvē	-11.9177
▁ģ	-11.9178
bal	-11.918
ģenerālprokuratū	-11.9184
▁turcija	-11.9189
▁ši	-11.9196
radīt	-11.9199
▁ied	-11.92
▁akceptēj	-11.9201
aq	-11.9203
eng	-11.9205
▁autentisk	-11.9207
▁izjuk	-11.9208
▁raun	-11.9208
▁alā	-11.9209
▁eirovīzij	-11.921
▁siltumnīcefekt	-11.921
️	-11.921
▁ilūkst	-11.921
▁trekn	-11.921
▁elizej	-11.921
▁will	-11.921
▁iztaujāšan	-11.9211
▁pavēlniecīb	-11.9211
▁fotoattēl	-11.9211
▁neapstiprināšan	-11.9211
▁nopirk	-11.9211
▁vajāt	-11.9211
▁funkcionēšan	-11.9211
▁totalitārism	-11.9212
▁secīg	-11.9212
▁pamudināj	-11.9212
▁cienītāj	-11.9213
▁čaul	-11.9213
▁anektēj	-11.9213
▁ieilguš	-11.9213
▁bangladeš	-11.9213
▁venēcij	-11.9213
▁dz	-11.9213
▁saīsināt	-11.9213
▁neērtīb	-11.9213
▁pašizmaks	-11.9214
▁stīven	-11.9214
▁eksperimentāl	-11.9214
▁lna	-11.9214
▁apstāšan	-11.9214
▁noformēj	-11.9214
▁amsterdam	-11.9214
▁646	-11.9216
▁jūras	-11.9216
▁farāž	-11.9217
▁piesaistīšan	-11.9217
▁russi	-11.9219
▁cipr	-11.9223
bāz	-11.9225
▁uzlabojusi	-11.9225
:1	-11.9227
▁projektētāj	-11.9228
▁slēpn	-11.923
▁pārkāpšanu	-11.9231
lampin	-11.9233
▁ašeradens	-11.9234
▁neminot	-11.9235
▁neskart	-11.9236
▁dor	-11.9237
▁plānu	-11.9241
▁lul	-11.9243
▁kurc	-11.9247
▁džonsons	-11.9247
▁koalīcija	-11.9248
vēr	-11.9248
▁mald	-11.925
▁kvalitatīvāk	-11.9252
▁izklāstīj	-11.9253
▁jānovēr	-11.9254
▁nosūtījum	-11.9254
▁kār	-11.9258
▁redzeslokā	-11.9258
▁aizmirs	-11.9258
med	-11.9261
▁trad	-11.9262
▁noslēgusi	-11.9262
ķer	-11.9269
lauž	-11.9272
▁prasījus	-11.9276
▁lmt	-11.928
ozola	-11.9281
vn	-11.9284
▁kārtot	-11.9284
īgum	-11.9292
izglītojoš	-11.9295
kozlovsk	-11.9295
spkc	-11.9295
deklarācij	-11.9295
facebook	-11.9295
krimināllikum	-11.9295
neraugoti	-11.9296
▁kareiv	-11.9298
baltij	-11.9301
▁nolaist	-11.9303
▁nap	-11.9306
г	-11.931
▁nostiprin	-11.9311
▁dun	-11.9311
rīkojum	-11.9313
▁aizpild	-11.9315
izveid	-11.9316
▁eid	-11.9321
▁atrisin	-11.9324
▁interpretēj	-11.9325
▁remontēt	-11.9328
▁fokus	-11.9328
▁nepalik	-11.9329
dzer	-11.9332
tu	-11.9334
▁ceh	-11.9334
▁izbrīn	-11.9334
▁ledus	-11.9336
é	-11.9338
▁journal	-11.9338
▁ažiotāž	-11.9338
▁dzjiņpin	-11.9338
▁gorbačov	-11.9338
▁hilarij	-11.9338
▁jāīsten	-11.9338
▁kloster	-11.9338
▁kopenhāgen	-11.9338
▁salmonell	-11.9338
▁tribunāl	-11.9338
▁ugunsbīstamīb	-11.9338
▁vāgner	-11.9338
▁komercpraks	-11.9338
▁andžej	-11.9339
▁meitasuzņēmum	-11.9339
▁tns	-11.9339
▁rutīn	-11.9339
▁jrt	-11.9339
▁lāzer	-11.9339
▁nesasniedz	-11.9339
▁vilson	-11.934
▁braun	-11.934
▁piekāpšan	-11.934
▁papildspēk	-11.934
▁sarakstu	-11.9341
▁disident	-11.9342
▁vienatn	-11.9342
▁bku	-11.9342
▁kontrabandist	-11.9343
▁spur	-11.9343
▁dekorācij	-11.9343
▁iztaujāt	-11.9344
▁četrdesmit	-11.9344
▁hercegovin	-11.9346
▁ratificēt	-11.9347
▁max	-11.9347
▁lilij	-11.9348
▁ķirurģij	-11.9348
▁līdzmaksājum	-11.9348
▁cietumniek	-11.935
▁iecienītāk	-11.9352
▁mair	-11.9353
▁hān	-11.9353
▁radīsi	-11.9356
▁ķīl	-11.936
▁bērziņš	-11.9363
▁laika	-11.9366
▁kann	-11.9367
▁sarīkojuš	-11.9369
▁reģistrēti	-11.9376
tiesīg	-11.9377
▁komisijas	-11.9379
▁lieta	-11.938
▁pārkāpuš	-11.9381
▁kāpost	-11.9382
61	-11.9383
х	-11.9388
▁kadaf	-11.9389
rn	-11.9393
▁iesaistīji	-11.9393
robež	-11.9399
▁hidro	-11.9403
▁pakārt	-11.9404
▁apmet	-11.9405
▁rosinājus	-11.9408
dziņ	-11.9409
evit	-11.9413
▁pilsētā	-11.9419
▁beiguš	-11.942
▁biežum	-11.9422
rietum	-11.9424
tirg	-11.9425
āboltiņš	-11.9425
▁lir	-11.9426
▁izpildot	-11.9427
▁mērķēt	-11.9427
▁varējuš	-11.9428
drīz	-11.9431
▁vienlīdz	-11.944
▁lar	-11.9445
ru	-11.9445
76	-11.9449
rt	-11.9453
▁atr	-11.9455
▁paplašin	-11.9456
▁jūnijā	-11.9458
▁uzņēmumiem	-11.9458
▁pārbaudām	-11.9466
▁līdzekļi	-11.9468
▁čiekur	-11.9468
°	-11.9468
▁pāvil	-11.9468
▁olšūn	-11.9468
▁straub	-11.9468
▁orbīt	-11.9468
▁skandaloz	-11.9468
▁māmiņ	-11.9468
▁nosargāt	-11.9468
▁stirn	-11.9468
▁jāpārtrauc	-11.9468
luminor	-11.9468
▁cilt	-11.9468
▁sabrūk	-11.9469
▁rahoj	-11.9469
▁autoavārij	-11.9469
▁nopludināt	-11.9469
▁klauž	-11.9469
▁pazaudēt	-11.9469
▁anektēt	-11.9469
▁ciršan	-11.947
▁albert	-11.947
▁keiš	-11.947
▁indul	-11.947
▁apglabāt	-11.947
▁kopsapulc	-11.9472
▁kapitāldaļ	-11.9472
▁kritien	-11.9472
▁pārdzīvojum	-11.9472
▁server	-11.9472
▁netaisnīb	-11.9473
mcdonald	-11.9473
▁menbiž	-11.9474
▁reportāž	-11.9474
▁internetā	-11.9477
▁cār	-11.9477
▁ēr	-11.9482
▁strādās	-11.9486
lic	-11.9492
▁nedom	-11.9492
▁noorganizēt	-11.9494
▁hous	-11.9496
▁ievadīt	-11.9498
štein	-11.9498
▁nokļūst	-11.9501
▁migrantu	-11.9506
▁dienvidamerik	-11.9507
▁skolniek	-11.9507
▁vērtēs	-11.9507
▁ietekmējot	-11.9508
▁1,9	-11.951
-12	-11.9512
▁gen	-11.9515
▁aizsākt	-11.9515
▁mazinot	-11.9516
▁nestabil	-11.9516
▁2,9	-11.9517
ntar	-11.9517
▁ta	-11.952
▁jāievie	-11.952
fm	-11.9522
▁atguv	-11.9525
▁īstenošanai	-11.9526
▁gu	-11.9529
augstāk	-11.9533
simi	-11.9533
aktīv	-11.9534
▁braukšanu	-11.9535
▁labdien	-11.9535
▁nākot	-11.9536
▁jautājumus	-11.9539
▁neizdevīg	-11.9541
▁kopīb	-11.9541
▁stādīt	-11.9541
▁zaļum	-11.9552
▁robežu	-11.9555
revīzij	-11.9556
vašington	-11.9557
iksten	-11.9557
plūd	-11.9557
ina	-11.956
kosov	-11.9561
▁atveid	-11.9561
▁tek	-11.9563
▁bol	-11.9563
▁petravič	-11.9567
tran	-11.957
▁у	-11.9573
▁atcēlus	-11.9574
por	-11.9575
▁apsvēr	-11.9579
idej	-11.958
lik	-11.9583
▁aka	-11.9584
oties	-11.9587
▁gul	-11.9588
▁izzināt	-11.9589
▁pasludin	-11.9591
spēlēt	-11.9592
▁daugavpils	-11.9593
▁paaugstinot	-11.9593
▁vadām	-11.9593
▁pievārt	-11.9598
tm	-11.9598
luņov	-11.96
▁jāatrisin	-11.96
▁moscow	-11.96
▁priekšlaicīg	-11.96
▁strazd	-11.96
▁minibus	-11.96
▁toksisk	-11.96
▁olbaltumviel	-11.96
▁nepāl	-11.96
▁drūm	-11.96
▁lolit	-11.96
▁tablet	-11.96
▁bruģ	-11.96
▁septiņdesmit	-11.9601
▁pārvarēšan	-11.9601
▁nepamanīt	-11.9601
▁funkcionalitāt	-11.9602
▁starpvalst	-11.9603
▁pieļaujot	-11.9603
▁reper	-11.9604
▁fitnes	-11.9604
▁nocēl	-11.9605
▁indēšan	-11.9605
▁jāpārskat	-11.9605
▁laris	-11.9605
▁sagaidīšan	-11.9605
▁atvaļināt	-11.9605
▁nepakļaušan	-11.9606
▁sēnīt	-11.9607
▁apspiest	-11.9607
▁jānāk	-11.9608
▁2,7	-11.9609
▁hal	-11.961
▁lzap	-11.9611
kri	-11.9613
▁rupj	-11.9613
▁zāģ	-11.9621
▁maksātnespējīg	-11.9622
▁marik	-11.9622
▁sodīšan	-11.9625
▁šaht	-11.9625
▁dikt	-11.9626
▁veln	-11.9626
▁skāruš	-11.963
▁tirdzniecības	-11.9631
▁turīb	-11.9637
gadniek	-11.9638
▁skr	-11.9639
▁autori	-11.964
▁2050.	-11.9642
▁dub	-11.9647
lk	-11.9648
klus	-11.9651
▁pulc	-11.9657
ж	-11.9657
▁sveic	-11.9657
▁710	-11.9657
▁sok	-11.9661
▁gr	-11.9663
▁nestrādāj	-11.9664
▁armijas	-11.9667
nodod	-11.9675
dor	-11.9677
▁ned	-11.9688
vizuāl	-11.969
paralēl	-11.969
sabiedrisk	-11.969
▁297	-11.9691
būvdarb	-11.9691
situācij	-11.9695
▁atvad	-11.9696
▁sankcijām	-11.9696
▁por	-11.9697
▁piedāvā	-11.9698
▁2,8	-11.9699
ziem	-11.9699
▁eksistenc	-11.9701
▁ceļa	-11.9711
▁či	-11.9713
▁sastop	-11.9714
▁ģimenes	-11.9717
▁defekt	-11.9717
▁sinoptiķ	-11.9721
▁pieseg	-11.9721
.23	-11.9726
▁secina	-11.9728
▁vērtē	-11.9728
▁vaider	-11.973
▁neizpild	-11.9731
▁grieķ	-11.9731
▁2020	-11.9732
▁moraveck	-11.9733
▁šķelt	-11.9733
▁klavier	-11.9733
▁impuls	-11.9733
▁jāpārliecin	-11.9733
▁nepieredzēt	-11.9733
▁ringold	-11.9733
▁solovjov	-11.9733
▁teksas	-11.9733
▁dagd	-11.9733
▁grīnvald	-11.9733
▁transakcij	-11.9733
▁vientuļ	-11.9733
▁neliedz	-11.9733
▁1939.	-11.9733
▁nepārdomāt	-11.9733
▁spogul	-11.9734
cambridg	-11.9734
▁būvobjekt	-11.9734
▁būvuzraug	-11.9734
▁iekšpolitik	-11.9734
▁jāuzlab	-11.9734
▁apreibinoš	-11.9734
ere	-11.9734
▁neitralizēt	-11.9734
▁nemaksātāj	-11.9734
darbojoti	-11.9735
▁nesaņēm	-11.9735
▁atpazīstam	-11.9736
▁pārsūdzam	-11.9736
▁paspēt	-11.9736
▁romantisk	-11.9736
ect	-11.9736
▁tunisij	-11.9736
▁gazet	-11.9737
▁slidotav	-11.9737
▁līkum	-11.9738
maks	-11.9739
▁paredzējus	-11.974
▁jir	-11.974
▁kostīm	-11.9742
▁jāatbalst	-11.9742
▁dvi	-11.9746
org	-11.9746
▁likvidējam	-11.9747
fe	-11.9747
▁multi	-11.9748
▁vājum	-11.9749
▁lidl	-11.9752
kp	-11.9753
▁rinkēvi	-11.9757
▁ūdr	-11.9757
▁olīv	-11.976
▁dziedāt	-11.976
▁draudzīgāk	-11.9761
▁kritizē	-11.9765
pro	-11.9765
▁141	-11.9765
▁padomē	-11.9765
dzīvot	-11.9768
▁pārkāpumu	-11.9768
▁apsekot	-11.9769
▁neredzēt	-11.9773
▁atlūz	-11.9775
▁protams	-11.9775
▁nomainot	-11.9777
df	-11.9779
▁nacionālism	-11.9781
mod	-11.9782
▁bud	-11.9786
▁izlūk	-11.9787
▁sarunās	-11.9791
▁iedomājam	-11.9792
juk	-11.9798
žurnāl	-11.98
▁ēra	-11.9801
ļev	-11.9805
▁rb	-11.9805
-50	-11.9808
ff	-11.9808
atsaucot	-11.9818
vadīb	-11.9821
▁city	-11.9822
▁os	-11.9823
▁ķerti	-11.9823
grāmat	-11.9823
▁netrauc	-11.9824
noteikum	-11.9824
autovadītāj	-11.9825
▁īstenojus	-11.9826
▁uguns	-11.9826
attīstībai	-11.9827
▁430	-11.9827
▁izšķirt	-11.983
▁uzskaitīj	-11.983
▁boikot	-11.9831
▁nerisin	-11.9838
▁fokusēj	-11.9841
▁sodīj	-11.9844
ķirs	-11.9845
▁noslēg	-11.9848
uzsver	-11.9848
ēvic	-11.9849
▁māju	-11.9849
pp	-11.9853
▁uzbūv	-11.9854
▁2015	-11.9855
▁ventspils	-11.9856
▁purvciem	-11.9859
▁polijas	-11.986
▁strupce	-11.9862
▁sodām	-11.9867
▁ugunsgrēku	-11.9867
▁saindēj	-11.9867
▁partiju	-11.9868
tomelektrostacij	-11.9868
▁grandioz	-11.9868
▁jāatstāj	-11.9868
▁leģitimitāt	-11.9868
▁optimism	-11.9868
▁preambul	-11.9868
▁simtprocentīg	-11.9868
▁tīmekļvietn	-11.9868
▁brocēn	-11.9868
▁uzmākšan	-11.9868
▁lsdsp	-11.9868
▁klaipēd	-11.9868
▁nostrādāt	-11.9868
▁arsenāl	-11.9868
▁1975.	-11.9868
▁hāg	-11.9868
▁pumpur	-11.9868
▁vispusīg	-11.9868
▁mentor	-11.9868
▁pielāgošan	-11.9869
▁jāpierād	-11.9869
▁montāž	-11.9869
▁signalizācij	-11.9869
▁svetl	-11.9869
▁uzdošan	-11.9869
▁garlaicīg	-11.9869
▁birokrātisk	-11.9869
▁sarūk	-11.9869
▁reaktīv	-11.9869
▁kitij	-11.9869
▁mežsaimniecīb	-11.987
▁silvij	-11.987
▁caurskatāmīb	-11.9871
▁tabul	-11.9871
▁notekūde	-11.9871
▁izsaukuš	-11.9871
▁bezgalīg	-11.9872
▁sabrukšan	-11.9872
▁čakst	-11.9873
▁rādīj	-11.9874
▁apdar	-11.9874
▁elementār	-11.9875
▁16.30	-11.9876
▁pretstat	-11.9876
▁pārvaldītāj	-11.9879
▁atsākšan	-11.9879
▁gps	-11.9881
▁izraēlieš	-11.9881
▁pucen	-11.9882
▁je	-11.9882
post	-11.9882
▁saistām	-11.9883
▁jārad	-11.9886
▁vitāl	-11.9887
vērtējo	-11.9887
mež	-11.9888
▁caurul	-11.989
▁ho	-11.9891
rag	-11.9893
▁peter	-11.9893
▁pārskaitīj	-11.9893
▁konsultēti	-11.9893
▁prātīg	-11.9894
tēt	-11.9895
▁dusmīg	-11.9898
▁stāvēšan	-11.99
▁radošum	-11.9902
▁101	-11.9903
▁traumas	-11.9905
turl	-11.9907
san	-11.9907
tuvoti	-11.9908
atbildīb	-11.991
port	-11.992
▁duš	-11.9923
▁stundas	-11.9927
▁neapzin	-11.9927
▁ienākt	-11.9928
runāt	-11.9928
▁ms	-11.9928
▁nodēvēt	-11.9929
māt	-11.9931
▁tērēj	-11.9933
daily	-11.9939
fil	-11.994
▁vardarbību	-11.9941
▁nedēļā	-11.9942
▁3,2	-11.9945
▁upi	-11.9948
▁pārvietojam	-11.9951
zd	-11.9957
▁telpā	-11.996
nel	-11.9961
▁noskatīj	-11.9962
▁realiz	-11.9963
▁skati	-11.9968
▁kaz	-11.9973
▁junkers	-11.9975
▁ielās	-11.9977
▁koalīcijas	-11.9979
▁mot	-11.9979
▁neiztur	-11.9979
▁lietojam	-11.998
▁novēl	-11.9982
žurnālist	-11.9987
▁108	-11.999
saimniek	-11.999
▁vakarā	-11.9992
▁grunt	-11.9998
nternātpamatskol	-12
▁pietrūk	-12.0001
▁aizi	-12.0002
97	-12.0004
▁sadrumstalot	-12.0004
▁pamatotīb	-12.0005
▁apstākļos	-12.0005
▁bībel	-12.0005
▁eksemplār	-12.0005
▁mērķdotācij	-12.0005
▁pagājušonedēļ	-12.0005
▁represīv	-12.0005
▁salmoneloz	-12.0005
▁varakļān	-12.0005
▁znotiņ	-12.0005
▁ievešan	-12.0005
▁tuksnes	-12.0005
▁visapkārt	-12.0005
▁nospiedum	-12.0005
▁jāatkāpj	-12.0005
▁diametr	-12.0005
▁seleck	-12.0005
▁urzul	-12.0005
▁mutvārd	-12.0006
▁stīv	-12.0006
▁butān	-12.0006
▁maur	-12.0007
▁bagdād	-12.0007
▁aizput	-12.0008
82	-12.0008
▁neļaujot	-12.0008
▁atlīdzināt	-12.0009
▁černobiļ	-12.0009
▁4,3	-12.001
▁odes	-12.001
▁ievākt	-12.001
▁negrozīt	-12.001
▁palien	-12.0011
bek	-12.0011
▁lion	-12.0011
uč	-12.0012
▁krauze	-12.0012
▁sistēmas	-12.0012
▁ivo	-12.0012
▁izņemšan	-12.0013
▁vienpadsmit	-12.0015
▁atskan	-12.0017
▁cienīt	-12.0018
▁veļ	-12.0018
▁jaunjelgav	-12.002
ticīg	-12.0021
▁saskaroti	-12.0025
▁neprecizēj	-12.0026
▁aprīlī	-12.0027
▁atsaucīb	-12.0028
▁piedziņ	-12.0028
tav	-12.0029
▁īstenojam	-12.0029
▁ner	-12.003
▁vietnē	-12.0031
skaidrojot	-12.0031
▁jel	-12.0031
▁bārd	-12.0032
▁dienēj	-12.0033
tān	-12.0035
▁citron	-12.0038
▁naž	-12.0038
▁121	-12.0042
▁cilvēcīg	-12.0043
▁defin	-12.0045
āzij	-12.0045
▁nenorād	-12.0047
▁ieliek	-12.0048
▁teritoriju	-12.0053
politik	-12.0058
▁vienaudž	-12.006
▁euro	-12.0061
▁kritizējuš	-12.0061
mum	-12.0062
▁atklāji	-12.0064
▁daudznacionāl	-12.0066
bēr	-12.0069
.22	-12.007
▁visum	-12.0077
▁norobežoj	-12.0079
▁izvēli	-12.0079
les	-12.008
adler	-12.0081
▁lak	-12.0086
▁lapin	-12.0087
▁atdod	-12.0088
▁likuš	-12.0093
navaļnij	-12.0101
merkel	-12.0101
sprādzien	-12.0101
iepirkum	-12.0101
līdzekl	-12.0102
▁kandidāti	-12.0102
▁neliet	-12.0104
▁politiķe	-12.0105
nesen	-12.0107
▁rik	-12.011
vidēj	-12.0111
▁nākotni	-12.0112
▁jaunup	-12.0113
▁mogerīn	-12.0119
▁cietumsods	-12.012
migrant	-12.0121
idb	-12.0128
▁noliek	-12.0133
96	-12.0134
horst	-12.0135
▁vecumniek	-12.014
▁caurskatām	-12.0142
▁jevgē	-12.0144
konfidencialitāt	-12.0144
▁antibiotik	-12.0144
▁avioreis	-12.0144
▁branson	-12.0144
▁clean	-12.0144
▁entuziasm	-12.0144
▁progresivitāt	-12.0144
▁rugāj	-12.0144
▁rīben	-12.0144
▁rīdzen	-12.0144
▁svētceļniek	-12.0144
▁haotisk	-12.0144
▁elektrifikācij	-12.0144
▁ieraut	-12.0144
▁viļum	-12.0144
▁horeogrāf	-12.0144
▁inkubator	-12.0144
▁grigorij	-12.0144
▁nomaiņ	-12.0145
▁kanēl	-12.0145
▁sniegavīr	-12.0145
▁šarl	-12.0145
▁urbān	-12.0145
▁iļj	-12.0145
▁sarkandaugav	-12.0145
▁ieklausīti	-12.0145
▁kalēj	-12.0145
▁taupīb	-12.0145
▁nošķiršan	-12.0146
▁meļņikov	-12.0146
▁kenij	-12.0146
▁dāvināt	-12.0146
▁jāsaskaņ	-12.0146
▁apgrūtinājum	-12.0147
▁interpretēt	-12.0147
▁pvo	-12.0147
▁hudeid	-12.0148
▁anonimizē	-12.0148
▁grūb	-12.0148
▁ruk	-12.0148
▁organisk	-12.0149
▁kongresmen	-12.0149
īlij	-12.015
▁nelik	-12.015
▁mozambik	-12.015
▁pamēģināt	-12.0151
▁nogalin	-12.0151
▁marek	-12.0151
▁katastrofāl	-12.0151
▁ceļiem	-12.0151
▁attīrīt	-12.0152
gājien	-12.0153
▁bijušo	-12.0154
▁centrāleirop	-12.0155
▁apgūšan	-12.0157
cien	-12.0158
▁padsmit	-12.016
▁pieticīg	-12.016
▁jāuz	-12.0162
▁sarunāt	-12.0164
izvērtēj	-12.0169
▁bri	-12.0171
virzien	-12.0172
▁bēd	-12.0172
▁otrreiz	-12.0172
▁ieradum	-12.0175
▁sastāvā	-12.0175
▁123	-12.0176
gor	-12.0178
nor	-12.0184
▁apskatot	-12.0189
▁nāvi	-12.0194
▁nopietnīb	-12.0198
▁neaizsargāt	-12.0201
▁ļāvuš	-12.0206
▁rodam	-12.0207
▁neskat	-12.0207
▁vērman	-12.021
▁atmaksāj	-12.021
▁nepieciešams	-12.0215
▁laid	-12.0216
▁exp	-12.0217
▁kom	-12.0218
▁piņķ	-12.0219
led	-12.0219
▁izskaidroj	-12.0222
oficiāl	-12.0224
latvieš	-12.0225
▁apgalvo	-12.0227
▁glāb	-12.0231
▁sadalīj	-12.0234
▁jauno	-12.0234
▁investēj	-12.0234
▁pareizāk	-12.0237
▁kn	-12.0238
amerik	-12.0239
▁roman	-12.0241
▁šau	-12.0241
televīzij	-12.0242
vizīt	-12.0242
london	-12.0242
biļet	-12.0242
▁parādījuši	-12.0243
▁aizstāvot	-12.0244
▁daļas	-12.0246
zen	-12.0253
2018	-12.0254
▁virzot	-12.0254
▁polic	-12.0259
▁posmā	-12.027
mane	-12.027
▁raiz	-12.0272
nit	-12.0278
▁bre	-12.0278
▁ju	-12.028
▁necien	-12.028
▁neskar	-12.0282
▁tramv	-12.0284
ي	-12.0285
▁aizkavēt	-12.0285
▁baptist	-12.0285
▁brīfing	-12.0285
▁aviokatastrof	-12.0285
▁saziedot	-12.0285
▁ghett	-12.0285
▁kotlet	-12.0285
▁meierovic	-12.0285
▁džuzep	-12.0285
▁marķējum	-12.0285
▁tauv	-12.0285
▁izgāztuv	-12.0285
▁mākoņain	-12.0285
▁priekšgājēj	-12.0285
▁atlantij	-12.0285
▁izjust	-12.0286
▁zvejniecīb	-12.0286
▁lobij	-12.0286
▁universitāš	-12.0287
▁jāizskat	-12.0288
ēdam	-12.0288
▁atpūtniek	-12.0291
▁sertifikācij	-12.0292
▁ceļmal	-12.0292
▁guseļņikov	-12.0292
▁16.00	-12.0293
▁applūduš	-12.0293
▁regulētāj	-12.0293
▁piestiprināt	-12.0293
▁apcietinājumā	-12.0293
▁18.00	-12.0295
▁nakts	-12.0296
▁nevarēs	-12.0296
▁indijā	-12.0297
▁iekrituš	-12.0297
▁sor	-12.0299
▁anglisk	-12.03
▁neredzēj	-12.0303
▁aizdomāti	-12.0304
▁ielidoj	-12.0306
▁kāpj	-12.0308
▁cepam	-12.031
īk	-12.0314
▁noziegumiem	-12.0314
▁intensīvāk	-12.0315
92	-12.0318
▁sarežģītīb	-12.0318
nest	-12.0324
▁zor	-12.0324
▁dokumentus	-12.0327
▁atbrauk	-12.0327
▁lā	-12.0331
▁ratin	-12.0332
ojāmi	-12.0337
mant	-12.0337
▁atrun	-12.0341
▁decembrim	-12.0342
▁iepriecinā	-12.0343
▁aizsardzību	-12.0345
▁uzņēmusi	-12.0346
▁spēlman	-12.0347
▁īstenotāj	-12.0349
▁lit	-12.0351
▁gultn	-12.0355
▁noslīdēj	-12.0356
▁izpētīj	-12.0358
98	-12.0358
▁uztais	-12.0364
izēj	-12.0365
▁stundā	-12.0365
▁avārijā	-12.0366
▁drošum	-12.0368
jelgav	-12.0369
sezon	-12.0373
▁pelnīj	-12.0378
▁veidošanu	-12.0384
ģimen	-12.0384
sējān	-12.0385
krēsliņ	-12.0385
pvd	-12.0387
▁departaments	-12.0387
▁parunās	-12.0387
ford	-12.039
atbalst	-12.039
▁saslim	-12.0391
▁tvaik	-12.0397
▁188	-12.0397
▁notiekot	-12.0402
.2013	-12.0403
▁50.	-12.0409
īž	-12.0409
▁fl	-12.041
▁nogrim	-12.0411
veidīg	-12.0413
▁uztvēr	-12.0415
▁izdom	-12.0419
ь	-12.0421
▁apņēmi	-12.0421
braukt	-12.0422
▁по	-12.0422
▁skaid	-12.0426
▁atdal	-12.0426
▁kcna	-12.0428
▁kosmonaut	-12.0428
▁tihonov	-12.0428
karenbauer	-12.0428
▁enerģisk	-12.0428
▁komplicēt	-12.0428
▁dundag	-12.0428
▁propert	-12.0428
▁1969.	-12.0428
▁porcij	-12.0428
▁apžēlošan	-12.0428
▁statusu	-12.0428
▁čiekurkaln	-12.0428
▁karstvīn	-12.0428
▁nepazīst	-12.0429
▁kurinām	-12.043
▁ragan	-12.043
▁št	-12.043
▁sliec	-12.0431
▁satricinājum	-12.0431
▁iekļauti	-12.0432
▁eksportētāj	-12.0432
▁spīd	-12.0433
▁izciet	-12.0436
▁barnj	-12.0437
▁līdzstrādniek	-12.0438
▁808	-12.0439
▁tre	-12.0439
▁tikšanās	-12.0441
▁pārstāj	-12.0441
▁štrah	-12.0443
ajās	-12.0445
ciņ	-12.0447
kas	-12.0447
▁likst	-12.045
vasar	-12.045
▁iedvesmoj	-12.0453
▁pran	-12.0453
rīn	-12.0453
pū	-12.0454
skal	-12.046
▁atmet	-12.0464
▁out	-12.0468
▁statuss	-12.047
▁ļāvus	-12.047
▁tehnikum	-12.0471
▁kopš	-12.0473
▁saistīj	-12.0476
▁komisijai	-12.0476
stāti	-12.0477
▁zīmog	-12.048
bals	-12.0488
aizpild	-12.0488
▁187	-12.0491
▁apcietinājums	-12.0493
▁kārtību	-12.05
▁0,7	-12.0501
93	-12.0501
▁atom	-12.0504
▁atšķirti	-12.0507
kaun	-12.0508
▁tuvumā	-12.0509
▁nīn	-12.051
dzē	-12.0511
inājuš	-12.0512
▁karl	-12.0513
▁jen	-12.0519
▁arāj	-12.052
▁nevirz	-12.0521
▁cv	-12.0521
▁ārlietu	-12.0523
tēv	-12.0525
akov	-12.0526
▁laukumā	-12.0528
sadursm	-12.0529
▁veidos	-12.0531
madon	-12.0531
ris	-12.0532
bergman	-12.0534
▁saruna	-12.0534
▁nolaid	-12.0538
▁piepild	-12.0542
ре	-12.0543
ījusi	-12.0544
▁sos	-12.0544
▁cigarešu	-12.0546
▁trik	-12.0555
ģenerāl	-12.056
armij	-12.0561
▁konsultēj	-12.0563
▁klientiem	-12.0566
▁neeksist	-12.0572
positiv	-12.0573
winergy	-12.0573
[...]
