<unk>	0
<s>	0
</s>	0
▁,	-2.84182
▁в	-3.46805
й	-3.572
▁.	-3.63258
▁и	-3.91119
.	-4.26389
▁на	-4.30022
▁с	-4.64512
▁не	-4.67267
▁что	-4.70951
▁—	-4.77183
▁	-4.81729
▁по	-4.97433
а	-4.98334
е	-5.02226
-	-5.02687
▁''	-5.09432
▁``	-5.14437
▁”	-5.20712
▁быть	-5.25248
ся	-5.4293
▁он	-5.52949
ть	-5.54017
▁это	-5.55474
▁из	-5.59418
▁о	-5.60641
▁за	-5.60835
х	-5.63385
▁к	-5.68705
▁а	-5.70446
▁который	-5.74233
▁год	-5.7689
м	-5.77779
▁для	-5.80764
▁как	-5.8443
▁у	-5.88794
▁)	-5.92336
▁от	-5.92629
▁(	-5.92929
и	-5.94438
у	-6.00509
▁но	-6.03267
▁они	-6.0531
▁:	-6.13029
▁мы	-6.15118
ный	-6.15757
▁я	-6.1765
▁этот	-6.18714
▁до	-6.19964
▁человек	-6.26408
▁то	-6.26757
ы	-6.27229
▁также	-6.32617
▁весь	-6.33616
..	-6.33796
▁при	-6.36975
я	-6.41
о	-6.41153
▁тот	-6.41296
го	-6.43214
мочь	-6.45197
▁эстония	-6.47241
▁или	-6.50329
▁время	-6.55561
▁свой	-6.56724
▁евро	-6.57258
▁так	-6.59829
в	-6.60241
▁если	-6.6164
▁чтобы	-6.62387
ов	-6.63532
ом	-6.64527
▁один	-6.69763
▁%	-6.7267
▁же	-6.72965
▁?	-6.73726
▁уже	-6.75376
▁об	-6.76715
▁она	-6.77133
▁том	-6.81229
▁со	-6.83394
▁после	-6.84298
по	-6.85259
то	-6.86909
▁во	-6.88232
ми	-6.90251
▁более	-6.91297
▁бы	-6.92372
▁еще	-6.9249
с	-6.92827
▁все	-6.94917
▁такой	-6.96257
▁только	-6.96277
▁можно	-6.97239
▁когда	-6.98611
▁сказать	-6.9877
:	-6.99649
▁вы	-7.02096
▁сша	-7.0217
ая	-7.02579
▁новый	-7.04392
▁под	-7.05995
▁россия	-7.0614
▁страна	-7.07208
ь	-7.08426
▁раз	-7.08899
▁другой	-7.10932
▁день	-7.10996
▁ее	-7.11538
▁место	-7.13234
▁его	-7.13618
▁года	-7.15022
▁работа	-7.16296
з	-7.16806
▁говорить	-7.16876
▁президент	-7.19518
▁стать	-7.19642
▁очень	-7.20121
▁больше	-7.21298
▁должны	-7.21834
▁слово	-7.23815
▁ли	-7.23926
▁чем	-7.2628
▁эстонский	-7.26831
▁решение	-7.28429
▁дело	-7.28924
ю	-7.28997
▁латвии	-7.29728
▁вопрос	-7.30525
▁где	-7.31296
▁партия	-7.31642
▁!	-7.31694
▁себя	-7.31735
▁-	-7.32339
▁наш	-7.33002
▁самый	-7.3304
ский	-7.33494
▁будет	-7.34492
▁кто	-7.34591
ка	-7.35309
▁ребенок	-7.35562
т	-7.35898
▁два	-7.36897
ый	-7.3768
▁нет	-7.37742
▁году	-7.40453
▁всего	-7.40832
,	-7.41191
▁случай	-7.41231
▁дом	-7.43449
▁данный	-7.46144
на	-7.4882
▁без	-7.49016
▁ни	-7.49677
▁ес	-7.51766
▁россии	-7.52016
ую	-7.52417
▁сейчас	-7.56011
▁суд	-7.56898
▁центр	-7.57469
▁возможность	-7.58632
▁город	-7.58736
ой	-7.59026
▁полиция	-7.59449
▁против	-7.60004
▁про	-7.61569
▁несколько	-7.62803
▁даже	-7.62855
но	-7.63317
▁этом	-7.63959
за	-7.64623
▁работать	-7.6532
▁министр	-7.65395
▁российский	-7.6572
▁однако	-7.66173
▁сегодня	-7.67325
▁было	-7.67974
являться	-7.6808
▁сделать	-7.6898
ли	-7.69055
▁большой	-7.69172
▁иметь	-7.69949
к	-7.70291
▁государство	-7.70813
▁часть	-7.7142
▁которые	-7.71541
▁правительство	-7.71613
▁сам	-7.7176
▁там	-7.72699
▁между	-7.74647
ами	-7.74823
▁например	-7.74847
▁через	-7.75961
▁был	-7.76208
▁первый	-7.7671
▁2018	-7.77173
▁1	-7.7752
▁проблема	-7.7783
▁нужно	-7.78952
▁жизнь	-7.79164
▁хотеть	-7.7922
▁помощь	-7.79892
▁число	-7.80101
▁получать	-7.81364
л	-7.81393
▁каждый	-7.82027
▁глава	-7.82762
▁около	-7.83011
▁сторона	-7.83626
▁ситуация	-7.83929
▁лет	-7.84006
▁момент	-7.84594
▁10	-7.85316
▁мир	-7.85377
▁язык	-7.85541
▁сообщать	-7.85739
▁может	-7.86012
▁представитель	-7.86162
▁результат	-7.86196
как	-7.8631
▁последний	-7.86585
▁поэтому	-7.87578
▁получить	-7.87637
▁проект	-7.88026
▁какой	-7.89724
▁отношение	-7.89771
▁закон	-7.90081
▁много	-7.911
▁именно	-7.9124
▁считать	-7.91316
летний	-7.92535
▁школа	-7.92899
▁информация	-7.93517
▁пока	-7.93837
▁млн	-7.94169
▁месяц	-7.95425
▁писать	-7.96056
▁мужчина	-7.96356
/	-7.96625
▁прошлы	-7.96723
▁были	-7.96751
▁их	-7.9692
▁20	-7.97637
▁хороший	-7.98938
▁цена	-7.99019
▁делать	-7.99037
▁русский	-7.99699
▁сообщить	-7.99759
▁заявил	-8.00024
▁предприятие	-8.0066
ной	-8.00697
▁компания	-8.00788
▁лишь	-8.01491
▁житель	-8.0151
▁есть	-8.02277
▁премьер	-8.02309
▁департамент	-8.02501
▁проводить	-8.02671
▁право	-8.02774
ого	-8.02916
▁украина	-8.02939
▁просто	-8.03032
▁улица	-8.03056
▁того	-8.03876
ет	-8.04358
▁свое	-8.0443
▁участие	-8.04846
▁потому	-8.04965
▁принимать	-8.05
▁идти	-8.05142
▁перед	-8.06126
▁автомобиль	-8.06229
▁находиться	-8.07067
▁член	-8.07109
он	-8.07455
▁система	-8.07486
▁заявить	-8.07589
не	-8.08052
▁000	-8.0911
▁женщина	-8.09358
ла	-8.10294
▁сила	-8.10391
▁тогда	-8.10871
▁15	-8.11511
▁;	-8.11578
▁пресс	-8.11596
д	-8.11784
▁пере	-8.11808
министр	-8.11825
▁надо	-8.11842
ки	-8.11984
▁отметить	-8.11987
ам	-8.12712
▁2017	-8.12753
▁отмечать	-8.12948
▁рост	-8.13233
ий	-8.13995
▁уровень	-8.14087
▁руководитель	-8.14134
▁рф	-8.14355
▁развитие	-8.14377
▁2	-8.14456
н	-8.14492
▁государственный	-8.14653
▁общи	-8.14684
▁начало	-8.14702
ных	-8.14983
▁программа	-8.15386
▁договор	-8.15682
▁находить	-8.15863
▁европейский	-8.16458
▁цель	-8.16823
▁здесь	-8.16858
▁выборы	-8.16877
...	-8.17288
▁безопасность	-8.17369
▁поскольк	-8.17415
▁знать	-8.17799
▁ранее	-8.1783
▁будут	-8.19209
▁использовать	-8.19247
▁услуга	-8.19793
▁этого	-8.19896
▁среди	-8.19913
▁час	-8.20016
▁теперь	-8.20037
▁2019	-8.202
ах	-8.21103
▁вместе	-8.21277
▁почти	-8.2151
▁клиент	-8.21934
▁район	-8.22188
▁словам	-8.2229
▁страны	-8.23105
▁политика	-8.23205
▁председатель	-8.23401
▁связь	-8.23574
▁тоже	-8.2368
▁многи	-8.2372
▁союз	-8.23918
▁сказал	-8.24179
▁работник	-8.24212
▁эти	-8.24434
▁фото	-8.24647
▁"	-8.2471
ного	-8.24775
▁власть	-8.24817
▁партии	-8.24952
▁министерство	-8.2538
▁движение	-8.25424
s	-8.25468
▁совет	-8.25646
▁5	-8.25824
местный	-8.2584
▁рынок	-8.26049
▁три	-8.26324
▁количество	-8.26882
ться	-8.27516
▁edasi	-8.27807
▁течение	-8.27842
▁трамп	-8.28115
▁назад	-8.28229
▁нато	-8.28911
ем	-8.28921
▁4	-8.28926
▁конец	-8.29147
▁3	-8.29341
▁мнение	-8.29799
▁начинать	-8.29887
▁хотя	-8.30172
▁причина	-8.30224
▁владимир	-8.30911
▁эстонии	-8.31033
▁30	-8.31034
▁группа	-8.31211
▁видео	-8.31401
▁связанны	-8.31583
▁неделя	-8.31583
loe	-8.31761
▁фирма	-8.3187
▁12	-8.3196
му	-8.31966
▁организация	-8.32675
ee	-8.33481
▁пройти	-8.33518
▁delfi	-8.33857
▁март	-8.3394
▁путин	-8.33948
▁европа	-8.34086
▁таллинне	-8.34118
ная	-8.34212
▁качество	-8.34418
▁президента	-8.34892
▁над	-8.35259
▁семья	-8.35347
▁да	-8.35377
▁бывши	-8.35682
▁следующий	-8.35901
▁социальны	-8.36304
▁добавить	-8.36387
▁очередь	-8.36408
▁основной	-8.36526
▁вид	-8.36639
▁план	-8.36714
▁жить	-8.36879
▁была	-8.36989
▁счет	-8.37083
▁рабочий	-8.37968
▁предлагать	-8.38594
▁средство	-8.389
▁высокий	-8.38933
▁внимание	-8.39726
во	-8.39747
▁магазин	-8.39774
▁первое	-8.39774
▁давать	-8.39939
п	-8.40002
▁срок	-8.40177
▁почему	-8.40177
ку	-8.40218
▁украины	-8.40551
▁мой	-8.40586
ия	-8.40595
▁водитель	-8.41168
▁образование	-8.41289
ма	-8.41331
▁пять	-8.4137
▁четыре	-8.41442
▁произойти	-8.41484
▁зарплата	-8.41919
▁важный	-8.42134
▁речь	-8.42135
▁встреча	-8.42178
▁международны	-8.42802
▁депутат	-8.4291
▁заявление	-8.43223
▁составлять	-8.43552
▁лицо	-8.43596
▁процесс	-8.43645
▁комиссия	-8.44166
▁выбор	-8.44237
▁8	-8.44443
▁общество	-8.44649
▁9	-8.4508
▁всегда	-8.45216
▁eesti	-8.45317
▁кроме	-8.45573
▁11	-8.46195
▁ответ	-8.4658
▁пост	-8.4703
▁здание	-8.47182
▁согласно	-8.47341
▁квартира	-8.47371
ные	-8.47601
▁поддержка	-8.47917
ец	-8.48043
который	-8.48059
▁документ	-8.48064
▁18	-8.48139
2	-8.48213
▁ход	-8.48404
▁военный	-8.48959
▁миллион	-8.49028
сть	-8.49151
▁средни	-8.4933
▁май	-8.49582
▁главный	-8.4965
▁19	-8.49669
▁деятельность	-8.49749
▁лидер	-8.49774
▁необходимо	-8.49908
▁проходить	-8.49929
▁таллиннски	-8.49981
▁могут	-8.5007
▁представлять	-8.5037
▁...	-8.50526
▁молодо	-8.50991
▁стран	-8.51053
▁директор	-8.51138
ло	-8.51533
ин	-8.51565
▁25	-8.51634
▁6	-8.51677
▁никто	-8.51707
▁образ	-8.5171
ную	-8.5178
▁предложение	-8.5179
▁сфера	-8.51917
▁сумма	-8.51966
▁маленький	-8.51984
▁деньги	-8.52056
би	-8.52197
▁14	-8.52279
▁среда	-8.52317
▁интервью	-8.52418
▁сотрудничество	-8.52784
▁стоить	-8.52862
ок	-8.52913
▁сообщает	-8.53013
▁следовать	-8.53071
▁7	-8.53079
▁готовы	-8.53096
▁порядок	-8.5335
▁16	-8.53762
▁крупный	-8.5379
▁период	-8.53896
▁друг	-8.54324
▁тереть	-8.54477
▁оставаться	-8.5483
▁путина	-8.54856
▁москва	-8.55093
▁2016	-8.55763
▁тем	-8.55834
▁служба	-8.56381
▁тысяча	-8.56548
▁принять	-8.56606
▁действие	-8.56974
ить	-8.56995
сь	-8.57203
▁интернет	-8.57523
▁состояние	-8.57702
▁интерес	-8.57905
▁фонд	-8.57975
▁видеть	-8.58128
▁менее	-8.5815
▁данные	-8.58532
▁13	-8.58541
▁условие	-8.58565
▁примерно	-8.58966
▁история	-8.59099
▁дорога	-8.59427
▁конечно	-8.59471
▁большинство	-8.59525
▁разный	-8.59966
ч	-8.60238
▁т	-8.60334
▁процент	-8.60405
▁парламент	-8.60538
▁ратас	-8.60559
ют	-8.60618
б	-8.60706
▁создавать	-8.60786
▁100	-8.61036
▁политический	-8.61056
▁потом	-8.61095
▁мера	-8.61241
та	-8.61338
▁них	-8.61436
▁латвие	-8.61624
▁общественны	-8.61659
▁строительство	-8.61822
▁начать	-8.61984
▁деньга	-8.61992
▁сразу	-8.62132
р	-8.6219
▁территория	-8.62223
▁лучше	-8.62274
▁называть	-8.62363
▁близки	-8.62477
a	-8.62584
▁безопасности	-8.62677
▁хорошо	-8.62983
▁сеть	-8.63059
▁должно	-8.63244
▁людей	-8.63386
▁городско	-8.63588
▁ты	-8.63945
▁исследование	-8.64065
▁различны	-8.64345
▁вот	-8.64358
▁г	-8.64443
▁товар	-8.64447
▁происходить	-8.64614
▁гражданин	-8.64678
▁газета	-8.648
▁свою	-8.65295
смотря	-8.65336
▁автобус	-8.65678
▁рассказать	-8.65787
▁любой	-8.65909
▁котор	-8.66345
▁возможно	-8.66452
▁поддерживать	-8.66674
▁считает	-8.66776
▁передавать	-8.66835
▁машина	-8.66858
▁трампа	-8.67415
▁врач	-8.67457
▁здоровье	-8.67613
▁50	-8.68461
▁занимать	-8.68668
▁решить	-8.68755
▁изменение	-8.68766
▁нельзя	-8.68948
▁лично	-8.68971
ие	-8.68976
▁список	-8.69058
▁производство	-8.69366
▁национальны	-8.69597
▁телефон	-8.69847
▁всех	-8.70202
▁объем	-8.70272
▁народ	-8.7038
▁таллинный	-8.70598
▁продолжать	-8.70681
▁родитель	-8.70805
1	-8.70809
▁реформа	-8.70824
▁сотрудник	-8.7089
▁имя	-8.70948
▁возраст	-8.71069
▁журналист	-8.71074
▁рижско	-8.71085
▁ряд	-8.71292
▁–	-8.71806
▁бюджет	-8.7191
▁17	-8.7192
▁понимать	-8.72164
▁ничто	-8.72196
▁сообщение	-8.72212
ской	-8.72214
▁взять	-8.72269
▁банк	-8.7239
▁тема	-8.72494
▁участник	-8.72521
▁ведь	-8.72839
▁мероприятие	-8.73053
▁подобны	-8.73102
▁оказаться	-8.7318
▁важно	-8.73602
▁эксперт	-8.73681
лись	-8.73828
▁вообще	-8.73868
▁второй	-8.73934
▁размер	-8.74059
▁нарв	-8.74133
▁финансовы	-8.74223
▁специалист	-8.7434
ии	-8.74613
г	-8.7477
▁переговоры	-8.74842
▁#	-8.7502
▁граница	-8.75021
▁мира	-8.75228
▁правление	-8.75349
▁американский	-8.7552
ать	-8.75579
▁кандидат	-8.75783
e	-8.76005
▁использование	-8.7612
▁бизнес	-8.76203
▁планировать	-8.76231
▁требование	-8.76406
▁июль	-8.76598
ского	-8.76674
сти	-8.76745
▁является	-8.76857
▁регион	-8.77074
▁участвовать	-8.77167
▁бюро	-8.77305
▁помогать	-8.77478
▁правительства	-8.77553
▁транспорт	-8.77597
▁особенно	-8.77627
▁дополнительный	-8.77632
▁детски	-8.77914
▁найти	-8.78014
▁экономический	-8.78168
▁область	-8.7817
▁остаться	-8.78313
▁прийти	-8.78446
ство	-8.78698
▁рамка	-8.78725
▁опыт	-8.79155
▁нас	-8.79188
из	-8.79372
▁тут	-8.79396
▁апрель	-8.7944
▁люди	-8.79732
▁состояться	-8.79781
▁власти	-8.79998
▁должность	-8.80072
ле	-8.80076
▁сентябрь	-8.80215
▁будущий	-8.80225
▁дать	-8.80382
▁состав	-8.80385
▁экономика	-8.80437
▁налог	-8.80452
▁доход	-8.80652
си	-8.80652
▁затем	-8.80671
▁январь	-8.80921
ит	-8.8093
▁рийгиког	-8.81087
▁юри	-8.81177
▁самолет	-8.81193
"	-8.81251
▁известно	-8.8129
▁август	-8.81416
▁больница	-8.81534
вер	-8.81684
▁команда	-8.81693
▁защита	-8.82031
▁агентство	-8.82117
▁начаться	-8.82215
ке	-8.82288
▁торговы	-8.82307
▁2014	-8.82404
d	-8.82463
▁которых	-8.82555
▁написать	-8.82999
▁возможны	-8.8319
▁понедельник	-8.83429
▁полицейский	-8.83429
▁праздник	-8.83442
ранее	-8.83464
▁итог	-8.83549
▁сайт	-8.83599
▁пример	-8.83611
▁выход	-8.83614
▁нынешний	-8.83615
▁издание	-8.83938
▁украинский	-8.84021
▁действовать	-8.84057
ль	-8.84082
▁21	-8.84117
▁двух	-8.84132
7	-8.84445
▁труд	-8.84683
▁думать	-8.84703
▁требовать	-8.84749
до	-8.84923
▁24	-8.85085
▁газ	-8.85114
▁предприниматель	-8.85225
▁вести	-8.85239
▁заниматься	-8.85271
▁ночь	-8.85495
@	-8.85606
▁британски	-8.85902
▁тысяч	-8.86048
▁февраль	-8.86138
▁расход	-8.86579
▁университет	-8.86655
ва	-8.86745
▁дел	-8.86954
▁рассказывать	-8.87056
3	-8.8719
▁номер	-8.87397
▁управление	-8.87466
▁пора	-8.87663
▁адрес	-8.87856
▁скоры	-8.87881
▁действительно	-8.87997
▁продажа	-8.88153
▁июнь	-8.88226
▁сергей	-8.88584
▁обучение	-8.88619
▁ekre	-8.88767
▁23	-8.89011
ст	-8.89081
▁мэр	-8.90072
t	-8.9023
▁лес	-8.90317
ен	-8.90433
▁ему	-8.90455
▁государства	-8.90506
▁нарвски	-8.90533
▁республика	-8.9072
▁площадь	-8.90751
▁the	-8.90793
▁ко	-8.90985
▁полностью	-8.91152
▁портал	-8.91207
▁соглашение	-8.91413
▁таллинн	-8.91463
ф	-8.91546
▁целы	-8.91552
ию	-8.91562
▁утверждать	-8.91716
▁создание	-8.9189
▁никакой	-8.91976
▁числе	-8.91988
▁ждать	-8.92004
▁расследование	-8.92041
▁стоимость	-8.92134
▁устанавливать	-8.92241
▁курс	-8.92265
▁случае	-8.92535
▁нарушение	-8.92654
▁22	-8.92717
▁вода	-8.92765
▁риге	-8.92832
ко	-8.92918
▁решать	-8.92956
▁отвечать	-8.9306
▁э	-8.93115
овый	-8.93181
▁необходимый	-8.93283
▁провести	-8.9337
▁заседание	-8.93654
▁источник	-8.93654
ш	-8.93722
▁акция	-8.94004
мимо	-8.944
▁война	-8.94416
▁вице	-8.94487
▁руководство	-8.94526
▁часто	-8.9465
▁мид	-8.94662
▁пойти	-8.94687
▁культура	-8.94703
▁показывать	-8.94864
▁других	-8.9496
▁думы	-8.95156
▁настоящий	-8.95617
оставить	-8.95636
▁население	-8.95896
▁внутренни	-8.96141
▁40	-8.96222
▁ответственность	-8.96339
▁море	-8.9639
▁оон	-8.96417
▁достаточно	-8.96566
ность	-8.96611
▁развития	-8.9665
▁втора	-8.96692
оборона	-8.96856
▁повышение	-8.97124
▁уголовны	-8.97139
▁оценка	-8.97221
▁политик	-8.97494
▁пытать	-8.97797
▁известный	-8.97839
▁ваш	-8.98109
да	-8.98171
▁путь	-8.98353
▁продукт	-8.99317
▁александр	-8.99347
▁алкоголь	-8.99451
▁2015	-8.99456
ник	-8.9946
▁сообщил	-8.99507
▁стороны	-8.99521
▁детей	-8.99537
при	-8.996
▁факт	-8.99798
▁открытый	-8.99894
▁ида	-8.99937
▁серьезный	-8.99971
даться	-8.99987
▁полны	-9.00084
▁кальюлайд	-9.0021
▁финляндия	-9.00329
▁впервые	-9.00764
▁конкурс	-9.00794
▁вечером	-9.00821
▁никогда	-9.00862
овой	-9.00882
▁четверг	-9.00892
▁оба	-9.01041
те	-9.01158
▁би	-9.01182
▁выбирать	-9.01194
▁утро	-9.01218
▁отметил	-9.01428
▁литва	-9.01606
▁вторник	-9.01678
са	-9.01729
▁мировой	-9.0183
▁рука	-9.01852
им	-9.01949
▁данным	-9.01984
▁вырасти	-9.02034
▁правило	-9.02213
▁своей	-9.02356
▁человека	-9.02361
▁северный	-9.02598
i	-9.02665
▁половина	-9.02821
▁кредит	-9.02857
йтись	-9.02857
▁учебны	-9.02905
▁платить	-9.02969
ным	-9.03095
▁благодаря	-9.03129
▁слишком	-9.03177
r	-9.03448
▁голос	-9.03564
▁центристски	-9.03566
▁200	-9.03794
▁быстро	-9.03797
ер	-9.03856
▁шаг	-9.04257
от	-9.04259
вирумаа	-9.04371
▁facebook	-9.04372
▁приводить	-9.04576
▁идея	-9.0467
▁сейма	-9.04992
▁проведение	-9.05079
ном	-9.054
▁роль	-9.05445
▁работы	-9.05483
▁евросоюз	-9.05608
лась	-9.05669
▁появиться	-9.05898
ят	-9.0628
▁контроль	-9.06326
▁куда	-9.06371
▁либо	-9.06442
асаться	-9.06516
▁учитель	-9.0679
вать	-9.06937
▁“	-9.07143
▁выборах	-9.07353
▁те	-9.07409
▁смотреть	-9.07487
c	-9.07515
либо	-9.07562
▁лечение	-9.07597
▁необходимость	-9.07648
▁оно	-9.07679
▁пожар	-9.0784
▁пенсия	-9.07843
▁сколько	-9.07855
▁шесть	-9.07912
▁конфликт	-9.0806
▁дтп	-9.082
▁экс	-9.08217
▁входить	-9.08231
▁мая	-9.08482
▁письмо	-9.0857
▁признать	-9.08644
▁самоуправление	-9.08735
об	-9.08925
▁расти	-9.08961
▁27	-9.09101
▁пишет	-9.09255
▁великобритание	-9.09268
▁участок	-9.09303
▁законопроект	-9.09555
▁должен	-9.09588
▁иностранный	-9.09731
▁сирии	-9.09795
▁основание	-9.09889
▁позволять	-9.09927
▁рас	-9.10114
▁постоянно	-9.10133
▁соответствующи	-9.10212
▁выборов	-9.1022
ская	-9.10281
▁2020	-9.10323
▁говорит	-9.10355
▁выйти	-9.1044
▁декабрь	-9.10449
▁связи	-9.10518
▁оружие	-9.10584
▁обеспечивать	-9.10595
▁риск	-9.10639
▁столица	-9.10643
▁подчеркну	-9.10686
▁млрд	-9.10786
становиться	-9.10844
▁ранни	-9.10922
ние	-9.10968
ев	-9.11086
▁шоссе	-9.11107
▁своих	-9.11317
ное	-9.11455
частный	-9.11506
4	-9.11592
ба	-9.11773
▁позиция	-9.11978
▁марта	-9.12002
▁свобода	-9.12084
▁образования	-9.121
▁сильный	-9.12142
▁сравнение	-9.12147
президент	-9.12236
место	-9.12409
▁просить	-9.12448
▁помочь	-9.12548
▁м	-9.1268
ее	-9.12937
▁сей	-9.12941
▁электронны	-9.12982
ти	-9.13253
▁старый	-9.13384
▁пункт	-9.13442
▁ласнамяэ	-9.13669
▁партнер	-9.13928
▁действующи	-9.14126
▁снова	-9.14187
▁работу	-9.14287
▁минимум	-9.14291
▁касса	-9.14304
▁официальный	-9.14412
▁конкретны	-9.14491
▁стал	-9.14491
▁rus	-9.14675
▁мнению	-9.1472
▁получение	-9.14724
ля	-9.14732
▁прежде	-9.14745
▁жителей	-9.1482
▁сегодняшни	-9.14823
про	-9.14939
▁добавлять	-9.14954
▁июня	-9.15021
▁сейм	-9.15044
▁преступление	-9.15095
▁показатель	-9.15184
▁направление	-9.15286
▁28	-9.15525
▁вариант	-9.15575
▁31	-9.15605
▁линия	-9.15671
▁которой	-9.15779
▁располагать	-9.15962
▁отдел	-9.16004
▁вызывать	-9.16099
y	-9.16129
▁тех	-9.16152
▁котором	-9.16209
▁60	-9.16279
также	-9.1635
▁выходить	-9.16369
▁октябрь	-9.16448
▁подчеркнул	-9.16453
нести	-9.1659
▁банка	-9.16643
▁пассажир	-9.16766
▁собрание	-9.16855
▁статья	-9.1692
▁недвижимость	-9.1701
▁угроза	-9.17034
▁свои	-9.17078
▁26	-9.17107
com	-9.17198
▁сми	-9.17295
▁материал	-9.17376
▁влияние	-9.17465
▁вернуться	-9.17751
▁германии	-9.17876
▁порошенко	-9.18021
▁ущерб	-9.18028
▁мало	-9.18046
▁инцидент	-9.18161
▁борьба	-9.18208
ировать	-9.18256
▁сад	-9.18321
▁финансирование	-9.18371
▁пособие	-9.18377
▁дорожны	-9.18403
▁выступать	-9.18411
▁искать	-9.18662
▁медицински	-9.18693
▁специальны	-9.18712
▁поиск	-9.18714
▁российских	-9.18761
▁него	-9.18767
▁выяснить	-9.1881
секретарь	-9.18839
▁другие	-9.18926
▁ожидать	-9.19015
▁работодатель	-9.1909
▁великобритании	-9.19126
▁меня	-9.19135
▁событие	-9.19288
▁операция	-9.19369
▁автор	-9.19385
что	-9.19401
▁учреждение	-9.19442
▁практически	-9.19469
▁принцип	-9.19993
ни	-9.20093
6	-9.20154
▁отмечает	-9.20303
▁согласие	-9.20453
▁прием	-9.20527
▁жертва	-9.20702
▁выше	-9.20794
▁ноябрь	-9.20817
▁нужный	-9.20965
▁п	-9.21114
согласно	-9.21137
▁чемпионат	-9.21264
▁судебны	-9.21275
[	-9.21351
после	-9.21403
▁]	-9.21459
▁новость	-9.21461
▁дво	-9.21498
▁поздни	-9.2155
▁меньше	-9.2168
▁третий	-9.21982
▁обычно	-9.22235
чем	-9.22522
8	-9.22564
нуть	-9.22594
▁дональд	-9.22654
5	-9.22933
ня	-9.2295
▁больши	-9.22953
▁информации	-9.22972
▁риги	-9.23028
▁пояснить	-9.2319
▁дома	-9.23213
▁советски	-9.2327
▁кризис	-9.23355
▁привести	-9.23473
▁s	-9.23549
▁выполнять	-9.23563
g	-9.23666
▁желание	-9.23803
▁указывать	-9.2393
▁быстрый	-9.24026
▁стране	-9.24117
▁гражданство	-9.24202
▁владелец	-9.24298
▁29	-9.24412
▁невозможно	-9.24448
▁жизни	-9.24468
▁дня	-9.24654
▁декабря	-9.2473
▁сообщалось	-9.24953
0	-9.24971
▁совсем	-9.25028
ков	-9.25065
ра	-9.2511
ести	-9.25276
▁правый	-9.25281
со	-9.25371
▁delf	-9.25435
▁молодежь	-9.25577
▁транспортны	-9.25593
▁пара	-9.25601
▁рассказал	-9.2563
▁заключать	-9.25667
▁европарламент	-9.25698
▁многие	-9.25779
▁которого	-9.25832
▁a	-9.25948
▁довольно	-9.26088
▁территории	-9.26125
ж	-9.26273
ц	-9.264
ых	-9.26426
▁разрешение	-9.26427
▁санкция	-9.2643
▁режим	-9.26648
▁c	-9.26775
▁латвия	-9.26795
".	-9.26838
▁вклад	-9.26854
▁штраф	-9.26874
m	-9.27013
▁означать	-9.27028
ны	-9.27122
▁as	-9.27215
▁задача	-9.27351
▁ответить	-9.27355
▁полиции	-9.27426
▁рядом	-9.27426
▁убийство	-9.27473
▁наибол	-9.27677
▁активно	-9.27683
▁показать	-9.27953
▁какие	-9.28018
▁класс	-9.28018
▁нового	-9.28032
▁игра	-9.28036
▁чиновник	-9.28207
▁запрет	-9.28395
▁управа	-9.28434
▁пор	-9.28614
▁голосование	-9.28637
▁приходить	-9.28652
▁десять	-9.28702
ется	-9.28815
▁положение	-9.29047
▁января	-9.2909
▁де	-9.29168
▁назвать	-9.2917
▁кампания	-9.29173
?.	-9.29234
▁эстонец	-9.29241
▁решения	-9.29324
▁германи	-9.29454
▁национально	-9.29526
▁опрос	-9.29551
▁учитывать	-9.29588
вы	-9.29676
▁предоставлять	-9.29705
▁вчера	-9.2989
га	-9.29928
▁дальнейши	-9.29959
▁компании	-9.29986
▁лето	-9.3004
▁вновь	-9.30081
для	-9.30108
▁избиратель	-9.30418
▁обороны	-9.30951
▁единственный	-9.30998
▁определенны	-9.31109
▁500	-9.31132
▁обвинение	-9.31411
▁сектор	-9.31426
▁мне	-9.31474
▁точка	-9.31519
▁дела	-9.31551
▁надеяться	-9.31552
▁современны	-9.31602
ро	-9.31603
▁организации	-9.32028
▁франция	-9.32067
▁небольшой	-9.32087
▁rīg	-9.32109
▁прокуратура	-9.3215
▁завод	-9.32278
▁обычный	-9.32316
▁которо	-9.32388
▁июля	-9.32507
▁признавать	-9.32691
▁крайне	-9.32697
▁построить	-9.32824
▁скрипаль	-9.32884
▁семейны	-9.32946
▁повод	-9.3296
▁зона	-9.33018
▁ученик	-9.33053
err	-9.33094
▁особы	-9.33098
▁км	-9.33235
▁коалиция	-9.33239
▁концерт	-9.33337
▁апреля	-9.33348
▁отправлять	-9.33359
▁свободный	-9.33376
▁увидеть	-9.33421
▁насколько	-9.33585
▁отказаться	-9.33662
▁совместны	-9.33686
▁ноября	-9.33711
▁земля	-9.33723
▁па	-9.33739
▁свет	-9.33779
▁технически	-9.33785
▁окружающи	-9.33799
▁открывать	-9.33884
▁балтийски	-9.33894
▁купить	-9.33934
▁крым	-9.34324
▁второе	-9.34467
▁эту	-9.34511
▁совершенно	-9.34598
или	-9.34671
▁ремонт	-9.34747
▁удар	-9.34781
▁россией	-9.34869
▁времени	-9.34977
▁зеленский	-9.3499
▁―	-9.3506
▁комитет	-9.35113
▁отношении	-9.35224
▁подтвердить	-9.3524
▁вещь	-9.35361
э	-9.354
—	-9.3542
▁говорится	-9.35435
▁собственный	-9.35489
▁орган	-9.35502
ым	-9.35543
ель	-9.35594
▁им	-9.35616
▁мэй	-9.35619
▁рейтинг	-9.35687
▁немного	-9.3569
ман	-9.35839
»	-9.35979
▁карта	-9.36
▁открыть	-9.3609
▁сильно	-9.36131
▁официально	-9.36351
▁защищать	-9.36352
▁правда	-9.36418
▁смерть	-9.36428
▁«	-9.36601
▁доступ	-9.36637
▁объединение	-9.36652
▁попасть	-9.3667
▁насилие	-9.36914
▁обеспечение	-9.36916
▁часов	-9.37002
▁lv	-9.37057
▁ходе	-9.37203
▁отец	-9.37228
▁трех	-9.37238
▁страхование	-9.37244
▁действия	-9.37321
ска	-9.37359
▁0	-9.37547
▁пациент	-9.37631
▁украине	-9.37692
b	-9.37733
▁наказание	-9.37836
▁институт	-9.37978
p	-9.3799
ик	-9.37993
▁ссср	-9.38111
▁пострадать	-9.38124
▁попытка	-9.38128
▁задерживать	-9.38136
▁пятница	-9.38177
однако	-9.38194
▁позволить	-9.38205
▁обсуждать	-9.3824
▁сил	-9.38407
▁брать	-9.38412
▁домашни	-9.38634
▁церковь	-9.38682
ви	-9.38722
▁вывод	-9.38817
▁канал	-9.38901
▁протест	-9.38908
лся	-9.38928
ис	-9.38951
▁способ	-9.38995
▁отправить	-9.39301
▁радио	-9.39324
▁мать	-9.39343
▁фотография	-9.39355
▁переход	-9.39374
▁погибнуть	-9.39408
▁едины	-9.39457
▁оказывать	-9.3948
ил	-9.3948
▁недавно	-9.39547
▁сентября	-9.39643
▁вокруг	-9.39711
▁латвийско	-9.39748
▁обращаться	-9.3976
▁политики	-9.39791
▁поездка	-9.39826
▁объяснять	-9.39863
▁октября	-9.39965
▁адвокат	-9.40103
▁депутатов	-9.40113
▁телеканал	-9.40148
▁сделка	-9.40159
▁тарт	-9.40159
▁восемь	-9.4023
▁отделение	-9.40246
▁бесплатный	-9.40293
▁g	-9.40308
▁название	-9.40372
ова	-9.40481
ист	-9.40539
▁партий	-9.40565
▁пол	-9.40572
▁сначала	-9.40669
▁обратиться	-9.4068
▁покупка	-9.40703
де	-9.40777
▁центральный	-9.40922
▁визит	-9.41053
▁ру	-9.41088
▁сын	-9.41219
▁точно	-9.41268
▁давно	-9.41308
дер	-9.41548
▁технология	-9.41569
казаться	-9.41608
▁мвд	-9.41615
▁коллега	-9.4166
▁продавать	-9.41687
v	-9.41716
▁россию	-9.41723
▁посмотреть	-9.41787
тер	-9.41876
▁вооруженны	-9.41897
кроме	-9.41959
▁вещество	-9.41967
▁спорт	-9.42065
▁поле	-9.42103
▁совета	-9.4213
▁ссылка	-9.42249
▁результате	-9.42282
▁сожаление	-9.42317
▁поступить	-9.42483
▁главы	-9.42544
кой	-9.42629
▁суббота	-9.42658
▁скорость	-9.42922
▁одной	-9.42943
▁сбор	-9.42986
▁чм	-9.43189
▁намерен	-9.43221
▁производитель	-9.43292
▁метр	-9.43456
▁страница	-9.43501
па	-9.43608
▁февраля	-9.43646
▁уход	-9.43649
▁передача	-9.43673
▁далеки	-9.43714
▁доллар	-9.43798
▁министра	-9.43836
▁kpv	-9.43847
▁обязательно	-9.43848
▁своего	-9.43897
▁b	-9.43936
▁доля	-9.43982
▁простой	-9.44247
ша	-9.4466
▁отдельны	-9.44682
▁должна	-9.4479
▁семь	-9.44797
▁ходить	-9.44946
▁содержание	-9.45018
▁спасатель	-9.45124
▁значительно	-9.45148
n	-9.45322
▁пенсионны	-9.45328
▁дней	-9.45367
▁совершать	-9.45518
прежни	-9.45553
▁рассматривать	-9.4573
▁честь	-9.45873
▁основа	-9.45893
▁русскоязычны	-9.46099
▁зал	-9.4615
▁тур	-9.46167
▁дмитрий	-9.46219
▁минута	-9.4622
▁ничего	-9.46361
k	-9.46383
▁добавил	-9.464
▁ул	-9.46604
▁let	-9.46633
▁уверенны	-9.46677
▁дверь	-9.46984
▁инвестиция	-9.46992
ан	-9.46993
нный	-9.47053
▁собирать	-9.47058
▁ситуации	-9.4719
▁европы	-9.4719
▁взгляд	-9.47262
▁туда	-9.47271
ре	-9.47304
▁предложить	-9.47335
▁вопросы	-9.47399
▁воздух	-9.47408
▁новые	-9.47447
o	-9.4745
▁остально	-9.47455
ое	-9.47611
▁зависеть	-9.47676
▁ведомство	-9.47701
▁фракция	-9.48201
▁животное	-9.48239
▁попадать	-9.48269
иться	-9.48298
▁суда	-9.48456
▁возника	-9.48518
▁уходить	-9.48544
ются	-9.48613
ру	-9.48644
▁знак	-9.48712
-2018	-9.48771
▁значить	-9.48884
▁oü	-9.4894
▁подавать	-9.48996
▁идет	-9.4908
▁правления	-9.49097
▁фестиваль	-9.49131
▁ну	-9.49158
▁сложно	-9.49188
▁сложный	-9.49553
▁пакет	-9.49667
▁род	-9.49672
така	-9.49816
▁тыс	-9.49914
▁топливо	-9.4994
▁ре	-9.50044
▁дочь	-9.50051
▁меркель	-9.50104
▁долго	-9.50155
▁проверка	-9.50175
▁пользователь	-9.50256
▁стоять	-9.50268
▁|	-9.50294
▁культурный	-9.50364
▁российской	-9.50436
▁f	-9.50479
▁объект	-9.50591
▁белый	-9.50626
▁низкий	-9.5065
▁подчеркивать	-9.50682
жи	-9.50713
▁иностранных	-9.50792
▁анализ	-9.50873
▁заключение	-9.50894
▁проверять	-9.50936
▁акциз	-9.50962
▁информацию	-9.51095
▁комиссии	-9.51152
▁долги	-9.51282
▁торговля	-9.51343
lv	-9.51439
▁которым	-9.51447
▁производить	-9.5147
▁кого	-9.51471
▁поведение	-9.51497
▁сборная	-9.51502
▁одного	-9.51515
▁этим	-9.51587
▁обслуживание	-9.51596
▁температура	-9.51604
▁парламентски	-9.51612
▁прошлом	-9.5171
▁квартал	-9.51762
▁собираться	-9.51763
▁своем	-9.51875
▁активный	-9.51921
служить	-9.51964
▁принадлежа	-9.52029
▁80	-9.52055
+	-9.5207
▁профессиональны	-9.52231
▁хельм	-9.52251
▁внешний	-9.52261
▁маршрут	-9.52276
▁спор	-9.52544
▁спортивны	-9.52601
▁рамках	-9.52699
ина	-9.52752
▁равный	-9.53022
▁социал	-9.53075
▁иногда	-9.53084
▁города	-9.53182
▁запрещать	-9.53193
▁гость	-9.53259
▁стало	-9.53262
u	-9.53286
▁дорогой	-9.53321
под	-9.53466
▁опасный	-9.53546
▁фильм	-9.5355
▁волость	-9.53669
▁происшествие	-9.53785
▁разговор	-9.53828
ал	-9.5406
▁денег	-9.54156
▁книга	-9.54188
er	-9.54189
▁заявила	-9.54204
▁единство	-9.54382
▁уйти	-9.54397
l	-9.54544
ение	-9.54561
▁жилье	-9.54603
▁вернуть	-9.54611
▁поступать	-9.54719
▁стол	-9.54738
▁читатель	-9.54769
▁черны	-9.54772
▁объявить	-9.5483
▁отказ	-9.54834
▁двое	-9.54842
▁этап	-9.54913
▁инициатива	-9.54971
ор	-9.54986
▁смысл	-9.54986
▁экспорт	-9.54996
▁ракета	-9.551
▁70	-9.55121
ском	-9.5516
кобы	-9.55237
▁две	-9.5525
▁граждан	-9.55272
▁центрист	-9.55287
▁августа	-9.55353
служба	-9.55394
▁статус	-9.55486
▁назвал	-9.55581
▁иной	-9.55751
▁пред	-9.55783
▁образом	-9.55795
▁конце	-9.5583
9	-9.55854
▁лондон	-9.55877
▁кон	-9.55897
частность	-9.55994
▁олимпийски	-9.55997
▁немецкий	-9.56
▁последние	-9.56125
▁исторически	-9.56253
▁предусматривать	-9.56261
▁та	-9.56284
▁лиц	-9.56287
▁д	-9.56474
чь	-9.5648
ри	-9.5655
▁теэ	-9.56564
▁налоговы	-9.56602
▁прав	-9.56665
▁физически	-9.5672
▁борис	-9.56799
▁клуб	-9.5695
▁зрение	-9.57023
мер	-9.57061
▁долг	-9.57088
▁трудово	-9.57135
▁долларов	-9.57155
▁авария	-9.5729
▁относительно	-9.573
▁билет	-9.57311
их	-9.57362
▁удалось	-9.57406
▁вводить	-9.57411
▁независимость	-9.57439
▁стали	-9.57531
▁средств	-9.57535
▁реальный	-9.57536
▁версия	-9.57556
▁создать	-9.57605
▁нарва	-9.57627
▁помещение	-9.57654
▁ресторан	-9.57665
▁продукция	-9.57732
пол	-9.57921
▁музей	-9.57971
▁кохтла	-9.581
ые	-9.58114
▁ан	-9.58198
▁воскресени	-9.58234
▁полагать	-9.5825
▁оставлять	-9.58254
▁неоднократно	-9.58255
▁прокомментирова	-9.58263
▁опасность	-9.58268
▁представить	-9.58272
▁камера	-9.58289
▁300	-9.58334
▁победа	-9.58345
f	-9.58529
▁саммит	-9.58555
▁янис	-9.58571
▁сообщили	-9.58573
▁получил	-9.58604
▁мусор	-9.58693
▁чего	-9.58756
▁поезд	-9.58828
▁направлять	-9.58904
▁санкции	-9.58907
▁прибыль	-9.58909
▁2013	-9.58968
▁обмен	-9.59025
▁плата	-9.59056
▁обращать	-9.59155
▁предполагать	-9.59176
▁мост	-9.5925
ость	-9.59296
▁остров	-9.59366
▁сообщила	-9.59409
▁главное	-9.59419
▁обращение	-9.59456
▁потребитель	-9.59458
▁матч	-9.59495
▁начале	-9.59561
переть	-9.59588
▁ядерны	-9.59631
▁призывать	-9.59648
▁сосед	-9.59724
▁поток	-9.59903
▁новое	-9.59921
▁существовать	-9.60012
▁открытие	-9.60035
▁чуть	-9.60173
▁компенсация	-9.60226
▁ниже	-9.60234
▁европе	-9.60244
▁начала	-9.60364
▁хочет	-9.60403
▁постоянны	-9.60498
ступить	-9.60563
▁такие	-9.60578
▁призвал	-9.60618
▁тюрьма	-9.60845
▁всем	-9.60909
▁министерства	-9.60964
▁б	-9.60976
эстония	-9.60997
▁ошибка	-9.61026
▁проблемы	-9.61091
▁понять	-9.61173
▁петр	-9.61274
▁штат	-9.61303
▁база	-9.61342
▁истории	-9.61404
бывать	-9.61405
▁балтия	-9.61406
так	-9.61572
▁очередно	-9.61578
▁приходиться	-9.61621
▁ле	-9.617
▁предмет	-9.61895
▁пар	-9.61966
▁мама	-9.61981
▁снижение	-9.61988
▁остановка	-9.61993
ус	-9.6206
▁тасс	-9.62068
▁массовы	-9.62139
▁рига	-9.62172
▁играть	-9.62259
сылкой	-9.62363
▁швеция	-9.62473
▁ехать	-9.62524
▁случиться	-9.62529
▁доклад	-9.62644
▁строительны	-9.62648
–	-9.62675
▁помощи	-9.62711
▁находится	-9.62773
▁себе	-9.62863
▁модель	-9.62868
▁популярный	-9.62916
▁каллас	-9.62926
▁заказ	-9.62933
▁глаз	-9.62961
▁штаб	-9.62976
▁генеральны	-9.63079
▁дума	-9.63102
▁ла	-9.63181
▁вашингтон	-9.63211
▁здравоохранения	-9.6326
▁прожива	-9.63277
▁запрос	-9.63281
▁театр	-9.63286
▁школы	-9.63327
▁прямой	-9.63392
кий	-9.63396
▁сезон	-9.63447
мэр	-9.63475
▁традиционны	-9.6348
▁достигать	-9.63513
▁собака	-9.63527
▁приложение	-9.63566
▁наблюдать	-9.63589
▁„	-9.63668
ения	-9.63728
▁качестве	-9.63794
▁тяжелый	-9.63815
ния	-9.63834
▁оценивать	-9.63883
▁заместитель	-9.63937
▁организатор	-9.63965
▁прогноз	-9.6402
▁эр	-9.64108
▁предприятия	-9.64201
▁обязанность	-9.64245
▁аэропорт	-9.64255
▁форма	-9.64349
▁латвийский	-9.64349
▁считают	-9.64431
▁выступи	-9.64458
скоре	-9.64545
▁войны	-9.64588
▁президентски	-9.64654
▁месте	-9.64696
▁попросить	-9.64717
▁мобильный	-9.64742
▁относиться	-9.6475
али	-9.64774
▁государственно	-9.64809
▁следует	-9.64962
▁следствие	-9.64971
▁франции	-9.64986
ар	-9.65026
чи	-9.65032
▁осуществлять	-9.65036
▁юридически	-9.65042
▁взрыв	-9.65055
▁старейшина	-9.65063
id	-9.65074
▁продолжить	-9.65148
▁снимать	-9.65224
▁покупать	-9.65239
▁солдат	-9.65299
▁само	-9.65307
ными	-9.65352
лен	-9.65412
▁новой	-9.65435
▁соответствие	-9.65567
▁обещать	-9.65687
ница	-9.65758
▁которую	-9.65966
▁спустя	-9.65976
▁ведущий	-9.66006
мо	-9.66034
▁оборот	-9.66125
ing	-9.66149
▁предыдущий	-9.66196
▁системы	-9.66208
▁прямо	-9.66217
▁поддержать	-9.66242
нии	-9.6626
▁годы	-9.66265
публиковывать	-9.66321
▁безработица	-9.66321
▁отказываться	-9.66323
ив	-9.66395
▁возможности	-9.66467
▁днем	-9.66492
▁плохо	-9.66577
▁отношения	-9.66604
▁таким	-9.6677
это	-9.66864
▁россиянин	-9.66941
▁обстоятельство	-9.66982
▁отсутствие	-9.67014
▁эта	-9.67049
▁нуждать	-9.67081
▁рад	-9.67082
▁k	-9.67094
▁мальчик	-9.67139
▁ясно	-9.67172
ду	-9.6721
лось	-9.67237
▁ограничение	-9.67246
вал	-9.67332
▁москве	-9.67334
▁включая	-9.67335
су	-9.67351
▁новых	-9.67422
▁внутри	-9.67481
▁поддержку	-9.6759
▁ходатайство	-9.67631
мы	-9.67632
мен	-9.67647
зарегистрировать	-9.67677
x	-9.67692
ут	-9.67824
▁знание	-9.67901
▁порт	-9.67903
▁киев	-9.67908
▁общества	-9.68018
▁центра	-9.68099
▁агентству	-9.68102
▁потерять	-9.68342
▁таких	-9.68355
▁подготовка	-9.68385
▁армия	-9.68446
▁представители	-9.68558
▁тело	-9.68643
▁встречи	-9.68668
▁огонь	-9.68701
чаща	-9.68707
▁южны	-9.6875
▁контакт	-9.68842
▁обсуждение	-9.68864
▁вызвать	-9.68986
▁родной	-9.69001
▁текст	-9.69006
▁одновременно	-9.69007
▁группы	-9.69053
▁мест	-9.69053
▁пояснил	-9.69142
▁лу	-9.69172
▁стоит	-9.69206
▁похожи	-9.69274
ed	-9.69301
▁евгений	-9.69333
родный	-9.69436
нибудь	-9.69478
лет	-9.69506
▁увеличение	-9.69512
▁риа	-9.69537
▁вес	-9.69609
▁права	-9.69707
▁президентом	-9.69925
ивать	-9.69973
▁банковски	-9.70167
▁запад	-9.7021
▁такое	-9.70282
▁нападение	-9.70384
▁будущее	-9.70395
▁избирательны	-9.70402
▁огромный	-9.70529
▁российского	-9.70573
▁плохой	-9.70638
▁ставка	-9.70685
▁языке	-9.70758
▁паспорт	-9.70765
▁иран	-9.70817
▁дешевый	-9.70881
▁тартуски	-9.70932
▁задержать	-9.70963
▁памятник	-9.70978
▁мк	-9.70988
▁написал	-9.71062
▁девушка	-9.71077
▁должности	-9.71097
▁предварительны	-9.71139
▁успех	-9.71149
▁наука	-9.71248
▁статистика	-9.71265
▁кндр	-9.71332
▁вносить	-9.71367
озле	-9.71391
▁подозреваемый	-9.71441
▁отпуск	-9.71456
▁спасательны	-9.71459
▁устройство	-9.71486
▁российские	-9.7155
▁подход	-9.71575
ну	-9.71635
▁одна	-9.71696
ца	-9.71697
▁старши	-9.71708
рать	-9.7178
▁частности	-9.71851
▁передает	-9.72195
▁чувствовать	-9.72324
▁перевод	-9.72391
цы	-9.72392
лю	-9.72409
▁вызов	-9.72428
▁наличие	-9.7256
▁трудно	-9.72579
▁исходить	-9.7262
▁35	-9.72647
▁борьбе	-9.72649
▁площадка	-9.72649
▁t	-9.72682
ат	-9.72682
▁ком	-9.72683
ча	-9.72736
ди	-9.72754
▁накануне	-9.72758
▁олег	-9.72814
ряд	-9.72821
▁парок	-9.72943
▁десяток	-9.731
▁комплекс	-9.73212
▁министров	-9.73325
▁области	-9.73367
▁рейс	-9.73397
▁правоохранитель	-9.73473
▁ч	-9.73547
▁службы	-9.73558
▁верить	-9.73569
сегодня	-9.73647
▁западный	-9.73687
▁силы	-9.73725
▁предвыборны	-9.73742
▁собрать	-9.73742
▁посольство	-9.73768
▁этому	-9.73859
▁части	-9.73877
▁лекарство	-9.7389
▁латвию	-9.73909
▁потребовать	-9.73911
▁горазд	-9.73912
пе	-9.73959
▁спрос	-9.74018
▁применение	-9.74201
▁хоть	-9.74443
▁далее	-9.74462
▁сохранять	-9.74531
▁жела	-9.74537
▁e	-9.74583
▁предел	-9.74637
▁администрация	-9.74684
▁места	-9.74709
▁фрг	-9.74729
▁сирия	-9.74748
▁ценность	-9.74832
▁обнаружить	-9.74911
▁ветер	-9.74926
▁сотня	-9.75003
ос	-9.75027
▁практика	-9.75042
▁2012	-9.75292
▁особо	-9.75298
▁сложность	-9.75313
▁восточный	-9.75336
▁гражданский	-9.75448
▁питание	-9.75462
▁принятие	-9.75536
▁содержать	-9.75819
▁морско	-9.75873
ства	-9.75879
▁провел	-9.75891
▁одно	-9.75903
▁норма	-9.75913
▁ту	-9.75916
▁сборной	-9.75971
▁союза	-9.75982
▁отчет	-9.75984
▁стала	-9.75984
▁прокурор	-9.75986
▁арест	-9.76026
▁скандал	-9.76064
▁степень	-9.76108
▁среду	-9.76109
▁гимназия	-9.76201
▁общаться	-9.76202
▁санкт	-9.76294
▁взрослый	-9.76299
▁имущество	-9.76319
скую	-9.76338
▁авто	-9.76345
▁комментировать	-9.76353
▁александра	-9.76379
▁финансов	-9.76409
сон	-9.76612
▁учет	-9.76717
▁память	-9.76759
▁надежда	-9.76766
ru	-9.76774
▁широки	-9.76828
▁обсудить	-9.76873
▁флаг	-9.76877
▁оружия	-9.76945
ги	-9.7703
▁объяснить	-9.77076
▁достигнуть	-9.77233
▁подтверждать	-9.77291
▁керс	-9.77398
▁согласия	-9.77415
20	-9.77415
▁ха	-9.77425
▁зависимость	-9.77436
▁круг	-9.7746
▁домой	-9.77485
▁экономики	-9.77508
▁способствовать	-9.77582
че	-9.77582
▁странах	-9.77604
▁привлекать	-9.7762
▁вечер	-9.77642
▁бизнесмен	-9.77868
▁жило	-9.77893
▁деле	-9.77962
▁рождение	-9.77979
▁неделе	-9.77982
&	-9.78073
▁слова	-9.78109
▁пространство	-9.78196
▁выступление	-9.78268
▁депутаты	-9.78272
▁следить	-9.7832
▁станет	-9.78439
быть	-9.78487
▁множество	-9.78501
▁могли	-9.78582
▁делу	-9.78598
▁населения	-9.78641
▁состоять	-9.78665
▁закона	-9.7869
▁легко	-9.78824
▁оказываться	-9.78892
личный	-9.78922
▁муниципальны	-9.78928
▁выразить	-9.78971
▁установить	-9.78973
▁фактически	-9.7902
▁объединять	-9.79022
▁военных	-9.79143
ходить	-9.79162
▁латвийски	-9.79192
▁движения	-9.79213
in	-9.79292
▁сигнал	-9.79423
ический	-9.79425
▁подать	-9.79437
▁päevaleht	-9.795
▁пожило	-9.79503
учение	-9.79509
▁посещать	-9.79596
ты	-9.79669
li	-9.79714
▁узнать	-9.798
▁определять	-9.79805
ись	-9.79871
▁ситуацию	-9.79884
▁фински	-9.79942
▁получили	-9.80067
▁вполне	-9.80078
▁обеспечить	-9.80084
▁вне	-9.80103
▁фон	-9.80194
▁имеет	-9.80224
▁совместно	-9.80294
▁выдавать	-9.80309
▁региональны	-9.80418
▁лица	-9.80457
▁соединенны	-9.80504
▁средства	-9.80514
▁обратно	-9.80521
▁малый	-9.80575
ярв	-9.80594
▁настолько	-9.80659
когда	-9.80669
▁ездить	-9.80757
▁расчет	-9.80759
▁изменять	-9.80804
▁повлиять	-9.80904
▁размере	-9.8092
▁данных	-9.80941
▁здравоохранение	-9.80948
▁проголосовать	-9.8095
▁выделять	-9.81017
▁месяцев	-9.81121
▁напоминать	-9.8126
енный	-9.81331
▁рубль	-9.81342
▁весна	-9.81407
▁бар	-9.81518
▁балтии	-9.81535
▁менять	-9.81546
▁сообщения	-9.81558
▁легкий	-9.81632
▁swedbank	-9.81668
▁приехать	-9.81671
▁значительны	-9.81677
глава	-9.81686
▁bank	-9.81721
▁га	-9.81724
▁занять	-9.81896
▁среды	-9.82024
▁целом	-9.82065
as	-9.82174
▁дерево	-9.8222
▁сзк	-9.82226
▁увеличиться	-9.8228
▁давление	-9.82306
▁обвинения	-9.8232
▁развивать	-9.82339
ту	-9.82451
▁учить	-9.82485
▁назначать	-9.82516
▁прочи	-9.82528
ком	-9.82592
▁иск	-9.82672
▁техника	-9.82674
▁многое	-9.82731
ск	-9.82739
▁кабинет	-9.82739
ности	-9.82754
прав	-9.82808
▁социально	-9.82908
овать	-9.8293
▁пешеход	-9.82974
▁включать	-9.83011
▁обвинять	-9.83016
▁треть	-9.83028
▁километр	-9.83031
▁пенсионер	-9.83105
▁иначе	-9.83111
▁приезжать	-9.83167
▁конференция	-9.83278
▁заявлять	-9.83279
▁изменения	-9.83468
▁зарплаты	-9.83474
▁повышать	-9.83541
▁ар	-9.8358
▁иван	-9.83584
▁анти	-9.83763
▁видно	-9.83787
▁90	-9.83841
▁зач	-9.83853
▁мартина	-9.83872
▁brexit	-9.83908
h	-9.83928
▁пострадавший	-9.83944
▁покупатель	-9.83947
▁некоторые	-9.83971
▁коалиции	-9.84008
ши	-9.84161
▁возникнуть	-9.84211
▁потребность	-9.84309
▁студент	-9.8432
▁считаться	-9.84335
▁навальный	-9.84352
▁тому	-9.84388
▁учиться	-9.84402
▁знакомый	-9.84513
w	-9.84569
▁закрывать	-9.8461
ол	-9.84669
▁евросоюза	-9.84698
▁осень	-9.84721
▁характер	-9.84751
▁молодежны	-9.8479
▁погода	-9.84813
▁охрана	-9.84816
▁закрыты	-9.84865
▁сотрудничать	-9.84934
▁конкурент	-9.84963
▁абсолютно	-9.85026
астую	-9.85056
▁существенно	-9.85163
▁исполнитель	-9.85217
ают	-9.85285
альный	-9.85295
▁измениться	-9.85341
▁проблем	-9.85351
▁бороться	-9.85422
▁школ	-9.85504
▁сих	-9.85511
▁вкус	-9.85595
▁столько	-9.85601
▁ушаков	-9.85603
▁этаж	-9.85675
▁отравление	-9.85762
▁мире	-9.85834
▁девочка	-9.85852
▁канцлер	-9.85854
▁чей	-9.85865
▁помнить	-9.85877
▁in	-9.85918
▁каких	-9.85948
▁post	-9.85956
▁голосовать	-9.85988
бер	-9.86142
▁доверие	-9.86239
▁рассмотрение	-9.8626
▁юрист	-9.86281
▁нескольких	-9.86362
▁прежни	-9.86425
▁пяти	-9.86465
все	-9.86495
▁ради	-9.86604
en	-9.86613
▁погибший	-9.86651
▁далеко	-9.86753
▁митинг	-9.86764
▁точны	-9.86815
▁кремль	-9.8689
▁велосипед	-9.86904
▁пользоваться	-9.86929
▁уровне	-9.8694
▁сказала	-9.86963
▁резко	-9.87084
▁поколение	-9.87165
▁жена	-9.8717
▁управления	-9.87175
▁встретиться	-9.87182
три	-9.87262
ывать	-9.87266
▁метод	-9.8736
▁муж	-9.87362
▁увеличивать	-9.87451
▁приобретать	-9.87501
▁договора	-9.87558
▁ввп	-9.87603
▁мо	-9.87697
▁парковка	-9.8779
▁зеленый	-9.87869
▁девять	-9.87902
▁соответствовать	-9.87996
▁призыв	-9.88058
▁подозрение	-9.88116
▁общественность	-9.88126
▁фракции	-9.8822
▁бывать	-9.88227
▁парламента	-9.88353
twitter	-9.88448
-2	-9.88453
▁доступный	-9.88581
▁школьны	-9.88592
▁превышать	-9.88625
▁pic	-9.88665
▁цифрово	-9.88688
▁брат	-9.887
▁тренер	-9.88727
▁значение	-9.88731
▁ним	-9.88742
▁самостоятельно	-9.88745
▁выплачивать	-9.8877
▁заявили	-9.88778
▁заплатить	-9.8878
▁читать	-9.8891
▁работает	-9.89013
▁ресурс	-9.89054
▁турция	-9.8909
▁северо	-9.89095
▁достижение	-9.89166
▁комментарий	-9.89166
▁корреспондент	-9.89223
▁еврокомиссия	-9.89241
▁михаи	-9.89298
▁пре	-9.89334
жа	-9.89336
▁публичны	-9.89386
▁помощник	-9.89387
▁вероятно	-9.8939
▁альянс	-9.89453
▁стара	-9.89469
▁оппозиция	-9.89513
▁никак	-9.89524
▁45	-9.89541
▁административны	-9.89548
▁акт	-9.89562
▁утверждение	-9.89578
▁голосов	-9.89591
▁редакция	-9.89638
et	-9.89706
▁избегать	-9.89734
▁выбрать	-9.8978
▁скоро	-9.89824
▁судья	-9.89895
▁надзор	-9.89901
▁центре	-9.89916
▁советник	-9.89922
▁ян	-9.89935
▁оплачивать	-9.90129
▁график	-9.90183
▁бесплатно	-9.9024
▁2010	-9.90242
▁введение	-9.90322
al	-9.9039
ров	-9.90417
▁посвящать	-9.90533
▁twitter	-9.90605
▁очевидно	-9.90723
кин	-9.90852
▁страхово	-9.90883
▁товарищество	-9.90884
▁кандидатов	-9.90941
▁одним	-9.90958
▁деревня	-9.90961
▁москвы	-9.90961
ще	-9.90982
▁регистр	-9.91108
▁судно	-9.91159
▁ставить	-9.91176
▁силу	-9.91186
▁меры	-9.91214
?	-9.91223
ойти	-9.91272
▁начальник	-9.91306
▁спрашивать	-9.91316
▁обнаруживать	-9.91394
бо	-9.91397
▁доставлять	-9.91454
▁хотят	-9.9151
▁бюджета	-9.91535
▁протяжени	-9.91583
▁корабль	-9.91608
раз	-9.91649
▁baltic	-9.91659
▁последствие	-9.91677
▁самоуправления	-9.9168
▁энергия	-9.91716
▁позвонить	-9.91799
▁алекс	-9.91881
▁польза	-9.91895
▁бояться	-9.91942
▁дети	-9.91948
▁m	-9.92014
▁заметить	-9.92045
▁рассчитывать	-9.92093
▁правовой	-9.92094
первый	-9.9211
▁работников	-9.92194
▁терез	-9.92216
▁разница	-9.92259
▁пятницу	-9.9226
▁природа	-9.9226
▁кгб	-9.92269
ация	-9.92398
▁2011	-9.92496
▁рекорд	-9.92496
▁чувство	-9.92505
▁поставлять	-9.92515
▁применять	-9.92544
ур	-9.92604
▁говорят	-9.92605
▁d	-9.92724
▁намного	-9.92804
▁восстановление	-9.92808
кор	-9.92815
▁процедура	-9.92826
▁нам	-9.92874
▁сирийски	-9.92953
премьер	-9.92978
итель	-9.92984
▁подходить	-9.93047
▁голова	-9.93093
▁гос	-9.93102
▁жалоба	-9.93145
▁песня	-9.93247
▁специально	-9.93297
▁новая	-9.933
▁военно	-9.93314
▁сокращение	-9.93329
▁фактор	-9.93353
▁раймонд	-9.93402
▁вейонис	-9.93482
▁парк	-9.93493
▁представителей	-9.93582
▁признак	-9.93582
▁дискуссия	-9.93717
▁успешно	-9.93762
▁безопасный	-9.93763
▁зимни	-9.93824
председатель	-9.93832
▁приглашать	-9.93881
!	-9.93914
▁реформист	-9.93934
▁британии	-9.94017
▁своим	-9.94196
▁федеральны	-9.94242
▁французски	-9.94263
▁турнир	-9.94266
▁платеж	-9.94303
▁latvij	-9.94324
▁ей	-9.94345
▁действий	-9.9435
ек	-9.94406
▁избирателей	-9.94461
▁финансы	-9.94482
▁указал	-9.94491
▁maxima	-9.94497
▁способны	-9.94504
▁жители	-9.94617
▁зарплат	-9.94633
цев	-9.94635
▁работе	-9.94682
▁dw	-9.94689
▁пыхья	-9.94691
лин	-9.94746
▁московски	-9.94756
▁эффективный	-9.94805
▁родственник	-9.94887
▁буд	-9.94939
▁упасть	-9.94956
▁разрешать	-9.94992
z	-9.94995
▁погранохрана	-9.95019
▁перспектива	-9.95055
▁организовать	-9.95131
▁солсбери	-9.95131
▁меньши	-9.95156
▁сидеть	-9.95156
▁выполнение	-9.95207
▁вспоминать	-9.95243
▁погибли	-9.9527
▁промышленность	-9.95358
▁satiksm	-9.95396
▁передать	-9.95399
▁плюс	-9.95403
▁воскресенье	-9.95467
▁путем	-9.95475
▁уезд	-9.95633
▁членов	-9.95645
гу	-9.9567
▁информационный	-9.9567
▁научны	-9.95687
▁гор	-9.95731
▁коммерчески	-9.9581
▁след	-9.95831
▁ф	-9.95875
▁пиво	-9.95875
▁виктор	-9.95986
▁посол	-9.96087
▁программы	-9.96088
нов	-9.96281
▁интерфакс	-9.96351
▁on	-9.96372
щ	-9.96425
▁временной	-9.96452
енко	-9.96488
▁роман	-9.96511
▁бпбк	-9.96527
▁свободы	-9.96532
is	-9.96538
▁субботу	-9.96598
▁отход	-9.96619
еще	-9.96643
▁минимальны	-9.96646
▁союзник	-9.96778
▁интересны	-9.96789
▁регулярно	-9.96826
лететь	-9.96896
▁встречаться	-9.96921
▁санкций	-9.9694
▁переговоров	-9.96945
▁успешны	-9.96967
▁сутки	-9.97055
▁столь	-9.97141
▁использоваться	-9.97155
▁денежны	-9.97163
▁напиток	-9.97168
▁перекресток	-9.97168
▁мэра	-9.97185
▁концерн	-9.97252
тель	-9.97352
▁языка	-9.97485
▁гру	-9.97509
▁спортсмен	-9.97551
▁сохранение	-9.97628
ир	-9.97662
▁договориться	-9.97673
▁400	-9.97698
▁трое	-9.97748
член	-9.97771
▁европейск	-9.97796
▁соответственно	-9.97857
▁подарок	-9.97857
▁миллиард	-9.97929
▁жительство	-9.97966
▁восток	-9.98061
▁литвы	-9.98087
▁ди	-9.98301
▁реклама	-9.9831
▁заболевание	-9.98321
пл	-9.98378
▁общение	-9.98389
▁вывоз	-9.9839
тор	-9.98408
▁воз	-9.98434
аль	-9.98471
▁подразделение	-9.98682
▁корея	-9.98695
▁продавец	-9.98698
▁рак	-9.98743
▁сайте	-9.98789
▁основывать	-9.98843
▁являются	-9.98901
▁уж	-9.98917
▁направить	-9.98928
кс	-9.98951
▁ред	-9.99109
ян	-9.99149
▁аль	-9.99166
▁желающий	-9.99252
▁больничный	-9.99254
▁атака	-9.99301
▁самых	-9.99346
▁собой	-9.99401
▁пу	-9.99706
▁политически	-9.99714
▁компьютер	-9.99833
▁попыта	-9.99896
▁въезд	-9.99927
▁недели	-9.99943
ци	-9.99946
▁прошедши	-9.99951
▁2000	-10.0001
вод	-10.0005
▁готов	-10.0009
▁покинуть	-10.001
▁вступить	-10.0012
ста	-10.0015
▁реформы	-10.0016
▁травма	-10.0019
▁ло	-10.0027
сто	-10.0029
▁мог	-10.003
▁префектура	-10.003
,8	-10.0042
▁поводу	-10.0044
▁являть	-10.0049
▁согласны	-10.0054
▁ввести	-10.0056
▁leta	-10.0057
▁офис	-10.0061
▁масштабны	-10.0067
▁появляться	-10.0073
▁чемпион	-10.0074
▁sa	-10.0081
▁суть	-10.0087
▁1000	-10.0099
▁независимы	-10.0099
ось	-10.01
▁акции	-10.0113
▁v	-10.0114
▁опубликовать	-10.0114
▁италия	-10.0117
▁стратегия	-10.0128
▁исключать	-10.0132
▁недостаточно	-10.0134
▁третье	-10.0136
▁новости	-10.0138
▁дополнительно	-10.014
▁ответил	-10.0141
тс	-10.0149
▁фсб	-10.0149
▁нефть	-10.015
▁2021	-10.0151
▁поправки	-10.0157
▁подряд	-10.0158
ше	-10.0173
▁отличие	-10.0173
▁понятно	-10.0176
▁оставить	-10.018
▁снижать	-10.018
▁экзамен	-10.0186
▁произошло	-10.0192
▁распространять	-10.0193
▁тип	-10.02
▁выражать	-10.0201
▁личность	-10.0201
▁держать	-10.0202
▁ребенка	-10.0209
on	-10.0212
▁сексуальны	-10.0215
▁приносить	-10.0215
▁скрипаля	-10.0221
▁оборудование	-10.0227
▁болезнь	-10.0233
▁здания	-10.0233
▁любить	-10.0235
▁какое	-10.0242
▁думе	-10.0243
тр	-10.0256
▁ракет	-10.0258
▁вероятность	-10.0266
▁латвийской	-10.0269
▁турции	-10.027
▁персонал	-10.027
”	-10.0282
100	-10.0295
▁выплата	-10.0295
▁призва	-10.0298
▁исключение	-10.0299
re	-10.0305
▁выглядеть	-10.0308
▁150	-10.0313
▁итоге	-10.0317
▁цифра	-10.0321
▁результаты	-10.0321
▁еда	-10.0332
▁способность	-10.0333
▁красный	-10.0333
▁премьера	-10.0338
▁столичны	-10.0341
▁текущи	-10.0342
10	-10.0344
ставить	-10.0347
▁зарубежны	-10.0347
▁праздничны	-10.0349
it	-10.035
се	-10.0352
▁структура	-10.0361
▁ш	-10.0365
▁стратегически	-10.0368
▁соглашения	-10.0369
дача	-10.0373
j	-10.0378
▁культуры	-10.0379
▁блок	-10.0385
▁утверждает	-10.0391
▁прошлого	-10.0398
▁скорее	-10.0404
▁андр	-10.0411
▁многих	-10.0413
am	-10.0415
▁коррупцией	-10.0415
an	-10.0419
▁л	-10.0419
▁турист	-10.042
же	-10.0427
▁дождь	-10.0429
▁посетить	-10.0441
▁цвет	-10.0443
▁изучать	-10.0462
la	-10.0463
▁кариньш	-10.0466
▁ученый	-10.0468
▁бес	-10.0474
▁частично	-10.0478
це	-10.0478
ясь	-10.0488
▁нога	-10.0492
▁сто	-10.0493
▁вопросам	-10.0496
▁ежегодно	-10.0502
▁тревога	-10.0503
▁отдельно	-10.0505
▁самым	-10.0512
▁военные	-10.0517
▁окружной	-10.0518
▁бо	-10.0519
▁l	-10.053
▁33	-10.0531
▁грузия	-10.054
▁правильно	-10.0544
▁n	-10.055
▁потеря	-10.0555
▁de	-10.0562
te	-10.0572
▁дипломат	-10.0574
▁выходной	-10.0577
▁готовность	-10.0577
▁придется	-10.0583
чный	-10.0588
▁вмешательство	-10.0588
▁мол	-10.059
▁предоставить	-10.0592
▁объявил	-10.0594
влиять	-10.0598
▁нравиться	-10.0601
▁подписать	-10.0603
▁уголовно	-10.0609
▁джонсон	-10.0627
▁позже	-10.0627
помнить	-10.063
▁четырех	-10.0631
▁заседании	-10.0639
▁свыше	-10.0643
▁поправка	-10.0643
пер	-10.0645
▁инвестор	-10.0648
▁английский	-10.0652
▁seb	-10.0663
▁категория	-10.0665
сс	-10.0673
▁улучшение	-10.0676
▁глав	-10.068
▁объявлять	-10.0682
▁карьера	-10.0688
нд	-10.069
_	-10.0701
▁наоборот	-10.071
▁двор	-10.0711
▁окончание	-10.0713
▁32	-10.0721
▁ограничивать	-10.0727
▁бензин	-10.0729
▁лед	-10.0729
представитель	-10.0742
▁существенны	-10.0743
▁звонок	-10.0744
если	-10.0746
el	-10.0752
▁сердце	-10.0752
▁вас	-10.0753
▁минут	-10.0755
ских	-10.0758
▁2008	-10.0761
▁зарабатывать	-10.0763
▁$	-10.0765
▁делегация	-10.0768
▁хозяйство	-10.077
▁судить	-10.0778
▁ответственны	-10.0778
▁полтора	-10.0781
24	-10.0783
▁такого	-10.0784
▁ожидание	-10.0793
▁приговор	-10.0795
▁выставка	-10.0797
▁глобальны	-10.0809
▁выиграть	-10.0816
▁окно	-10.0819
▁самом	-10.0825
▁масштаб	-10.0827
▁сависаар	-10.0828
▁рижск	-10.0834
ает	-10.0842
▁рбк	-10.0846
ится	-10.0848
▁снег	-10.0856
лу	-10.0858
▁чистый	-10.0864
▁аренда	-10.0866
▁составляет	-10.0867
▁полет	-10.0868
▁заявлении	-10.0869
▁владимира	-10.0871
▁месяца	-10.0878
уд	-10.0881
▁палата	-10.0883
▁разработка	-10.0892
▁нкп	-10.0893
▁языковой	-10.0893
▁неизвестно	-10.0893
▁кор	-10.0904
▁брюсселе	-10.0904
ставлять	-10.0904
▁побережье	-10.0905
▁свободно	-10.0906
▁тепло	-10.0907
▁расходы	-10.0917
▁представление	-10.0919
▁страну	-10.0922
▁обязательство	-10.0927
▁коротки	-10.0928
▁благо	-10.0928
▁виновный	-10.0932
▁происходит	-10.0936
▁секретарь	-10.0936
▁оплата	-10.094
▁церкви	-10.0944
▁станция	-10.0953
▁сфере	-10.0953
▁донбасса	-10.0954
▁оператор	-10.0955
▁несчастны	-10.0958
▁верховны	-10.0963
▁полезны	-10.0974
▁россиян	-10.0975
▁вред	-10.0978
▁государств	-10.0981
ес	-10.0984
ид	-10.0993
,2	-10.0993
▁ю	-10.0998
ний	-10.1002
▁комитета	-10.1009
▁ба	-10.1012
пи	-10.1014
демократ	-10.1016
▁делам	-10.1017
▁исполнительны	-10.1019
▁председателя	-10.1022
▁расследования	-10.1022
▁разрабатывать	-10.1025
▁вина	-10.1033
▁доказательство	-10.1033
▁заведение	-10.1034
ры	-10.1037
▁гра	-10.104
▁протеста	-10.1046
▁поставить	-10.1048
▁агентства	-10.1049
▁генерал	-10.1052
▁нарушать	-10.1053
▁предстоящи	-10.1054
▁нести	-10.1056
мин	-10.1056
▁больной	-10.1072
▁систему	-10.1073
▁пресса	-10.1074
▁эдгар	-10.1074
полиция	-10.1081
▁просьба	-10.1083
▁прекращать	-10.1093
▁германие	-10.1093
▁игорь	-10.1093
▁планируется	-10.1101
▁принести	-10.1105
стро	-10.1116
le	-10.1122
▁долгосрочны	-10.1125
▁потребление	-10.113
▁городе	-10.1139
▁формирование	-10.114
бывшего	-10.1144
▁естественны	-10.1151
▁картина	-10.1155
▁ма	-10.1155
▁публично	-10.1156
▁правительственн	-10.1158
▁опять	-10.1162
▁кино	-10.1163
▁www	-10.1164
▁референдум	-10.1166
▁собственник	-10.117
▁диалог	-10.117
▁завтра	-10.1171
▁максимально	-10.1172
руководитель	-10.1179
чик	-10.118
▁завершать	-10.118
▁боевой	-10.1187
▁воспользоваться	-10.1193
▁руководить	-10.1194
▁ким	-10.1194
▁страх	-10.1196
▁ми	-10.1198
▁строить	-10.12
▁кому	-10.1206
ева	-10.1206
▁брак	-10.1209
▁замечать	-10.1213
ному	-10.1214
есть	-10.1216
▁наши	-10.122
▁спросить	-10.1222
▁возглавля	-10.1223
▁владе	-10.123
▁смогут	-10.1233
вар	-10.1239
▁др	-10.124
▁андрей	-10.1247
▁i	-10.1253
▁поставка	-10.1254
▁урок	-10.1255
▁подписывать	-10.1256
▁доктор	-10.1258
▁конгресс	-10.1259
▁кар	-10.1259
▁миллионов	-10.1261
▁папа	-10.1271
▁одежда	-10.1273
▁совершить	-10.1273
▁установка	-10.1275
▁ярмарка	-10.1278
▁коммуникация	-10.1286
▁узнавать	-10.1286
▁мере	-10.1291
▁церемония	-10.1294
▁пояснять	-10.13
▁задержание	-10.1301
новый	-10.1308
▁медаль	-10.1312
▁покидать	-10.1313
▁борт	-10.1313
▁закону	-10.1313
▁демократически	-10.1346
▁горсобрание	-10.1353
▁состоянии	-10.1353
▁премия	-10.1357
▁закончиться	-10.1359
▁инспекция	-10.136
▁пус	-10.1365
первые	-10.1366
▁приоритет	-10.1367
▁границы	-10.1373
▁услуг	-10.1376
вес	-10.1379
▁нью	-10.138
▁подходящий	-10.1382
▁грузовик	-10.1386
▁65	-10.1389
▁продолжаться	-10.139
▁планирует	-10.1392
▁интеграция	-10.1398
ско	-10.1405
▁соцсеть	-10.1407
▁первой	-10.1413
▁регионально	-10.1414
▁виза	-10.1421
лов	-10.1428
▁исполнять	-10.1429
▁открыто	-10.1438
▁проекта	-10.1448
▁столкнуться	-10.1448
▁находятся	-10.1448
▁площади	-10.1461
▁деятельности	-10.1462
йти	-10.1469
▁онлайн	-10.1472
▁p	-10.1472
▁получила	-10.1475
▁составил	-10.1484
маа	-10.1487
▁цик	-10.1487
▁усилие	-10.1489
▁вовсе	-10.149
▁четвертый	-10.1505
министра	-10.1508
фи	-10.1512
▁мар	-10.1514
казать	-10.1524
▁век	-10.1527
▁пляж	-10.153
▁стена	-10.153
ости	-10.1531
▁зачем	-10.1541
▁заключи	-10.1541
▁запись	-10.1557
▁н	-10.1558
▁отмен	-10.1564
ум	-10.1567
▁лидера	-10.1582
es	-10.1583
▁федерация	-10.1585
▁раньше	-10.1588
us	-10.1593
▁отставку	-10.1599
▁согласиться	-10.1599
▁изменить	-10.1601
▁школе	-10.1609
▁публикация	-10.1613
▁эфир	-10.1616
▁восточно	-10.1616
▁подросток	-10.1617
▁изначально	-10.1625
▁смартфон	-10.1626
▁шанс	-10.1628
▁воздушный	-10.1628
▁ekspress	-10.1628
▁управлять	-10.1634
ент	-10.1638
▁незаконный	-10.1642
▁сможет	-10.1645
▁хозяин	-10.1654
ед	-10.1656
▁любовь	-10.1657
▁оппозиционны	-10.166
▁отдавать	-10.1661
чка	-10.1665
суд	-10.1667
ятся	-10.1669
вин	-10.1669
▁конца	-10.1673
▁реализаци	-10.1677
▁платформа	-10.1677
▁музыка	-10.1681
вести	-10.1682
▁отношений	-10.1685
▁республики	-10.1687
▁алкогольны	-10.1687
▁наконец	-10.169
бра	-10.1695
▁семьи	-10.1697
▁принял	-10.1699
▁говорил	-10.1702
▁регистрация	-10.1702
▁инструмент	-10.1706
▁дополнительны	-10.1707
▁гол	-10.1709
▁хватать	-10.171
▁угрожать	-10.1711
,3	-10.1711
▁тяжело	-10.1732
▁будущем	-10.1732
▁соседни	-10.1734
▁аналогичны	-10.1747
нь	-10.1747
▁сторонник	-10.1747
▁победитель	-10.175
▁мысль	-10.1752
ro	-10.1752
▁лишение	-10.1752
▁ген	-10.1764
▁основатель	-10.1764
гер	-10.1764
▁клиника	-10.1766
▁посетитель	-10.1766
▁+	-10.1768
▁стандарт	-10.1768
▁tv	-10.1769
▁организовывать	-10.177
иль	-10.1776
at	-10.1779
▁реализовать	-10.178
,7	-10.1781
▁цен	-10.1782
▁никаких	-10.1784
▁предоставление	-10.1785
елять	-10.1788
▁мер	-10.1797
▁34	-10.1807
▁объединения	-10.1808
▁потенциальны	-10.181
di	-10.1831
▁назначение	-10.1837
▁берег	-10.1839
▁профессор	-10.1843
центр	-10.185
▁сотрудников	-10.185
▁литр	-10.1851
▁уверенность	-10.1854
зи	-10.1859
▁пути	-10.1859
▁сами	-10.186
um	-10.1863
▁уверен	-10.1864
падать	-10.1867
▁жил	-10.1872
конференция	-10.1883
ющих	-10.1888
▁депутата	-10.1889
▁откуда	-10.1889
▁сельски	-10.189
▁денис	-10.1894
▁аппарат	-10.1894
рик	-10.1896
▁исполнение	-10.1896
▁ядерно	-10.1914
▁участников	-10.192
st	-10.1922
▁смена	-10.1923
▁тенденция	-10.1925
эт	-10.1927
▁масло	-10.1928
ья	-10.1928
▁принято	-10.1929
▁таави	-10.1936
▁положительный	-10.1936
▁журнал	-10.1936
▁выяснять	-10.1948
▁свидетельству	-10.1955
инг	-10.1958
▁футбол	-10.196
▁кандидата	-10.1961
кра	-10.1964
▁at	-10.1969
▁ро	-10.197
ща	-10.1976
▁падение	-10.1978
новичок	-10.1979
▁благотворитель	-10.1984
▁ша	-10.1985
▁коррупция	-10.1993
планировать	-10.1995
▁поднимать	-10.1995
▁удобный	-10.1997
▁временно	-10.2005
▁подозревать	-10.2007
▁прошло	-10.2008
,1	-10.201
▁сделал	-10.2014
ила	-10.2016
▁36	-10.2019
▁55	-10.2025
пресс	-10.2027
▁заранее	-10.2036
говорить	-10.2049
▁указ	-10.2052
демократический	-10.2056
▁автоматически	-10.2056
▁советовать	-10.2057
▁рождественски	-10.2062
▁целью	-10.2074
▁днр	-10.2079
▁электроэнергия	-10.2079
▁неделю	-10.2079
▁лига	-10.2082
▁ключевой	-10.2083
ел	-10.2087
▁одном	-10.2089
▁высоко	-10.2092
▁err	-10.21
▁впрочем	-10.2106
▁беженец	-10.2108
▁кол	-10.2109
▁кай	-10.2109
▁капитал	-10.2111
▁спецслужба	-10.2111
▁школьник	-10.2121
▁сумму	-10.2124
▁традиция	-10.2126
▁умереть	-10.2126
▁услуги	-10.2127
сейчас	-10.213
▁актуальны	-10.2137
▁описывать	-10.2145
▁природны	-10.2148
▁операции	-10.2152
▁выразил	-10.2153
▁отставка	-10.2155
▁навык	-10.2157
▁аас	-10.2157
▁дата	-10.2165
▁обзор	-10.2171
▁заключенный	-10.2175
▁поехать	-10.2176
▁пят	-10.2177
▁пограничны	-10.2182
▁уча	-10.2183
▁агент	-10.2184
ur	-10.2189
▁реакция	-10.219
ге	-10.2192
▁полгода	-10.2196
▁обязательны	-10.2196
стра	-10.2197
ас	-10.2204
▁исключительно	-10.221
▁признал	-10.2222
▁сдавать	-10.2229
мар	-10.2233
▁ежедневно	-10.2237
▁понимание	-10.224
▁пройдет	-10.224
▁активист	-10.2241
▁германия	-10.2244
▁41	-10.2245
▁редактор	-10.2248
▁зрения	-10.2255
▁правильный	-10.2255
▁латышский	-10.2259
▁польше	-10.2267
▁экипаж	-10.2267
▁рекомендовать	-10.2272
▁спикер	-10.2276
оз	-10.2282
▁поход	-10.2286
▁48	-10.2288
ё	-10.2289
▁наркотик	-10.2289
▁постановление	-10.2292
▁урмас	-10.2299
рас	-10.2313
▁жесткий	-10.2314
▁импорт	-10.2326
na	-10.2327
▁re	-10.2332
▁япония	-10.2333
законодательство	-10.2341
▁возвращение	-10.2344
изм	-10.2346
частие	-10.2346
▁слышать	-10.2348
▁механизм	-10.2358
▁energia	-10.2358
▁осиновский	-10.2361
▁теле	-10.2365
▁сюда	-10.2366
▁думаю	-10.2369
▁пыта	-10.2378
▁схема	-10.238
.30	-10.2382
▁компромисс	-10.2388
▁группировка	-10.2388
▁обещание	-10.2388
▁лукашенко	-10.2392
▁кры	-10.2396
релизе	-10.2397
ому	-10.2399
напомни	-10.2405
▁следственны	-10.2408
▁такси	-10.2408
▁2007	-10.2408
▁интересовать	-10.2412
▁впечатление	-10.2418
▁постепенно	-10.2418
▁армии	-10.2418
▁нагрузка	-10.2419
жен	-10.2422
▁2009	-10.2427
▁квартирны	-10.2427
▁остается	-10.2433
▁медиа	-10.2434
▁рассказывает	-10.2434
▁актив	-10.2434
▁нашей	-10.2436
▁таллинна	-10.2438
▁добиваться	-10.2441
▁прекратить	-10.245
▁приход	-10.2452
▁первого	-10.2455
▁макрон	-10.2461
▁рынка	-10.2463
▁литовски	-10.2466
▁брюссель	-10.2473
▁всемирны	-10.2474
▁39	-10.248
▁электро	-10.2481
олог	-10.2481
▁р	-10.2481
▁первом	-10.2492
▁декларация	-10.2496
бе	-10.25
▁забывать	-10.2502
▁продлить	-10.2508
▁порядке	-10.2508
▁четко	-10.2508
▁кровь	-10.2514
▁мероприятия	-10.2518
▁выхода	-10.2527
▁крыма	-10.2528
▁популярность	-10.2529
летие	-10.2541
▁рубеж	-10.2544
▁женщин	-10.2551
▁автомат	-10.2566
▁всяки	-10.2568
▁договоренность	-10.2585
▁ходатайствовать	-10.2586
щийся	-10.2587
▁помощью	-10.2588
▁журналистам	-10.259
атор	-10.2591
▁смерти	-10.2599
▁признание	-10.2602
▁направленны	-10.2606
▁америка	-10.2606
▁сообщество	-10.2606
▁марис	-10.2608
▁предотвращени	-10.2609
эн	-10.261
▁сети	-10.2614
▁разуметь	-10.2616
▁критика	-10.2622
нее	-10.2624
▁коллектив	-10.2628
▁спасать	-10.2637
▁климат	-10.2642
▁властей	-10.2645
▁документы	-10.2648
▁встрече	-10.2657
▁добиться	-10.2661
▁крыша	-10.2661
▁запуск	-10.2671
ена	-10.2671
▁изучение	-10.2675
▁условиях	-10.268
▁зато	-10.2682
▁дни	-10.2688
▁пярнуть	-10.2688
▁полоса	-10.2692
▁эффект	-10.2695
▁градусов	-10.2701
▁доказывать	-10.2704
▁занятие	-10.2707
▁скрывать	-10.2709
имый	-10.2711
жать	-10.2722
▁co	-10.2731
▁заинтересованны	-10.2736
▁электричество	-10.2738
прежнему	-10.2738
▁сотрудники	-10.2739
▁будем	-10.2741
▁защитник	-10.275
▁середина	-10.2751
▁расширение	-10.2753
▁тест	-10.2754
▁проверить	-10.2756
▁эксперты	-10.2758
▁свежий	-10.2758
ич	-10.2759
▁крестьян	-10.276
▁столкновение	-10.2767
▁тысячи	-10.277
▁перв	-10.277
▁распоряжение	-10.2777
▁успеть	-10.2777
▁кесклинн	-10.2778
▁препарат	-10.2786
▁виде	-10.2786
▁заявка	-10.2788
▁доме	-10.2797
эстонский	-10.2797
▁уездны	-10.2802
▁начали	-10.2805
▁75	-10.2806
▁йыхв	-10.2811
▁соблюдать	-10.2812
▁конкуренция	-10.2815
▁распространение	-10.2815
▁приз	-10.2824
▁преступник	-10.2825
▁наносить	-10.2827
▁комната	-10.2836
▁войско	-10.2845
▁No	-10.2846
▁отсутствова	-10.2846
▁дальше	-10.2847
▁подумать	-10.2863
▁вперед	-10.2869
▁рийгикогу	-10.2869
▁инфраструктура	-10.287
▁нервно	-10.2872
▁убеждать	-10.2872
▁качественны	-10.2873
▁военной	-10.2878
▁рижски	-10.2881
ите	-10.2882
▁переводить	-10.2882
▁годами	-10.2882
▁отдых	-10.2883
▁великобритания	-10.2884
▁мак	-10.2886
▁of	-10.2893
ri	-10.2893
▁контракт	-10.2898
▁обязанны	-10.29
чер	-10.291
▁объявление	-10.291
▁звуча	-10.291
▁деталь	-10.2917
▁департамента	-10.2919
аться	-10.292
против	-10.2924
▁оппозиции	-10.2925
▁разведка	-10.2925
▁юлия	-10.2926
▁отмывание	-10.2926
▁дефицит	-10.2932
▁процентов	-10.2932
▁политику	-10.2941
▁нарушения	-10.2942
▁больницы	-10.2944
▁американски	-10.2946
▁кур	-10.295
▁собеседник	-10.2951
лер	-10.2955
▁ближайши	-10.2957
▁многочисленны	-10.2957
▁сокращать	-10.2965
▁присутствова	-10.2966
нт	-10.2971
▁уровня	-10.2972
▁юстиции	-10.2972
▁охранник	-10.2972
▁ум	-10.2973
▁решил	-10.2973
мет	-10.2979
▁600	-10.2987
совершеннолетний	-10.2988
▁isamaa	-10.2988
▁кампании	-10.2988
▁судьба	-10.2993
▁внутренних	-10.2998
▁готовить	-10.3001
кон	-10.3004
▁сотрудничества	-10.3004
▁инвестировать	-10.3004
▁активность	-10.3008
▁носить	-10.3012
▁ракеты	-10.3012
▁бумага	-10.3017
▁офицер	-10.3019
▁настоящее	-10.302
▁напрямую	-10.302
▁обслуживать	-10.3021
▁норвегия	-10.3021
▁кстати	-10.3022
ra	-10.3023
▁суде	-10.3026
ar	-10.303
▁возраста	-10.3047
▁касается	-10.3053
▁конфликта	-10.3054
30	-10.3054
▁метров	-10.3055
ыграть	-10.3056
▁присутствие	-10.3066
▁защиты	-10.3068
▁etv	-10.3068
▁транспорта	-10.3068
нер	-10.3068
▁сестра	-10.3069
!.	-10.3069
▁живой	-10.3071
▁условия	-10.3074
▁православны	-10.308
▁беседа	-10.3082
▁потратить	-10.3084
▁la	-10.3084
▁оценить	-10.3085
бы	-10.3086
▁пролив	-10.3091
▁минобороны	-10.3096
▁мяч	-10.3098
▁харьюмаа	-10.31
,9	-10.3109
▁зарегистрирован	-10.311
▁прочее	-10.3116
▁независимо	-10.3118
▁38	-10.312
▁израиль	-10.3122
рез	-10.3122
▁значит	-10.3125
▁id	-10.313
▁литве	-10.3132
▁гу	-10.3135
▁экран	-10.3137
co	-10.3138
▁собственность	-10.314
▁заявления	-10.314
пис	-10.3141
▁пообещать	-10.3148
магазин	-10.3148
▁реконструкция	-10.3149
везти	-10.3152
▁предъявлять	-10.3152
▁серия	-10.3157
ские	-10.3158
нос	-10.3163
▁миграция	-10.3164
▁карточка	-10.3164
▁финал	-10.3168
▁формат	-10.3176
▁марка	-10.3177
▁топ	-10.3179
▁рублей	-10.318
▁реально	-10.3183
▁боль	-10.3184
▁1,5	-10.3186
▁вход	-10.3187
роде	-10.3189
▁47	-10.3194
▁край	-10.3194
▁погибших	-10.3197
▁железнодорожны	-10.3198
▁ын	-10.3203
▁режиссер	-10.3203
▁здоровья	-10.3205
ma	-10.3214
▁вестись	-10.3222
мяэ	-10.3222
▁красивый	-10.3223
▁ступень	-10.3229
▁37	-10.3231
▁руль	-10.3233
▁пользовать	-10.3234
▁следователь	-10.3234
▁свидетель	-10.3236
▁юрис	-10.3246
нг	-10.3255
очный	-10.3256
дннл	-10.3262
лы	-10.3264
▁актер	-10.3266
▁консультация	-10.3268
чен	-10.327
▁аптека	-10.3274
▁44	-10.3277
▁задержан	-10.3277
▁алексея	-10.3278
▁вступление	-10.3279
▁северной	-10.3282
▁титул	-10.3286
▁мясо	-10.3295
▁сомнение	-10.3295
▁мигрант	-10.3297
▁уникальны	-10.3298
▁рано	-10.3306
▁подтвердил	-10.3307
▁приняты	-10.3319
▁организованны	-10.3323
▁буров	-10.3326
▁поддержки	-10.3327
▁самые	-10.3328
▁800	-10.3333
вый	-10.3334
▁кот	-10.3334
▁большая	-10.3337
▁работают	-10.3338
▁нормальный	-10.3341
▁зафиксировать	-10.3343
▁украинских	-10.3344
▁бой	-10.3345
17	-10.3345
▁химический	-10.3346
▁академия	-10.3348
▁силламяэ	-10.335
▁врачей	-10.3353
▁ключ	-10.3356
▁завери	-10.3358
▁коалиционны	-10.336
▁сергея	-10.336
▁предполагаемы	-10.3361
▁средней	-10.3364
▁заказывать	-10.3368
дж	-10.3369
▁налогов	-10.337
▁стрельба	-10.3371
▁чемпионата	-10.3371
▁пилот	-10.3373
▁проезд	-10.3376
дел	-10.3378
▁парад	-10.3379
▁поставщик	-10.338
▁зеленского	-10.3393
▁64	-10.3401
▁телеканала	-10.3402
▁спокойно	-10.3409
нять	-10.3412
▁педагог	-10.3413
▁потенциал	-10.3421
▁ж	-10.3421
ун	-10.3423
▁knab	-10.3426
▁скончать	-10.343
▁new	-10.3432
▁обед	-10.3433
▁нехватка	-10.3435
сен	-10.344
▁север	-10.3447
▁квадратны	-10.3453
ирование	-10.3454
доставить	-10.3457
ели	-10.346
▁финансирования	-10.3466
▁мед	-10.3467
▁стадион	-10.3467
▁саар	-10.3468
вший	-10.3479
▁миссия	-10.3481
▁предложил	-10.3482
▁чаще	-10.3485
▁юго	-10.3485
▁допускать	-10.3491
▁восстанавливать	-10.3496
▁больнице	-10.3506
▁юстиция	-10.3509
▁изделие	-10.3509
шен	-10.3511
▁соревнование	-10.3512
▁непосредственно	-10.3513
▁ра	-10.3514
▁экологически	-10.3516
лечь	-10.3523
▁река	-10.3524
▁ведомства	-10.3526
▁оборонны	-10.353
▁поделиться	-10.3532
вед	-10.3532
ак	-10.3533
▁пхенчхане	-10.3539
▁шести	-10.3542
▁независимости	-10.3544
▁соответствии	-10.3545
ание	-10.3546
▁университета	-10.3548
▁община	-10.3551
▁промышленны	-10.3555
▁дважды	-10.356
▁ирина	-10.3561
▁политиков	-10.3561
овский	-10.3565
▁команды	-10.3568
онный	-10.3583
▁to	-10.3585
▁переста	-10.3597
▁вертолет	-10.3609
▁администрации	-10.361
▁появление	-10.3612
il	-10.3616
▁вступать	-10.362
▁сахар	-10.362
▁отличаться	-10.3627
▁собчак	-10.363
▁стиль	-10.3631
вание	-10.365
▁увеличить	-10.3651
▁путиным	-10.3652
▁заседания	-10.3658
▁предупреждать	-10.3663
▁цели	-10.3677
▁людям	-10.3678
▁сценарий	-10.3678
▁вынужденны	-10.3679
▁можем	-10.3681
▁пик	-10.3681
ющий	-10.3682
▁неожиданно	-10.3684
▁южной	-10.3693
▁звонить	-10.3693
▁установленны	-10.3693
▁втором	-10.3696
▁латышском	-10.3704
▁убивать	-10.3706
▁эрик	-10.3711
▁хи	-10.3714
▁42	-10.3719
▁всю	-10.372
эр	-10.3726
▁ознакомлять	-10.3729
▁голосования	-10.373
▁напомнил	-10.3731
▁золото	-10.3731
нет	-10.3734
▁дороги	-10.3742
▁случаться	-10.3746
▁китая	-10.3748
▁рассказала	-10.3749
ступать	-10.3756
рен	-10.3756
▁интересно	-10.3757
▁наверное	-10.3767
▁закрытие	-10.3769
▁предлагает	-10.3771
▁женщины	-10.3771
▁почта	-10.3788
вшего	-10.3793
▁авиакомпания	-10.3797
▁протокол	-10.3799
▁танец	-10.3799
▁недо	-10.38
яр	-10.38
▁международно	-10.38
▁игрок	-10.3801
▁дер	-10.3807
▁должник	-10.3814
вид	-10.3815
▁богатый	-10.3816
щик	-10.382
▁консервативны	-10.3821
▁правительстве	-10.3821
▁победы	-10.3824
▁снизиться	-10.3825
▁мин	-10.3828
▁недоверие	-10.3832
▁родиться	-10.3834
▁намерение	-10.3836
▁пи	-10.3842
▁разве	-10.3845
▁поговорить	-10.3846
▁юбилей	-10.3849
▁предложения	-10.385
▁дал	-10.3851
▁яак	-10.3856
▁беларусь	-10.3866
иньш	-10.3867
ож	-10.387
▁rmk	-10.3873
▁рецепт	-10.3873
00	-10.388
▁самоуправлений	-10.3884
▁покрывать	-10.3884
▁столетие	-10.3884
▁размещать	-10.3894
▁политике	-10.3894
воз	-10.3899
▁меж	-10.3903
▁явно	-10.3905
▁пуце	-10.3908
▁китай	-10.3909
лик	-10.3913
▁супруга	-10.3917
▁бульвар	-10.3918
между	-10.3925
▁передаче	-10.3925
▁каким	-10.3925
▁эксперимент	-10.3932
▁ответственности	-10.3936
▁должностны	-10.3937
▁гонка	-10.3938
▁o	-10.3941
”.	-10.3944
▁обвини	-10.3945
▁кучинскис	-10.3945
▁британие	-10.3953
▁преимущество	-10.3953
▁проведения	-10.3955
ливать	-10.3959
▁андрес	-10.396
▁подпись	-10.3964
▁вильнюс	-10.397
▁тратить	-10.3972
▁иностранец	-10.3974
ировал	-10.3976
▁процесса	-10.3978
▁великий	-10.3983
▁обо	-10.3984
▁упаковка	-10.3988
▁times	-10.3989
▁хранить	-10.399
нс	-10.3992
даваться	-10.3998
▁странами	-10.3999
▁случаях	-10.4002
▁оказание	-10.4003
▁кришьянис	-10.4006
▁мужчины	-10.4009
▁выступил	-10.4011
▁сохранить	-10.4015
▁ги	-10.4016
▁избирать	-10.4019
сал	-10.402
▁мебель	-10.4023
▁освобождение	-10.4024
ция	-10.4024
vi	-10.4027
▁неизвестный	-10.4032
▁честно	-10.4035
стер	-10.4036
▁распространенны	-10.4041
▁зеленых	-10.4041
ирует	-10.4042
▁112	-10.4043
▁другими	-10.4046
▁специальность	-10.4046
▁самое	-10.4049
▁дипломатически	-10.4051
▁правила	-10.4051
.–	-10.4053
▁губернатор	-10.4054
▁канада	-10.4059
ходят	-10.4061
▁начал	-10.4063
▁больницу	-10.4064
▁искусство	-10.4067
▁марин	-10.4068
▁49	-10.4076
▁новую	-10.4077
▁респондент	-10.4081
▁устраивать	-10.4084
▁старт	-10.4087
-1	-10.4089
вен	-10.4091
▁каждого	-10.4094
▁регионе	-10.4095
ников	-10.4101
ol	-10.4103
▁криминальны	-10.4104
▁необходимости	-10.4105
налед	-10.4105
рат	-10.4106
ta	-10.4111
▁обязанности	-10.4112
▁бог	-10.4116
▁незаконно	-10.4117
ять	-10.4118
▁итогам	-10.4124
▁исследователь	-10.4128
▁мустамяэ	-10.4129
▁науки	-10.4129
▁гобземс	-10.413
▁обойтись	-10.4131
▁al	-10.4134
▁возврат	-10.4136
▁править	-10.414
ально	-10.4145
▁конституция	-10.4147
▁съемка	-10.4147
▁энергетически	-10.4147
▁нацменьшинств	-10.4149
▁родина	-10.4149
▁//	-10.415
▁цены	-10.4153
▁музыкальны	-10.4157
ул	-10.4163
▁обыск	-10.4174
▁улице	-10.418
▁мандат	-10.4186
▁возрасте	-10.4189
▁ринкевич	-10.419
▁индекс	-10.4192
▁наших	-10.4193
▁самой	-10.4202
▁слабый	-10.4203
▁зима	-10.4204
▁2006	-10.4216
▁зло	-10.4217
▁декабре	-10.4219
▁единства	-10.4219
▁форум	-10.4225
▁уделять	-10.4228
▁нормально	-10.4229
▁обновлять	-10.4229
▁выясни	-10.4235
▁вооружение	-10.4237
▁внешне	-10.4239
▁ме	-10.4244
раж	-10.4255
▁состоится	-10.4255
▁дым	-10.4257
▁высота	-10.4259
▁турецки	-10.4261
▁чен	-10.4262
▁мотив	-10.4263
▁залог	-10.4266
▁минувши	-10.4271
▁журналистов	-10.4273
▁основном	-10.4278
▁43	-10.4279
▁rimi	-10.4281
▁донбассе	-10.4286
кер	-10.4291
▁пожертвование	-10.4292
▁работ	-10.4296
▁члены	-10.4297
ируют	-10.4318
ешь	-10.4318
▁ввс	-10.4323
тон	-10.4326
▁обнародовать	-10.4327
▁сервис	-10.4328
карта	-10.4331
▁amp	-10.4332
▁погиб	-10.4343
▁контроля	-10.4345
▁означает	-10.4345
▁районе	-10.4347
▁джон	-10.4352
▁подоходны	-10.4354
второе	-10.4356
▁какая	-10.4361
or	-10.4363
▁лежать	-10.4363
▁ассортимент	-10.4363
▁певческ	-10.4364
▁критически	-10.4367
▁точки	-10.4373
un	-10.4374
▁китайский	-10.4375
▁двигать	-10.4377
▁испытывать	-10.4386
▁транзит	-10.4393
лять	-10.4395
▁мое	-10.4397
кова	-10.4399
▁версии	-10.44
▁прекращение	-10.44
сл	-10.44
▁пришлось	-10.44
▁причин	-10.4407
▁тюремны	-10.4408
▁государственны	-10.4412
▁имеют	-10.4412
ала	-10.4412
▁польша	-10.4416
бл	-10.442
▁русском	-10.4424
▁максимальны	-10.4424
пар	-10.4425
лить	-10.4431
▁здоровый	-10.4441
▁негативный	-10.4443
▁привлечь	-10.4448
▁учителей	-10.4455
▁границе	-10.4458
▁игры	-10.4459
▁дание	-10.4463
▁ольга	-10.4464
▁политолог	-10.447
▁останавливать	-10.4471
тб	-10.4472
▁аргумент	-10.4474
▁совершение	-10.4484
▁инвалид	-10.4485
▁существующи	-10.4485
ia	-10.4486
▁пе	-10.4487
▁ирана	-10.4488
▁петров	-10.449
▁13-	-10.4491
▁марий	-10.4492
▁миграционны	-10.4492
ыми	-10.4494
▁заметно	-10.4498
▁46	-10.4499
ика	-10.4501
▁шведски	-10.4506
▁доступность	-10.4515
▁конкретно	-10.4515
▁сама	-10.4526
▁деятель	-10.4527
im	-10.4528
▁сообщении	-10.4531
▁предназначать	-10.4533
▁раздел	-10.4536
▁пожарный	-10.4537
▁тво	-10.4544
▁лидеров	-10.4546
сам	-10.4551
▁получиться	-10.4554
▁газовы	-10.456
▁кий	-10.4564
лис	-10.4567
▁нашли	-10.4569
▁отказался	-10.4578
оп	-10.4583
▁матча	-10.4583
▁лагерь	-10.4584
▁гибель	-10.4584
гор	-10.4584
самый	-10.4586
▁сравнивать	-10.4587
▁труда	-10.4593
▁события	-10.4594
▁кофе	-10.4599
▁оттуда	-10.4603
▁камень	-10.4604
▁предупреждение	-10.4605
▁недавни	-10.4605
ден	-10.4605
▁испания	-10.4607
▁сан	-10.4608
▁зритель	-10.4611
▁народа	-10.462
▁исследования	-10.4621
▁обладать	-10.4621
▁охраны	-10.4621
▁защите	-10.4622
▁вокзал	-10.4622
▁ассоциация	-10.4623
▁плат	-10.4627
пере	-10.463
▁конституционны	-10.4634
▁кладбище	-10.464
▁кремля	-10.4641
кр	-10.4643
предположительно	-10.4644
▁меньшинство	-10.4648
▁получаться	-10.4648
ch	-10.4655
▁полно	-10.4657
▁беженцев	-10.4659
▁военнослужащий	-10.4659
▁уточнять	-10.4671
ант	-10.4672
▁гарантировать	-10.4678
▁русских	-10.4678
▁элемент	-10.4682
рис	-10.4683
▁попробовать	-10.4685
▁кандидатура	-10.4689
▁самого	-10.4691
берг	-10.4691
▁ляэне	-10.4695
среди	-10.4697
▁такая	-10.4704
▁улучшать	-10.4708
▁сцена	-10.471
▁искусственны	-10.4711
рь	-10.4716
▁целево	-10.472
▁крайни	-10.4722
▁покрытие	-10.4727
▁ракетны	-10.4728
▁предпринимать	-10.4732
▁контролировать	-10.4734
▁символ	-10.474
▁жертв	-10.4741
▁велосипедист	-10.4743
▁колледж	-10.4746
▁мастер	-10.4749
▁свидетельствова	-10.4753
▁госдум	-10.4755
▁уточнить	-10.4756
▁le	-10.4757
▁округ	-10.4758
▁участия	-10.4761
пре	-10.4774
▁роберт	-10.4779
ица	-10.4782
▁безусловно	-10.4791
▁родителей	-10.4791
▁профсоюз	-10.4792
▁образовательны	-10.4795
▁четверть	-10.4801
▁нелегальны	-10.4805
уш	-10.4806
оль	-10.4809
▁солсб	-10.481
▁утром	-10.4811
▁пользу	-10.4813
▁посещение	-10.4814
▁сочи	-10.4817
китать	-10.482
▁душа	-10.4822
другой	-10.4827
▁вынужден	-10.4828
▁убежище	-10.4829
▁приют	-10.4829
▁демократия	-10.4831
ад	-10.4831
▁преподаватель	-10.4831
▁нужны	-10.4833
▁равно	-10.4835
▁коммерсант	-10.4838
▁опасно	-10.4844
▁темп	-10.4845
▁h	-10.4848
▁разные	-10.4852
▁ними	-10.4853
петербург	-10.4857
▁преступления	-10.4859
▁вдруг	-10.486
тив	-10.486
▁некоторых	-10.4867
▁лист	-10.487
▁близкие	-10.4871
▁тонна	-10.4874
▁2,5	-10.4875
▁марте	-10.4881
▁любимы	-10.4883
ряду	-10.4884
▁закрыть	-10.4884
▁трагедия	-10.4886
▁агрессивны	-10.4889
▁ста	-10.49
▁четки	-10.4906
▁сейме	-10.4909
▁политической	-10.4913
▁освобождать	-10.4917
▁польши	-10.4918
▁нил	-10.4919
▁документов	-10.4925
to	-10.4929
▁ал	-10.4933
▁выпускать	-10.4934
▁сельско	-10.4935
ление	-10.4936
▁фа	-10.4937
▁востоке	-10.4941
▁ребята	-10.4942
▁высказывание	-10.4944
▁финляндии	-10.4944
▁дух	-10.4945
▁by	-10.495
▁семей	-10.4957
▁газа	-10.4958
▁вопросу	-10.4959
▁каф	-10.4962
▁разделять	-10.4964
▁оборон	-10.4968
▁возмещение	-10.4968
▁бен	-10.4969
пред	-10.497
ченко	-10.497
став	-10.4972
▁общественного	-10.4974
шка	-10.4974
▁мае	-10.4977
чин	-10.498
▁дорожно	-10.4981
▁редки	-10.4983
▁ти	-10.4984
▁обновление	-10.4986
▁мусора	-10.4997
рав	-10.4998
▁900	-10.5
рова	-10.5002
▁самолета	-10.5002
▁терять	-10.5006
▁продолжение	-10.501
▁главны	-10.5023
▁рождество	-10.5024
▁герой	-10.5024
▁приобрести	-10.5026
▁собирается	-10.5027
▁психолог	-10.5028
▁наталья	-10.5029
▁отметила	-10.5034
вшая	-10.5036
▁дональда	-10.5037
▁повысить	-10.5037
стать	-10.5039
▁задавать	-10.504
живать	-10.5041
▁реагировать	-10.5041
▁хотел	-10.5044
▁организм	-10.5045
▁54	-10.5047
▁буквально	-10.5051
ad	-10.5052
▁татьян	-10.5053
▁паром	-10.5053
ски	-10.5056
▁экспертиза	-10.506
▁ценить	-10.5061
▁пить	-10.5063
▁пришли	-10.5069
счет	-10.5075
▁эфире	-10.5075
▁годовщин	-10.5077
▁констатировать	-10.508
▁позиции	-10.508
▁съезд	-10.508
▁аналитик	-10.5081
▁публиковать	-10.5082
▁выделить	-10.5083
▁налога	-10.5086
▁теракт	-10.509
▁ушакова	-10.5097
специалист	-10.5097
▁полномочие	-10.5099
▁раэпресс	-10.5099
▁rail	-10.51
▁ltv	-10.51
▁уметь	-10.51
▁доставка	-10.5107
▁моста	-10.5108
▁школах	-10.5109
▁кадр	-10.5113
▁профессия	-10.5119
бро	-10.5124
▁прошли	-10.5124
цион	-10.5125
▁своими	-10.5126
▁брекзит	-10.5139
од	-10.5139
▁укрепление	-10.5141
▁лишить	-10.5142
твор	-10.5153
тро	-10.5156
▁700	-10.5159
▁керченски	-10.5159
▁56	-10.516
▁250	-10.5164
▁поста	-10.5165
▁бор	-10.517
▁враг	-10.5172
▁прекрасный	-10.5175
ционального	-10.5177
▁снять	-10.5178
▁оказать	-10.5179
▁матче	-10.5183
▁тариф	-10.5184
▁пирит	-10.5187
гр	-10.5188
▁клиентов	-10.5189
▁реальность	-10.5189
▁запас	-10.5191
▁военного	-10.5192
▁хельсинк	-10.5193
более	-10.5196
евой	-10.5198
▁швеции	-10.5198
▁присоединиться	-10.5199
▁пьяный	-10.5201
▁рыба	-10.5206
стве	-10.5208
▁борданс	-10.5216
▁tele	-10.5219
▁радость	-10.5219
▁могу	-10.522
▁гореть	-10.5226
▁первым	-10.5229
▁человеческий	-10.5229
▁воды	-10.523
▁михаил	-10.5232
▁длин	-10.5232
▁американские	-10.5232
▁повреждение	-10.5238
▁уменьшение	-10.524
▁константин	-10.5241
▁j	-10.5246
▁r	-10.525
▁исход	-10.5253
ились	-10.5254
▁первоначальны	-10.526
50	-10.526
▁указанны	-10.5263
▁длинный	-10.5266
▁запускать	-10.5266
илась	-10.5267
▁системе	-10.5271
▁оформлять	-10.5277
▁австрия	-10.5281
▁компенсировать	-10.5282
▁группе	-10.5282
▁опрашивать	-10.5284
▁переходить	-10.529
▁длительный	-10.5308
▁отменять	-10.5312
тка	-10.5313
▁90-	-10.5315
▁мошенничество	-10.5317
▁приказ	-10.5319
вет	-10.5329
ичный	-10.5334
▁собор	-10.5335
▁необходимы	-10.5336
▁бюджетны	-10.5337
▁позицию	-10.5337
▁1991	-10.5338
овка	-10.5338
▁оперативны	-10.5339
▁x	-10.5344
▁52	-10.5344
▁издания	-10.5344
▁пятый	-10.5347
▁женский	-10.5351
йыэсуу	-10.5357
▁испании	-10.5357
▁учеба	-10.5357
▁достаточны	-10.5357
▁стража	-10.5358
▁100-	-10.5358
▁украину	-10.5361
▁употреблять	-10.5367
▁воздействие	-10.5368
▁живот	-10.537
пал	-10.5373
▁украинец	-10.5381
▁волна	-10.5383
▁президенту	-10.5384
▁песков	-10.5389
ход	-10.539
▁приграничны	-10.5391
тельный	-10.5396
значить	-10.5399
дра	-10.5401
11	-10.5402
▁доверять	-10.5404
q	-10.5407
▁завершиться	-10.5407
▁ск	-10.5411
▁приводит	-10.5412
▁организаций	-10.5418
▁скрипалей	-10.5418
▁широко	-10.5419
▁ценны	-10.5421
ночной	-10.5423
▁происхождение	-10.5438
▁одну	-10.5438
▁преступны	-10.5438
конференции	-10.5439
▁меняться	-10.5439
▁поддерживает	-10.5442
▁градус	-10.5444
▁химическо	-10.5445
нка	-10.5445
совет	-10.5455
▁хо	-10.5458
▁поздно	-10.5458
▁чрезвычайно	-10.5459
▁польски	-10.546
стр	-10.5469
▁раза	-10.547
▁финала	-10.5478
▁телевидение	-10.5479
▁обвинил	-10.5479
▁услышать	-10.5481
▁убийства	-10.5483
▁противник	-10.5485
▁хан	-10.5486
ter	-10.5487
▁стаж	-10.5487
▁убирать	-10.5488
▁имени	-10.549
28	-10.5496
▁опьянение	-10.5499
▁дебаты	-10.5505
▁шум	-10.5506
▁полагает	-10.5508
ству	-10.5512
казание	-10.5513
▁футболу	-10.5514
▁приняли	-10.5517
▁ограниченны	-10.5518
▁федерации	-10.552
▁бур	-10.552
▁латвийском	-10.5521
▁подготавливать	-10.5521
россия	-10.5527
▁упоминать	-10.5534
▁ii	-10.554
▁добры	-10.5541
ович	-10.5542
род	-10.5547
▁пер	-10.5552
емся	-10.5552
▁85	-10.5552
▁вопросов	-10.5565
рин	-10.5565
▁настроение	-10.5581
▁списка	-10.5582
▁2004	-10.5587
▁мария	-10.56
▁немало	-10.56
▁супер	-10.5601
▁торжественны	-10.5604
▁лесно	-10.5606
ета	-10.5611
▁катастрофа	-10.5611
▁относить	-10.5618
▁теплый	-10.5622
▁instagram	-10.5622
▁страдать	-10.5622
фе	-10.563
ющие	-10.5638
▁ст	-10.5639
▁порядка	-10.5643
стан	-10.5643
▁51	-10.5644
▁левитс	-10.5648
▁игр	-10.5655
13	-10.5661
бу	-10.5662
▁вещи	-10.5662
▁допрос	-10.5662
▁продолжает	-10.5663
▁численность	-10.5664
▁высказывать	-10.5664
▁грузии	-10.5665
▁чужой	-10.5666
ke	-10.5671
▁употребление	-10.5672
▁андрис	-10.5672
▁поднять	-10.5673
▁жест	-10.5673
▁опубликовал	-10.5679
▁требует	-10.5683
▁десятилетие	-10.5685
▁чисто	-10.5686
▁63	-10.5686
▁привлечение	-10.5689
▁отменить	-10.5691
▁тему	-10.5692
▁разумны	-10.5695
▁фонда	-10.5701
▁обратны	-10.5704
▁эстонию	-10.5705
▁умер	-10.5709
▁финн	-10.5724
▁ин	-10.5724
▁prisma	-10.5726
▁предприятий	-10.5726
▁следующем	-10.5726
▁мешать	-10.5726
▁окончательный	-10.5729
▁нем	-10.573
ut	-10.573
▁секрет	-10.573
▁русского	-10.5731
▁мок	-10.5732
▁ящик	-10.5737
▁склад	-10.5737
▁мощны	-10.5739
▁марк	-10.574
бор	-10.5741
▁фамилия	-10.5747
достаток	-10.5747
▁приобретение	-10.5751
▁художник	-10.5751
▁устроить	-10.5758
▁расширять	-10.5765
нес	-10.5768
▁завершение	-10.5771
▁друзь	-10.5772
▁двигаться	-10.5777
▁сведение	-10.5778
▁американско	-10.5781
▁угол	-10.5781
▁неправильно	-10.5789
▁предусматривает	-10.5789
она	-10.5792
▁источники	-10.5798
ce	-10.5799
▁участники	-10.5803
рос	-10.5804
ton	-10.5804
всего	-10.5804
▁новым	-10.5805
ik	-10.5809
▁глубоки	-10.581
▁январе	-10.581
▁пройдут	-10.581
▁выражение	-10.581
▁могла	-10.5816
▁допинг	-10.5816
бь	-10.5821
▁творчески	-10.5825
▁120	-10.583
▁еврокомиссии	-10.5831
▁немедленно	-10.5831
▁избран	-10.5832
▁кристина	-10.5838
▁иг	-10.584
▁индивидуальны	-10.5844
▁статье	-10.5849
▁обсуждаться	-10.5851
▁борьбы	-10.5852
ic	-10.5853
▁отель	-10.5855
▁юлие	-10.5859
▁аудит	-10.5863
▁ka	-10.5871
▁декларации	-10.5873
▁апреле	-10.5873
шего	-10.5874
▁сталкиваться	-10.5874
▁57	-10.5876
▁бел	-10.5901
фото	-10.5901
ился	-10.5904
▁вам	-10.5909
средством	-10.591
очка	-10.591
▁работал	-10.5913
▁беларуси	-10.5915
▁греция	-10.5916
▁reuters	-10.5918
▁планирование	-10.5918
▁набирать	-10.5921
▁видит	-10.5923
▁бабушка	-10.5926
▁заменять	-10.5926
▁трамвай	-10.5929
▁шествие	-10.5934
▁мужчин	-10.5936
▁требования	-10.594
▁кг	-10.5942
▁улицы	-10.5945
▁парламенте	-10.5946
лан	-10.595
se	-10.5951
▁коррупции	-10.5958
▁довольны	-10.5958
сер	-10.5958
▁должностно	-10.5958
государственного	-10.5959
▁российская	-10.5962
атель	-10.5965
ent	-10.5965
▁кореи	-10.5966
▁золотой	-10.5968
бывший	-10.5968
российский	-10.5969
▁справляться	-10.5974
▁важность	-10.5976
▁какую	-10.5977
▁мат	-10.5979
▁путешествие	-10.5979
▁феврале	-10.5979
▁призывает	-10.598
▁наказывать	-10.5983
▁присла	-10.5984
▁воздуха	-10.5996
▁сенатор	-10.5997
▁кан	-10.5999
ично	-10.6011
▁небо	-10.6012
▁tallinna	-10.6014
▁нож	-10.6016
▁53	-10.6022
▁недовольны	-10.6022
▁преимущественно	-10.6022
▁ильвес	-10.6022
▁пострадали	-10.6022
▁ши	-10.6025
▁выпуск	-10.6025
▁другим	-10.6027
▁случаев	-10.6031
ительный	-10.6031
▁дар	-10.6034
▁российским	-10.604
▁ощущение	-10.6044
▁лидеры	-10.6045
один	-10.6047
▁размещение	-10.6048
▁саммита	-10.6051
сад	-10.6058
▁выдвигать	-10.6059
▁плакат	-10.606
▁достойный	-10.6066
▁tim	-10.6066
▁обратить	-10.6068
▁ja	-10.6069
▁футбольны	-10.6074
▁капитала	-10.6077
▁машин	-10.6078
ана	-10.6079
▁tallinn	-10.6082
ское	-10.6086
▁правящи	-10.6086
ä	-10.6087
▁подробны	-10.6091
▁зуб	-10.61
▁режима	-10.6104
ni	-10.6107
▁примета	-10.6108
▁европейских	-10.611
▁обе	-10.6115
▁58	-10.6116
▁бе	-10.6119
▁пришел	-10.6121
▁международных	-10.6124
▁медик	-10.6125
ук	-10.6126
▁готовиться	-10.6127
▁отреагировать	-10.613
▁уменьшать	-10.613
▁близ	-10.6131
▁посчитать	-10.6134
▁допустить	-10.6136
йте	-10.6137
▁хар	-10.6142
▁прима	-10.6143
такой	-10.6144
▁ежегодны	-10.6148
-19	-10.6152
▁жир	-10.6153
▁обвиняемый	-10.6154
овых	-10.6158
▁66	-10.6163
▁демократ	-10.6164
летнего	-10.6169
▁сторону	-10.617
2018	-10.617
▁заверять	-10.6174
▁испытание	-10.6174
фа	-10.6175
▁крас	-10.618
▁позитивный	-10.618
▁расписание	-10.618
▁европарламента	-10.6184
▁дает	-10.6185
▁туристически	-10.6185
▁тщательно	-10.6196
▁партию	-10.6196
▁обучения	-10.6197
▁мнения	-10.6198
▁электростанция	-10.6205
нут	-10.6213
ств	-10.6215
▁базовы	-10.6216
▁мадуро	-10.6217
▁предпочитать	-10.6217
▁освободить	-10.6218
▁концепци	-10.6221
▁окончательно	-10.6223
анс	-10.6228
уметь	-10.6228
▁повторно	-10.6228
14	-10.6231
▁москву	-10.6239
уют	-10.624
▁мошенник	-10.624
▁органов	-10.6243
▁компаний	-10.6244
▁окружающе	-10.6245
ысокопоставленны	-10.6248
▁ограничения	-10.6249
▁выгодный	-10.6259
дать	-10.6263
▁четверо	-10.6263
▁захотеть	-10.6265
▁проживание	-10.6266
▁мечта	-10.6266
▁взнос	-10.6274
крат	-10.6276
▁бал	-10.628
▁отличны	-10.628
▁ноябре	-10.6283
▁путину	-10.6285
▁звезда	-10.6286
▁функция	-10.6286
▁альянса	-10.6287
▁празднование	-10.6287
▁составление	-10.6289
▁консервативн	-10.629
близи	-10.6292
▁проходит	-10.6298
▁решили	-10.6298
гра	-10.63
▁мигрантов	-10.6301
12	-10.6301
▁выброс	-10.6302
▁железны	-10.6305
▁инициировать	-10.6305
▁одобрить	-10.6306
▁danske	-10.6308
▁недовольство	-10.6309
▁юбилейный	-10.631
▁местах	-10.6311
delfi	-10.6313
▁руководителя	-10.6317
ek	-10.6327
▁google	-10.6328
▁ra	-10.6331
os	-10.6333
▁уменьшиться	-10.6334
▁украинского	-10.6334
▁анна	-10.6336
▁украинской	-10.6337
▁причастность	-10.6339
▁проб	-10.634
▁наблюдение	-10.6343
ции	-10.6345
▁кредитны	-10.6348
▁серьезно	-10.636
▁холодны	-10.636
▁британско	-10.6361
▁бытово	-10.6363
▁программу	-10.6366
▁бу	-10.6366
зд	-10.6367
коп	-10.6369
▁детям	-10.6372
▁телевизор	-10.6372
▁последних	-10.6372
▁почтовы	-10.6372
вших	-10.6375
▁выдач	-10.6375
ly	-10.6377
▁консультант	-10.6383
▁олимпиаде	-10.6384
▁летом	-10.639
нин	-10.6391
▁консервативно	-10.6393
▁кодекс	-10.6394
▁столицы	-10.6394
▁озеро	-10.6394
▁второго	-10.6394
▁попал	-10.6395
▁мощность	-10.6396
▁счастливы	-10.6397
▁резкий	-10.6401
▁vid	-10.6403
ура	-10.6405
▁повторны	-10.641
▁розничны	-10.6416
▁категорически	-10.6417
▁родители	-10.6417
▁подтверждение	-10.6417
▁скидка	-10.6419
▁луйк	-10.6422
▁готова	-10.6423
▁вкладывать	-10.6423
гал	-10.6424
.1	-10.6436
▁общей	-10.6438
мат	-10.6439
▁1,2	-10.644
▁соблюдение	-10.645
ями	-10.6453
▁составе	-10.6454
▁газопровод	-10.6454
▁ц	-10.646
ступ	-10.646
▁италии	-10.6461
▁выполнить	-10.6462
▁решений	-10.6462
ада	-10.6464
▁подчеркивает	-10.6467
▁связано	-10.6476
▁прекрасно	-10.6478
льный	-10.6479
▁фронт	-10.6481
▁boeing	-10.6484
▁бутылка	-10.6484
▁филиал	-10.6484
▁маневр	-10.6484
▁уборка	-10.6486
▁рий	-10.6488
▁хельме	-10.6489
▁полуостров	-10.6496
▁рай	-10.6497
▁груз	-10.6499
▁тер	-10.65
▁вирус	-10.6504
▁связываться	-10.6504
▁повседневный	-10.6507
▁горожанин	-10.6507
▁поражение	-10.6507
▁савченко	-10.6512
▁выносить	-10.6512
▁связаться	-10.6517
▁передачи	-10.6523
▁программе	-10.6524
▁законодательств	-10.6528
▁подъезд	-10.6529
▁опроса	-10.653
▁алексей	-10.6533
▁резерв	-10.6533
▁главе	-10.654
▁кристийне	-10.6542
▁реформ	-10.6542
▁соперник	-10.6549
▁хор	-10.655
▁мороз	-10.6557
чтобы	-10.6563
▁президенты	-10.6564
еж	-10.6566
лес	-10.6566
▁внеочередно	-10.6567
мир	-10.657
▁казахстан	-10.6574
▁полу	-10.6575
тик	-10.6581
▁спец	-10.6582
▁среднем	-10.6586
▁живет	-10.6586
▁доходов	-10.6588
▁ду	-10.6592
▁telia	-10.6597
▁аспект	-10.6597
▁отрицать	-10.6597
▁минус	-10.6598
▁руки	-10.6598
▁пропасть	-10.6599
▁знает	-10.6599
▁энергетика	-10.66
▁волонтер	-10.6601
доль	-10.6606
▁бельгия	-10.6606
▁хватает	-10.662
▁кир	-10.6622
▁проверки	-10.6625
ъ	-10.663
▁инженер	-10.6631
цен	-10.6632
▁мелки	-10.6633
нис	-10.6637
фер	-10.6639
▁недалеко	-10.6643
▁мор	-10.6645
▁менеджер	-10.6646
▁олимпиады	-10.6646
▁ныне	-10.6652
▁переезд	-10.6653
▁фе	-10.6657
▁последствия	-10.6657
▁экономически	-10.6665
▁оппозиционер	-10.6666
▁художественны	-10.6668
▁передвижение	-10.6669
▁производственны	-10.6672
▁двигатель	-10.6673
▁международной	-10.6676
жу	-10.6677
▁директора	-10.6678
▁отдать	-10.6683
▁территориальны	-10.6683
мест	-10.6686
▁бер	-10.6686
▁основны	-10.6688
▁эпизод	-10.6688
▁столице	-10.6689
▁подарить	-10.6689
▁оказались	-10.6689
40	-10.669
▁дорожка	-10.6691
▁запретить	-10.6696
дар	-10.6697
стоять	-10.6697
кто	-10.6698
одный	-10.6704
▁историю	-10.6711
▁навального	-10.6711
▁напоминает	-10.6712
▁строительства	-10.6712
▁альтернативны	-10.6713
▁гражданства	-10.6713
▁инвестиционны	-10.6714
тур	-10.672
▁ри	-10.6724
▁посадка	-10.6724
тся	-10.6728
▁осмотр	-10.6731
▁комплект	-10.6735
▁ведение	-10.6736
▁прогресс	-10.6743
▁айвар	-10.6744
▁сократиться	-10.6747
дол	-10.6748
▁получит	-10.6752
вшие	-10.6753
▁62	-10.6755
▁вабадуз	-10.6758
▁группово	-10.6758
▁€	-10.6764
▁обходить	-10.6768
▁причиной	-10.6769
тый	-10.677
▁экстренны	-10.6772
▁ранены	-10.6772
▁государством	-10.6773
▁административно	-10.6775
метс	-10.6777
▁вич	-10.6778
▁лаури	-10.678
▁медицина	-10.6781
▁конституции	-10.6781
▁альтернатива	-10.6781
▁робот	-10.6781
щи	-10.6782
▁дмитрия	-10.6782
▁задержали	-10.6784
▁пен	-10.6785
▁no	-10.6786
офф	-10.6787
▁развиваться	-10.6793
▁se	-10.6795
▁цент	-10.6796
▁интеллект	-10.6797
▁подойти	-10.6799
▁лозунг	-10.6804
▁отрасль	-10.6804
▁вынужда	-10.6804
▁пребывание	-10.6804
▁посылка	-10.6805
▁взятка	-10.6807
▁приглашение	-10.6808
ген	-10.6811
кан	-10.6811
▁позднее	-10.6815
трудоспособность	-10.6818
ран	-10.682
▁возвращать	-10.682
▁начина	-10.6825
▁кв	-10.6825
ским	-10.6825
▁сгд	-10.6827
▁рассмотреть	-10.6828
▁кандидатуру	-10.6831
▁сравнени	-10.6833
ника	-10.6838
▁задумывать	-10.6839
▁68	-10.6848
▁владение	-10.6848
ev	-10.6849
▁впоследствии	-10.6857
▁большую	-10.6864
например	-10.6865
▁разбираться	-10.6866
нова	-10.6866
▁предстоя	-10.6867
▁подробно	-10.6867
▁учения	-10.6871
▁3000	-10.6872
▁чтение	-10.6874
▁запах	-10.6874
зер	-10.6877
лит	-10.6879
▁видимо	-10.6879
▁вещества	-10.6881
ред	-10.6885
▁венгрия	-10.6898
▁бронзовы	-10.6898
▁существует	-10.6898
▁баланс	-10.6899
▁me	-10.6903
▁капитан	-10.6903
▁жестко	-10.6904
▁подвергать	-10.6906
▁12-	-10.6908
▁связывать	-10.6909
▁белорусски	-10.6915
▁вир	-10.6918
▁пхеньян	-10.6921
▁хранение	-10.6921
▁принудительны	-10.6921
▁технологически	-10.6925
▁помпео	-10.6925
емый	-10.6925
▁белого	-10.6926
смотреть	-10.6927
▁59	-10.6931
гар	-10.6934
▁антон	-10.6934
почему	-10.6934
▁правил	-10.6935
16	-10.6935
▁секс	-10.6936
▁делает	-10.6939
▁линии	-10.6941
▁последующи	-10.6943
▁автомобиля	-10.6944
▁сюрприз	-10.6944
▁йо	-10.6944
▁пас	-10.6947
▁сотни	-10.6948
кол	-10.6952
▁проявлять	-10.6954
▁бренд	-10.696
▁72	-10.696
▁лондоне	-10.6961
▁рекомендация	-10.6976
▁складываться	-10.6978
▁код	-10.6987
va	-10.6988
▁остановить	-10.6989
ового	-10.6989
▁дуб	-10.699
▁кал	-10.6992
▁хочу	-10.6992
▁политическ	-10.6998
▁поворот	-10.7005
▁политические	-10.7009
▁моряк	-10.7014
▁худо	-10.7015
ший	-10.7017
фор	-10.7018
▁возгорание	-10.702
▁европейской	-10.7027
▁пр	-10.7028
õ	-10.7038
▁недель	-10.704
зу	-10.7042
▁бросать	-10.7046
▁эрдоган	-10.7046
▁ar	-10.7047
▁корпус	-10.7053
кар	-10.7064
▁столтенберг	-10.7069
▁последовать	-10.708
ot	-10.7081
▁польш	-10.7082
▁отражать	-10.7085
▁последнее	-10.7087
▁лишний	-10.7088
▁предотвращать	-10.7088
▁какого	-10.7088
▁стабильность	-10.7089
▁тоомас	-10.7094
▁войск	-10.7096
▁порыв	-10.7098
бр	-10.71
▁заканчивать	-10.7101
▁смог	-10.7105
▁высказал	-10.7105
▁писатель	-10.711
др	-10.7115
▁вильянд	-10.7115
▁спасибо	-10.7119
▁ознакомиться	-10.712
▁стремиться	-10.7123
ga	-10.7124
ган	-10.7133
▁диагноз	-10.7134
▁преддвери	-10.7134
▁гарантия	-10.7135
▁угрозы	-10.7141
▁левый	-10.7141
▁лавров	-10.7143
▁рейн	-10.7145
цией	-10.7145
добавок	-10.7146
▁пищево	-10.7147
▁заключения	-10.7147
овые	-10.7147
▁всему	-10.7151
▁фо	-10.7155
▁сентябре	-10.7159
▁возобновлять	-10.7159
▁негативно	-10.7159
▁разрешить	-10.7159
▁бить	-10.7161
кл	-10.7167
▁крепки	-10.7167
▁1,3	-10.7168
▁министром	-10.7168
▁воспринимать	-10.717
▁уехать	-10.7175
▁связан	-10.7177
23	-10.7185
▁ман	-10.7186
▁прочитывать	-10.7186
▁mo	-10.7192
▁гре	-10.7194
▁многоквартирны	-10.7202
▁шоу	-10.7207
▁продать	-10.7208
▁новогодний	-10.7208
▁обман	-10.7208
em	-10.721
▁демонстрировать	-10.7216
овал	-10.7217
ует	-10.7218
овая	-10.7221
▁эксплуатаци	-10.7222
▁кабинета	-10.7222
▁акционер	-10.7223
▁пошлина	-10.723
▁кайтселийт	-10.7231
▁повестка	-10.7231
▁получают	-10.7231
▁трасса	-10.7231
▁расстояние	-10.7231
▁apple	-10.7231
таллиннский	-10.7232
▁репс	-10.7232
▁чехия	-10.7232
▁эра	-10.7233
▁латвийск	-10.7243
▁lnt	-10.7255
▁ближайше	-10.7256
▁jun	-10.7259
▁спасти	-10.7262
работа	-10.7262
▁уголовное	-10.7264
▁хлеб	-10.7265
цов	-10.7266
час	-10.7272
два	-10.7272
▁нужда	-10.7274
▁миллиона	-10.7276
чить	-10.7278
▁уважение	-10.728
▁приятный	-10.728
▁особенность	-10.728
▁победить	-10.7283
▁двойной	-10.7284
▁перемена	-10.7284
▁заполнять	-10.7289
▁провал	-10.7294
▁границу	-10.7295
▁крест	-10.7297
▁pro	-10.7303
▁рынке	-10.7304
▁боевы	-10.7313
▁pa	-10.7313
▁рабоче	-10.7315
хотя	-10.732
▁мозг	-10.7321
кая	-10.7325
▁полицию	-10.7328
▁кресло	-10.7329
▁везде	-10.7329
▁июне	-10.7331
▁газеты	-10.7338
▁юг	-10.7342
▁западны	-10.7344
▁превратить	-10.735
▁дизайн	-10.7351
▁продолжительно	-10.7353
▁пенсии	-10.7354
▁спасение	-10.7354
▁интересы	-10.7365
нул	-10.7366
▁присоединять	-10.7367
▁евродепутат	-10.7367
▁67	-10.7372
▁каса	-10.7373
▁возможных	-10.7373
▁марш	-10.7374
▁стартовать	-10.7378
▁новом	-10.7382
ческий	-10.7383
▁пыхьяска	-10.7386
▁пакт	-10.7387
решение	-10.7388
▁вдвое	-10.7388
▁контейнер	-10.7388
▁собственно	-10.739
фр	-10.7392
▁забирать	-10.7392
▁фи	-10.7393
▁пропада	-10.7393
▁выставлять	-10.7396
рад	-10.7399
▁зоопарк	-10.7402
▁земле	-10.7403
▁совершенны	-10.7403
▁му	-10.7404
▁судебно	-10.7404
▁дискуссии	-10.7405
▁отзыв	-10.741
▁слух	-10.7411
▁архив	-10.7416
▁аккаунт	-10.742
бегать	-10.7424
▁рейнсал	-10.7426
▁and	-10.7427
▁сааремаа	-10.7427
▁шпион	-10.7427
▁добровольны	-10.7427
▁елка	-10.7428
▁июле	-10.7428
▁канцелярия	-10.743
▁венесуэл	-10.7431
▁артист	-10.7432
ению	-10.7433
▁group	-10.7434
вали	-10.7435
▁командир	-10.7436
▁задание	-10.7438
дь	-10.7442
▁дойти	-10.7444
▁набрать	-10.7444
▁потребительски	-10.7446
▁десяти	-10.7447
▁заработны	-10.7449
▁белоруссия	-10.7452
▁пенсионно	-10.7453
задолго	-10.7453
▁песок	-10.7453
▁ma	-10.7456
▁https	-10.7458
▁ассамбле	-10.7464
проект	-10.7464
▁встречу	-10.7465
▁2005	-10.7467
▁другом	-10.747
гл	-10.7476
▁ожидается	-10.7479
▁городах	-10.7492
▁футболист	-10.7496
демонстрировать	-10.7496
▁оказался	-10.7502
▁напасть	-10.7504
яться	-10.7506
▁торгово	-10.7513
▁выявлять	-10.7516
бол	-10.7516
▁террористически	-10.7517
▁квартир	-10.7518
▁объяснил	-10.7518
накануне	-10.7521
закон	-10.7522
▁асада	-10.7526
▁добровольно	-10.7526
▁несомненно	-10.7527
▁финансово	-10.7529
▁избежать	-10.753
▁делово	-10.753
▁пообещал	-10.7531
ог	-10.7538
▁голоса	-10.7541
тем	-10.7541
тел	-10.7546
▁странный	-10.7549
▁редко	-10.7549
▁произошел	-10.7551
▁coop	-10.7552
▁карман	-10.7554
▁страховка	-10.7554
▁учреждения	-10.7555
▁инфо	-10.7559
15	-10.756
▁грозить	-10.756
▁поступление	-10.7563
▁яркий	-10.7563
▁положительно	-10.7565
▁римшевич	-10.7566
▁балл	-10.7567
▁проголосовали	-10.7567
▁утра	-10.7568
▁шок	-10.7573
▁опрошенных	-10.7576
▁претендовать	-10.7576
▁жилищны	-10.7576
ставать	-10.7577
▁стартап	-10.7577
▁терминал	-10.7579
▁прошел	-10.758
▁сформировать	-10.7583
▁эффективность	-10.7586
▁пластиковы	-10.759
шей	-10.7593
▁победу	-10.7595
▁частью	-10.7595
▁семи	-10.7596
▁недвижимости	-10.7601
▁переговорах	-10.7602
вел	-10.7602
om	-10.7607
инский	-10.761
▁un	-10.7613
▁шар	-10.7613
▁конечны	-10.7614
▁граждане	-10.7621
▁выводить	-10.7622
▁неприятны	-10.7627
▁кажется	-10.7627
▁публикации	-10.7627
▁имидж	-10.7628
▁возникновение	-10.7631
▁предотвращение	-10.7633
гла	-10.7634
▁остальные	-10.7634
▁местных	-10.7635
зор	-10.7636
sa	-10.7637
▁национальность	-10.7638
дали	-10.7646
▁порта	-10.7651
▁территорию	-10.7652
°	-10.7652
▁планировка	-10.7653
▁семинар	-10.7658
▁ус	-10.7661
▁1500	-10.7666
▁школу	-10.7668
▁гуманитарны	-10.767
▁рождать	-10.7676
▁разведки	-10.7677
▁музыкант	-10.7678
▁мониторинг	-10.7679
▁сознание	-10.768
▁другого	-10.7683
хватить	-10.7684
пс	-10.7684
цель	-10.7685
▁посту	-10.7693
▁обществе	-10.7695
мент	-10.7698
▁храм	-10.7699
▁be	-10.7699
▁числа	-10.7702
▁атмосфера	-10.7703
▁договариваться	-10.7703
▁u	-10.7704
▁убить	-10.7705
▁компонент	-10.7705
▁австралия	-10.7706
▁определенно	-10.7706
▁разговаривать	-10.7708
▁батальон	-10.7709
▁знаю	-10.7711
тар	-10.7712
▁хе	-10.7714
▁кадри	-10.772
шу	-10.772
▁отдела	-10.7721
▁хааберс	-10.7727
▁so	-10.7727
▁молоко	-10.7728
▁любитель	-10.7728
чу	-10.7729
▁израиля	-10.7732
▁30-	-10.7733
▁региона	-10.7736
▁масса	-10.7745
▁раскол	-10.7755
▁вуз	-10.7763
нар	-10.7769
▁спать	-10.7774
▁тюрьмы	-10.7779
▁тренировка	-10.7779
▁справиться	-10.7779
▁добыч	-10.7779
▁игрово	-10.7783
ir	-10.7784
▁хватить	-10.7786
▁указывает	-10.7786
▁спорта	-10.779
ec	-10.7793
▁посольства	-10.78
▁экспертов	-10.7802
▁73	-10.7802
▁возвращаться	-10.7803
▁расходов	-10.7804
▁претензия	-10.7805
▁ирландия	-10.7805
▁турнира	-10.7806
ируем	-10.7806
80	-10.7808
ации	-10.7808
▁лишать	-10.7809
▁каз	-10.781
25	-10.781
▁тесны	-10.7812
▁учетом	-10.7815
нную	-10.782
-20	-10.7822
▁британской	-10.7824
лый	-10.7825
21	-10.7827
▁крушение	-10.783
▁попытки	-10.783
▁сотрудничестве	-10.783
▁коридор	-10.783
изация	-10.7834
ja	-10.7838
▁прошла	-10.7842
▁кылварта	-10.7843
ul	-10.7858
перед	-10.7864
▁подготовить	-10.7865
▁ложны	-10.7866
▁случайно	-10.7866
▁встречать	-10.7872
▁дали	-10.7877
▁публика	-10.7881
▁предварительно	-10.7881
▁отопление	-10.7882
▁слушать	-10.7884
тан	-10.7885
▁мари	-10.7886
pa	-10.7888
▁хотели	-10.7891
▁строитель	-10.7893
▁grupp	-10.7894
▁подал	-10.7895
▁заработать	-10.79
▁придерживаться	-10.7901
▁выпускник	-10.7903
▁супруг	-10.7906
▁октябре	-10.7908
▁отрасли	-10.7908
▁историк	-10.7908
▁стабильный	-10.791
▁санкционны	-10.791
▁пропаганда	-10.7912
стран	-10.7915
ень	-10.7916
▁фирмы	-10.7916
русски	-10.7918
деть	-10.792
19	-10.7921
▁врачи	-10.7925
▁част	-10.7928
▁общин	-10.7932
▁харью	-10.7933
▁двусторонни	-10.7934
▁кухня	-10.7934
сло	-10.7938
ak	-10.7939
вшихся	-10.7942
▁однажды	-10.7942
▁журналиста	-10.7948
▁валг	-10.7956
цветок	-10.7956
леп	-10.7958
хан	-10.7958
▁договорились	-10.7964
▁дании	-10.7968
гонять	-10.7972
▁15-	-10.7975
▁награда	-10.7979
▁обще	-10.7983
директор	-10.7983
▁свято	-10.7985
▁органы	-10.7986
▁горуправа	-10.7986
▁пострадал	-10.7987
▁пароль	-10.7987
ka	-10.799
▁вотум	-10.7991
том	-10.7994
▁закупка	-10.8
ированный	-10.8003
вол	-10.8005
▁библиотека	-10.8011
▁становится	-10.8012
▁младши	-10.8013
▁20-	-10.8015
▁служебны	-10.8018
▁знают	-10.8019
▁дипломатов	-10.8021
▁интернете	-10.8022
▁олигарх	-10.8025
▁таллински	-10.8026
▁ангел	-10.8028
▁киеве	-10.803
▁эн	-10.8038
▁ге	-10.804
▁инспектор	-10.8044
зов	-10.805
влечь	-10.8053
▁прогнозировать	-10.8054
▁vi	-10.8057
▁отряд	-10.8059
жал	-10.8063
▁покушение	-10.8065
▁существование	-10.8065
▁повышения	-10.8066
▁rusdelfi	-10.8066
▁повышенны	-10.8073
▁главным	-10.8076
▁сериал	-10.8077
▁передал	-10.8077
▁округа	-10.8077
ti	-10.8078
▁мемориал	-10.8085
▁возмущать	-10.8087
▁желты	-10.809
▁благосостояния	-10.8091
▁поддержке	-10.8091
▁приятно	-10.8092
▁предвыборно	-10.8092
▁замок	-10.8092
▁домов	-10.81
рт	-10.8103
▁представителя	-10.8105
ge	-10.8107
ены	-10.8114
▁приближать	-10.8117
▁пострадавших	-10.8118
▁американец	-10.8118
▁замена	-10.8119
▁кожа	-10.8122
▁масс	-10.8136
lo	-10.8138
▁страшны	-10.8139
▁бассейн	-10.8144
▁конкуренции	-10.8144
▁банкомат	-10.8144
▁хутор	-10.8144
▁живут	-10.8145
▁квалификация	-10.8147
▁отходов	-10.8148
▁воля	-10.8149
▁продолжиться	-10.8153
чивать	-10.8159
ющая	-10.8161
ud	-10.8161
▁сделали	-10.8166
▁людьми	-10.8171
бир	-10.8172
▁оперативно	-10.8172
▁тарту	-10.8172
▁освещение	-10.8174
нк	-10.8176
лидер	-10.8178
▁салон	-10.8179
▁делиться	-10.8183
▁неожиданны	-10.8184
▁формально	-10.8187
лл	-10.8189
▁вал	-10.8192
▁честны	-10.8193
▁израильски	-10.8194
▁чек	-10.8197
▁share	-10.8198
шко	-10.8198
▁имена	-10.8201
бар	-10.8204
▁samsung	-10.8204
▁estonia	-10.8207
▁выдать	-10.8208
▁звук	-10.8211
▁пассажиров	-10.8211
▁виноваты	-10.8218
точный	-10.8219
▁итальянски	-10.8224
▁событий	-10.8224
редко	-10.8225
▁смогли	-10.8229
▁рассказ	-10.823
▁спецслужб	-10.8232
▁миру	-10.8236
▁труба	-10.8239
▁газете	-10.824
▁респондентов	-10.8244
▁минфин	-10.8245
▁эмоция	-10.8251
▁превысить	-10.8252
▁дно	-10.8254
me	-10.8257
▁призванны	-10.8258
▁чиновников	-10.8258
▁deutsch	-10.8261
▁рот	-10.8262
▁указа	-10.8264
▁лаагн	-10.8265
▁подписал	-10.8266
▁выходе	-10.827
▁балкон	-10.8278
▁растет	-10.8279
▁таллин	-10.8282
▁называют	-10.8283
вит	-10.8284
▁1-	-10.8286
ланд	-10.8286
▁преследование	-10.8289
ликвидация	-10.829
банк	-10.829
op	-10.8295
знакомиться	-10.8298
ig	-10.83
▁квартиры	-10.8301
▁тынис	-10.8304
▁ранение	-10.8306
▁утвердить	-10.8308
▁дача	-10.8309
▁участке	-10.831
▁it	-10.8316
▁подробнос	-10.8318
▁кибер	-10.8318
оть	-10.8318
ложить	-10.832
▁машины	-10.8328
70	-10.8331
▁русской	-10.8331
▁военнослужащих	-10.8332
▁архитектор	-10.8334
▁вовремя	-10.8336
▁маркетинг	-10.8339
▁получает	-10.8342
▁ветеран	-10.8351
▁заканчиваться	-10.8356
▁мероприятий	-10.8359
▁туалет	-10.8359
▁представляет	-10.8359
▁официальны	-10.8362
▁рады	-10.8364
▁доброволец	-10.8366
▁зарплату	-10.837
▁бежать	-10.8372
▁пожаловать	-10.8373
▁мэрия	-10.8374
ющей	-10.8376
▁умный	-10.8376
▁безопасно	-10.8381
▁гражданско	-10.8386
▁окрестност	-10.8387
▁учреждений	-10.8387
▁русские	-10.8387
▁терроризм	-10.839
▁кража	-10.8391
▁выборами	-10.8392
сылать	-10.8393
▁парламентско	-10.8393
▁перееха	-10.8393
▁большие	-10.8394
▁narva	-10.8394
▁американской	-10.84
главный	-10.8403
▁радикальны	-10.8404
▁края	-10.8407
уль	-10.8409
▁уезжать	-10.841
▁ближни	-10.8413
▁критиковать	-10.8414
рек	-10.8414
ü	-10.8415
▁делают	-10.8416
▁угрозу	-10.8423
▁момента	-10.8429
▁76	-10.8429
▁членом	-10.8429
▁газпром	-10.8431
▁медицинско	-10.8431
▁наступление	-10.8438
si	-10.8438
▁сделки	-10.8441
зывать	-10.8446
▁крыму	-10.8446
▁настраивать	-10.8453
▁волос	-10.8454
▁95	-10.8457
▁присылать	-10.8458
▁кризиса	-10.8461
▁обучать	-10.8464
▁агрессия	-10.8468
▁россияне	-10.8468
▁умение	-10.847
▁баллотироваться	-10.8473
пока	-10.8474
▁парень	-10.8474
аются	-10.8474
▁перенос	-10.8474
▁легково	-10.8476
▁войска	-10.8476
▁решила	-10.8477
▁таможенны	-10.848
нить	-10.848
▁составит	-10.8481
▁играх	-10.8481
▁жителям	-10.8482
▁противоречи	-10.8487
▁регионов	-10.8489
▁подозрительны	-10.8496
▁симсон	-10.8496
▁украинские	-10.8497
▁мон	-10.8498
больше	-10.8501
▁отношениях	-10.8503
▁гг	-10.8505
▁гриб	-10.8506
▁превращать	-10.8506
гать	-10.8507
▁спортсменов	-10.8508
▁свободу	-10.8511
▁поблагодари	-10.8512
ющим	-10.8513
▁говорили	-10.8515
▁законом	-10.852
▁истребитель	-10.8523
▁следующего	-10.8523
▁захват	-10.8524
▁театральны	-10.8524
▁госполиции	-10.8526
▁ор	-10.853
▁кем	-10.853
▁откладывать	-10.8531
▁снизить	-10.8535
▁рекламны	-10.8536
▁паэ	-10.8537
18	-10.8538
действительность	-10.8541
▁впереди	-10.8543
▁приходится	-10.8543
▁маска	-10.8543
▁друга	-10.8546
▁приняла	-10.8548
▁назвали	-10.855
▁telegram	-10.8551
жка	-10.8553
▁61	-10.8555
▁двумя	-10.8559
▁таксист	-10.856
▁горячи	-10.8564
▁очко	-10.8565
▁обстрел	-10.8565
▁укреплять	-10.8566
▁изменений	-10.8569
▁связаны	-10.8573
▁1/8	-10.8578
▁списке	-10.8578
▁врезаться	-10.858
lu	-10.8581
▁экономическ	-10.8582
▁часа	-10.8582
▁спектакль	-10.8583
▁века	-10.8583
▁моря	-10.8588
▁птица	-10.8591
топ	-10.8593
ющего	-10.8594
путин	-10.8597
▁параллельно	-10.8599
▁мимо	-10.8599
▁ворота	-10.86
▁твиттере	-10.8603
его	-10.8603
▁неподалеку	-10.8606
▁солнце	-10.8606
▁ta	-10.8606
▁рассуждать	-10.8606
▁понятие	-10.8607
▁террорист	-10.8607
▁леонид	-10.8607
▁солнечный	-10.8608
▁пожела	-10.8609
▁elisa	-10.8612
▁виктория	-10.8612
▁европу	-10.8614
▁жаловаться	-10.8615
▁daily	-10.8619
чная	-10.8621
▁разработа	-10.8622
▁контекст	-10.8624
60	-10.8625
▁примет	-10.8626
▁кандидатом	-10.8629
▁цикл	-10.8631
▁основе	-10.8633
▁риторик	-10.8634
▁противостояние	-10.8634
▁маргус	-10.8634
▁нарвитянин	-10.8635
▁получения	-10.8635
▁врача	-10.8637
учи	-10.8638
аж	-10.8638
вот	-10.8643
▁систем	-10.8645
парк	-10.8646
▁темный	-10.8649
▁ведет	-10.865
31	-10.8653
▁фоне	-10.8656
▁пан	-10.8658
▁овощ	-10.866
▁дрсмд	-10.8662
▁трагедии	-10.8662
▁останется	-10.8662
▁отравлять	-10.8662
▁fif	-10.8663
▁ча	-10.8663
▁забег	-10.8663
▁киево	-10.8664
▁первая	-10.8664
впрочем	-10.8665
nd	-10.8668
цкий	-10.8668
▁z	-10.8672
▁отечество	-10.8677
▁заметный	-10.8679
▁позволит	-10.868
ард	-10.8685
▁годах	-10.8685
▁специалистов	-10.8686
▁каком	-10.8689
▁внезапно	-10.869
▁развитию	-10.869
▁занятость	-10.869
▁чср	-10.869
год	-10.8691
▁лаборатория	-10.8693
▁животных	-10.8694
-4	-10.8694
▁3,5	-10.8694
▁туск	-10.8695
▁экономист	-10.8701
▁mi	-10.8705
ним	-10.8707
▁пограничник	-10.8707
▁фрукт	-10.8708
▁справедливы	-10.8718
▁bmw	-10.8718
▁интерьер	-10.8718
▁обстановка	-10.8718
▁благодари	-10.8719
охран	-10.8722
трамп	-10.8722
евич	-10.8723
▁доходы	-10.8723
▁андрея	-10.8727
▁фигур	-10.873
▁документе	-10.8732
▁мински	-10.8736
▁мил	-10.8739
нен	-10.8743
▁майкл	-10.8743
’	-10.8746
▁потерпеть	-10.8746
▁алдис	-10.8748
▁демократии	-10.8748
▁ролик	-10.8758
▁афганистан	-10.8761
▁мои	-10.8761
▁сер	-10.8762
▁st	-10.8762
▁осужденный	-10.8763
▁коп	-10.8764
▁ратуш	-10.8767
ko	-10.8768
▁положения	-10.8771
гин	-10.8773
▁удастся	-10.8775
▁тесно	-10.8776
▁задействовать	-10.8779
▁длиться	-10.8786
▁усиление	-10.8788
▁указание	-10.8789
▁добро	-10.879
▁пярнуски	-10.88
▁рекордны	-10.8802
▁york	-10.8803
▁исполнить	-10.8803
▁тротуар	-10.8803
▁кадриорг	-10.8803
▁просьбой	-10.8804
министерство	-10.8808
▁аромат	-10.8808
▁удерживать	-10.8812
▁другое	-10.8812
▁правительству	-10.8812
▁нарве	-10.8819
▁77	-10.8819
▁первых	-10.8819
▁роспуск	-10.882
▁датчик	-10.8831
▁звание	-10.8832
▁суммы	-10.8832
лина	-10.8834
▁ссылать	-10.8834
ван	-10.884
правительственны	-10.8844
▁километров	-10.8845
▁сократить	-10.8845
бес	-10.8846
▁образовать	-10.8847
▁процессе	-10.8849
▁предупреди	-10.885
▁срочный	-10.8852
▁for	-10.8854
▁ro	-10.8856
▁автомобилей	-10.8856
▁свидетельство	-10.8858
▁полномочий	-10.886
▁заправка	-10.886
▁рабочих	-10.886
▁пал	-10.8863
%	-10.8865
ключ	-10.8866
▁зависит	-10.8867
▁высше	-10.8868
▁вспомогательны	-10.8869
▁бригада	-10.8873
бал	-10.8873
▁разрыв	-10.8875
▁олимпиада	-10.8875
▁уважать	-10.8877
теля	-10.8878
сил	-10.8878
▁журналисты	-10.888
▁саудовско	-10.888
▁рижском	-10.8888
▁директив	-10.8888
▁порой	-10.8897
▁семье	-10.8904
▁выдвинуть	-10.8905
дин	-10.8916
▁taxify	-10.8917
▁предпочтение	-10.8917
▁барьер	-10.8917
▁ликвидировать	-10.8917
▁цитирует	-10.8917
▁марко	-10.8917
▁законодательны	-10.8918
▁десятки	-10.8919
▁капо	-10.8921
▁налогово	-10.8922
▁строго	-10.8922
▁земли	-10.8923
▁августе	-10.8926
▁учителя	-10.8928
рс	-10.8928
▁латыш	-10.8929
▁пл	-10.8937
▁задний	-10.894
▁солидарность	-10.8946
▁вышли	-10.8952
▁дорого	-10.8953
▁микро	-10.8953
▁массово	-10.8954
▁71	-10.8955
▁стресс	-10.8955
▁сюжет	-10.8956
▁руководством	-10.896
еща	-10.8963
ve	-10.8968
▁коррупционны	-10.897
▁перерыв	-10.8971
ается	-10.8973
▁объяснение	-10.8975
▁пользование	-10.8975
▁явление	-10.8975
▁полицейских	-10.8975
▁ждет	-10.8975
▁влиятельны	-10.8977
▁переживать	-10.8979
▁демонстрация	-10.8982
▁78	-10.8983
ложиться	-10.8985
▁волк	-10.8986
▁саммите	-10.8989
▁жив	-10.8992
▁интересов	-10.8992
▁визита	-10.8996
▁середине	-10.8999
▁патриарх	-10.9002
▁полученны	-10.9003
▁валентин	-10.9003
▁происшествия	-10.9003
▁цитировать	-10.9003
▁определение	-10.9005
▁завоева	-10.9005
▁патруль	-10.9007
канцлер	-10.901
▁секунд	-10.9012
▁большое	-10.9013
▁острый	-10.9018
▁специалисты	-10.9019
▁базе	-10.9019
▁вывести	-10.9022
лист	-10.9023
▁сообщается	-10.9025
▁созыва	-10.9027
▁венесуэлы	-10.9032
▁эмоциональный	-10.9032
▁японии	-10.9033
▁использования	-10.9034
▁пациентов	-10.9034
▁задержаны	-10.9037
▁городов	-10.9038
▁палаты	-10.904
кас	-10.904
▁выезжать	-10.9042
▁плод	-10.9042
регистрироваться	-10.9044
▁фейсбук	-10.9053
вка	-10.9055
▁1990-	-10.9055
▁волостно	-10.9057
▁перевозка	-10.9057
вор	-10.9058
▁жан	-10.906
▁распределение	-10.9061
▁заблокировать	-10.9061
▁самопровозглаш	-10.9061
▁отравления	-10.9062
▁нему	-10.9064
▁годово	-10.9066
ита	-10.9067
юсь	-10.9076
▁всеми	-10.9077
▁назначен	-10.9083
▁крупных	-10.9087
▁телефонны	-10.9088
▁надежный	-10.9089
▁хотим	-10.9091
▁нарушений	-10.9092
▁отмечают	-10.9092
▁мотор	-10.9093
▁пустой	-10.9094
нас	-10.9095
депутат	-10.9096
▁швейцария	-10.9096
нец	-10.9099
лев	-10.9099
таллинн	-10.91
▁добирать	-10.9101
▁жительница	-10.9102
▁наркотически	-10.9107
▁формировать	-10.9109
ведении	-10.9111
▁алл	-10.9116
чет	-10.9116
▁бизнеса	-10.9116
▁рей	-10.9119
▁инновация	-10.912
▁удовольствие	-10.912
▁принадлежит	-10.912
▁молодых	-10.912
▁непонятно	-10.9123
▁подняться	-10.9124
ток	-10.9124
▁коммунальны	-10.9125
эти	-10.9128
▁подсчет	-10.9129
▁прозвуча	-10.9129
честь	-10.9132
▁заверил	-10.9138
эс	-10.914
▁римшевича	-10.9142
делопроизводство	-10.9142
▁открыл	-10.9145
▁удивлять	-10.9145
▁справедливость	-10.9147
план	-10.9149
▁стекло	-10.9149
▁elron	-10.9149
▁продаваться	-10.9149
▁спокойны	-10.9149
▁македония	-10.915
▁суверенитет	-10.9153
▁местные	-10.9156
▁продлевать	-10.9168
▁протяжении	-10.917
▁странице	-10.9172
de	-10.9172
давать	-10.9173
▁просит	-10.9174
▁бег	-10.9174
▁программны	-10.9175
▁гри	-10.9175
оспособность	-10.9179
▁подписей	-10.9179
▁позволяет	-10.9179
▁защиту	-10.9179
▁детьми	-10.9179
▁ровно	-10.9179
▁выигрывать	-10.918
▁вера	-10.918
овую	-10.9181
таки	-10.9182
▁распоряжении	-10.9183
▁службе	-10.9184
▁news	-10.9185
▁увеличиваться	-10.9186
▁сторон	-10.9188
▁руб	-10.9189
▁оказалось	-10.9189
▁гендиректор	-10.919
рев	-10.9191
глас	-10.9192
▁сменить	-10.9194
▁обработк	-10.9198
▁финансировать	-10.9201
▁2-	-10.9204
▁мал	-10.9204
читать	-10.9205
ики	-10.9207
▁зе	-10.9207
▁цар	-10.9208
▁стадия	-10.9208
▁лечить	-10.9209
▁дизельны	-10.9217
▁забрать	-10.9222
▁полковник	-10.9231
▁обратился	-10.9235
▁устав	-10.9237
▁69	-10.9237
▁памяти	-10.9238
▁расследовать	-10.9238
мор	-10.924
▁опасаться	-10.924
▁подверг	-10.9242
▁занима	-10.9246
вчера	-10.9246
▁научно	-10.9254
▁продвигать	-10.9255
як	-10.9256
▁повторять	-10.9256
цу	-10.9261
▁74	-10.9263
ведать	-10.9263
▁забыть	-10.9264
государственный	-10.9266
▁име	-10.9267
▁kinnisvara	-10.9267
▁космос	-10.9267
▁правам	-10.9269
дельный	-10.9273
▁аб	-10.9274
теперь	-10.9279
▁усиливать	-10.9282
▁остановиться	-10.9283
▁килограмм	-10.9283
рон	-10.9285
▁представителями	-10.9287
▁грозит	-10.9289
▁прим	-10.9289
группа	-10.9295
дан	-10.9297
▁оккупация	-10.9297
▁идею	-10.9298
▁андрус	-10.9299
▁ирак	-10.9303
▁guardian	-10.9304
чат	-10.9304
▁досрочны	-10.9305
▁наша	-10.9308
▁плен	-10.9315
ическая	-10.9318
хозяйственны	-10.9321
▁обуславливать	-10.9327
▁внедрение	-10.9327
▁ригу	-10.9328
▁управляющий	-10.9331
ba	-10.9332
▁отправил	-10.9332
бли	-10.9332
▁нарвать	-10.9332
▁российском	-10.9336
▁громки	-10.9338
▁уничтожать	-10.9341
дем	-10.9343
▁рук	-10.9343
▁командующи	-10.9344
▁времена	-10.9347
ver	-10.935
▁ээс	-10.9354
▁причастны	-10.9357
▁следующей	-10.9357
▁влияния	-10.9357
▁насилия	-10.9357
▁тармо	-10.9357
▁идут	-10.9358
▁занимает	-10.9365
процентный	-10.9365
чев	-10.9369
▁протестовать	-10.9369
▁миф	-10.9373
издание	-10.9375
▁падать	-10.9376
▁мартин	-10.9377
лег	-10.9378
▁производства	-10.9387
▁максимум	-10.9388
▁лев	-10.9389
▁настаивать	-10.9392
▁малыш	-10.9392
▁оформление	-10.9392
▁трампом	-10.9392
лас	-10.9393
канал	-10.9393
▁заметил	-10.9396
вный	-10.94
▁референдума	-10.9405
▁видим	-10.9411
▁британия	-10.9417
▁объезд	-10.9417
▁осуждать	-10.9417
▁пистолет	-10.9417
▁утверждают	-10.9417
▁фбр	-10.9418
▁такую	-10.9418
▁саакашвили	-10.9419
▁господин	-10.942
▁генерально	-10.9421
▁будущего	-10.9421
▁комиссар	-10.9425
99	-10.9428
▁верный	-10.9429
▁бл	-10.9432
ню	-10.9434
▁мексика	-10.9435
жд	-10.9438
▁завершить	-10.944
гласить	-10.9441
▁гибки	-10.9447
▁супермаркет	-10.9447
▁акцент	-10.9447
▁ударить	-10.9451
▁берлина	-10.9453
▁секунда	-10.9454
вшись	-10.9455
▁коз	-10.9461
▁признает	-10.9464
▁данном	-10.9467
▁госпитализирова	-10.9468
▁облагать	-10.9472
лиз	-10.9474
▁/	-10.9475
▁годом	-10.9475
▁пассажирски	-10.9476
▁наверняка	-10.9478
▁выезд	-10.948
▁сертификат	-10.948
▁восстановить	-10.948
▁отказывать	-10.9482
▁порталу	-10.9484
▁созыв	-10.9486
▁видение	-10.9494
кать	-10.9498
▁шторм	-10.95
лог	-10.9501
▁порту	-10.9507
▁райк	-10.9507
🇷🇺	-10.9508
▁беспокойство	-10.9508
▁создании	-10.951
▁населенны	-10.951
▁союзников	-10.9517
ck	-10.9519
▁планируют	-10.952
▁спас	-10.9522
th	-10.9525
фф	-10.9527
▁дизайнер	-10.9534
▁пояснила	-10.9535
▁вынести	-10.9535
ужа	-10.9538
▁усилия	-10.9538
▁тогдашни	-10.954
▁переносить	-10.954
▁читательница	-10.9541
▁стороне	-10.9546
▁индре	-10.9549
▁мужско	-10.955
▁групп	-10.9551
▁спутник	-10.9553
истый	-10.9557
бри	-10.9557
▁персональны	-10.9558
▁боевик	-10.9562
▁татьяна	-10.9564
.20	-10.9564
est	-10.9565
нич	-10.9566
.2	-10.9568
·	-10.9569
▁fifaworldcup	-10.9569
▁константинополь	-10.9569
▁отрицает	-10.9569
уп	-10.957
▁направлении	-10.9571
ковый	-10.9575
ac	-10.9576
▁началась	-10.9577
▁таков	-10.9577
▁маард	-10.9579
иня	-10.9579
▁почетны	-10.9587
▁медиков	-10.9588
рак	-10.9588
▁посоветовать	-10.9593
▁кылварт	-10.9593
▁отдыхать	-10.9593
▁te	-10.9594
▁выводу	-10.9595
▁едино	-10.9596
▁работники	-10.9597
▁знамениты	-10.9599
▁понравиться	-10.96
▁ликвидации	-10.96
▁мягкий	-10.96
тин	-10.9603
▁w	-10.9604
восток	-10.9607
▁диск	-10.9607
▁одобрил	-10.9607
▁базы	-10.9611
▁ирански	-10.9614
▁памятника	-10.9616
ts	-10.9618
поль	-10.962
бел	-10.9624
▁образец	-10.9624
▁стрелять	-10.9626
▁информировать	-10.9631
речь	-10.9634
▁внимательны	-10.9637
▁чемпионате	-10.9637
▁ограничить	-10.9637
ī	-10.9637
▁находи	-10.9642
ап	-10.9644
▁rs	-10.9644
▁сорт	-10.9647
▁определить	-10.9648
звать	-10.9649
▁блюдо	-10.965
▁иванов	-10.9651
бить	-10.9651
луч	-10.9657
▁городок	-10.9658
▁2022	-10.9659
▁нарушить	-10.9661
▁дорог	-10.9663
▁пересмотр	-10.9663
22	-10.9664
▁арестовывать	-10.9664
▁исключи	-10.9665
▁нынешнего	-10.9666
▁начались	-10.9666
▁5000	-10.9668
рост	-10.9671
▁шоссейны	-10.9672
▁пес	-10.9672
▁ощущать	-10.9674
▁рассматриваться	-10.9676
лек	-10.9679
▁затрагивать	-10.9679
26	-10.9681
тный	-10.9681
▁2024	-10.9683
▁состава	-10.9687
▁нужна	-10.9692
▁поверхность	-10.9692
▁калл	-10.9695
▁эль	-10.9699
▁десятка	-10.97
▁одинаковый	-10.9701
бил	-10.9701
ера	-10.9711
▁металл	-10.9712
▁плей	-10.9715
▁круглы	-10.9716
▁выстрел	-10.9717
вшийся	-10.9721
▁bloomberg	-10.9723
▁латвийцев	-10.9723
▁сомневать	-10.9724
▁вооружений	-10.9724
▁1999	-10.9725
▁погодны	-10.9731
▁тан	-10.9731
▁пытает	-10.9735
поскольк	-10.9736
вая	-10.9738
▁99	-10.9738
▁яан	-10.9738
go	-10.974
▁шест	-10.9741
▁забор	-10.9746
▁эс	-10.9748
▁кара	-10.9751
▁залив	-10.9752
▁планы	-10.9754
▁мчс	-10.9755
▁рсл	-10.9757
▁do	-10.976
пас	-10.976
▁понятны	-10.9762
▁гимн	-10.9764
▁ответа	-10.9767
▁асфальт	-10.9768
класс	-10.9769
▁медведев	-10.977
▁внимательно	-10.9771
▁московско	-10.9774
▁стремление	-10.9775
ниц	-10.9776
▁утечка	-10.9781
▁государству	-10.9782
▁куб	-10.9784
стор	-10.9784
нию	-10.9785
▁руководства	-10.9786
▁миграции	-10.9786
▁интересах	-10.9786
▁причины	-10.9786
▁тал	-10.9787
▁восьми	-10.9787
пад	-10.9789
▁посла	-10.9795
▁срочно	-10.9795
ваться	-10.9801
▁начался	-10.9802
▁заняться	-10.9802
▁бр	-10.9804
▁закончить	-10.9809
▁товарищ	-10.981
▁био	-10.9812
ствовать	-10.9814
▁прос	-10.9815
▁произ	-10.9815
▁древесина	-10.9817
▁навстречу	-10.9817
▁недостаточны	-10.9817
▁совершил	-10.9817
-2014	-10.9817
несли	-10.9819
▁2001	-10.9819
▁пожара	-10.9823
груз	-10.983
▁прибытие	-10.9831
правительство	-10.9832
▁статьи	-10.9832
тика	-10.9834
нский	-10.984
▁близко	-10.984
▁vl	-10.9842
▁полигон	-10.9843
▁зайти	-10.9847
▁однозначно	-10.9849
▁орден	-10.9849
гул	-10.985
▁медуз	-10.985
▁субсидия	-10.9853
▁сум	-10.9853
▁профессионально	-10.9855
▁разработчик	-10.9855
▁el	-10.9857
сп	-10.9865
▁космически	-10.9867
вице	-10.9871
▁серый	-10.9874
▁препятствие	-10.988
▁арендатор	-10.9881
▁взятки	-10.9882
▁латышского	-10.9883
▁датски	-10.9883
тек	-10.9886
▁сопровождать	-10.9889
▁студия	-10.9893
зарплата	-10.9895
▁трансляция	-10.9895
▁рос	-10.99
▁симптом	-10.9912
дал	-10.9912
▁1998	-10.9912
▁тайны	-10.9915
▁страной	-10.9917
▁детсад	-10.9929
▁труп	-10.993
▁фраза	-10.9932
эксперт	-10.994
▁общественно	-10.9942
▁большинства	-10.9944
▁питания	-10.9944
▁рпц	-10.9944
▁изображение	-10.9944
▁королевство	-10.9944
▁посетил	-10.9944
▁вышел	-10.9944
▁идеи	-10.9946
саар	-10.9949
▁кт	-10.995
без	-10.995
▁африк	-10.9956
▁air	-10.9956
лка	-10.9957
▁останавливаться	-10.9957
▁поменять	-10.9961
▁обнаружили	-10.9965
▁установление	-10.997
▁обязательства	-10.9971
▁абсолютны	-10.9975
▁доверия	-10.9975
▁защитить	-10.9976
▁отказались	-10.9977
▁выплати	-10.9979
▁колесо	-10.9981
▁объявлен	-10.9981
▁весенни	-10.9983
шев	-10.9988
▁гора	-10.999
▁выступа	-10.9994
▁процента	-10.9995
▁запланирова	-10.9999
▁попали	-11.0002
анный	-11.0002
ью	-11.0003
шир	-11.0004
▁внук	-11.0006
▁благодарность	-11.0007
▁галерея	-11.0007
▁провокация	-11.0007
▁министерстве	-11.0008
▁никуда	-11.0009
▁океан	-11.001
▁оста	-11.0013
компания	-11.0015
▁бук	-11.0015
▁направлен	-11.0016
▁мадисон	-11.0016
▁центрально	-11.0025
след	-11.0025
▁трудность	-11.0028
▁осенью	-11.0029
▁пересечение	-11.0035
ацию	-11.0038
▁налоги	-11.0039
▁гибели	-11.0039
▁партией	-11.0039
▁подозреваемых	-11.004
▁тартумаа	-11.004
▁петербург	-11.004
ry	-11.0041
западный	-11.0042
▁видимость	-11.0044
90	-11.0044
▁федерально	-11.0057
▁82	-11.0058
▁внутренне	-11.0061
▁y	-11.0065
▁брексит	-11.0066
▁получат	-11.0067
▁расположен	-11.0068
▁контр	-11.0069
▁диктант	-11.0072
▁спи	-11.0082
sh	-11.0083
▁pank	-11.0083
щать	-11.0086
▁максим	-11.0095
▁интеграции	-11.0104
▁угодно	-11.0104
▁привлекательны	-11.0104
▁яблоко	-11.0104
▁чрезвычайны	-11.0104
mi	-11.0104
▁миноборон	-11.0107
▁либеральны	-11.0107
▁инцидента	-11.0113
аст	-11.0113
▁тон	-11.0114
▁набор	-11.0115
▁принятия	-11.0118
▁запустить	-11.0118
▁госсекретарь	-11.0119
▁занимается	-11.012
▁атаки	-11.0121
▁опорны	-11.0121
летня	-11.0124
▁детство	-11.0136
▁бюджете	-11.0137
▁ндс	-11.0137
▁раунд	-11.0137
▁обеспечения	-11.0137
▁валерия	-11.0138
▁земельны	-11.0138
левой	-11.014
проанализировать	-11.014
▁нарко	-11.0142
▁требуют	-11.0145
▁срока	-11.0145
един	-11.0149
ьный	-11.0151
▁контора	-11.0152
бежать	-11.0153
ань	-11.0154
▁1:0	-11.0156
▁никол	-11.016
▁силами	-11.0162
ярве	-11.0163
▁ук	-11.0165
▁лидером	-11.0167
▁ужас	-11.0168
▁почва	-11.0169
▁юнкер	-11.0169
▁фермер	-11.017
▁2002	-11.0175
▁тра	-11.0175
▁председателем	-11.0179
этот	-11.018
▁правительством	-11.019
▁качества	-11.0192
▁слов	-11.0194
▁каков	-11.0196
▁крист	-11.0196
sk	-11.0198
▁противо	-11.02
▁специализирова	-11.0201
▁растение	-11.0202
▁нечего	-11.0202
▁резолюция	-11.0202
мать	-11.0204
▁продолжается	-11.0206
▁заменить	-11.0208
▁салат	-11.0211
▁заказчик	-11.0212
лаг	-11.0212
пус	-11.0212
▁торговли	-11.0215
цию	-11.0224
тас	-11.0233
▁соцсетях	-11.0234
▁страхования	-11.0234
▁возбуждать	-11.0236
▁is	-11.0237
▁нижни	-11.0237
▁странно	-11.0238
▁подъем	-11.0241
пт	-11.0243
нимать	-11.0245
▁юр	-11.0246
▁нолан	-11.0247
дис	-11.0249
какой	-11.0255
▁британск	-11.0257
▁карл	-11.0259
▁немец	-11.0261
▁камер	-11.0263
▁сказали	-11.0265
▁цитата	-11.0267
▁брутто	-11.0267
▁неясно	-11.0267
▁welle	-11.0267
▁яанус	-11.0267
▁аудитория	-11.0268
рус	-11.0269
▁выступления	-11.027
▁подписание	-11.027
▁*	-11.0272
▁дед	-11.0273
▁гости	-11.0276
▁доказать	-11.0281
▁письме	-11.0286
▁консерватор	-11.0287
зо	-11.0288
▁веб	-11.0289
▁немецки	-11.0289
▁создан	-11.0291
▁оппонент	-11.0291
▁ночью	-11.0294
нда	-11.0295
▁оп	-11.0297
▁начат	-11.0297
▁госбюджет	-11.0297
сок	-11.0298
▁уличны	-11.0299
▁тимошенко	-11.03
▁неправильны	-11.03
▁авиа	-11.03
▁закупки	-11.0301
▁создания	-11.0302
еле	-11.0302
▁члена	-11.0302
▁патриархат	-11.0303
▁основании	-11.0303
▁думу	-11.0303
▁причинять	-11.0304
▁туре	-11.0307
▁тяжки	-11.0308
▁товаров	-11.0309
▁единица	-11.0312
▁политического	-11.0314
▁российско	-11.0317
дорожать	-11.0318
▁разработк	-11.0319
тт	-11.0321
▁улучшить	-11.0322
▁действиях	-11.0323
man	-11.0326
▁энерго	-11.0327
▁борту	-11.0328
▁нос	-11.0329
▁членство	-11.0329
ll	-11.033
▁разнообразны	-11.033
дор	-11.033
▁лондона	-11.033
▁кпрф	-11.0333
▁незамедлительно	-11.0333
▁оркестр	-11.0333
▁целях	-11.0333
▁11-	-11.0333
▁отказалась	-11.0336
▁тоом	-11.0338
▁проливе	-11.0341
ha	-11.0344
скому	-11.0345
▁участием	-11.0346
▁спа	-11.0348
▁стен	-11.0359
фт	-11.0363
ld	-11.0365
▁забастовка	-11.0366
▁микроавтобус	-11.0366
▁противостоять	-11.0366
▁произведение	-11.0367
ci	-11.0368
▁высказаться	-11.037
▁ивангород	-11.037
▁знаком	-11.037
▁полицейские	-11.0372
▁коллег	-11.0374
▁регионах	-11.0374
▁кап	-11.0375
▁отметили	-11.038
▁канад	-11.0383
▁упал	-11.0383
▁моя	-11.0383
стей	-11.0384
кро	-11.0391
▁швед	-11.0392
▁lo	-11.0396
▁народно	-11.0397
▁иностранным	-11.0399
▁лнр	-11.0399
▁проспект	-11.0399
▁гостиница	-11.04
петербурга	-11.0402
▁костер	-11.0403
ho	-11.0406
29	-11.0409
da	-11.0411
таможенны	-11.0414
▁объявила	-11.0414
▁пару	-11.0416
резать	-11.0416
сла	-11.042
▁рассказали	-11.0423
▁пригласи	-11.043
▁привычка	-11.0432
▁извинение	-11.0432
▁сожалению	-11.0432
▁рождения	-11.0432
▁биржа	-11.0433
▁жилья	-11.0433
▁обещает	-11.0434
▁содержания	-11.0434
паралитически	-11.0436
▁заявлял	-11.0437
▁пабрикс	-11.0439
▁условно	-11.044
▁вор	-11.044
▁еврозон	-11.0441
▁яр	-11.0443
▁всемирно	-11.0444
▁климата	-11.0448
▁удобно	-11.0449
▁мур	-11.0449
▁зи	-11.045
лева	-11.0451
▁материалы	-11.0452
поэтому	-11.0452
янин	-11.0456
▁входит	-11.0461
езда	-11.0462
▁сформировывать	-11.0466
▁эвакуировать	-11.0466
▁илзе	-11.0466
▁принадлежность	-11.0466
▁предстоит	-11.0466
▁таммист	-11.0466
стоящ	-11.0467
▁перечислять	-11.0467
▁раскрывать	-11.0468
▁дзинтарс	-11.0471
▁пенальти	-11.0472
▁доказательства	-11.0475
▁пускать	-11.0477
▁забота	-11.0479
▁лайнер	-11.0479
▁спецслужбы	-11.0489
▁париже	-11.049
уча	-11.0494
▁модернизаци	-11.0499
▁кинотеатр	-11.0499
▁ряда	-11.05
▁православно	-11.05
▁пенсию	-11.05
▁130	-11.0501
▁нужен	-11.0501
▁коротко	-11.0504
▁европейские	-11.0505
▁могло	-11.0505
▁никакого	-11.051
щий	-11.0514
журналист	-11.0521
▁произошл	-11.0521
▁вод	-11.0523
▁продолжит	-11.0524
▁da	-11.0526
▁письменны	-11.0528
▁увы	-11.0529
▁сенцов	-11.053
▁мюллер	-11.0532
▁конференции	-11.0533
▁omniva	-11.0533
▁письма	-11.0533
▁озхо	-11.0533
▁лодка	-11.0533
▁фотограф	-11.0533
▁особенный	-11.0533
▁англии	-11.0534
овым	-11.0539
▁считается	-11.0541
▁we	-11.0541
▁поможет	-11.0542
▁валюта	-11.0542
▁кос	-11.0543
▁1994	-11.0546
▁вмешиваться	-11.0549
▁вар	-11.0549
▁тре	-11.055
▁порог	-11.0553
*	-11.0556
чать	-11.0557
▁буду	-11.0558
▁'	-11.0558
▁священник	-11.0561
▁наук	-11.0563
реп	-11.0564
▁дальнейше	-11.0565
▁кнр	-11.0567
▁дочери	-11.0567
▁страивать	-11.0569
▁попросил	-11.0569
▁команд	-11.0572
▁очевидец	-11.0575
▁исследований	-11.0575
▁объясняет	-11.0576
мол	-11.0579
ē	-11.0583
▁остро	-11.0586
▁бут	-11.0589
▁предупредил	-11.0593
▁берлин	-11.0594
▁этапе	-11.0596
▁сдача	-11.0598
▁таком	-11.06
š	-11.06
▁зависимости	-11.0601
▁знаем	-11.0601
▁медсестра	-11.0601
▁трагически	-11.0601
▁нравится	-11.0601
▁условий	-11.0601
▁едва	-11.0601
▁вспомнить	-11.0601
▁возрасти	-11.0603
▁регулировать	-11.0603
▁пересекать	-11.0606
▁танкер	-11.0607
▁наслаждать	-11.0613
жели	-11.0614
енной	-11.0615
▁прошлое	-11.0621
▁18-	-11.0622
медленный	-11.0624
гас	-11.0628
ne	-11.0632
▁министры	-11.0632
▁светофор	-11.0635
▁нападения	-11.0635
▁конверт	-11.0635
▁исламско	-11.0638
▁майлис	-11.0638
▁ассоциации	-11.064
культур	-11.0643
▁поначалу	-11.0645
▁пекин	-11.0647
▁дрон	-11.0648
▁госконтроль	-11.0649
▁побед	-11.0651
gu	-11.0652
▁продуктов	-11.0653
▁участвовали	-11.0654
▁партнеров	-11.0655
▁заключил	-11.0655
▁соль	-11.0655
▁сообщило	-11.0662
данный	-11.0663
▁общего	-11.0663
таллинный	-11.0665
▁сговор	-11.0666
▁сторонников	-11.0667
▁криптовалюта	-11.0668
▁аэропорту	-11.0668
▁пеэтер	-11.0669
▁захарченко	-11.0669
▁поселок	-11.0669
▁ablv	-11.0669
▁нарушении	-11.0669
▁строгий	-11.067
▁решением	-11.0671
раб	-11.0671
▁палец	-11.0671
▁считаю	-11.0675
ъезжать	-11.0675
▁сложности	-11.0677
▁отстаивать	-11.0677
▁правозащитник	-11.068
▁отношени	-11.068
.3	-11.0682
▁отлично	-11.0683
▁кариньша	-11.0687
арь	-11.0687
▁ворон	-11.0689
ā	-11.0694
▁избирательно	-11.0696
▁аннекси	-11.0696
▁благополучие	-11.0703
▁кальюранд	-11.0703
▁привыкнуть	-11.0703
▁+1	-11.0704
▁включить	-11.0704
▁воспитание	-11.0704
вис	-11.0705
▁послание	-11.0707
▁данно	-11.0708
▁украшать	-11.0712
▁выступает	-11.0714
▁мини	-11.0716
▁кри	-11.0723
▁поддержали	-11.0726
юс	-11.0726
▁страшно	-11.0735
▁гонсиори	-11.0737
▁факультет	-11.0737
▁прибалтик	-11.0737
▁iphone	-11.0738
▁находился	-11.0738
.4	-11.0739
▁частных	-11.0741
овывать	-11.0747
▁160	-11.0751
кат	-11.0754
пп	-11.0754
гре	-11.0755
▁структур	-11.076
ило	-11.076
▁периодически	-11.0761
▁джа	-11.0762
37	-11.0763
▁достиг	-11.0764
▁соответствующе	-11.0764
▁партнерство	-11.0765
▁возглави	-11.0766
▁внимания	-11.0772
▁религиозны	-11.0772
▁остались	-11.0774
▁чу	-11.0775
▁джордж	-11.0776
▁вагон	-11.0777
дет	-11.0778
▁района	-11.0779
▁чай	-11.0781
▁высылать	-11.0784
▁спина	-11.0785
▁цел	-11.0786
шел	-11.0786
▁сар	-11.0787
▁киевски	-11.0789
▁фин	-11.079
▁подвергнуть	-11.0795
▁раквер	-11.0797
восточный	-11.0797
▁обрабатывать	-11.0799
▁графика	-11.0804
▁одному	-11.0806
▁степени	-11.0806
▁японски	-11.0809
▁собственности	-11.0809
▁отвечает	-11.0809
▁su	-11.0812
программа	-11.0812
▁майк	-11.0815
▁сухой	-11.0815
▁вплот	-11.0817
▁инициативу	-11.0818
▁классический	-11.0821
▁верхни	-11.0822
▁уточнил	-11.0826
▁толока	-11.0827
образ	-11.083
▁10-	-11.0833
▁беспокоить	-11.0834
▁льгота	-11.0836
▁компенсации	-11.0841
▁поясняет	-11.0841
▁тегеран	-11.0843
▁подтвердили	-11.0843
▁postimees	-11.0844
носить	-11.0847
запад	-11.0849
ались	-11.0858
над	-11.0864
▁называет	-11.0868
▁ад	-11.0868
▁81	-11.0868
▁соцдем	-11.0871
▁вмс	-11.0872
игра	-11.0875
▁препятствовать	-11.0876
▁плечо	-11.0876
▁соратник	-11.0876
▁жюри	-11.0876
читывать	-11.0881
▁киева	-11.0883
жить	-11.0885
▁ve	-11.0895
-3	-11.0895
▁пытался	-11.0902
▁законопроекта	-11.0906
жение	-11.0907
нные	-11.091
луж	-11.0911
▁начнут	-11.0911
▁поверить	-11.0911
▁начнется	-11.0912
▁образовании	-11.0912
▁применяться	-11.0914
▁обязан	-11.0914
▁эм	-11.0914
▁выяснение	-11.0916
▁злоумышленник	-11.0917
▁учебно	-11.0917
▁подлежа	-11.0918
▁сыр	-11.0922
вели	-11.0923
▁разрушать	-11.0927
ab	-11.0928
▁затрата	-11.0931
▁покинул	-11.0938
▁уменьшить	-11.0938
▁опирать	-11.0941
▁случаи	-11.0946
▁полноценны	-11.0946
▁бабченко	-11.0946
▁исчезнуть	-11.0947
▁тонн	-11.0948
▁стар	-11.0949
▁величин	-11.095
▁твиттер	-11.0951
▁докладе	-11.0951
▁бак	-11.0953
растать	-11.0955
▁обвиняют	-11.0955
▁описание	-11.0956
ших	-11.0956
▁пво	-11.0961
▁роста	-11.0962
▁проблему	-11.0962
▁делить	-11.0964
морски	-11.0964
▁потенциально	-11.0964
▁времен	-11.0967
ыш	-11.097
рн	-11.0973
▁устойчивы	-11.0975
▁центральной	-11.0976
▁просмотр	-11.0977
▁класса	-11.0977
аг	-11.0977
▁жданок	-11.0981
▁нефтяно	-11.0981
▁нотариус	-11.0981
▁безработный	-11.0981
▁проверку	-11.0981
.15	-11.0981
▁молодежи	-11.0981
▁украинцев	-11.0981
▁появились	-11.0982
▁осознавать	-11.0983
▁содействие	-11.0983
▁пища	-11.0983
▁туристов	-11.0984
▁вадим	-11.0985
▁проехать	-11.0985
▁туризм	-11.0985
▁осталось	-11.0987
▁оборону	-11.0989
▁подписали	-11.0999
иваться	-11.1
▁психически	-11.1001
▁фигурант	-11.1004
лар	-11.1007
▁ци	-11.1007
нной	-11.1011
▁черно	-11.1012
пил	-11.1014
▁следствия	-11.1017
▁миссии	-11.1017
▁ввоз	-11.102
▁конвенция	-11.102
▁кремлевски	-11.1021
▁сырье	-11.1022
▁учеников	-11.1022
▁пикет	-11.1023
▁самолетов	-11.1025
▁явка	-11.103
▁анонимны	-11.103
щую	-11.1033
▁еп	-11.1034
▁николать	-11.1036
▁мас	-11.1036
▁трудиться	-11.1037
▁ясны	-11.1039
▁блогер	-11.1039
иса	-11.1039
▁утверждал	-11.1041
▁праздника	-11.1043
▁важны	-11.1045
▁проход	-11.1048
▁встать	-11.1049
▁мессенджер	-11.1052
▁репутация	-11.1052
▁ho	-11.1053
35	-11.1054
▁возможностей	-11.1054
▁герман	-11.1057
▁мертвы	-11.1058
▁взаимодействие	-11.1059
▁использу	-11.1062
▁кремле	-11.1065
▁вил	-11.1066
катрина	-11.1067
▁этнически	-11.1068
▁сохраниться	-11.107
€/	-11.107
▁проведенно	-11.1072
mo	-11.1072
▁осуществление	-11.1072
▁архитектур	-11.1073
▁холод	-11.1073
▁миллиардер	-11.1074
▁сара	-11.1077
▁рейд	-11.1081
▁занимал	-11.1082
▁речи	-11.1085
▁регулярный	-11.1087
▁накопление	-11.1088
▁очереди	-11.1088
▁отрезок	-11.1088
▁вильяндимаа	-11.1088
▁пярнумаа	-11.1088
▁решении	-11.1088
▁отечественны	-11.1091
▁взлет	-11.1095
▁танк	-11.1095
▁сирийско	-11.1104
▁необычный	-11.1111
оф	-11.1111
▁толка	-11.1114
нешнеполитически	-11.1119
iz	-11.1123
▁неизбежно	-11.1123
▁революция	-11.1123
▁вспоминает	-11.1123
▁тендер	-11.1123
▁поединок	-11.1123
▁показал	-11.1125
▁еспч	-11.1126
анг	-11.1126
вещать	-11.1127
▁числ	-11.1135
▁воздушно	-11.1135
▁снимок	-11.1137
▁превышение	-11.1139
.10	-11.114
▁пле	-11.114
▁спонсор	-11.1146
▁приветствовать	-11.1148
дро	-11.1149
▁эл	-11.1151
▁записывать	-11.1155
▁забил	-11.1158
▁бросить	-11.1158
▁фбк	-11.1159
▁аварии	-11.1159
▁игнорировать	-11.1159
▁планета	-11.1159
48	-11.116
▁жаль	-11.116
▁панель	-11.1161
▁колония	-11.1161
юк	-11.1161
▁si	-11.1163
▁кайминьш	-11.1163
▁мя	-11.1165
тический	-11.1165
▁ворот	-11.1165
▁ооо	-11.1165
лем	-11.1166
лия	-11.117
▁водителя	-11.117
▁сбивать	-11.117
вшиеся	-11.1171
ари	-11.1173
▁2003	-11.1174
▁привычны	-11.1178
▁местно	-11.1182
▁прибыли	-11.1186
▁педагогов	-11.1187
▁опубликован	-11.1193
▁пользователей	-11.1195
▁понадобиться	-11.1195
▁осадок	-11.1195
▁корб	-11.1195
▁илмар	-11.1196
▁cnn	-11.1196
▁переезжа	-11.1202
▁кипр	-11.1202
▁конструкция	-11.1202
▁медведева	-11.1203
ist	-11.1203
27	-11.1209
▁здрав	-11.1209
▁весной	-11.121
цам	-11.1212
чит	-11.1214
2018🏆	-11.1216
▁проводит	-11.1216
видео	-11.1219
▁признан	-11.1222
▁ap	-11.1225
▁штаба	-11.1229
▁большим	-11.1229
▁утвердил	-11.1231
▁медведь	-11.1231
▁быстрее	-11.1232
▁зоне	-11.1234
▁получатель	-11.1234
▁вячеслав	-11.1236
▁задержания	-11.1236
▁анализировать	-11.1236
▁войну	-11.1238
gi	-11.1239
работ	-11.1241
▁продукты	-11.1242
▁инициатор	-11.1242
чистота	-11.1244
▁вступил	-11.1245
движ	-11.1245
▁привозить	-11.1248
пор	-11.1248
▁прирост	-11.1252
▁180	-11.1253
рье	-11.1254
енная	-11.1257
▁дики	-11.126
дель	-11.126
▁доказательств	-11.1263
▁программ	-11.1263
▁проектов	-11.1265
▁линд	-11.1265
▁вождение	-11.1267
▁яйцо	-11.1267
▁назвала	-11.1268
▁песни	-11.1269
▁бедность	-11.1269
▁оказалась	-11.1272
▁шадурскис	-11.1272
ировали	-11.1274
ывает	-11.1274
▁источников	-11.1274
▁зо	-11.1274
▁америки	-11.1276
ере	-11.1277
▁ветеринар	-11.1282
.19	-11.1284
▁нация	-11.1292
▁похоже	-11.1297
▁110	-11.1298
▁83	-11.13
▁стокгольм	-11.13
▁инфляция	-11.1304
▁башар	-11.1304
fi	-11.1304
▁юлии	-11.1304
▁украиной	-11.1305
▁ввиду	-11.1306
▁мотивировать	-11.1306
no	-11.1309
▁марафон	-11.1313
▁англия	-11.1314
▁гар	-11.1318
▁5-	-11.1324
владелец	-11.133
дом	-11.133
▁86	-11.1332
▁прибор	-11.1334
▁судов	-11.1334
▁костюм	-11.1335
▁рубежом	-11.1335
▁открыты	-11.1339
▁непосредственны	-11.134
▁одобрять	-11.134
▁перечень	-11.134
▁дружба	-11.1342
▁называемо	-11.1344
▁верховно	-11.1345
▁дальнейшем	-11.1346
▁языков	-11.1347
▁пб	-11.1348
▁конгресса	-11.1352
▁авторитет	-11.1354
▁использовал	-11.1355
таль	-11.1357
▁материальны	-11.1357
▁учитывая	-11.1358
ави	-11.1359
плат	-11.136
онь	-11.1366
цена	-11.1368
▁саудовски	-11.1371
кого	-11.1371
гро	-11.1374
▁турнире	-11.1375
▁коалицию	-11.1377
▁достичь	-11.1377
▁посадить	-11.1377
-10	-11.1377
▁соглашаться	-11.1378
▁var	-11.1378
▁пбк	-11.1381
▁достать	-11.1382
lt	-11.1382
▁тартуск	-11.1383
▁ha	-11.1388
▁теоретически	-11.1388
участник	-11.1391
▁столб	-11.1393
▁убежден	-11.1395
▁16-	-11.1401
▁глубоко	-11.1414
▁стипенди	-11.1414
душ	-11.1414
▁игрушка	-11.1414
▁newsru	-11.1414
▁независимых	-11.1415
▁поддерживают	-11.1415
▁корее	-11.1417
▁психиатр	-11.1418
▁слой	-11.1418
▁выпустить	-11.1419
▁selver	-11.1421
▁pst	-11.1421
▁националист	-11.1425
▁выписывать	-11.1425
▁коллеги	-11.1426
▁поездки	-11.1428
▁плана	-11.1435
хватывать	-11.1436
▁вел	-11.1437
▁петра	-11.1437
▁шу	-11.1442
▁группу	-11.1443
▁протесты	-11.1446
выборы	-11.145
▁помешать	-11.1451
▁преподавать	-11.1451
▁остаток	-11.1451
▁продление	-11.1451
▁станут	-11.1452
▁пересматривать	-11.1452
▁минеральны	-11.1452
▁1996	-11.1452
34	-11.1454
нди	-11.1454
▁1,4	-11.1455
▁pe	-11.1457
▁пытают	-11.1458
▁минуте	-11.1458
▁решающи	-11.1461
зать	-11.1463
▁института	-11.1466
▁соотечественник	-11.1469
▁макрона	-11.147
▁любом	-11.1472
еш	-11.1473
▁тр	-11.1483
через	-11.1483
▁курземе	-11.1488
▁проиграть	-11.1488
▁контент	-11.1488
▁операцию	-11.1488
ерс	-11.1488
▁правящей	-11.1489
▁временем	-11.149
:1	-11.149
▁российскими	-11.1496
▁надпись	-11.1496
▁присяжны	-11.1497
▁выгодно	-11.15
▁заключен	-11.1504
▁гулять	-11.1504
▁инновационный	-11.1509
▁кокаин	-11.1515
последний	-11.152
▁используют	-11.152
чита	-11.1522
▁коляска	-11.1525
▁критерий	-11.1525
▁ненависть	-11.1525
▁заложник	-11.1525
▁вышла	-11.1525
▁экскурсия	-11.1526
▁решительно	-11.1526
▁кубок	-11.1527
▁yle	-11.1528
▁вашингтоне	-11.1529
▁кое	-11.1532
▁прибыл	-11.1534
▁австрии	-11.1535
▁загрязнение	-11.1537
глав	-11.1541
▁четверт	-11.1546
▁указано	-11.1547
ава	-11.1548
▁reuter	-11.1558
альная	-11.1558
▁коммунист	-11.1559
мал	-11.1561
▁оценку	-11.1562
▁maaleht	-11.1562
▁взаимны	-11.1562
▁розыск	-11.1562
▁появилась	-11.1562
▁фасад	-11.1563
▁mar	-11.1564
▁арена	-11.1564
▁проба	-11.1564
▁мел	-11.1565
▁сессия	-11.1565
▁инфраструктуры	-11.1566
▁объявили	-11.1566
▁наблюдатель	-11.1571
▁полуфинал	-11.1571
торговец	-11.1573
▁вашингтона	-11.1575
▁смарт	-11.1578
▁черт	-11.1591
▁лекарства	-11.1592
сотрудник	-11.1594
комментарий	-11.1594
старший	-11.1596
▁thi	-11.1597
▁выглядит	-11.16
▁достоинство	-11.16
▁монумент	-11.16
▁ры	-11.16
▁миксер	-11.16
▁содержит	-11.1602
▁бок	-11.1602
▁угарны	-11.1603
▁volkswagen	-11.1604
▁баллотировать	-11.1604
▁сбу	-11.1604
▁реализации	-11.1605
▁добавила	-11.1607
▁секретны	-11.1609
возить	-11.1609
пут	-11.1611
▁чудо	-11.1614
▁катри	-11.1615
фин	-11.1619
▁лос	-11.162
пят	-11.162
право	-11.1621
цами	-11.1621
ост	-11.1624
ической	-11.1624
▁заботиться	-11.1624
▁самоубийство	-11.1625
▁участи	-11.1625
ющихся	-11.1629
кнуть	-11.1631
▁ремонтны	-11.1631
▁пропуск	-11.1636
▁enefit	-11.1637
▁литература	-11.1637
▁памятны	-11.1637
▁невероятны	-11.1638
▁янукович	-11.1639
▁че	-11.164
▁освободительны	-11.1641
▁жизненны	-11.1647
tv	-11.1652
vo	-11.1652
линг	-11.1658
▁информационно	-11.166
▁пунктов	-11.1661
▁вину	-11.1666
вь	-11.1667
▁фабрика	-11.1668
▁ужасны	-11.1668
▁кра	-11.1681
▁таковой	-11.1683
▁виталия	-11.1686
▁бол	-11.1688
▁внесение	-11.169
▁донбасс	-11.1693
▁действующе	-11.1698
▁гобземса	-11.1707
▁ивар	-11.1709
мед	-11.171
▁информацией	-11.1713
▁напряжение	-11.1713
▁обжаловать	-11.1713
▁почувствовать	-11.1713
▁сравнительно	-11.1713
▁хийумаа	-11.1713
▁сланец	-11.1713
▁обещания	-11.1713
01	-11.1713
ion	-11.1714
▁нко	-11.1714
▁термин	-11.1719
манна	-11.1719
▁провод	-11.172
▁минюст	-11.172
▁вернулся	-11.1722
▁аргентин	-11.1724
▁зоны	-11.1724
-400	-11.1727
вич	-11.1729
▁режиме	-11.1737
▁войне	-11.1737
пря	-11.1738
озола	-11.174
▁ежедневны	-11.1741
▁ушел	-11.1745
▁спад	-11.1745
ation	-11.1747
▁пособия	-11.1751
▁сэкономить	-11.1751
▁вишня	-11.1751
▁спектр	-11.1751
▁1200	-11.1753
▁ko	-11.1753
пат	-11.1754
▁идеальный	-11.1756
лок	-11.1756
шин	-11.1757
▁политическим	-11.1758
▁79	-11.1759
▁приезд	-11.176
▁виртуальны	-11.1761
▁начальны	-11.1767
▁очевидны	-11.1767
йорка	-11.1771
▁встретил	-11.1773
пан	-11.1777
андр	-11.1777
▁кирилла	-11.1777
сн	-11.178
▁обсе	-11.1783
▁главу	-11.1786
▁mtü	-11.1789
▁сегмент	-11.1789
▁аравии	-11.1789
▁родину	-11.1789
▁поступок	-11.1789
▁надеется	-11.1789
▁опасение	-11.1789
▁справка	-11.1789
▁nordica	-11.179
▁корпорация	-11.1791
▁фотографии	-11.1791
▁дневно	-11.1791
▁керченском	-11.1791
десят	-11.1792
▁больших	-11.1792
▁основания	-11.1794
▁роскомнадзор	-11.1795
▁урбанович	-11.1795
and	-11.1798
▁сделано	-11.1798
▁инициативы	-11.1799
▁льготны	-11.18
нных	-11.1801
▁невозможны	-11.1809
▁игоре	-11.1812
▁штрафной	-11.1812
▁государственном	-11.1812
▁87	-11.1817
▁хорошие	-11.1818
вр	-11.1819
▁партийны	-11.1822
▁диплом	-11.1826
▁средне	-11.1827
▁повреждать	-11.1827
▁портфель	-11.1827
▁утренни	-11.1827
ками	-11.1827
▁постановка	-11.1827
▁предписание	-11.1828
▁показания	-11.1828
▁уничтожение	-11.1828
▁назван	-11.1828
▁уверенно	-11.1829
▁встретить	-11.1829
▁девяти	-11.1831
▁вчерашни	-11.1831
ложил	-11.1831
▁уста	-11.1832
▁выяснилось	-11.1834
где	-11.1835
мой	-11.1835
▁обозначать	-11.1837
▁знания	-11.1839
▁боширов	-11.1839
55	-11.1842
ведение	-11.1844
ическую	-11.1849
▁косну	-11.185
▁главного	-11.1851
страивать	-11.1854
бель	-11.1854
▁паве	-11.1855
▁убедиться	-11.1859
▁общем	-11.1859
рей	-11.1859
портал	-11.1864
▁сосредоточивать	-11.1866
▁доводить	-11.1867
▁ранения	-11.1867
▁пункта	-11.1868
▁реформу	-11.1869
▁1:1	-11.187
▁добавив	-11.1871
▁ужин	-11.1889
▁деревянны	-11.1893
▁оправдывать	-11.1893
ep	-11.1894
▁призер	-11.1901
▁протестов	-11.1902
▁борьбу	-11.1904
▁водителей	-11.1904
▁vaba	-11.1905
рет	-11.1906
▁руководящи	-11.1907
▁инстанция	-11.1907
▁сквер	-11.1908
▁прийт	-11.1908
▁путешествовать	-11.1908
▁волновать	-11.1909
▁дают	-11.1909
▁аэс	-11.191
▁палдиск	-11.1917
тать	-11.1919
▁сталин	-11.1924
03	-11.1927
▁запрещено	-11.1932
доход	-11.1934
▁140	-11.1935
▁раскритиковал	-11.1937
▁убийстве	-11.1937
чий	-11.1939
▁разногласие	-11.1943
▁вызывает	-11.1943
▁разместить	-11.1943
▁российское	-11.1944
▁city	-11.1944
▁подниматься	-11.1946
▁названы	-11.1947
▁компетенция	-11.1947
▁уголок	-11.1947
▁поддержал	-11.1949
▁rt	-11.1949
▁намерена	-11.195
▁надежду	-11.1953
▁черта	-11.1956
land	-11.1957
▁летать	-11.1959
33	-11.196
бек	-11.1961
▁белорус	-11.1964
▁сенат	-11.1964
▁подписан	-11.1968
▁положить	-11.1968
▁непросто	-11.197
ленный	-11.1971
основной	-11.198
▁превышает	-11.1982
▁обувь	-11.1982
▁станции	-11.1982
▁квота	-11.1983
▁рыночный	-11.1984
▁рам	-11.1985
▁фанат	-11.1986
манис	-11.1987
ишь	-11.1988
вшегося	-11.1989
▁входят	-11.1989
▁принят	-11.199
▁перевести	-11.199
▁филипп	-11.1991
▁прохождение	-11.1992
▁бед	-11.1995
▁меньшинств	-11.1996
▁lt	-11.1999
45	-11.2004
сек	-11.2007
▁en	-11.2011
▁франциск	-11.2017
▁разговора	-11.2018
▁благосостояние	-11.2021
▁каждой	-11.2021
▁панорам	-11.2021
▁урожай	-11.2021
▁относится	-11.2021
▁румыние	-11.2021
▁вероятный	-11.2025
▁северокорейски	-11.2026
▁перевозить	-11.2026
▁доступны	-11.2026
▁турлайс	-11.2031
▁построен	-11.2034
▁чп	-11.2034
▁главно	-11.2035
▁чи	-11.2037
▁тамм	-11.2037
ie	-11.204
▁убежденны	-11.2043
говаривать	-11.2046
▁лавр	-11.2048
▁стабильно	-11.2049
▁закупать	-11.2051
▁рода	-11.2051
▁25-	-11.2052
▁17-	-11.2054
▁ново	-11.2059
65	-11.206
▁tallink	-11.206
▁москвой	-11.206
▁понимает	-11.206
▁полдень	-11.2061
▁беда	-11.2061
▁инструкция	-11.2062
▁австрийски	-11.2063
▁русская	-11.2063
рош	-11.2063
▁пришла	-11.2064
▁символик	-11.2065
▁присоединение	-11.2066
▁wash	-11.2068
▁гитлер	-11.207
▁par	-11.2071
▁рок	-11.2072
ku	-11.2073
▁верх	-11.2075
▁хорватия	-11.2076
▁развал	-11.2076
▁ведомост	-11.2079
59	-11.2082
▁плане	-11.2086
▁выявить	-11.2087
ссон	-11.2087
▁эй	-11.2094
▁кат	-11.2096
тес	-11.2098
▁рез	-11.2098
бой	-11.2099
▁количества	-11.21
▁местонахождение	-11.21
▁удостоверение	-11.21
▁всерьез	-11.21
▁предшествова	-11.21
▁оценки	-11.21
▁аэропорта	-11.2101
▁привезти	-11.2103
▁угрозой	-11.2103
▁жар	-11.2103
нц	-11.2104
ai	-11.2106
▁григори	-11.2106
▁моральны	-11.211
▁партиями	-11.2111
▁митрополит	-11.2114
▁прошлогодни	-11.2116
▁сказано	-11.2117
▁техническо	-11.2117
32	-11.2124
.5	-11.2125
▁слава	-11.2125
▁занял	-11.2129
пин	-11.213
▁высказать	-11.2135
ими	-11.2135
46	-11.2136
▁вылет	-11.2137
▁88	-11.2137
▁стра	-11.2137
льт	-11.2138
▁отбор	-11.2139
▁выигрыш	-11.2139
▁клинтон	-11.2139
▁чтении	-11.2139
▁эстоноязычны	-11.2139
ази	-11.2139
▁самокат	-11.214
▁загореться	-11.214
▁воевать	-11.214
▁грузовой	-11.2144
▁римский	-11.2144
▁единой	-11.2144
▁таб	-11.2146
▁задержанных	-11.2146
оенную	-11.2146
▁хам	-11.2148
▁серьезные	-11.2148
pe	-11.2153
▁смотрите	-11.2154
ывают	-11.2156
▁sky	-11.2163
▁jul	-11.2164
▁снижаться	-11.2167
▁продолжа	-11.217
▁говоря	-11.217
▁сал	-11.2176
дум	-11.2177
▁взлом	-11.2177
▁предъявить	-11.2179
▁украсть	-11.2179
▁ураган	-11.2179
▁рада	-11.218
▁1992	-11.218
▁могила	-11.2181
▁крымский	-11.2184
▁форме	-11.2184
▁лю	-11.2189
▁жительства	-11.2193
▁достижения	-11.2199
кивать	-11.2206
▁нидерланда	-11.2209
▁карин	-11.221
▁350	-11.2211
▁ше	-11.2215
▁ложь	-11.2217
▁пярнуск	-11.2218
мужчина	-11.2218
▁дигитальны	-11.2219
▁преступлений	-11.2219
▁приблизительно	-11.2219
▁аукцион	-11.2219
▁кратковременны	-11.2219
▁целей	-11.2221
▁водоем	-11.2221
▁оснований	-11.2224
европейский	-11.2225
▁начинают	-11.223
оценка	-11.2235
▁зале	-11.2237
▁хел	-11.2239
▁ще	-11.2239
▁техники	-11.224
▁психологический	-11.2242
▁фейковы	-11.2242
▁продвижение	-11.2244
▁транс	-11.2251
енных	-11.2252
ено	-11.2254
▁аккумулятор	-11.2259
▁идлиб	-11.2259
▁трубопровод	-11.2259
▁витамин	-11.2259
▁оскорбление	-11.2259
▁мотивация	-11.226
▁одобрение	-11.226
▁олимпийско	-11.2261
▁шпионаж	-11.2262
▁уведомление	-11.2265
▁алименты	-11.2267
▁германию	-11.2268
ндь	-11.2268
44	-11.2268
▁гер	-11.2269
емых	-11.2269
чки	-11.227
ведет	-11.2272
▁he	-11.2272
▁границ	-11.2272
▁донецки	-11.2273
▁gt	-11.2274
тина	-11.2275
▁потока	-11.2276
▁ba	-11.2279
▁0,5	-11.2281
дава	-11.2281
▁фар	-11.2281
▁хельсинки	-11.2284
▁выиграл	-11.2285
▁выращивать	-11.2286
▁имел	-11.2287
▁явны	-11.229
▁ит	-11.2292
▁крем	-11.2292
сел	-11.2296
▁эдуард	-11.2299
▁нымма	-11.2299
▁хдс	-11.2299
▁банков	-11.2301
▁galaxy	-11.2303
mp	-11.2303
▁рисковать	-11.2304
▁гиргенс	-11.2306
▁ос	-11.2307
▁важным	-11.231
▁кирилл	-11.2311
▁травм	-11.2313
щие	-11.2315
▁самостоятельны	-11.2315
▁лор	-11.2316
▁примут	-11.2317
▁сон	-11.232
▁держаться	-11.2326
именно	-11.233
гнать	-11.2332
▁пра	-11.2334
▁остальных	-11.2339
▁половине	-11.2339
▁училище	-11.2339
▁отставки	-11.2339
▁парковочны	-11.2339
▁берзиньш	-11.2339
▁дальность	-11.234
сша	-11.2341
▁раду	-11.2342
▁исламски	-11.2342
▁официальным	-11.2343
▁избрание	-11.2343
▁получал	-11.2343
▁мартиньш	-11.2345
▁координатор	-11.2346
▁поздравля	-11.2346
▁youtube	-11.2347
большой	-11.235
▁летчик	-11.235
▁курьер	-11.2351
▁ленинград	-11.2352
ng	-11.2353
▁флот	-11.2353
ива	-11.2353
был	-11.2355
▁тоомпе	-11.2355
инка	-11.2363
ющее	-11.2364
▁собира	-11.2365
ляет	-11.2367
▁развод	-11.2368
pp	-11.2371
▁3-	-11.2371
езжать	-11.2375
житель	-11.2376
▁охватывать	-11.238
▁индия	-11.238
вместе	-11.2381
▁облачность	-11.2381
▁общения	-11.2381
▁пасе	-11.2384
▁министерством	-11.2385
наш	-11.2388
▁2030	-11.2388
▁сумка	-11.239
▁повыситься	-11.2391
▁документа	-11.2392
вить	-11.2399
▁сломать	-11.2402
▁эффективно	-11.2402
▁взяли	-11.2404
ber	-11.2407
лом	-11.2408
▁вопроса	-11.241
▁мечтать	-11.2412
▁историческ	-11.2413
▁спецназ	-11.2416
▁случилось	-11.242
▁согласовывать	-11.242
▁модели	-11.2421
▁болтон	-11.2421
▁подруга	-11.2421
▁хуже	-11.2421
источник	-11.2422
▁всевозможны	-11.2423
▁артис	-11.2423
▁турецко	-11.2424
ани	-11.2425
▁отделения	-11.2426
тягивать	-11.2426
тивный	-11.2429
▁определен	-11.2431
▁возможном	-11.2431
оло	-11.2433
▁проголосовал	-11.2436
одействовать	-11.2437
▁подготовлен	-11.2448
▁пояс	-11.2454
▁2:1	-11.2461
▁сопротивление	-11.2461
▁авиация	-11.2462
▁остаются	-11.2462
▁лишения	-11.2463
▁дис	-11.2463
▁отметка	-11.2466
▁bellingcat	-11.2466
рес	-11.2466
▁фаворит	-11.2467
▁audi	-11.2469
бан	-11.2471
▁бан	-11.2474
▁книги	-11.2475
тура	-11.2476
ивают	-11.2478
ехать	-11.2478
ss	-11.2479
▁един	-11.2479
▁яниса	-11.248
▁властями	-11.2485
▁писал	-11.2485
▁штатов	-11.2487
▁этапа	-11.2487
▁гектар	-11.2489
▁размещен	-11.249
тянуть	-11.2491
▁sp	-11.2493
▁сохраняться	-11.2498
▁джо	-11.2498
▁профессионал	-11.25
▁коммунизм	-11.2502
▁дальности	-11.2502
▁туннель	-11.2503
▁распространить	-11.2503
▁переворот	-11.2503
▁частичны	-11.2503
▁посвящен	-11.2505
▁заслуживать	-11.2506
▁экологичны	-11.2508
▁вакра	-11.2508
▁кричать	-11.2513
мень	-11.2513
▁электрически	-11.2517
▁сообщений	-11.252
▁хозяйственны	-11.2524
несла	-11.2527
▁явля	-11.2529
релиз	-11.2529
▁темы	-11.2534
▁сверх	-11.2534
телей	-11.2542
теле	-11.2543
▁васильев	-11.2544
▁окружение	-11.2544
▁отправк	-11.2544
▁ikea	-11.2544
▁наказания	-11.2544
▁1993	-11.2544
департамент	-11.2545
▁узки	-11.2547
▁экспортировать	-11.2549
▁дороге	-11.2549
▁окончания	-11.2552
▁коммуникационны	-11.2553
▁результатов	-11.2555
▁называемы	-11.2556
▁уверя	-11.2557
▁упомяну	-11.2558
кос	-11.2561
юсти	-11.2563
▁запада	-11.2564
шина	-11.2565
▁пыль	-11.2567
тир	-11.2568
▁ель	-11.2569
▁сбой	-11.257
▁ленин	-11.2571
▁описать	-11.2572
▁либерал	-11.2572
▁кас	-11.2573
▁грузинский	-11.2573
▁намерены	-11.258
▁продолжают	-11.2584
▁стремительно	-11.2585
ведут	-11.2585
▁хорватии	-11.2585
оба	-11.2586
▁пойдет	-11.2587
▁пенсий	-11.2587
▁лауреат	-11.259
▁уполномоченный	-11.259
▁крупнейши	-11.2591
▁временны	-11.2591
▁боец	-11.2591
▁международным	-11.2592
▁бельгии	-11.2596
▁швейцарии	-11.2597
▁пентагон	-11.2599
38	-11.26
конечно	-11.2605
ступает	-11.2606
син	-11.2611
▁распределять	-11.2613
▁допуск	-11.2616
ушка	-11.2617
▁муниципалитет	-11.2626
▁ансип	-11.2626
▁совещание	-11.2626
▁учений	-11.2626
▁фокус	-11.2626
▁эпоха	-11.2627
▁поддержание	-11.2627
нн	-11.2627
:15	-11.2627
▁остался	-11.2627
▁действует	-11.2627
▁хаос	-11.2629
▁лекция	-11.2629
▁госбюджета	-11.2629
▁сигарета	-11.263
▁труб	-11.2633
▁toyota	-11.2633
▁депутатски	-11.2636
▁премьеры	-11.2638
▁лембергс	-11.2641
▁радар	-11.2643
вопрос	-11.2643
▁выступал	-11.2647
▁ангела	-11.2649
▁крона	-11.2649
▁строй	-11.265
▁первичны	-11.265
летать	-11.2651
▁каспар	-11.2654
джи	-11.2654
▁йенс	-11.2656
ивает	-11.2658
▁разговоре	-11.2663
▁подозрения	-11.2663
ват	-11.2667
▁съехать	-11.2668
▁инвестиций	-11.2668
▁поблизости	-11.2668
▁поправок	-11.2668
▁формирования	-11.2668
▁дистанция	-11.2668
▁прочего	-11.2668
▁нефти	-11.2668
▁испанский	-11.2669
▁старость	-11.267
▁салют	-11.267
▁торг	-11.267
▁обладатель	-11.2671
▁ценности	-11.2673
▁сийм	-11.2675
▁американск	-11.2676
▁покой	-11.2678
гад	-11.2679
▁кросс	-11.268
летней	-11.2695
▁звезд	-11.2699
рот	-11.2699
▁возмещать	-11.271
▁здании	-11.271
▁норвегии	-11.271
▁осторожны	-11.271
▁нарушитель	-11.271
▁кювет	-11.271
▁пятеро	-11.271
▁садик	-11.271
▁корень	-11.271
▁готовности	-11.2712
жда	-11.2712
▁начинается	-11.2712
хороший	-11.2713
▁набрал	-11.2713
43	-11.2717
▁кредитор	-11.2718
▁осозна	-11.2718
▁аж	-11.2719
сим	-11.272
сать	-11.272
▁странам	-11.2723
av	-11.2724
кле	-11.2725
▁творчество	-11.2725
ируются	-11.2729
▁базу	-11.2731
▁екатерин	-11.2733
уже	-11.2738
▁тайм	-11.2738
▁отца	-11.2741
▁верн	-11.2741
▁хель	-11.2742
▁ведомстве	-11.2745
вшим	-11.2746
▁светлана	-11.2746
▁нечто	-11.2747
вик	-11.2748
ьте	-11.2751
▁кубометр	-11.2752
▁клетка	-11.2752
▁ученически	-11.2752
▁красота	-11.2752
кг	-11.2752
▁впредь	-11.2752
▁согласование	-11.2753
▁ректора	-11.2753
▁командны	-11.2753
▁находились	-11.2754
▁пересмотреть	-11.2757
▁повар	-11.2758
▁лицам	-11.2758
▁пайд	-11.2759
▁синий	-11.2759
▁нерв	-11.2762
пать	-11.2763
ического	-11.2764
.11	-11.2767
▁тап	-11.2768
▁больш	-11.2768
▁сроки	-11.277
стями	-11.2772
▁удара	-11.2775
▁веществ	-11.2775
▁прописывать	-11.2775
▁месячны	-11.2776
▁избранны	-11.2778
▁1990	-11.2782
бивать	-11.2784
▁бул	-11.2784
▁принадлежащи	-11.279
▁взял	-11.279
▁конструктивны	-11.2794
▁удивить	-11.2794
▁эмманюэл	-11.2794
▁провинции	-11.2794
▁ученые	-11.2794
▁акцию	-11.2794
▁лучших	-11.2794
▁кафе	-11.2797
пул	-11.2799
▁продуктовы	-11.2799
▁самолеты	-11.28
▁полк	-11.2802
▁вопросом	-11.2803
▁неплатежеспособ	-11.2806
▁досто	-11.2807
различие	-11.281
вала	-11.2811
▁америкс	-11.2813
▁матчей	-11.2813
▁рд	-11.2813
ющиеся	-11.2814
▁патриот	-11.2814
▁пределами	-11.2814
ужели	-11.2814
▁остальное	-11.2815
sta	-11.2815
аш	-11.2818
уга	-11.2821
▁полномочия	-11.2826
▁экспортный	-11.2828
дон	-11.2829
▁начнет	-11.2836
▁высказывания	-11.2836
▁группировки	-11.2836
▁делегации	-11.2836
▁реновация	-11.2836
▁средняя	-11.2836
▁принимает	-11.2836
▁драка	-11.2837
▁благодарны	-11.2838
▁развиты	-11.2839
▁подозревают	-11.2841
орож	-11.2841
tra	-11.2844
▁показывает	-11.2844
▁студентов	-11.2849
мут	-11.2851
▁запланирован	-11.2852
▁портала	-11.2854
▁петербургски	-11.2856
▁попадание	-11.2864
▁работали	-11.2866
▁советской	-11.287
извести	-11.2873
▁агентов	-11.2874
▁расширить	-11.2877
▁идентичность	-11.2879
▁искренне	-11.2879
▁предотвратить	-11.2879
▁одинаково	-11.2879
▁появится	-11.2879
▁регулирование	-11.2879
▁меэлис	-11.2879
▁ppa	-11.2879
рук	-11.288
▁противоположны	-11.2881
▁известны	-11.2883
▁вопреки	-11.2887
▁главная	-11.2887
▁80-	-11.2887
▁марь	-11.289
▁регламент	-11.2891
▁крик	-11.2891
▁пробка	-11.2894
▁каль	-11.2894
оваться	-11.2895
▁передан	-11.2899
▁40-	-11.29
▁84	-11.2902
▁уплат	-11.2904
▁приехал	-11.2908
he	-11.2911
расти	-11.2912
▁сет	-11.2921
▁telegraph	-11.2922
▁электорат	-11.2922
▁прокуратуры	-11.2922
▁акций	-11.2922
▁обязывать	-11.2922
▁рейрс	-11.2922
▁рапорт	-11.2922
▁радовать	-11.2923
имо	-11.2923
▁1995	-11.2923
▁корзина	-11.2924
▁состоит	-11.2924
▁шутка	-11.2928
▁введения	-11.2928
▁матери	-11.293
▁выехать	-11.2931
мп	-11.2935
беждать	-11.2935
▁неграждан	-11.2938
действ	-11.294
▁19-	-11.294
▁острова	-11.2943
▁прорыв	-11.2944
▁противодействие	-11.2947
▁языком	-11.295
▁финальны	-11.2951
ющую	-11.2951
док	-11.2951
br	-11.2954
▁отказать	-11.2954
▁кой	-11.2956
▁показ	-11.2956
pr	-11.2957
▁доставлен	-11.2959
печат	-11.296
пр	-11.2961
▁am	-11.2961
▁госдумы	-11.2964
▁джеймс	-11.2964
▁предположить	-11.2964
▁соответствует	-11.2964
▁финансировании	-11.2964
▁pdt	-11.2964
▁появился	-11.2965
▁дальний	-11.2965
▁останки	-11.2965
view	-11.2965
▁ошибки	-11.2966
шняя	-11.2966
▁серии	-11.2967
▁блокировать	-11.2968
▁лыжны	-11.2969
eg	-11.297
газета	-11.297
▁крыло	-11.2971
▁патриархата	-11.2973
▁открытия	-11.2973
рд	-11.2976
▁эстонского	-11.2977
▁выплат	-11.2977
сар	-11.2978
курс	-11.2979
▁берлине	-11.2982
вязывать	-11.2982
▁керсти	-11.2984
код	-11.2987
вшей	-11.2987
▁показали	-11.2987
петербурге	-11.2988
шая	-11.2988
▁bo	-11.2989
▁счета	-11.2992
стар	-11.2997
чек	-11.3003
▁школьников	-11.3003
▁украинск	-11.3003
транспортны	-11.3004
▁представлен	-11.3005
▁произойдет	-11.3008
▁певица	-11.3008
▁скончался	-11.3008
▁бразилии	-11.3008
▁изготовление	-11.3008
▁разрешения	-11.3009
иш	-11.301
▁замечательны	-11.301
!"	-11.3012
▁начинает	-11.3013
ze	-11.3014
▁сферы	-11.3016
евероатлантическ	-11.3017
52	-11.3018
▁сетево	-11.3018
▁свобод	-11.3019
▁отставке	-11.3021
▁велико	-11.3023
▁оцениваться	-11.3025
▁детальны	-11.3026
ага	-11.3027
lin	-11.3028
нная	-11.303
илось	-11.3032
▁традиционно	-11.3036
ители	-11.3038
▁метро	-11.3041
▁суп	-11.3043
▁обвиняет	-11.3043
▁невероятно	-11.3044
▁вино	-11.3046
▁квартире	-11.3049
▁подозрени	-11.305
▁ülemiste	-11.3051
▁беспилотник	-11.3051
▁гуайдо	-11.3051
▁дополнять	-11.3051
▁конституционно	-11.3051
▁седьмой	-11.3051
▁увольнение	-11.3051
▁преодолевать	-11.3051
▁сооружение	-11.3051
▁регистрации	-11.3052
▁командование	-11.3052
▁алкоголя	-11.3054
▁использует	-11.3054
налогоплательщик	-11.3055
▁мери	-11.3056
▁культурно	-11.3056
предел	-11.3057
гол	-11.3059
▁проезжи	-11.3061
▁макси	-11.3062
мяг	-11.3063
▁родительски	-11.3065
▁50-	-11.3069
▁сознательно	-11.3069
▁статуса	-11.3072
▁украинским	-11.3074
енные	-11.3076
▁создает	-11.3076
▁перенести	-11.3078
▁службу	-11.3081
▁бомб	-11.3082
▁4-	-11.3088
▁дж	-11.3092
▁другая	-11.3092
son	-11.3092
американский	-11.3092
▁скамейка	-11.3094
▁сланцевы	-11.3094
▁репинский	-11.3094
▁сравнить	-11.3094
▁вакцинация	-11.3095
▁армение	-11.3095
▁технологий	-11.3096
▁создатель	-11.3097
▁ухода	-11.3101
▁цепь	-11.3101
▁уус	-11.3104
▁вошли	-11.3105
tr	-11.3106
министром	-11.3108
▁шансы	-11.3109
▁1,7	-11.3109
сет	-11.3113
менее	-11.3113
▁всячески	-11.3113
▁xx	-11.3114
▁мупо	-11.3115
▁дорогах	-11.3118
▁сходить	-11.3122
qu	-11.3125
▁утвержден	-11.3125
▁мотоцикл	-11.3133
▁петь	-11.3133
▁болезни	-11.3138
▁взвешивать	-11.3138
▁телевидения	-11.3138
▁увольнять	-11.3138
▁провинция	-11.3138
▁формировании	-11.3138
▁землю	-11.3138
▁ограбление	-11.3138
▁чемодан	-11.3138
▁гордиться	-11.3139
▁украшение	-11.3139
▁•	-11.314
▁кошка	-11.3141
▁создаваться	-11.3143
третий	-11.3145
▁подтвердила	-11.3145
▁сообщают	-11.3147
▁кун	-11.3147
▁сборную	-11.3151
▁убрать	-11.3153
бежал	-11.3167
ложение	-11.3169
проб	-11.317
▁вследствие	-11.3176
▁глубина	-11.3177
▁благоприятны	-11.3182
▁ситуацией	-11.3182
▁тушение	-11.3182
▁развлечение	-11.3182
▁дополнение	-11.3182
▁урегулирование	-11.3182
▁удары	-11.3183
▁1997	-11.3183
▁началось	-11.3186
▁оценивает	-11.3187
▁2025	-11.3188
▁тийт	-11.3189
▁карлис	-11.3189
дик	-11.3189
ходящих	-11.319
▁латвийским	-11.3191
▁церемонии	-11.3193
▁европеец	-11.3194
▁компьютерны	-11.3194
рный	-11.3196
▁отличать	-11.3197
▁осужден	-11.3197
шем	-11.3201
▁хакер	-11.3207
ота	-11.3209
▁примеру	-11.3212
▁кам	-11.3212
шли	-11.3214
▁требованиям	-11.3219
▁болельщик	-11.322
▁целостность	-11.3226
▁надеюсь	-11.3226
▁относятся	-11.3226
▁уволить	-11.3226
▁суток	-11.3226
▁бумажны	-11.3226
▁предпринять	-11.3227
▁грубы	-11.3227
▁арестовать	-11.3228
▁преследования	-11.323
▁крупны	-11.3231
▁церковны	-11.3232
▁садиться	-11.3232
▁парке	-11.3232
▁бум	-11.3233
io	-11.3234
ian	-11.3236
стат	-11.3238
лиц	-11.324
ant	-11.3243
▁нормы	-11.3243
▁границей	-11.3246
▁общая	-11.3249
▁риски	-11.3249
▁единственно	-11.3251
▁скр	-11.3252
▁конкурса	-11.3253
▁satiksme	-11.3254
▁70-	-11.3255
▁pin	-11.3258
▁катер	-11.326
▁мень	-11.3263
▁государственные	-11.3265
▁ki	-11.3265
чную	-11.3265
▁южн	-11.3269
▁аэродром	-11.327
▁декларацию	-11.327
▁ежемесячно	-11.327
▁задержка	-11.327
▁имущества	-11.327
▁10:00	-11.3271
▁инфотехнология	-11.3274
▁палатка	-11.3275
▁самообслуживани	-11.3276
▁вейониса	-11.3278
▁убыток	-11.3278
квартира	-11.3278
спикер	-11.3279
▁экономической	-11.3279
▁an	-11.3282
▁среднего	-11.3282
▁познакомить	-11.3285
ники	-11.3287
зар	-11.3294
▁обвинили	-11.3295
порт	-11.3295
▁возрастно	-11.3303
▁лестница	-11.3304
комиссия	-11.3305
▁шаги	-11.3308
▁решаться	-11.3313
проинформировать	-11.3315
▁контингент	-11.3315
▁лгбт	-11.3315
▁предшественник	-11.3315
▁пожалуйста	-11.3315
▁правонарушение	-11.3315
▁экономия	-11.3316
▁переработка	-11.3317
▁нетаньяху	-11.332
▁боя	-11.332
▁мосту	-11.3321
po	-11.3322
▁98	-11.3324
▁жилет	-11.3324
▁слабо	-11.3327
стен	-11.333
▁старше	-11.333
▁расс	-11.3331
▁сдать	-11.3333
▁голов	-11.334
▁работала	-11.3342
▁полном	-11.3342
▁признала	-11.3346
▁ил	-11.3352
▁1,1	-11.3356
▁101	-11.3357
▁фигура	-11.3358
▁краткосрочны	-11.3359
▁попытке	-11.3359
▁потреблять	-11.3359
▁студии	-11.3359
▁перекрывать	-11.3359
▁убежища	-11.3359
▁lava	-11.3362
▁элита	-11.3363
▁климатически	-11.3365
▁отсюда	-11.3366
▁кораблей	-11.3367
▁затрону	-11.3369
▁экипажа	-11.3372
▁работой	-11.3373
▁улучшиться	-11.3374
нарва	-11.338
▁преступность	-11.3383
▁выходные	-11.3384
▁указали	-11.3386
▁француз	-11.3386
▁балтийско	-11.3387
▁объектов	-11.3389
ата	-11.339
▁представляться	-11.3394
тис	-11.3395
sy	-11.3396
▁прокат	-11.3397
дс	-11.3398
ex	-11.3399
▁боле	-11.3399
▁шеф	-11.3401
▁друзей	-11.3404
▁констатировал	-11.3404
▁теория	-11.3404
▁эвакуация	-11.3404
▁наследие	-11.3404
▁однополы	-11.3404
▁медленно	-11.3404
▁жестоки	-11.3404
▁торговле	-11.3405
▁грязны	-11.3405
▁важных	-11.3406
▁скромный	-11.3406
▁крылаты	-11.3408
▁райво	-11.3409
▁требуется	-11.341
вязать	-11.3411
▁руках	-11.3415
▁ран	-11.3419
▁накапливать	-11.3419
мон	-11.3422
▁разбить	-11.3422
▁уменьш	-11.3423
▁ag	-11.3425
бед	-11.3425
36	-11.3428
ального	-11.343
▁признали	-11.3431
▁поля	-11.3433
▁горе	-11.3433
уда	-11.3439
▁понимают	-11.3439
▁представил	-11.3439
▁структурны	-11.344
▁нормативны	-11.3442
▁администратор	-11.3443
▁вывозить	-11.3446
нуться	-11.3447
▁популист	-11.3447
▁лун	-11.3448
▁госдоходов	-11.3449
▁оккупации	-11.3449
▁аравие	-11.3449
▁райнер	-11.3451
▁национализм	-11.3451
▁обход	-11.3452
▁сегодняшне	-11.3453
▁пруд	-11.3453
ори	-11.3454
mon	-11.3455
▁встреч	-11.3456
▁пресечения	-11.3458
▁похороны	-11.3458
вшейся	-11.3459
▁син	-11.346
▁водо	-11.3464
▁типа	-11.3464
▁троллейбус	-11.3467
▁свидетельствую	-11.3468
▁бри	-11.3468
▁баня	-11.3471
▁причастност	-11.3479
▁улиц	-11.3482
▁шоколад	-11.3482
ящий	-11.3483
▁тура	-11.3486
ницы	-11.349
▁высылка	-11.349
▁участвовал	-11.3491
▁шла	-11.3493
▁кампанию	-11.3494
▁хендрик	-11.3494
▁мышление	-11.3494
▁огня	-11.3494
▁назначил	-11.3495
▁посредник	-11.3496
▁немецко	-11.3496
▁молочный	-11.3496
▁приостановить	-11.3497
▁последним	-11.3497
▁нападающи	-11.3498
ъя	-11.35
▁дан	-11.3502
▁газет	-11.3505
игр	-11.3506
▁бразилия	-11.3508
▁анвельта	-11.3512
▁архитектурны	-11.3517
▁объективны	-11.3519
▁заговор	-11.3523
политик	-11.3537
▁сомнительны	-11.354
▁востребовать	-11.354
▁оэср	-11.354
▁генетически	-11.354
▁фифа	-11.354
▁ведут	-11.3541
▁ждут	-11.3541
▁упрек	-11.3541
▁валдис	-11.3543
▁применить	-11.3543
95	-11.3544
ируется	-11.3545
▁нашим	-11.3546
▁неплохо	-11.3547
▁дэвид	-11.355
▁заключает	-11.3562
▁ираном	-11.3562
говорилось	-11.3562
▁верховного	-11.3563
кри	-11.3563
▁налоговой	-11.3564
▁взрыва	-11.3569
▁новостны	-11.357
рит	-11.3572
▁монета	-11.3572
▁тв	-11.3573
▁решит	-11.3577
▁скот	-11.3581
▁багаж	-11.3581
▁аварийны	-11.3582
▁оккупирова	-11.3582
▁инг	-11.3583
▁стан	-11.3584
▁народонаселени	-11.3585
▁ансамбль	-11.3585
▁корабли	-11.3585
▁репортаж	-11.3585
▁обязать	-11.3586
▁ирландии	-11.3586
▁умирать	-11.3586
часово	-11.3587
▁видеозапись	-11.3587
▁21-	-11.3589
няк	-11.3592
www	-11.3592
▁пушкин	-11.3593
шим	-11.3594
▁схожи	-11.3598
▁отвеча	-11.3598
▁заявив	-11.3599
▁прессы	-11.3599
▁ввод	-11.36
▁головно	-11.3602
▁сепаратист	-11.3603
▁сбить	-11.3603
▁село	-11.3604
▁марихуана	-11.3604
уб	-11.3608
ns	-11.361
▁отменил	-11.361
▁чиновники	-11.3612
▁кадыров	-11.3614
ручить	-11.3615
▁жара	-11.3619
▁ник	-11.3621
▁хал	-11.3623
чил	-11.3626
▁star	-11.3626
▁нахождение	-11.3627
эл	-11.3628
▁изъя	-11.3628
▁делом	-11.3631
▁вмешательства	-11.3631
▁литвиненко	-11.3632
▁премии	-11.3632
▁суб	-11.3632
▁подводно	-11.3632
▁колонии	-11.3633
▁передвигать	-11.3635
енс	-11.3635
▁опасности	-11.3635
▁частно	-11.3638
▁кемерово	-11.3639
▁вправе	-11.3641
▁местность	-11.3641
мас	-11.3642
'	-11.3643
▁spa	-11.3648
готов	-11.3655
▁начато	-11.3655
мый	-11.3656
▁рана	-11.3659
hi	-11.3664
правда	-11.3665
64	-11.3668
▁нарвы	-11.3672
дат	-11.3672
▁est	-11.3675
▁видземе	-11.3677
▁ежемесячны	-11.3677
▁заместителя	-11.3677
▁обязанностей	-11.3677
▁десятков	-11.3678
▁утверждения	-11.368
▁вахер	-11.3681
▁прогулка	-11.3681
▁виду	-11.3683
▁сак	-11.3684
▁истинны	-11.3685
▁luminor	-11.3686
льский	-11.369
▁пенсионеров	-11.3692
ллер	-11.3697
▁властям	-11.3697
анда	-11.3702
.12	-11.3704
дний	-11.3705
▁континент	-11.3706
▁тим	-11.3707
ечный	-11.3707
▁выдвижение	-11.3709
pm	-11.371
лидировать	-11.3715
▁квалифицирован	-11.3717
▁воин	-11.3717
▁крае	-11.3718
▁горны	-11.3719
считываться	-11.3721
▁поколения	-11.3724
▁согласовать	-11.3724
▁нетрезвы	-11.3724
▁инфосистема	-11.3724
▁анастасие	-11.3724
▁испытания	-11.3724
▁знакомство	-11.3726
ющими	-11.3726
bo	-11.3726
▁донецко	-11.3727
рок	-11.3729
▁ключевы	-11.373
▁опровергну	-11.3736
▁интенсивный	-11.3739
▁изменится	-11.374
▁ярко	-11.3741
ea	-11.3741
▁артем	-11.3744
▁приведет	-11.3744
▁замер	-11.3746
▁сложи	-11.3746
eu	-11.375
▁местами	-11.3753
▁соединение	-11.3754
втора	-11.3754
▁пуст	-11.3761
▁гражданам	-11.3763
▁92	-11.3764
▁снаряд	-11.3765
▁заняты	-11.3767
▁лук	-11.377
▁визитом	-11.377
▁агрессии	-11.377
▁коваленко	-11.377
▁лечения	-11.377
▁поджог	-11.377
лат	-11.377
▁опасения	-11.3771
▁бонус	-11.3771
▁трижды	-11.3771
▁кристофер	-11.3772
▁восстановления	-11.3772
▁вижу	-11.3772
▁усилить	-11.3773
▁общественности	-11.3773
▁вкусный	-11.3774
▁пьян	-11.3776
▁другую	-11.3776
▁российск	-11.3777
▁репортер	-11.3778
фирма	-11.3781
▁барак	-11.3783
причина	-11.3784
иков	-11.3785
▁виновным	-11.3787
▁минимальной	-11.3789
▁команду	-11.3791
▁квартиру	-11.3793
шло	-11.3796
▁сектора	-11.3802
▁зачет	-11.3804
▁согласован	-11.3805
▁свеча	-11.3806
шать	-11.3807
бен	-11.3807
▁лок	-11.3807
06	-11.3809
▁международные	-11.3814
▁нестор	-11.3814
▁федор	-11.3816
▁зданий	-11.3817
▁лицензия	-11.3817
▁пешком	-11.3817
▁энергии	-11.3817
▁полицией	-11.3817
▁bbc	-11.3817
▁кер	-11.3818
▁снятие	-11.3818
▁восьмо	-11.3818
▁замедлиться	-11.3818
метр	-11.3818
▁гон	-11.3818
▁исправлять	-11.382
▁чьи	-11.3821
тта	-11.3823
▁уголовном	-11.3824
▁предлагают	-11.3827
▁случая	-11.3828
вир	-11.383
▁ценовы	-11.383
ула	-11.383
ливый	-11.3831
▁майор	-11.3832
▁принимал	-11.3837
▁легендарны	-11.3837
▁nord	-11.3838
▁препод	-11.384
▁расположение	-11.3841
▁канады	-11.3843
▁ответственно	-11.3843
▁чуд	-11.3844
▁счетом	-11.3846
▁норм	-11.3852
▁намечать	-11.3852
▁кул	-11.3858
▁кре	-11.3858
платный	-11.386
▁арестован	-11.3862
▁проступок	-11.3864
▁сеэдер	-11.3864
▁экономике	-11.3864
▁толпа	-11.3864
▁таммсаар	-11.3864
▁банкрот	-11.3864
▁греции	-11.3864
▁поймать	-11.3867
▁полезно	-11.3868
торг	-11.3869
изировать	-11.3869
нус	-11.3871
▁досрочно	-11.3871
кру	-11.3872
▁4000	-11.3872
▁человеком	-11.3874
▁удивительно	-11.3874
▁удаленны	-11.3875
▁тела	-11.3876
партия	-11.3877
▁праг	-11.3877
▁депутатом	-11.3878
скать	-11.3878
▁домик	-11.3878
▁закрыт	-11.3881
tor	-11.3881
▁клубника	-11.3883
кис	-11.3884
бет	-11.3887
▁чечен	-11.3887
▁вырос	-11.3889
▁ответили	-11.389
банка	-11.3892
▁методика	-11.3894
▁ун	-11.3895
ub	-11.3895
полковник	-11.3896
цем	-11.3899
кк	-11.3901
▁звать	-11.3903
▁ху	-11.3903
стрел	-11.3904
▁роли	-11.3907
▁тихо	-11.3908
-5	-11.3909
▁нюанс	-11.3911
▁оптимизм	-11.3911
▁певец	-11.3911
▁диабет	-11.3911
▁потолок	-11.3911
▁разведывательны	-11.3912
▁проявление	-11.3912
▁постарать	-11.3913
▁достойно	-11.3914
▁обратил	-11.3916
▁секторе	-11.3917
клод	-11.3919
▁госязык	-11.3919
▁коллективны	-11.3922
▁результатам	-11.3922
ag	-11.3924
▁привел	-11.3924
отмечать	-11.3926
▁разбирательство	-11.3926
▁показаться	-11.3926
ходили	-11.3926
рач	-11.3932
▁давность	-11.3935
▁томас	-11.3936
▁выделение	-11.3937
▁сына	-11.3937
эз	-11.3939
▁телевизионны	-11.3944
▁законы	-11.3944
ппа	-11.3947
▁севере	-11.3948
шек	-11.3955
▁рейзниеце	-11.3958
▁задолженность	-11.3958
▁подготовки	-11.3958
▁половины	-11.3958
▁недействительны	-11.3959
▁исследовать	-11.3959
▁джерем	-11.3959
▁согласился	-11.3959
▁детали	-11.3959
▁опережа	-11.396
▁внедрять	-11.396
▁предпринимателя	-11.3962
▁лучшим	-11.3962
▁виновник	-11.3962
▁аркади	-11.3965
▁португалия	-11.3967
▁предположение	-11.3968
▁австралии	-11.3969
▁бывших	-11.397
▁корм	-11.3971
▁актриса	-11.3973
▁форму	-11.3973
город	-11.3974
карт	-11.3976
▁осудить	-11.3979
▁наличные	-11.3979
41	-11.398
▁еврейски	-11.3983
▁обстоятельства	-11.3984
▁британском	-11.3985
▁антироссийски	-11.3987
ющийся	-11.3988
▁парламентарий	-11.3989
бур	-11.399
▁pri	-11.399
▁петербурга	-11.3991
▁силовик	-11.3993
▁14-	-11.4001
▁эко	-11.4005
▁предприятии	-11.4006
▁предусматривающ	-11.4006
▁прозрачны	-11.4006
▁соцсети	-11.4006
▁преемник	-11.4006
▁снежны	-11.4006
▁осенни	-11.4006
▁18:00	-11.4007
▁тупик	-11.4007
▁потребовал	-11.4008
▁заработал	-11.401
▁процедуры	-11.4014
▁рис	-11.4019
адвокат	-11.4021
▁использован	-11.4021
▁куп	-11.4023
очки	-11.4029
▁объединить	-11.4029
▁разумно	-11.403
няя	-11.4031
▁тю	-11.4034
▁стены	-11.4034
74	-11.4034
▁берегово	-11.4039
рия	-11.4039
▁собранны	-11.4041
▁боеприпас	-11.4041
▁бре	-11.405
▁палате	-11.405
▁допустимы	-11.4051
▁понимаю	-11.4052
▁разработан	-11.4052
sc	-11.4053
▁великобританию	-11.4054
▁горбачев	-11.4054
▁пакистан	-11.4054
▁посторонни	-11.4054
▁стадии	-11.4054
▁фестиваля	-11.4054
▁белоруссии	-11.4054
казываться	-11.4054
▁инвестирование	-11.4054
▁арсенал	-11.4054
▁решению	-11.4055
▁tlt	-11.4055
▁нулевой	-11.4057
▁годов	-11.4057
▁дороже	-11.4057
▁сути	-11.4058
▁выгода	-11.4061
▁упор	-11.4061
▁мужчину	-11.4061
▁урожен	-11.4062
▁фиксировать	-11.4064
▁проявить	-11.4066
анна	-11.4067
▁обсудили	-11.4067
▁продюсер	-11.4069
▁кибератака	-11.4071
▁задержала	-11.4071
▁дроб	-11.4074
▁1,6	-11.4074
▁столкновения	-11.4074
ованный	-11.4077
чук	-11.408
04	-11.4081
▁жарки	-11.4083
▁00	-11.4084
47	-11.4088
▁бухгалтер	-11.4088
-6	-11.4088
▁красиво	-11.409
успевать	-11.4091
▁люб	-11.4091
ственно	-11.4092
▁грамм	-11.4094
▁йыхви	-11.4096
▁арт	-11.4098
.•	-11.4098
▁журналистка	-11.4099
▁газпр	-11.41
▁коллекция	-11.4102
▁огнестрельны	-11.4102
▁оснащать	-11.4102
▁отклонил	-11.4102
▁подразделения	-11.4102
▁аренду	-11.4102
ъехать	-11.4102
▁ищет	-11.4103
▁латышей	-11.4105
▁судей	-11.4107
▁auto	-11.4107
▁опаса	-11.4108
▁телефону	-11.4108
ks	-11.4109
▁вело	-11.4109
▁тестирование	-11.4114
▁промежуточны	-11.4115
▁fin	-11.4117
▁обещал	-11.4118
▁сменять	-11.4119
▁ыйсмяэ	-11.412
do	-11.4122
▁пожизненны	-11.4126
ina	-11.4128
▁третьем	-11.4131
тус	-11.4131
▁уступать	-11.4133
▁бело	-11.4133
▁демократической	-11.4134
▁выделен	-11.4134
▁сводить	-11.4136
▁блокировка	-11.4139
пуу	-11.4142
▁бела	-11.4142
▁эк	-11.4143
▁пивовар	-11.4144
▁территориально	-11.4144
таллинне	-11.4144
сол	-11.4146
шить	-11.4148
-12	-11.415
▁смешанны	-11.415
▁медали	-11.415
up	-11.415
▁организацию	-11.415
▁последнего	-11.415
▁постановил	-11.415
▁тебя	-11.415
▁молодые	-11.4151
вист	-11.4153
▁паника	-11.4153
▁соотношение	-11.4159
▁обсуждения	-11.416
▁торжественно	-11.4161
одержать	-11.4162
▁ректор	-11.4162
▁нарушениях	-11.4164
еха	-11.4164
▁кин	-11.4165
▁уверены	-11.4165
▁выделя	-11.4166
владимир	-11.4167
клиент	-11.4167
поздни	-11.4167
▁приговаривать	-11.4171
автор	-11.4174
ell	-11.4175
прокомментировал	-11.418
▁спортсмены	-11.418
▁отправлен	-11.4181
▁убиты	-11.4181
дный	-11.4182
▁мяг	-11.4183
мэра	-11.4185
вела	-11.4186
тывать	-11.4187
▁лов	-11.4189
▁кале	-11.419
▁закрыто	-11.4191
▁ne	-11.4193
▁талант	-11.4196
▁конопля	-11.4199
▁неравенство	-11.4199
▁собрания	-11.4199
▁устранять	-11.4199
▁зрителей	-11.4199
▁авиакомпании	-11.4199
▁дотация	-11.4199
▁бергманис	-11.4199
▁дешевле	-11.42
▁двадцать	-11.4203
▁каникулы	-11.4203
▁погранично	-11.4204
следовало	-11.4205
▁питер	-11.4205
▁проведении	-11.4209
▁ресурсов	-11.421
▁воспитывать	-11.4213
▁кост	-11.4214
ib	-11.4215
кандидат	-11.4216
▁участков	-11.4216
▁подвал	-11.4217
▁укр	-11.4218
▁гигант	-11.4218
▁ак	-11.4219
вский	-11.422
иг	-11.4224
▁моряков	-11.4227
▁колон	-11.4229
▁смертны	-11.423
▁шт	-11.423
сом	-11.4235
▁законе	-11.4237
нник	-11.4241
▁тотальны	-11.4242
▁отстранен	-11.4243
▁охота	-11.4245
▁знали	-11.4245
▁эстоноземелец	-11.4248
▁подземны	-11.4248
▁мартинсонс	-11.4248
▁михаила	-11.4248
▁ецб	-11.4248
▁чакша	-11.4248
▁max	-11.4249
▁удовлетворить	-11.4249
▁елена	-11.4251
▁скорости	-11.4255
▁di	-11.4257
▁гей	-11.426
ино	-11.4261
юр	-11.4261
▁штаты	-11.4263
▁баз	-11.4264
енного	-11.4264
▁возник	-11.4265
государство	-11.4265
▁несправедливы	-11.4266
многи	-11.4267
▁джонсона	-11.4269
uk	-11.4271
▁мус	-11.4272
▁такими	-11.4274
▁посылать	-11.4274
▁проходил	-11.4276
▁толк	-11.4276
▁генпрокурор	-11.4278
▁2000-	-11.4278
▁претендент	-11.4279
▁знал	-11.4279
▁мысли	-11.4282
▁искусственно	-11.4284
▁финиш	-11.4284
вас	-11.4285
▁реклам	-11.429
▁обменивать	-11.4292
знач	-11.4295
▁ашераденс	-11.4297
▁договоренности	-11.4297
▁оформить	-11.4297
▁удалять	-11.4297
▁добраться	-11.4297
▁сетях	-11.4297
▁принципиально	-11.4297
▁уничтожить	-11.4297
▁поддержит	-11.4299
▁лента	-11.4299
▁низко	-11.43
▁авиационны	-11.4301
▁двери	-11.4301
▁получилось	-11.4302
▁банки	-11.4302
▁6000	-11.4304
▁итоги	-11.4304
▁тренд	-11.4305
шт	-11.4308
вшую	-11.4308
▁предусмотрено	-11.4309
▁юридическо	-11.4311
▁болельщиков	-11.4311
▁тайна	-11.4312
▁неизвестны	-11.4313
▁0:1	-11.4318
▁каждом	-11.4321
▁япон	-11.4321
▁организован	-11.4321
▁проработа	-11.4323
▁официальном	-11.4329
▁нацистски	-11.433
рить	-11.4331
▁чемпионатах	-11.4332
56	-11.4333
▁присмотр	-11.4333
▁расстрел	-11.4334
▁отдельные	-11.4335
▁кр	-11.4338
▁ночи	-11.4342
▁пхенчхана	-11.4345
▁барселон	-11.4346
▁консультации	-11.4346
▁непременн	-11.4346
▁охранять	-11.4346
▁записи	-11.4346
▁обоснованны	-11.4346
▁каталонии	-11.4346
террористической	-11.4346
▁баррель	-11.4346
▁mail	-11.4347
▁технологии	-11.4347
▁портрет	-11.4347
▁напряженность	-11.4347
▁лучший	-11.4347
▁всё	-11.4348
▁новому	-11.4349
▁патрульны	-11.4351
▁приступ	-11.4352
▁изображать	-11.4352
▁составляют	-11.4353
▁суур	-11.4354
▁выполнения	-11.4354
▁huawei	-11.4355
▁языках	-11.4357
49	-11.4358
▁фейсбуке	-11.436
▁занимаются	-11.4363
af	-11.4363
▁ливан	-11.4364
▁огромно	-11.4366
▁кандидаты	-11.4367
▁уплаты	-11.4368
▁районах	-11.4371
▁хотела	-11.4371
▁комментиру	-11.4378
▁холл	-11.4379
они	-11.4385
правляться	-11.4385
▁бетон	-11.4394
▁комментариев	-11.4395
▁kantar	-11.4395
▁заработок	-11.4395
▁необоснованны	-11.4395
▁преподавание	-11.4395
▁мурниеце	-11.4396
крыться	-11.4396
▁спецпрокурор	-11.4396
▁1989	-11.4397
▁воду	-11.4399
▁призывают	-11.4401
будить	-11.4403
▁парижа	-11.4403
▁винькеле	-11.4403
ивание	-11.4405
▁злоупотребление	-11.4407
▁идаска	-11.4409
▁выразили	-11.4409
▁бомба	-11.4412
▁объеме	-11.4416
▁трамвайны	-11.4421
лайн	-11.4421
пробовать	-11.4424
▁поп	-11.4424
▁96	-11.4427
▁тар	-11.4431
ard	-11.4431
▁сделала	-11.4432
ким	-11.4433
▁пярну	-11.4437
▁запрещени	-11.4437
tal	-11.4439
уг	-11.444
▁сигарет	-11.4441
добр	-11.4442
▁con	-11.4443
▁включен	-11.4443
▁башня	-11.4445
▁подготовке	-11.4445
▁тюрьме	-11.4445
▁фрагмент	-11.4445
▁баллистически	-11.4445
▁поставки	-11.4445
▁шкаф	-11.4445
▁пир	-11.4445
▁возвращения	-11.4446
▁семью	-11.4446
75	-11.4447
▁импортировать	-11.4449
рио	-11.4449
▁процессуальны	-11.4453
▁донор	-11.4454
▁серебро	-11.4456
▁наград	-11.4457
▁ас	-11.4457
▁якоб	-11.4464
▁руководствовать	-11.4464
▁успел	-11.4466
▁регистрировать	-11.4468
хаживать	-11.4469
российск	-11.4469
▁русским	-11.447
▁тайно	-11.4473
bi	-11.4474
▁баб	-11.4476
▁избирательных	-11.4476
▁вредны	-11.4476
▁уголь	-11.4478
▁доклада	-11.4481
▁туман	-11.4481
изкий	-11.4484
▁ir	-11.4485
▁лас	-11.4488
▁нацист	-11.4489
▁реформе	-11.4491
▁видел	-11.4491
▁иностранцев	-11.4495
▁кнопка	-11.4495
▁комментарии	-11.4495
▁покупки	-11.4495
▁lux	-11.4495
▁мороженое	-11.4495
▁напряженны	-11.4496
дить	-11.4496
▁удобство	-11.4496
ok	-11.4496
▁пожелание	-11.4498
▁поздрави	-11.4499
57	-11.4501
▁возобновить	-11.4501
▁слав	-11.4504
становить	-11.4507
ини	-11.4509
▁вступления	-11.451
▁go	-11.4511
▁белом	-11.4512
провоцировать	-11.4515
свет	-11.4518
▁заслуга	-11.452
▁дочка	-11.452
▁медведе	-11.4521
▁гус	-11.4522
▁перемен	-11.4522
ft	-11.4523
▁завтрак	-11.4523
теп	-11.4524
▁принц	-11.4527
▁понял	-11.4529
▁кру	-11.4529
▁нынешней	-11.4529
▁пожарно	-11.453
▁социальные	-11.4531
▁подозревает	-11.4532
▁сторонники	-11.4541
енец	-11.4542
ущий	-11.4542
▁вырубка	-11.4545
▁компенсацию	-11.4545
▁корабля	-11.4545
▁ärileht	-11.4545
▁оценке	-11.4545
▁подростков	-11.4546
▁руслан	-11.4546
▁казнь	-11.4546
▁ветра	-11.4547
▁применения	-11.4547
▁еврокомиссар	-11.4548
▁мастерская	-11.4548
▁гал	-11.4549
▁машину	-11.4552
▁регулятор	-11.4553
▁высла	-11.4554
▁выступают	-11.4555
▁нидерландов	-11.4557
следователь	-11.4558
▁соединенно	-11.4559
▁идеал	-11.4562
▁университете	-11.4564
приостанавливать	-11.4567
одно	-11.4567
▁car	-11.457
▁вос	-11.4578
▁вопросе	-11.4579
▁95-	-11.458
▁выиграла	-11.4581
рица	-11.4582
перва	-11.4583
▁европарламенте	-11.4585
низ	-11.4588
▁печальны	-11.4588
▁крупнейших	-11.4589
▁поезда	-11.459
▁хулиган	-11.4594
▁любо	-11.4595
▁праздновать	-11.4596
▁пашинян	-11.4596
▁страничка	-11.4596
▁расследованию	-11.4596
▁мешок	-11.4596
▁рапламаа	-11.4596
▁совпадать	-11.4597
▁устранение	-11.4597
▁хозяйка	-11.4598
▁петер	-11.4599
▁получило	-11.46
▁продолжительны	-11.46
▁даугавпилсе	-11.4602
▁справлять	-11.4602
▁болгария	-11.4605
▁охранны	-11.4606
▁шел	-11.4607
дзе	-11.4609
▁купюра	-11.4613
▁вслед	-11.4615
второй	-11.4617
▁вопросах	-11.4622
▁89	-11.4624
▁сведения	-11.4624
министры	-11.4625
▁темно	-11.4629
водитель	-11.4631
▁заводить	-11.4632
▁пит	-11.4636
▁рекордно	-11.4637
▁эгил	-11.464
▁активистов	-11.4641
▁инициативе	-11.4643
▁подразумевать	-11.4644
▁стоят	-11.4644
▁особ	-11.4645
▁свидетелей	-11.4647
▁таблица	-11.4647
▁беспорядок	-11.4647
▁gr	-11.4647
▁призрени	-11.4647
▁расследовании	-11.4647
▁новостей	-11.4647
▁предоставлен	-11.4648
▁рассмотрения	-11.4648
▁лесо	-11.4648
▁убеждение	-11.4649
▁оказа	-11.465
рг	-11.4651
▁театра	-11.4653
▁рус	-11.4659
▁активисты	-11.466
▁согласованны	-11.4663
▁виз	-11.4663
▁будущи	-11.4667
женный	-11.4668
нок	-11.467
▁стартовы	-11.4671
▁поклонник	-11.4672
▁нехватк	-11.4681
▁фил	-11.4681
▁737	-11.4684
▁фундамент	-11.4684
цел	-11.4685
пущен	-11.4687
работать	-11.4688
▁91	-11.4691
▁пророссийски	-11.4691
▁тянуть	-11.4693
▁произведен	-11.4696
▁чему	-11.4696
▁курессаар	-11.4696
▁приостановк	-11.4698
▁international	-11.4698
▁комиссию	-11.4698
▁отремонтировать	-11.4698
▁расстройство	-11.4698
▁смелый	-11.4698
️	-11.4698
▁гросс	-11.4698
▁единственным	-11.4698
▁рабочие	-11.4699
▁маклер	-11.4699
▁чехии	-11.4699
▁представляют	-11.4699
▁ласнамяэски	-11.47
▁жалоб	-11.4701
▁штата	-11.4701
очек	-11.4705
▁чуж	-11.4705
fa	-11.4708
▁водка	-11.4708
▁организаторы	-11.4711
опрос	-11.4711
▁придавать	-11.4713
500	-11.4719
клуб	-11.4719
▁материалов	-11.472
▁уездно	-11.472
▁хант	-11.4721
▁личности	-11.4723
▁переменны	-11.4724
эм	-11.4725
▁кей	-11.4725
▁предложили	-11.4728
смотр	-11.4731
▁ведомости	-11.4733
▁бывше	-11.4738
▁вильнюсе	-11.4739
▁твит	-11.4742
▁смело	-11.4744
▁меняется	-11.4747
▁интересам	-11.4749
▁компанией	-11.4749
▁mercedes	-11.4749
▁терпеть	-11.4749
▁подавлять	-11.4749
▁упц	-11.4749
▁заболеваний	-11.4749
▁smart	-11.4749
▁помогает	-11.4749
▁среде	-11.4751
▁боинг	-11.4751
▁светлый	-11.4751
стный	-11.4751
▁резолюции	-11.4752
▁громко	-11.4755
соо	-11.4756
▁подсчета	-11.4757
▁лыжник	-11.4758
▁перевозчик	-11.4758
▁убит	-11.476
▁офисны	-11.4762
▁иммиграци	-11.4762
▁отправление	-11.4764
▁матчах	-11.4765
▁обыски	-11.4767
rt	-11.4768
▁какими	-11.4768
исследование	-11.4772
месячны	-11.4774
▁сообща	-11.4775
▁заново	-11.4775
▁металлически	-11.4778
su	-11.4778
▁намек	-11.4781
▁фондов	-11.4787
▁агента	-11.479
▁eas	-11.4792
▁or	-11.4794
▁георг	-11.4794
▁лат	-11.4796
спа	-11.4796
▁умеренны	-11.4797
▁+2	-11.4798
▁4,5	-11.4798
услуга	-11.48
▁логика	-11.4801
▁ноутбук	-11.4801
▁интегрировать	-11.4801
▁возбудить	-11.4801
▁сотрудника	-11.4802
хол	-11.4802
▁готово	-11.4802
болеть	-11.4802
▁идеально	-11.4802
▁гараж	-11.4803
▁волости	-11.4803
▁ягода	-11.4807
▁ок	-11.4807
▁всеобщи	-11.4808
ливо	-11.4808
жил	-11.4809
▁транспортно	-11.4809
▁руку	-11.481
▁платит	-11.481
▁выбран	-11.4812
▁сверху	-11.4813
▁отслеживать	-11.4814
▁шо	-11.4814
▁обязательств	-11.4814
▁домохозяйство	-11.4814
▁павел	-11.4816
пот	-11.4817
британски	-11.482
▁ареста	-11.4821
▁оружием	-11.4821
одновременно	-11.4824
украина	-11.4824
▁первоначально	-11.4827
иб	-11.4831
свой	-11.4831
▁куузик	-11.4832
▁рассказывал	-11.4834
кую	-11.4838
ниекс	-11.4841
▁источника	-11.4841
▁авторы	-11.4842
▁взносы	-11.4844
сия	-11.4845
актив	-11.4847
▁необходим	-11.4848
▁вторая	-11.4851
▁установлен	-11.4851
▁антикоррупционн	-11.4852
▁инвестиции	-11.4852
▁сбережени	-11.4852
▁участвуют	-11.4852
▁микрорайон	-11.4852
▁планшет	-11.4852
▁сосредоточить	-11.4853
▁наблюда	-11.4853
▁магнитского	-11.4853
илла	-11.4854
▁заключенных	-11.4856
▁защитны	-11.4857
▁товары	-11.4857
лед	-11.4859
договор	-11.4859
▁табачны	-11.4859
▁нигде	-11.486
▁конвенции	-11.486
▁обозреватель	-11.4861
мера	-11.4861
ki	-11.4862
ался	-11.4864
▁формате	-11.4865
▁исключительны	-11.4866
▁вируски	-11.4867
▁следовательно	-11.4868
опль	-11.4869
▁преодолеть	-11.4871
шедш	-11.4871
▁вызвало	-11.4874
проблема	-11.4876
▁отел	-11.4877
▁сине	-11.488
▁киви	-11.488
▁визы	-11.4881
▁строение	-11.4883
▁170	-11.4887
▁минск	-11.4887
▁лег	-11.4892
▁выводы	-11.4899
▁преступно	-11.4903
▁взяточничестве	-11.4904
▁таблетка	-11.4904
▁чвк	-11.4904
▁порадовать	-11.4905
▁эстонских	-11.4905
▁одноклассник	-11.4905
▁назначения	-11.4908
▁грубо	-11.4909
▁рыб	-11.491
этажны	-11.4911
▁верно	-11.4911
▁учительница	-11.4912
-8	-11.4913
▁рассматривает	-11.4913
▁огород	-11.4914
▁налаживать	-11.4914
водить	-11.4915
▁трав	-11.4915
▁продажи	-11.4916
▁государственная	-11.492
▁доходах	-11.492
54	-11.4922
▁европейском	-11.4922
▁высот	-11.4923
▁торговать	-11.4923
▁заезд	-11.4925
▁раск	-11.4925
▁курить	-11.4928
▁проведен	-11.4928
четыре	-11.4929
▁электронно	-11.4931
▁опроверг	-11.4935
кажет	-11.4939
▁госдепартамент	-11.4941
▁партнеры	-11.4942
▁здорово	-11.4942
▁ваши	-11.4945
▁неверны	-11.4946
▁приговорен	-11.4947
▁пластика	-11.4948
▁пин	-11.4949
люди	-11.4951
ju	-11.4954
разиться	-11.4956
і	-11.4957
▁kredex	-11.4957
▁заблуждение	-11.4957
▁экономику	-11.4957
▁переписка	-11.4957
▁швейцарски	-11.4958
▁задать	-11.496
▁снос	-11.4963
▁тень	-11.4965
▁проезжать	-11.4965
дз	-11.4965
ill	-11.4966
▁кристьян	-11.4967
▁450	-11.4967
▁продажу	-11.4968
▁полагают	-11.497
...-	-11.4973
▁прямы	-11.4976
▁закладывать	-11.4977
алась	-11.4978
▁удивительны	-11.4982
▁чк	-11.4983
▁mh	-11.4986
▁ухаживать	-11.4986
▁норвеж	-11.4989
▁заключительны	-11.4989
▁кел	-11.4991
▁илон	-11.5001
гун	-11.5006
нтер	-11.5006
▁причине	-11.5006
▁тц	-11.5009
▁ehitus	-11.5009
▁столкнулись	-11.501
пала	-11.501
▁катание	-11.5011
▁кейло	-11.5012
▁презентация	-11.5012
▁копия	-11.5013
▁обращ	-11.5014
плата	-11.5016
▁строительно	-11.5017
▁дама	-11.5018
▁прикладывать	-11.5019
▁позитивно	-11.5019
▁повторить	-11.5019
▁приготовление	-11.5022
▁серебряный	-11.5023
▁собираются	-11.5024
tb	-11.5028
акт	-11.5029
▁банда	-11.5034
▁грипп	-11.5034
первых	-11.5035
▁отклонить	-11.5037
орг	-11.504
▁скандальны	-11.504
▁буш	-11.5041
▁7-	-11.5045
▁6-	-11.5045
▁na	-11.5047
евы	-11.5048
▁осторожно	-11.5051
кинуть	-11.5053
▁вентспилса	-11.5058
▁консул	-11.5059
писать	-11.5061
od	-11.5061
▁комфорт	-11.5061
▁биатлон	-11.5062
▁логистика	-11.5062
формулировать	-11.5062
▁тревожны	-11.5062
▁избавляться	-11.5062
▁решительны	-11.5063
▁вечеринка	-11.5063
▁концу	-11.5064
▁бас	-11.5064
▁открыт	-11.5065
нки	-11.5065
▁оригинальны	-11.5066
▁экспозиция	-11.5066
▁грибаускайте	-11.5067
▁выкладывать	-11.5068
пеш	-11.5068
▁колонна	-11.5069
▁донецка	-11.507
ron	-11.5073
be	-11.5074
▁картофель	-11.5074
▁соц	-11.5077
▁пугать	-11.5079
▁ссыла	-11.5081
▁социолог	-11.5081
▁транспортировк	-11.5081
iv	-11.5082
▁сожале	-11.5082
▁правилам	-11.5082
▁удовлетворен	-11.5084
▁бренда	-11.5085
бран	-11.5086
александр	-11.5088
▁тын	-11.509
▁видели	-11.5093
▁атаку	-11.5094
▁просил	-11.5097
▁рена	-11.5101
▁существо	-11.5107
▁бурова	-11.5108
▁задачи	-11.5115
▁николас	-11.5115
▁антибиотик	-11.5116
▁антидопинговы	-11.5116
▁конкурировать	-11.5116
▁навсегда	-11.5116
▁поддержкой	-11.5116
▁сотрудничеству	-11.5116
▁исчезновение	-11.5116
▁янсонс	-11.5116
▁отравлении	-11.5116
▁базировать	-11.5117
▁кабель	-11.5117
▁удивление	-11.5117
енность	-11.5118
▁талантливы	-11.5119
so	-11.5121
▁ручно	-11.5125
▁английском	-11.5126
▁проектирование	-11.5128
▁составлен	-11.5133
кут	-11.5134
▁биологически	-11.5135
▁аборт	-11.5137
дробны	-11.5137
▁нынешних	-11.5137
▁майдан	-11.514
▁давни	-11.5141
уха	-11.5141
▁пропускать	-11.5146
▁помог	-11.5146
▁бедный	-11.5146
ложи	-11.5147
▁табличка	-11.5148
строить	-11.5151
▁юны	-11.5155
▁предназначен	-11.5158
▁перелом	-11.516
▁христиански	-11.5162
▁улицах	-11.5163
▁хаапсал	-11.5163
изма	-11.5165
младший	-11.5168
▁неудобство	-11.5169
▁нарушил	-11.5169
▁предусматривают	-11.5169
▁стрелок	-11.5169
▁международном	-11.5169
▁express	-11.5169
▁закатистов	-11.5169
▁поинтересовать	-11.5169
▁патрон	-11.5169
▁деяние	-11.5169
▁ограждение	-11.5169
▁гостей	-11.5169
▁королевства	-11.5169
▁irl	-11.517
▁автомобили	-11.517
▁париж	-11.517
▁использовании	-11.5171
▁выписк	-11.5172
▁брексита	-11.5175
▁выделил	-11.5175
▁суровы	-11.5176
▁lhv	-11.5179
▁наряд	-11.518
gen	-11.5181
▁сухо	-11.5182
dr	-11.5183
овали	-11.5185
▁владельца	-11.5186
▁обнаружены	-11.5186
▁модны	-11.5187
▁градуса	-11.5188
▁социологически	-11.5189
▁боевиков	-11.5192
▁леса	-11.5194
информация	-11.5196
▁ad	-11.5197
▁реал	-11.5201
▁потерял	-11.5202
▁получается	-11.5203
▁западной	-11.5205
▁проходили	-11.5205
▁учредитель	-11.5205
ine	-11.5206
предприятие	-11.5206
▁баранник	-11.5209
▁тормоз	-11.5211
▁брифинг	-11.5218
▁приоритетны	-11.5218
▁доставать	-11.5219
экс	-11.5219
▁проекты	-11.5219
66	-11.5222
▁участка	-11.5222
▁старин	-11.5223
▁вакансия	-11.5223
▁сланцево	-11.5223
▁фейерверк	-11.5223
▁болото	-11.5223
▁авиаудар	-11.5223
▁текуще	-11.5223
▁протяженность	-11.5223
▁изучить	-11.5223
▁списки	-11.5223
▁выйдет	-11.5224
▁подозреваемого	-11.5224
▁тунис	-11.5224
▁тонкий	-11.5225
▁родился	-11.5225
▁профиль	-11.5226
ционный	-11.5226
▁подробности	-11.5229
анию	-11.523
▁дворец	-11.5231
гло	-11.5231
▁потери	-11.5232
▁застройщик	-11.5234
▁убедить	-11.5234
▁судя	-11.5236
▁пишут	-11.5237
▁выбрасывать	-11.524
▁древни	-11.524
▁руг	-11.5241
net	-11.5243
▁черн	-11.5244
етка	-11.5244
▁указан	-11.5246
▁часы	-11.5247
▁десят	-11.5248
▁развлекательны	-11.5249
89	-11.5251
▁неважно	-11.5251
сборная	-11.5252
▁причинам	-11.5252
▁нашу	-11.5256
▁сталина	-11.5257
▁немноги	-11.5257
▁думают	-11.5258
▁лап	-11.5258
работка	-11.5259
▁стих	-11.5261
ers	-11.5261
фон	-11.5261
затем	-11.5261
несе	-11.5262
ca	-11.5263
▁2018-	-11.5263
енд	-11.5266
▁мг	-11.5272
▁собак	-11.5274
ap	-11.5275
▁отрицательно	-11.5275
▁тор	-11.5276
▁äripäev	-11.5277
▁аэрофлот	-11.5277
▁пригрозил	-11.5277
▁ближе	-11.5277
▁маккейн	-11.5277
▁линнамяэ	-11.5277
▁венгрии	-11.5277
▁принципиальны	-11.5277
▁электроника	-11.5278
▁разобраться	-11.5278
кус	-11.5278
▁предложений	-11.528
▁марек	-11.528
▁демографически	-11.5281
▁эхо	-11.5281
▁жидкость	-11.5286
▁видят	-11.5286
▁несет	-11.5286
щенко	-11.5288
▁дала	-11.5289
ленд	-11.529
▁отозвать	-11.5291
▁нидерланд	-11.5292
▁слож	-11.5293
рва	-11.5295
▁негатив	-11.5295
▁анкара	-11.5295
▁резонанс	-11.5295
▁фигурист	-11.5297
▁раздавать	-11.5297
▁высокой	-11.5298
результат	-11.5305
следующий	-11.5307
▁николай	-11.5307
▁десяты	-11.5311
▁ельцина	-11.5316
▁промежуто	-11.5316
▁аналог	-11.5322
▁устройства	-11.5322
лга	-11.5322
▁месту	-11.5323
оборудование	-11.5323
▁грудинин	-11.5324
вл	-11.5324
▁математика	-11.5326
▁футбола	-11.5327
сан	-11.533
▁британец	-11.5331
▁бюллетень	-11.5331
▁изготовлять	-11.5331
mb	-11.5331
▁любые	-11.5332
▁обманывать	-11.5332
▁друзья	-11.5333
▁рижан	-11.5333
▁обеспечивает	-11.5334
▁топливны	-11.5334
▁заявлений	-11.5334
▁подборка	-11.5335
▁предполагаемо	-11.5335
▁пыллуаас	-11.5335
▁2023	-11.5339
▁блог	-11.534
▁забот	-11.534
▁педофил	-11.5343
▁штурм	-11.5344
теря	-11.5347
▁друж	-11.5349
думывать	-11.5353
▁наше	-11.5355
▁кров	-11.5356
▁бат	-11.5358
ступят	-11.5358
▁переводчик	-11.536
▁уголовных	-11.5362
▁народу	-11.5363
эк	-11.5366
▁эстонской	-11.5372
▁попала	-11.5374
▁гонконг	-11.5374
▁отводить	-11.5375
▁вакцина	-11.5378
▁ответила	-11.5378
▁матерь	-11.5379
▁идей	-11.538
▁команде	-11.538
▁высок	-11.5382
▁capital	-11.5386
▁потратил	-11.5386
▁происхождения	-11.5386
▁единогласно	-11.5386
▁покончить	-11.5386
▁действовал	-11.5386
▁прогрессивны	-11.5386
▁лиепае	-11.5386
▁публикацию	-11.5386
▁атаковать	-11.5386
▁дождаться	-11.5386
▁досуг	-11.5386
:20	-11.5387
▁экономить	-11.5387
▁близость	-11.5388
▁кори	-11.5388
▁столично	-11.5388
mer	-11.5392
рабатывать	-11.5395
защит	-11.5402
бург	-11.5404
▁приговорил	-11.5407
чество	-11.5407
▁республикански	-11.5409
▁полета	-11.5409
▁круглосуточно	-11.5415
анский	-11.5415
организатор	-11.5415
первое	-11.5415
друг	-11.5415
▁создал	-11.542
▁последовательно	-11.5424
▁кормить	-11.5425
▁связана	-11.5426
▁телеканалу	-11.543
▁али	-11.5431
▁договоры	-11.5431
▁другу	-11.5431
▁венесуэле	-11.5431
▁po	-11.5432
▁многолетни	-11.5434
▁символически	-11.5434
рист	-11.5435
▁физическо	-11.5435
min	-11.5437
▁бомбардир	-11.5441
▁dpd	-11.5441
▁елизавет	-11.5441
▁предыдущих	-11.5441
▁afp	-11.5441
▁подсудимы	-11.5441
▁смесь	-11.5441
▁корейский	-11.5441
▁влияет	-11.5441
▁гендерны	-11.5441
▁благоустройство	-11.5441
▁тренировочны	-11.5441
▁опекун	-11.5441
▁встречны	-11.5442
▁политическо	-11.5442
42	-11.5444
▁формальны	-11.5445
▁сенцова	-11.5446
▁журналистика	-11.5446
▁академически	-11.5446
▁смогла	-11.5448
▁выра	-11.5448
▁родственников	-11.545
▁общеевропейски	-11.545
предпринимателей	-11.5452
nk	-11.5454
▁pu	-11.5454
▁подтверждает	-11.5455
носят	-11.5457
▁хозяйства	-11.5458
ov	-11.546
▁состоялся	-11.5461
▁мероприятиях	-11.5462
глядывать	-11.5462
▁захаров	-11.5464
▁атлетик	-11.5464
▁очистк	-11.5464
▁кровать	-11.5466
▁пехот	-11.5466
▁спорить	-11.5468
▁сергеев	-11.5468
▁каждому	-11.5468
▁соцдема	-11.5469
▁подрядчик	-11.547
▁илье	-11.5471
▁исключением	-11.5471
▁ухудшение	-11.5471
экономический	-11.5472
ковский	-11.5474
щего	-11.5475
▁рыбак	-11.5479
чке	-11.5479
▁египет	-11.5483
еля	-11.5485
метровый	-11.5487
▁мм	-11.5487
мане	-11.5488
▁1,8	-11.5489
▁шокирова	-11.549
▁завершен	-11.5491
▁веществом	-11.5495
▁õhtuleht	-11.5496
▁насильственны	-11.5496
▁функции	-11.5496
▁дольше	-11.5496
▁скоростно	-11.5496
▁жириновский	-11.5496
ниться	-11.5496
▁недопустимы	-11.5497
▁арендны	-11.5497
▁рем	-11.5497
▁нанимать	-11.5497
▁обвинений	-11.5498
▁учебник	-11.5499
▁виймс	-11.55
▁франк	-11.55
▁негражданин	-11.5501
▁сирию	-11.5501
▁предпоче	-11.5502
▁проф	-11.5505
▁катастрофы	-11.5508
▁планах	-11.5509
хар	-11.5511
ище	-11.5511
▁разделить	-11.5512
▁ля	-11.5512
▁хронически	-11.5512
▁сумел	-11.5513
▁платят	-11.5513
▁запрашивать	-11.5514
▁пришло	-11.5514
▁государстве	-11.5519
▁мода	-11.552
▁готовится	-11.5523
▁катар	-11.5523
▁непонятны	-11.5524
▁противоречие	-11.5525
ast	-11.5527
шоу	-11.5528
ратас	-11.553
▁хирург	-11.5532
▁иммигрант	-11.5535
▁павл	-11.5538
▁боб	-11.5538
▁учебном	-11.5543
▁рим	-11.5544
страда	-11.5545
зь	-11.5545
▁получали	-11.5547
шни	-11.5548
▁рюйтель	-11.5551
▁руководителей	-11.5552
▁встретится	-11.5552
▁дайнис	-11.5552
▁наземны	-11.5552
▁обратились	-11.5552
▁12:00	-11.5552
▁осталась	-11.5554
▁удовлетворение	-11.5554
▁курение	-11.5554
▁дек	-11.5554
разный	-11.5555
▁личных	-11.5557
ивший	-11.5558
▁фунтов	-11.5563
▁предполагает	-11.5564
▁неудачны	-11.5564
▁факты	-11.5567
▁исполня	-11.5567
ибербезопасность	-11.5573
▁минимальн	-11.5574
▁пребыва	-11.5577
▁каб	-11.5579
▁пообщаться	-11.558
▁полуострова	-11.5581
▁проблемой	-11.5582
ow	-11.5582
▁пригород	-11.5583
▁имеется	-11.5586
▁андре	-11.559
▁называл	-11.5595
▁координаци	-11.56
▁мальт	-11.56
яга	-11.5602
58	-11.5603
▁28-	-11.5604
63	-11.5605
▁нелегально	-11.5606
паралитическо	-11.5607
▁каждая	-11.5607
▁кошелек	-11.5607
▁служащий	-11.5607
▁смеяться	-11.5607
▁нвс	-11.5608
▁наследник	-11.5608
▁прохожий	-11.5608
▁король	-11.5609
▁вторым	-11.5609
▁тихи	-11.5609
ср	-11.5611
▁машине	-11.5612
▁отвечал	-11.5614
▁invest	-11.5617
▁демократов	-11.5619
per	-11.562
▁выстраивать	-11.5621
▁требований	-11.5623
▁раб	-11.5625
▁планов	-11.5626
пь	-11.5627
град	-11.5631
▁китаем	-11.5632
▁бюджету	-11.5633
▁брекзита	-11.5633
делать	-11.5639
большинство	-11.5639
▁разрешен	-11.564
▁муст	-11.5641
нного	-11.5642
▁валютны	-11.5642
▁пропал	-11.5643
▁вечера	-11.5644
▁резервист	-11.5647
реш	-11.5648
▁общее	-11.5648
▁ознакоми	-11.5652
евский	-11.5653
около	-11.5657
▁полка	-11.5658
кен	-11.5661
▁стрем	-11.5662
▁арендовать	-11.5664
▁лечебны	-11.5664
▁полугодие	-11.5664
▁юноша	-11.5664
▁некоторо	-11.5664
▁полчаса	-11.5664
▁партиям	-11.5664
▁сотен	-11.5664
▁крепость	-11.5664
▁дав	-11.5665
▁посуда	-11.5666
▁голландия	-11.5666
дели	-11.5668
▁табак	-11.5668
личные	-11.567
▁вида	-11.5673
▁маск	-11.5674
ип	-11.5675
▁отметив	-11.5678
▁ром	-11.5678
▁ослаб	-11.5679
пять	-11.5683
▁терапия	-11.5687
▁травмы	-11.569
-16	-11.5691
▁структуры	-11.5693
воздушны	-11.5694
▁подвести	-11.5697
▁2500	-11.5698
несколько	-11.5699
▁жу	-11.5703
▁мик	-11.5704
▁выставить	-11.5708
īb	-11.5715
▁jo	-11.5715
эма	-11.5717
▁свод	-11.5718
▁удивлен	-11.5718
▁белобров	-11.572
▁анатолье	-11.572
▁посетителей	-11.572
▁пространства	-11.572
▁разногласия	-11.572
▁резюмировать	-11.572
▁электроэнергии	-11.572
▁консенсус	-11.572
▁стальнухин	-11.572
▁укрепить	-11.572
▁поражения	-11.572
▁skds	-11.572
▁действительны	-11.572
▁авиации	-11.5721
▁dpa	-11.5721
▁диван	-11.5722
▁выросло	-11.5723
▁дискриминация	-11.5724
▁дошкольны	-11.5724
▁партнерами	-11.5725
▁пут	-11.5725
▁опубликованном	-11.5726
▁членами	-11.5727
cc	-11.573
▁брос	-11.5733
▁достигнуты	-11.5733
▁проводил	-11.5734
▁исключает	-11.5735
президента	-11.5735
вания	-11.5735
▁держава	-11.574
▁сопровожда	-11.5742
▁посольстве	-11.5742
просту	-11.5743
ласт	-11.5743
▁цру	-11.5743
▁полит	-11.5744
▁возможным	-11.5746
▁минуты	-11.5746
▁горд	-11.5746
зон	-11.5747
▁пространстве	-11.5748
▁750	-11.5749
▁америке	-11.5752
▁трава	-11.5753
согласие	-11.5753
▁составлял	-11.5755
▁счету	-11.5756
▁спешить	-11.5756
▁ракетно	-11.5756
▁94	-11.5758
▁ката	-11.5761
▁виктора	-11.5763
▁нашем	-11.5763
▁керт	-11.5764
▁даст	-11.5764
▁амбициозны	-11.5766
▁прилега	-11.5769
▁сбежать	-11.5773
▁неофициально	-11.5775
▁выдающийся	-11.5777
▁епископ	-11.5777
▁недоверия	-11.5777
▁нововведение	-11.5777
▁сатверсме	-11.5777
треб	-11.5778
che	-11.578
▁ee	-11.578
▁пыл	-11.578
▁сохраня	-11.578
▁страховщик	-11.5783
▁торт	-11.5783
▁щит	-11.5783
▁образован	-11.5784
кевич	-11.5784
▁платье	-11.5784
▁вниз	-11.5789
▁серьезны	-11.5789
▁продолжат	-11.5791
▁ходу	-11.5796
▁изменил	-11.5799
▁судом	-11.5801
96	-11.5802
▁раскрыть	-11.5803
жн	-11.5803
▁отложить	-11.5806
▁допустил	-11.5808
▁оставил	-11.5808
каждый	-11.5811
▁совете	-11.5812
▁калининград	-11.5814
▁чемпионка	-11.5814
енок	-11.5816
▁завоевал	-11.5817
ителей	-11.5818
▁западе	-11.5818
▁названием	-11.582
▁предста	-11.5821
▁бокс	-11.5822
▁установили	-11.5823
говоря	-11.5824
▁самим	-11.583
▁биатлонист	-11.5834
▁аннулировать	-11.5834
▁вдохновлять	-11.5834
▁компетентны	-11.5834
▁холодильник	-11.5834
▁министерски	-11.5834
▁пламя	-11.5834
▁рихард	-11.5834
▁мадрид	-11.5834
▁оплаты	-11.5834
▁эстонские	-11.5834
▁испортить	-11.5835
▁освобождения	-11.5836
▁выросла	-11.5838
▁формула	-11.5838
▁трезвый	-11.5839
ff	-11.5842
ражда	-11.5845
анная	-11.5845
▁дорогу	-11.5846
▁обследование	-11.5848
▁провалить	-11.5848
▁смол	-11.5848
▁обнаружен	-11.5849
▁владимиру	-11.5851
▁35-	-11.5852
▁очищать	-11.5852
▁выру	-11.5855
▁las	-11.5856
йорк	-11.5857
▁найдены	-11.5858
▁выплаты	-11.5858
летел	-11.5858
▁параметр	-11.5865
▁sun	-11.5869
▁стул	-11.5871
▁шахта	-11.5878
▁статистически	-11.5878
▁маяк	-11.588
вкус	-11.5884
▁демонстрант	-11.5886
▁хорошим	-11.5888
▁передвигаться	-11.5889
▁депутатам	-11.589
▁интер	-11.589
▁манифест	-11.5891
▁варшава	-11.5892
▁хоккеист	-11.5892
▁последствий	-11.5892
▁одноразовы	-11.5892
▁постройка	-11.5892
▁юрген	-11.5892
▁сделает	-11.5892
▁bolt	-11.5892
▁качественно	-11.5892
▁lsm	-11.5892
▁замечание	-11.5892
▁идеология	-11.5893
▁александром	-11.5893
▁концов	-11.5893
▁обнаружение	-11.5893
▁подрыва	-11.5894
▁подачи	-11.5896
▁предложила	-11.5897
▁развива	-11.5897
▁плав	-11.5897
ныне	-11.5901
▁трети	-11.5902
▁надежды	-11.5903
▁процедуру	-11.5904
▁financial	-11.5905
акс	-11.5907
▁уходит	-11.5908
▁норматив	-11.5908
▁кип	-11.5909
▁гроза	-11.591
▁отказа	-11.591
39	-11.5912
pl	-11.5912
▁linnatranspor	-11.5916
▁сбора	-11.5917
▁частота	-11.5917
-35	-11.5918
▁оплатить	-11.5918
шне	-11.5919
▁вит	-11.5919
▁гром	-11.5921
▁письменно	-11.5924
▁объекты	-11.5925
▁2017-	-11.5926
▁трампу	-11.5928
стре	-11.5928
▁юрмале	-11.5931
.14	-11.5933
▁йохан	-11.5936
:45	-11.5938
▁ассанж	-11.5939
▁вооружения	-11.594
джа	-11.594
▁пересек	-11.5943
▁получится	-11.5944
льно	-11.5946
▁оформлен	-11.5948
▁глаза	-11.5949
▁гамбург	-11.5949
▁манафорт	-11.5949
▁помещать	-11.5949
▁мамыкин	-11.595
▁преследовать	-11.595
▁азии	-11.595
шивать	-11.5951
▁вечерний	-11.5952
▁сервер	-11.5952
▁вовлекать	-11.5954
▁сезона	-11.5954
zi	-11.5955
емые	-11.5956
▁разделение	-11.5957
▁ца	-11.5958
-9	-11.596
▁0,2	-11.596
85	-11.5961
зданию	-11.5962
▁понести	-11.5963
▁азербайджан	-11.5964
чность	-11.597
▁лидерами	-11.5972
▁третьего	-11.5972
▁судна	-11.5972
▁ына	-11.5974
▁систематически	-11.5975
▁марс	-11.5976
res	-11.5979
▁дамаска	-11.5981
бок	-11.5985
женщина	-11.5985
▁лембергса	-11.5987
▁дизель	-11.599
▁найден	-11.5992
▁отвергну	-11.5993
щем	-11.5993
продажа	-11.5994
▁играет	-11.5994
▁оппозиционн	-11.5997
бирать	-11.6
▁наркотиков	-11.6
▁насчитывать	-11.6
76	-11.6003
▁конькобеж	-11.6007
▁мексики	-11.6007
▁прокуратуру	-11.6007
▁ограничительны	-11.6008
▁линкайтс	-11.6008
▁куча	-11.6008
▁откровенно	-11.6008
▁облегча	-11.6008
▁ватикан	-11.6008
▁топлива	-11.6008
▁сыро	-11.6008
емой	-11.6008
▁токио	-11.6009
▁16:00	-11.6009
▁обстоятельств	-11.6009
▁ширин	-11.601
▁неприемлемый	-11.601
пк	-11.601
▁свеже	-11.6011
▁добавляет	-11.6012
▁эстонско	-11.6013
▁некоторым	-11.6014
считать	-11.602
ran	-11.6024
▁непростой	-11.6025
▁дедушка	-11.6025
▁полную	-11.6026
только	-11.6026
реж	-11.6028
спорт	-11.6029
▁купил	-11.6031
▁спросил	-11.6034
▁критик	-11.6035
-17	-11.6035
▁направления	-11.6035
▁тройка	-11.6035
▁лад	-11.6035
▁голланд	-11.6036
▁обязаны	-11.6038
▁man	-11.604
бре	-11.6042
▁пирита	-11.6042
▁фирм	-11.6044
▁екатерина	-11.6044
пир	-11.6046
треть	-11.6046
▁отдал	-11.6047
▁9-	-11.6047
сайт	-11.6047
-15	-11.6056
ждать	-11.6057
официальный	-11.6062
▁предвыборн	-11.6066
▁безработице	-11.6066
▁домогательство	-11.6066
▁ярвамаа	-11.6066
▁лучшие	-11.6067
▁азия	-11.6067
▁сербие	-11.6067
▁силово	-11.6068
▁уменьшаться	-11.6069
▁рейти	-11.6071
▁подключение	-11.6072
ij	-11.6072
▁критику	-11.6078
▁информационны	-11.6079
раст	-11.6079
tion	-11.6082
▁ааб	-11.6084
▁форм	-11.6085
▁незначительны	-11.6085
▁проводят	-11.6086
▁персонаж	-11.6086
▁перемены	-11.6088
▁дана	-11.6088
службе	-11.6088
▁даугавпилс	-11.6089
нист	-11.609
учаться	-11.609
▁даугавпилсско	-11.6093
ование	-11.6095
▁двум	-11.6096
▁чак	-11.6098
▁фильтр	-11.6099
▁вконтакт	-11.6101
утро	-11.6103
▁медикам	-11.6103
изации	-11.6106
▁документальны	-11.6107
▁идеологически	-11.6108
ps	-11.6109
▁полуноч	-11.611
щих	-11.6112
▁банке	-11.6112
белый	-11.6117
▁чип	-11.6119
реал	-11.612
▁возникл	-11.6122
дина	-11.6122
▁journal	-11.6125
▁президиум	-11.6125
▁соболезнование	-11.6125
▁ухудшать	-11.6125
é	-11.6125
▁веселы	-11.6125
▁обосновывать	-11.6125
▁своевременно	-11.6125
▁изнасилование	-11.6125
▁приближение	-11.6125
▁обеспокоенность	-11.6125
▁высокие	-11.6127
:25	-11.6128
▁крови	-11.613
▁контролем	-11.6132
▁стратегическо	-11.6141
▁вверх	-11.6143
▁призывал	-11.6144
▁поляк	-11.6144
▁ксение	-11.6144
▁любит	-11.6145
▁родственники	-11.6146
▁принадлежат	-11.6147
▁пил	-11.6147
▁изданию	-11.6149
ылать	-11.615
▁проще	-11.615
▁холодной	-11.615
▁ужасно	-11.6151
словно	-11.6154
▁предложен	-11.6159
▁pi	-11.6161
бег	-11.6162
нение	-11.6166
даль	-11.6168
▁организованно	-11.6169
крытый	-11.6169
▁замглав	-11.6169
▁разводить	-11.617
▁паспорта	-11.6172
гель	-11.6173
глядеть	-11.6175
▁разъясни	-11.6175
▁грядущий	-11.6175
▁атомны	-11.6176
▁направил	-11.6177
ix	-11.6178
рять	-11.618
▁circle	-11.6184
▁окружать	-11.6184
▁реабилитация	-11.6184
▁танцевальны	-11.6184
▁подключать	-11.6184
▁райвис	-11.6184
▁интерактивны	-11.6185
▁решетка	-11.6186
▁вручать	-11.6186
▁отстранение	-11.6186
▁никому	-11.6187
▁магистраль	-11.6187
▁престиж	-11.6187
▁концентрация	-11.6191
▁условный	-11.6191
▁дружелюбный	-11.6191
▁возглавил	-11.6192
nc	-11.6193
кусок	-11.6197
▁отдыха	-11.6202
▁оборонно	-11.6203
▁тара	-11.6204
▁распад	-11.6205
рут	-11.6206
сель	-11.6206
▁следователи	-11.6208
спасатель	-11.6209
елла	-11.6209
▁своеобразны	-11.622
▁женщину	-11.6221
тогда	-11.6223
▁портале	-11.6224
▁ган	-11.6225
▁отзывать	-11.6227
200	-11.6228
▁курдски	-11.6229
▁чешски	-11.623
▁побег	-11.6232
ht	-11.6232
▁естественно	-11.6232
▁минска	-11.6234
▁клуба	-11.6236
крывают	-11.6236
▁платежный	-11.6237
▁автономны	-11.624
▁разу	-11.6242
▁заявку	-11.6243
▁марокко	-11.6243
▁оскорбля	-11.6243
▁реагирование	-11.6243
▁территорий	-11.6243
▁ткань	-11.6244
▁рухнуть	-11.6244
▁внеочередных	-11.6244
▁обочина	-11.6244
стью	-11.6244
▁изымать	-11.6244
▁радиостанция	-11.6244
▁спортивно	-11.6244
▁подконтрольны	-11.6244
▁11:00	-11.6244
▁хотелось	-11.6245
▁возмущение	-11.6245
▁гарри	-11.6245
▁жизненно	-11.6245
▁бир	-11.6246
▁используется	-11.6246
▁осуществить	-11.6248
весь	-11.6249
▁буксир	-11.6249
ment	-11.625
▁нашел	-11.625
▁запретил	-11.6251
▁шина	-11.6251
▁авиабаз	-11.6252
▁ev	-11.6253
▁указывают	-11.6254
▁ханс	-11.6255
▁wi	-11.6255
▁гречески	-11.6258
▁займет	-11.6259
▁занимался	-11.6259
▁верховн	-11.6263
▁гибридны	-11.6263
▁артура	-11.6263
▁установлены	-11.6264
▁противоречивы	-11.6265
▁центром	-11.6266
ассо	-11.6267
рп	-11.6267
▁собрал	-11.6269
▁принес	-11.6271
▁цепочка	-11.6271
▁легализаци	-11.6277
вад	-11.6277
▁дисциплин	-11.6277
▁привело	-11.6278
▁эколог	-11.6278
▁ti	-11.6281
▁скандала	-11.6283
.25	-11.6288
твер	-11.6289
устройство	-11.6291
▁дон	-11.6298
ls	-11.6299
люк	-11.6302
нна	-11.6303
▁insider	-11.6303
▁дежурны	-11.6303
▁лдпр	-11.6303
▁нафтогаз	-11.6303
▁безалкогольны	-11.6303
▁обороне	-11.6304
▁информатор	-11.6304
▁сандис	-11.6304
▁потепление	-11.6304
▁разрушение	-11.6305
▁отрицательный	-11.6305
▁бельгийски	-11.6306
▁космическо	-11.6307
возможно	-11.6307
▁пошел	-11.6308
▁став	-11.6309
▁еврей	-11.631
▁палестин	-11.6311
▁национал	-11.6311
ate	-11.6311
▁даугавпилса	-11.6313
nu	-11.6314
▁прилагать	-11.6315
▁kindlustus	-11.6315
▁включение	-11.6315
▁профилактика	-11.6317
блок	-11.6318
▁троп	-11.6318
распростран	-11.6322
▁мэром	-11.6323
▁елки	-11.6323
▁одни	-11.6323
▁предполагается	-11.6326
чные	-11.6327
▁скрыться	-11.6327
▁сильн	-11.6328
▁стенд	-11.6329
▁отбирать	-11.633
▁избрать	-11.6332
▁детской	-11.6333
▁nam	-11.6335
▁алис	-11.6335
▁статью	-11.6338
▁голод	-11.6343
телям	-11.6343
▁взяла	-11.6343
▁круп	-11.6346
▁аннексии	-11.635
▁ku	-11.6353
▁фильма	-11.6357
▁опек	-11.6358
▁яд	-11.6359
пасть	-11.636
▁красно	-11.636
▁мадис	-11.6361
трек	-11.6362
▁королевски	-11.6363
▁автономия	-11.6364
▁дефект	-11.6364
▁логотип	-11.6364
▁обострение	-11.6364
▁шереметьево	-11.6364
▁бородич	-11.6364
▁возлагать	-11.6364
▁дукурс	-11.6364
▁намерева	-11.6364
▁состояния	-11.6364
▁правопорядок	-11.6364
▁обвинению	-11.6364
▁мягко	-11.6364
▁ремень	-11.6365
▁месяцы	-11.6365
▁эстафета	-11.6367
▁трата	-11.6368
▁взаимоотношени	-11.6369
▁госполиция	-11.637
▁космонавт	-11.6371
▁цех	-11.6371
▁комментатор	-11.6372
▁группой	-11.6375
air	-11.6376
▁елку	-11.6377
▁таиланда	-11.6381
▁сед	-11.6383
▁брон	-11.6387
▁соловьев	-11.6388
▁лишен	-11.639
▁игру	-11.6392
ску	-11.6394
▁вариантов	-11.6398
▁осмотреть	-11.6399
▁применен	-11.6404
▁видземско	-11.6406
▁рал	-11.6407
▁характера	-11.6407
▁вещей	-11.6411
▁loe	-11.6414
▁заболевания	-11.6414
▁классов	-11.6415
республикан	-11.6416
▁обс	-11.6418
▁риска	-11.6419
▁сау	-11.6419
▁четвертьфинал	-11.642
▁субъект	-11.6424
▁elektrilevi	-11.6424
▁домбровскис	-11.6424
▁исландия	-11.6424
▁пытка	-11.6424
▁потребителей	-11.6424
▁вещание	-11.6424
▁урон	-11.6424
▁обновить	-11.6424
▁молдов	-11.6425
▁запрещен	-11.6425
▁набережной	-11.6425
▁курса	-11.6425
▁крах	-11.6425
▁экология	-11.6427
51	-11.6428
one	-11.6431
end	-11.6432
▁кюзис	-11.6432
▁взорва	-11.6432
▁ассанжа	-11.6435
▁рубка	-11.6437
▁гражданина	-11.644
чуть	-11.644
▁грань	-11.6447
▁накладывать	-11.6448
▁блока	-11.6449
числять	-11.6449
▁стеклянны	-11.6449
▁душ	-11.6449
▁приглашен	-11.6449
▁помещения	-11.645
▁никого	-11.645
▁счетчик	-11.6451
дела	-11.6451
▁грех	-11.6453
▁пенс	-11.6454
▁остр	-11.6459
▁euro	-11.6459
nor	-11.6463
стоимость	-11.6465
▁бывает	-11.6465
партнер	-11.6465
раг	-11.6466
▁дву	-11.6466
▁освещать	-11.6466
▁начальника	-11.6467
▁пилотны	-11.6468
▁фан	-11.647
▁игроков	-11.647
▁таллина	-11.647
▁8-	-11.6475
▁die	-11.6482
▁бундестаг	-11.6485
▁лагеря	-11.6485
▁реджеп	-11.6485
▁ричард	-11.6485
▁утрення	-11.6485
▁популизм	-11.6485
▁airbaltic	-11.6485
▁генпрокуратура	-11.6486
▁признался	-11.6486
▁удалить	-11.6486
▁гордость	-11.6486
▁совесть	-11.6486
▁14:00	-11.6487
▁предлог	-11.6487
▁стивен	-11.6487
▁мида	-11.6487
▁начинание	-11.6488
▁открыли	-11.6488
ary	-11.6492
▁riga	-11.6492
-200	-11.6495
быт	-11.6495
▁приняло	-11.6496
чного	-11.6497
енков	-11.6497
▁богатство	-11.6498
▁мирово	-11.6498
▁участница	-11.6499
▁намерении	-11.65
▁ска	-11.6502
▁диспетчер	-11.6504
▁евросоюзе	-11.6507
щим	-11.6508
▁зону	-11.6509
▁опека	-11.6509
лаж	-11.6513
▁особенности	-11.6513
▁соус	-11.6518
▁ru	-11.6519
алл	-11.6519
bu	-11.6521
царить	-11.6521
▁изоляци	-11.6523
▁пенсионерка	-11.6524
ливаться	-11.6524
лавок	-11.6525
▁страхов	-11.6526
▁еду	-11.6526
▁бойкот	-11.6526
звезд	-11.6529
лль	-11.653
▁неофициальны	-11.6531
▁гостя	-11.6532
▁спуск	-11.6534
wa	-11.6537
lus	-11.6538
дневн	-11.6539
ведения	-11.654
▁атаке	-11.6542
▁кох	-11.6542
tur	-11.6545
▁валерий	-11.6545
родного	-11.6546
▁йыгевамаа	-11.6547
▁беженца	-11.6547
▁выполнил	-11.6547
▁компанию	-11.6547
▁латгале	-11.6547
▁розыгрыш	-11.6547
▁отъезд	-11.6547
▁стрелка	-11.6547
▁посе	-11.6547
▁дочерни	-11.6547
коло	-11.6547
▁97	-11.6547
▁смертельны	-11.6547
▁очаг	-11.6547
▁нацизм	-11.6547
▁обещают	-11.6548
▁сербии	-11.6548
▁канала	-11.6548
▁распространя	-11.6548
▁оправдать	-11.6548
▁lidl	-11.6549
майор	-11.6552
▁просьбу	-11.6554
▁имели	-11.6555
участниц	-11.6555
▁раскритикова	-11.6556
▁подводить	-11.6556
▁мука	-11.6557
▁радиоактивны	-11.6557
▁медуза	-11.6557
▁научиться	-11.6558
▁тематически	-11.6558
важно	-11.656
▁медики	-11.656
▁солдаты	-11.656
▁высши	-11.6561
▁русскоязычных	-11.6562
▁зелено	-11.6563
давить	-11.6564
▁соединять	-11.6566
▁взят	-11.6568
ika	-11.657
we	-11.657
▁случаю	-11.657
▁общественном	-11.6572
▁дур	-11.6572
▁больно	-11.6573
▁вентспилсско	-11.6577
▁оспаривать	-11.6578
▁2:0	-11.658
09	-11.6581
▁известность	-11.6582
▁врачебны	-11.6583
▁силе	-11.6586
читатель	-11.6591
▁использовали	-11.6591
ланда	-11.6591
▁генсек	-11.6592
нное	-11.6594
pi	-11.6594
чку	-11.6596
▁завода	-11.6596
nn	-11.6597
правовой	-11.6597
▁коста	-11.6601
▁убийца	-11.6602
рываться	-11.6603
▁neplp	-11.6608
▁односторонни	-11.6608
▁сомнения	-11.6608
▁хорошее	-11.6608
▁павлютс	-11.6608
▁green	-11.6608
▁мвф	-11.6608
▁версию	-11.6608
▁аналитически	-11.6608
▁столетия	-11.6609
▁академии	-11.6609
▁позаботиться	-11.6609
▁возможные	-11.6609
▁отозвал	-11.6609
▁обширны	-11.661
▁куратор	-11.661
▁глобально	-11.6611
▁цирк	-11.6612
▁твердый	-11.6612
▁тебе	-11.6613
▁скандинавски	-11.6614
▁лицом	-11.6616
▁замедление	-11.6617
▁неисправность	-11.6622
▁панам	-11.6622
▁удачны	-11.6622
ратилась	-11.6623
▁египт	-11.6627
нцев	-11.6627
▁оправданны	-11.6628
▁мировых	-11.6628
ö	-11.6632
▁отс	-11.6634
▁специфически	-11.6636
▁принимают	-11.6636
движение	-11.6636
▁cas	-11.6637
▁чех	-11.6637
боль	-11.6638
рид	-11.6638
▁продлил	-11.6639
дво	-11.6642
▁основ	-11.6643
▁пациента	-11.6644
▁пошли	-11.6645
▁nov	-11.6646
tel	-11.665
▁придерживать	-11.6654
мак	-11.6655
▁ресурсы	-11.6655
▁дожд	-11.6656
▁сокращаться	-11.6659
▁лен	-11.6663
▁карт	-11.6663
▁минздрав	-11.6664
▁предоставлени	-11.6665
▁заряд	-11.6669
▁голунова	-11.667
▁облигация	-11.667
▁организационны	-11.667
▁признают	-11.667
▁бактерия	-11.667
▁острове	-11.6671
▁круглосуточный	-11.6671
лийз	-11.6672
▁привели	-11.6675
▁джихадист	-11.6675
▁лимит	-11.6675
▁стоянка	-11.6677
▁землетрясение	-11.6677
▁смелость	-11.6677
▁заход	-11.6678
нестись	-11.6678
▁2,4	-11.6679
▁телеканале	-11.668
льмар	-11.6681
▁решено	-11.6683
▁айнар	-11.6683
▁адвоката	-11.6684
▁танца	-11.6685
▁правящ	-11.6686
▁190	-11.6689
▁высоким	-11.6689
▁нейтральный	-11.6691
▁поддельный	-11.6692
▁сдерживать	-11.6692
▁сигулд	-11.6697
▁учреждениях	-11.6698
▁бизнесмена	-11.6698
▁магазинов	-11.6698
▁чист	-11.6698
▁краж	-11.6698
ическое	-11.67
▁комплекса	-11.6705
▁гарант	-11.6706
куб	-11.6708
▁митинга	-11.6709
▁телекоммуникаци	-11.6713
дру	-11.6715
сергей	-11.6715
заместитель	-11.6718
▁медикамент	-11.6719
▁открытым	-11.6721
▁котел	-11.6722
▁германски	-11.6724
общать	-11.6725
▁значимый	-11.6725
▁буква	-11.6726
▁импичмент	-11.6727
▁туризма	-11.673
▁аттракцион	-11.6733
▁батарея	-11.6733
▁избавиться	-11.6733
▁назарбаев	-11.6733
▁показатели	-11.6733
▁руководил	-11.6733
▁смешно	-11.6733
▁функционировани	-11.6733
▁шашлык	-11.6733
▁15:00	-11.6733
▁17:00	-11.6733
▁hotel	-11.6733
▁озабоченность	-11.6733
▁положенны	-11.6734
▁ставку	-11.6735
▁1945	-11.6736
спи	-11.6736
▁выбрал	-11.6737
▁голосовании	-11.674
▁катастрофически	-11.6742
ny	-11.6744
▁обязал	-11.6746
▁периода	-11.6751
▁электронной	-11.6753
▁практике	-11.6755
▁задач	-11.6755
сколько	-11.6756
▁нынешнем	-11.6759
▁ек	-11.676
▁процессы	-11.6761
▁семейств	-11.6764
глуб	-11.6765
яснение	-11.6768
cr	-11.677
дия	-11.6772
▁родителям	-11.6775
▁опер	-11.6776
▁22-	-11.6776
▁абу	-11.6776
днюю	-11.6776
ающий	-11.6776
67	-11.6778
▁соответствующие	-11.678
77	-11.678
▁пожаров	-11.6781
советского	-11.6781
▁белорусско	-11.6782
▁смысле	-11.6783
▁консульство	-11.6786
▁врачу	-11.6787
ьев	-11.6788
▁du	-11.6789
▁заняла	-11.6789
▁гид	-11.6792
ственный	-11.6793
съем	-11.6794
▁maxim	-11.6794
▁гостайне	-11.6796
▁литву	-11.6796
▁нескольким	-11.6796
▁углерод	-11.6796
▁тезис	-11.6796
▁сделку	-11.6796
▁подписи	-11.6796
▁окончить	-11.6796
▁поднятие	-11.6797
руд	-11.6797
эль	-11.6798
▁исчезать	-11.6798
вторых	-11.6798
▁геополитически	-11.6798
▁нанесение	-11.6799
▁elu	-11.6799
▁бетонны	-11.68
▁африкански	-11.6801
▁стоимости	-11.6802
▁последнем	-11.6802
▁прожи	-11.6803
▁миллиардов	-11.6804
▁антс	-11.6804
▁гигантский	-11.6804
▁подготовил	-11.6805
▁долей	-11.6806
тут	-11.6806
дачи	-11.681
▁обыграл	-11.6812
▁разбивать	-11.6813
:40	-11.6814
▁послушать	-11.6818
▁жертвами	-11.6821
▁домашне	-11.6821
▁соревнования	-11.6823
▁критики	-11.6824
▁выполняет	-11.6829
▁сба	-11.683
▁эд	-11.6831
интерес	-11.6832
▁увидел	-11.6833
▁hi	-11.6833
▁физик	-11.6834
править	-11.6835
▁обама	-11.6836
gar	-11.6838
▁школьно	-11.6838
-25	-11.6848
▁вызвал	-11.685
▁живы	-11.6852
чан	-11.6858
▁fktk	-11.6859
▁депрессия	-11.6859
▁литовец	-11.6859
▁нежелание	-11.6859
▁испание	-11.6859
▁иловайск	-11.6859
▁управлении	-11.6859
▁угрожает	-11.686
sen	-11.686
▁мокры	-11.6861
▁повышении	-11.6861
▁твердо	-11.6862
ржа	-11.6864
▁продолжаются	-11.6865
▁подала	-11.6866
▁консультировать	-11.6868
▁заверени	-11.6868
▁возглавлял	-11.6871
▁пустить	-11.6871
политический	-11.6873
▁keskus	-11.6873
▁мкс	-11.6873
▁поручил	-11.6874
▁моно	-11.6878
▁нерезидент	-11.6879
▁ожидает	-11.6881
дума	-11.6883
▁госязыке	-11.6884
▁жителя	-11.6885
mm	-11.6886
▁водой	-11.6887
▁куст	-11.6891
льц	-11.6892
кси	-11.6894
держатель	-11.6898
▁имант	-11.6904
the	-11.6905
rc	-11.6906
▁статусе	-11.6907
▁аргентина	-11.6907
▁юлл	-11.6908
▁гола	-11.6908
▁арм	-11.6911
▁делал	-11.6911
▁приходит	-11.6913
▁оптимальны	-11.6914
▁latvi	-11.6919
▁застраховывать	-11.6923
▁налогообложение	-11.6923
▁оповещение	-11.6923
▁стереотип	-11.6923
▁ускорять	-11.6923
▁беспилотны	-11.6923
▁зеркало	-11.6923
▁операций	-11.6923
▁отчасти	-11.6923
▁становятся	-11.6923
▁задуматься	-11.6923
▁uber	-11.6923
▁везти	-11.6923
▁легче	-11.6923
▁индии	-11.6924
▁оценивают	-11.6926
▁обоих	-11.6926
енский	-11.6927
▁1918	-11.6927
▁минздрава	-11.6929
▁госсекретаря	-11.693
▁глупость	-11.6931
▁доступа	-11.6938
сыпать	-11.6938
▁посты	-11.6939
▁волн	-11.694
72	-11.6943
▁ферма	-11.6943
▁нидерланды	-11.6944
▁поработать	-11.6945
▁соображение	-11.6946
▁допускает	-11.695
учать	-11.695
▁кук	-11.6953
▁пав	-11.6955
▁учениях	-11.6957
▁ритм	-11.696
,99	-11.6961
▁хир	-11.6961
▁разведчик	-11.6964
▁демократы	-11.6964
▁министерств	-11.6964
цк	-11.6965
жалеть	-11.6965
▁гидро	-11.6966
▁мульти	-11.6966
мари	-11.6968
▁водительски	-11.6968
▁воспитатель	-11.6969
инцидент	-11.697
полицейский	-11.6971
▁мягг	-11.6974
чт	-11.6974
вечером	-11.6975
▁заявлен	-11.6976
▁продолжил	-11.6979
чок	-11.6979
▁граф	-11.6979
▁экстремист	-11.6983
▁голову	-11.6984
ходящие	-11.6987
▁бривибай	-11.6987
▁калифорния	-11.6987
▁мошенничестве	-11.6987
▁питомец	-11.6987
▁наследство	-11.6987
▁отключать	-11.6987
▁петиция	-11.6987
▁приемлемы	-11.6987
▁украинцы	-11.6987
▁ливии	-11.6987
▁состоялась	-11.6988
щеобразовательны	-11.6988
▁надолго	-11.6988
▁бандит	-11.6988
▁наблюдается	-11.6988
▁улдис	-11.6988
▁сильнее	-11.6989
▁календарны	-11.6989
лот	-11.6994
▁голы	-11.6994
плыть	-11.6995
▁гражданами	-11.6995
▁следующи	-11.6996
форд	-11.6997
▁обществу	-11.6997
▁молот	-11.6998
газ	-11.6998
▁социалист	-11.6999
▁выпивать	-11.6999
▁считал	-11.6999
▁пропавш	-11.7001
05	-11.7003
явиться	-11.7003
▁тенево	-11.7004
▁проводится	-11.7005
▁наращивать	-11.7005
▁специальн	-11.7006
▁ранд	-11.7006
▁политикой	-11.7006
▁дисциплина	-11.7009
▁2,2	-11.7009
▁разгар	-11.701
▁теми	-11.701
▁основан	-11.7012
▁определиться	-11.7015
▁приведение	-11.7016
▁лицами	-11.7016
▁наказать	-11.7017
92	-11.7019
▁антони	-11.702
▁фор	-11.702
▁повышен	-11.7021
86	-11.7022
▁каждым	-11.7025
▁адаптировать	-11.7025
▁оценил	-11.7025
ty	-11.7028
▁проиграла	-11.7031
▁милан	-11.7031
▁ограничений	-11.7032
[...]
