<unk>	0
<s>	0
</s>	0
▁,	-2.90464
▁olema	-3.43233
▁.	-3.46753
▁ja	-3.92494
.	-3.99801
▁et	-4.42253
▁see	-4.45462
ne	-4.60558
ma	-4.62336
▁ei	-4.74214
▁tema	-4.75172
▁mina	-4.98064
▁mis	-5.05519
▁	-5.08062
▁ka	-5.09061
▁kui	-5.12192
▁„	-5.22575
▁“	-5.3148
▁saama	-5.41613
-	-5.42184
▁eesti	-5.54103
▁aasta	-5.54312
s	-5.54367
▁oma	-5.58983
▁aga	-5.6498
▁ning	-5.6621
▁kes	-5.67319
i	-5.6893
▁pidama	-5.89327
▁ütlema	-5.90064
▁üks	-5.91763
▁inimene	-5.94964
▁”	-5.97097
▁tegema	-5.98009
▁siis	-5.98284
▁või	-6.02871
▁nii	-6.0555
▁ise	-6.06497
▁?	-6.0981
▁)	-6.11873
▁–	-6.13207
t	-6.13339
▁(	-6.13359
▁:	-6.14304
e	-6.15211
▁kõik	-6.20695
▁sell	-6.28825
▁``	-6.29557
a	-6.30184
▁''	-6.35967
▁tulema	-6.36552
▁teine	-6.37289
▁võima	-6.37558
..	-6.44082
d	-6.45986
▁üle	-6.5028
▁palju	-6.50811
▁väljama	-6.52151
v	-6.54338
▁suur	-6.54511
▁sina	-6.54696
▁kus	-6.55483
▁väga	-6.55978
▁minema	-6.60689
▁!	-6.60795
mine	-6.62536
▁uus	-6.62698
▁veel	-6.6314
▁riik	-6.63831
▁juba	-6.65438
▁kas	-6.66355
▁võtma	-6.68086
▁kuid	-6.68778
▁mees	-6.7324
▁andma	-6.74293
▁mitte	-6.74527
▁kaks	-6.76947
▁pärast	-6.77658
▁rääkima	-6.78393
▁ära	-6.78938
▁töö	-6.78975
k	-6.79617
▁eest	-6.80685
▁sest	-6.81573
▁siga	-6.82636
▁vaid	-6.83067
▁nagu	-6.83185
▁vastu	-6.85183
▁sõnu	-6.86706
▁selline	-6.88428
▁asi	-6.92478
▁euroopa	-6.94976
▁kuidas	-6.95839
m	-6.97681
▁jääma	-6.98074
▁mõni	-6.99728
▁tahtma	-7.00037
▁aeg	-7.002
▁enam	-7.0042
▁iga	-7.02313
▁pool	-7.02973
▁juht	-7.03295
▁lisama	-7.03604
ima	-7.04503
▁teadma	-7.0488
▁miski	-7.05126
▁tagasi	-7.05204
▁päev	-7.06477
▁teatama	-7.06539
▁hakkama	-7.07917
▁esimene	-7.09078
▁venemaa	-7.09296
▁nägema	-7.09567
▁ajal	-7.09594
nud	-7.09704
▁laps	-7.10233
▁valitsus	-7.10607
▁president	-7.11861
▁kokku	-7.11941
▁kohtama	-7.1265
▁elu	-7.12961
u	-7.14021
▁naine	-7.15206
▁hea	-7.15299
l	-7.15331
▁tänama	-7.15826
▁läbi	-7.17106
us	-7.17516
▁neid	-7.18327
▁kõige	-7.18711
▁nüüd	-7.19461
ja	-7.20099
lt	-7.20222
▁näiteks	-7.20594
▁rohkem	-7.20606
tud	-7.2469
▁euro	-7.24743
▁sama	-7.26709
:	-7.26818
▁kogu	-7.27094
▁raha	-7.28366
▁muu	-7.29771
▁osa	-7.30218
▁leidma	-7.30611
▁tooma	-7.31838
▁tallinna	-7.32105
▁võimalik	-7.32716
▁politsei	-7.33198
▁küll	-7.33492
▁us	-7.34528
tama	-7.3454
▁viimane	-7.36204
▁­	-7.3628
▁koos	-7.37166
▁lõpp	-7.37209
▁peale	-7.37637
▁mitu	-7.38095
er	-7.39025
st	-7.39336
▁auto	-7.39942
▁kolm	-7.40015
▁ehk	-7.40037
▁enne	-7.40569
▁ju	-7.40755
▁ette	-7.40803
ta	-7.41841
le	-7.42032
▁ega	-7.42215
,	-7.42846
aastane	-7.4323
▁vaatama	-7.44257
▁nädal	-7.44274
▁küsimus	-7.4603
▁alla	-7.46073
▁maailm	-7.46088
▁ainult	-7.46238
▁erakond	-7.46342
▁siin	-7.47552
▁liige	-7.4771
’	-7.48605
▁jaoks	-7.50063
▁just	-7.50272
n	-7.50846
▁praegu	-7.51049
▁kirjutama	-7.51551
▁kodu	-7.51582
▁linn	-7.51749
▁vene	-7.52281
▁võimalus	-7.52727
▁tuli	-7.54339
▁arvama	-7.55151
▁edasi	-7.5607
▁ajama	-7.56583
▁toimuma	-7.57224
▁jõudma	-7.57269
­	-7.57839
▁kasutama	-7.57846
is	-7.5863
o	-7.5892
▁suurem	-7.59738
▁otsus	-7.59901
▁trump	-7.60069
▁vajama	-7.60172
▁isegi	-7.60175
▁|	-7.60464
▁viis	-7.60541
id	-7.60739
▁samuti	-7.60776
▁poolt	-7.61621
line	-7.6185
selt	-7.62033
▁liit	-7.65058
▁ikka	-7.65087
▁olukord	-7.65103
▁tee	-7.65726
ga	-7.66469
▁tundma	-7.67103
▁maja	-7.67367
▁vahendama	-7.67702
▁vahel	-7.68031
▁miks	-7.68441
▁kuni	-7.68964
▁soome	-7.6932
da	-7.71449
▁mingi	-7.71993
▁väike	-7.72246
▁kuna	-7.72589
▁kordama	-7.72928
▁miljon	-7.73129
▁noor	-7.74358
kui	-7.74387
▁s	-7.74582
▁probleem	-7.74723
▁riigikogu	-7.74821
▁000	-7.75164
b	-7.75171
▁all	-7.75736
▁algama	-7.75916
▁järgima	-7.76283
▁hetk	-7.76496
▁keema	-7.76548
kas	-7.76644
▁algus	-7.77008
▁kuu	-7.77371
▁jooksul	-7.77451
p	-7.77589
▁siiski	-7.77883
▁teema	-7.78171
▁keel	-7.78866
▁kell	-7.78959
▁oluline	-7.7915
▁viima	-7.79412
▁tegemine	-7.79801
▁põhjus	-7.79875
▁tegevus	-7.80773
▁kohalik	-7.80931
▁sel	-7.80988
▁sõitma	-7.81319
tu	-7.81634
▁puhul	-7.82046
▁tõttu	-7.82058
▁lihtsalt	-7.82213
▁mõte	-7.82268
▁üles	-7.82759
▁ilm	-7.82999
ine	-7.83041
▁hiljem	-7.8307
▁tallinn	-7.83169
▁selgitama	-7.83789
▁ekre	-7.8413
▁käima	-7.84351
▁on	-7.84364
▁küsima	-7.85114
▁kaasa	-7.85507
▁erinev	-7.85754
▁elama	-7.85872
▁tall	-7.86038
▁ees	-7.8638
▁kinni	-7.86468
▁aru	-7.86666
ama	-7.86988
▁juurde	-7.8709
▁näitama	-7.87472
▁maa	-7.88799
▁esimees	-7.88988
▁järgmine	-7.89294
▁ettevõte	-7.89725
▁kindlasti	-7.89834
▁varem	-7.90058
▁protsent	-7.9052
alt	-7.90635
▁mõtlema	-7.91747
▁tegelikult	-7.91936
r	-7.92043
▁alati	-7.92046
▁umbes	-7.92182
▁kinnitama	-7.92891
▁nimi	-7.93092
▁hästi	-7.93318
▁tagama	-7.93481
▁tähendama	-7.9358
▁peaminister	-7.93744
▁märkima	-7.93903
▁maha	-7.94371
▁juhtima	-7.94703
tõttu	-7.94744
▁eile	-7.95238
ks	-7.95431
▁pakkuma	-7.95561
▁saatma	-7.95863
▁vana	-7.96003
▁sisse	-7.96098
▁eelmi	-7.96117
lik	-7.96373
▁mulle	-7.96543
▁neli	-7.96863
▁eesmärk	-7.96912
▁sõna	-7.97214
te	-7.97941
▁keskerakond	-7.98507
▁nõukogu	-7.98864
▁ta	-7.99376
▁teade	-7.99482
▁toetus	-7.99503
▁otsustama	-7.99798
▁õigus	-7.99967
▁aitama	-8.0019
▁kunagi	-8.00239
▁tund	-8.00713
▁tänav	-8.0084
▁lugu	-8.00857
▁tulemus	-8.01108
el	-8.01126
▁kohe	-8.01165
▁ema	-8.01352
▁e	-8.01413
▁pere	-8.01672
▁lubama	-8.02381
▁kord	-8.02805
▁valimine	-8.02892
▁kohtuma	-8.0299
▁jätma	-8.03265
▁töötama	-8.03786
▁rahvas	-8.03858
▁maksma	-8.04421
▁kool	-8.04595
▁vanem	-8.05071
▁...	-8.05304
▁ootama	-8.05652
▁milli	-8.05973
eesti	-8.06001
▁kuigi	-8.06798
▁parem	-8.06996
▁abi	-8.07055
▁juures	-8.07316
gi	-8.07366
▁raske	-8.0847
▁põhja	-8.08598
▁endine	-8.08896
▁hoidma	-8.09146
▁õhtu	-8.09167
▁ümber	-8.09279
▁eriti	-8.09447
▁vähemalt	-8.09472
ka	-8.09552
▁panema	-8.09889
▁seotud	-8.09998
▁kümme	-8.10234
▁reformierakond	-8.10483
▁valmis	-8.10645
▁suutma	-8.10871
▁koostöö	-8.11815
▁huvi	-8.12251
▁tartu	-8.12385
▁last	-8.12445
▁seadus	-8.12451
▁alles	-8.12617
▁ligi	-8.12991
▁%	-8.13548
▁üldse	-8.1381
▁pikk	-8.14122
▁kutsuma	-8.14514
▁teinud	-8.14655
lane	-8.14671
▁video	-8.14781
▁praegune	-8.1604
▁seni	-8.164
y	-8.16601
▁eestlane	-8.17076
▁tekkima	-8.17774
▁andmed	-8.17794
▁samas	-8.18258
▁juhtuma	-8.18343
▁tehtud	-8.18583
▁töötaja	-8.18746
▁vähem	-8.19312
▁hoopis	-8.19624
see	-8.19725
▁pea	-8.1988
▁mõistma	-8.19939
▁ülikool	-8.20269
▁amet	-8.20927
▁asuma	-8.21301
▁tunduma	-8.21393
;	-8.21475
▁kindel	-8.21688
▁selge	-8.21838
ministeerium	-8.22157
▁liiga	-8.2269
▁poliitiline	-8.22764
▁jutt	-8.23125
▁meel	-8.23469
▁alustama	-8.23888
▁silm	-8.24046
▁päris	-8.24064
▁uskuma	-8.24125
▁ratas	-8.24223
▁lugema	-8.24584
▁õige	-8.24697
▁soovima	-8.24849
▁20	-8.25064
ad	-8.25931
▁kohtumine	-8.25992
▁valima	-8.25995
▁sõnama	-8.26148
▁tegu	-8.26928
▁isa	-8.27044
▁täis	-8.2715
ik	-8.27227
na	-8.27252
▁seisma	-8.27342
▁looma	-8.27985
▁avalik	-8.28144
▁keegi	-8.28161
▁avaldama	-8.28322
▁paluma	-8.2846
▁arv	-8.28497
▁paar	-8.28738
▁toetama	-8.29037
▁vesi	-8.29191
▁majandus	-8.2929
▁parlament	-8.29359
▁käsi	-8.2949
▁helme	-8.2962
tav	-8.30201
▁ent	-8.30687
▁eri	-8.30781
▁näi	-8.31142
▁saav	-8.31197
▁korral	-8.31834
▁esitama	-8.31848
▁info	-8.32028
▁ajakirjanik	-8.32056
▁lõuna	-8.32146
▁sinna	-8.32298
▁poliitika	-8.32528
▁ühiskond	-8.32741
la	-8.32825
g	-8.32959
▁hääl	-8.32969
▁delf	-8.33252
▁osas	-8.3327
se	-8.33477
▁suvi	-8.33834
▁raamat	-8.34052
▁tegelema	-8.34265
es	-8.34501
▁meedia	-8.34513
▁jür	-8.34514
▁piirkond	-8.34583
▁lennuk	-8.34594
▁otse	-8.347
▁sõber	-8.34794
▁piir	-8.34896
▁rahvusvaheline	-8.35149
▁võim	-8.35225
▁vaba	-8.35416
de	-8.35459
▁pilt	-8.3558
▁muusika	-8.35812
in	-8.35875
▁taas	-8.36011
▁nimetama	-8.36483
▁liikuma	-8.36606
▁muidugi	-8.36613
▁asuv	-8.36938
▁otsima	-8.36998
▁olev	-8.37229
▁film	-8.37297
▁k	-8.37392
▁saar	-8.37486
▁hind	-8.37778
ke	-8.37878
alune	-8.38087
▁pigem	-8.38628
▁hommik	-8.38656
▁partei	-8.38788
▁jäänud	-8.38863
▁minister	-8.38921
▁a	-8.39235
▁püüdma	-8.39522
▁soov	-8.39543
▁kuus	-8.39657
▁terve	-8.40063
▁kõne	-8.40136
▁nõudma	-8.40147
▁täiesti	-8.4054
▁valge	-8.41336
▁läinud	-8.41382
▁esindaja	-8.41802
on	-8.4199
h	-8.42482
▁isamaa	-8.42522
▁10	-8.42544
▁kuhu	-8.42758
sus	-8.43098
▁väit	-8.43533
▁mõlema	-8.43703
gama	-8.44053
likult	-8.44064
▁koht	-8.44155
▁ilmselt	-8.44483
▁isik	-8.44591
▁järel	-8.44726
▁kõrval	-8.44798
▁p	-8.4536
▁suurim	-8.45438
asti	-8.4583
▁laskma	-8.46426
▁r	-8.46466
▁lahendus	-8.46966
▁astuma	-8.47182
▁the	-8.47439
▁vabariik	-8.47443
▁kaudu	-8.47491
▁15	-8.47828
▁leidis	-8.48047
▁juhtum	-8.48216
▁mets	-8.48253
▁suhe	-8.48383
▁ikkagi	-8.48848
▁ida	-8.48973
▁tohti	-8.4913
mis	-8.49138
tus	-8.49368
▁kohal	-8.49562
▁tunnistama	-8.49703
▁mõju	-8.49946
ist	-8.50007
▁toimunud	-8.5001
▁ettepanek	-8.50164
▁kohale	-8.50243
▁osalema	-8.50294
▁tulevik	-8.5036
▁projekt	-8.50604
▁lõpetama	-8.50616
▁haigla	-8.50891
▁rootsi	-8.50907
ed	-8.50965
▁jätkama	-8.50985
▁käigus	-8.51105
▁jah	-8.51117
f	-8.51228
▁ostma	-8.51239
▁mart	-8.51241
▁tähelepanu	-8.51243
▁läti	-8.51277
▁elanik	-8.51316
▁poliitik	-8.51329
▁ukraina	-8.5145
▁välis	-8.51639
▁hulgas	-8.51892
▁vajalik	-8.51981
▁parim	-8.52204
iga	-8.52404
▁30	-8.52628
▁hinnangu	-8.5278
▁plaan	-8.5281
▁kohaselt	-8.5299
ti	-8.53163
tamine	-8.53203
▁võiv	-8.53384
▁juhatus	-8.53471
▁mink	-8.53804
▁arst	-8.53892
▁ameerika	-8.54065
▁vastama	-8.54211
▁antud	-8.54475
▁panna	-8.54677
▁eks	-8.54824
▁üsna	-8.55558
▁suhtes	-8.56031
▁vastus	-8.56039
▁seisukoht	-8.56058
▁ring	-8.56347
il	-8.56349
▁võib	-8.56351
▁moskva	-8.56673
▁ametnik	-8.56878
▁oht	-8.57226
▁tulnud	-8.57652
▁välja	-8.58145
▁mure	-8.58999
▁komisjon	-8.59512
mees	-8.59532
▁tõesti	-8.59673
▁tasu	-8.5992
▁viga	-8.59967
▁tugev	-8.60273
▁kodanik	-8.60289
▁tänane	-8.60292
▁meri	-8.60578
▁t	-8.6059
▁väärtus	-8.60762
maa	-8.60803
uma	-8.60881
▁kasvama	-8.61043
▁kohus	-8.61122
▁200	-8.61516
▁kätte	-8.61605
al	-8.61801
▁hulk	-8.6186
▁kallas	-8.62112
▁tekitama	-8.62575
▁mööda	-8.62723
▁vajadus	-8.63189
▁valik	-8.63391
▁must	-8.6354
▁jälle	-8.63728
▁küla	-8.63742
▁täpselt	-8.63859
▁vähe	-8.6391
▁no	-8.6405
▁lahkuma	-8.64387
▁süsteem	-8.64749
▁saksamaa	-8.65028
▁laev	-8.65188
▁klient	-8.65407
▁oskama	-8.6543
▁12	-8.65484
▁lootma	-8.65539
▁ekspress	-8.65884
▁firma	-8.65908
olla	-8.66011
▁lahti	-8.66157
▁tänavu	-8.66363
▁sotsiaal	-8.66533
▁muutuma	-8.66534
▁liiklus	-8.6671
▁avaldus	-8.66835
▁käis	-8.66943
▁seoses	-8.67029
▁õppima	-8.67069
▁hiina	-8.67691
▁arutama	-8.68158
▁tuhat	-8.68328
▁asemel	-8.6837
▁ala	-8.68522
▁mängima	-8.68578
▁hoone	-8.68654
töö	-8.68775
re	-8.68819
▁august	-8.69218
▁istuma	-8.69357
▁kiiresti	-8.69365
▁laul	-8.69426
▁rõhutama	-8.69428
▁roll	-8.69612
/	-8.69794
ki	-8.69839
▁meenutama	-8.69933
▁süüdistus	-8.70302
▁kasutamine	-8.70304
▁idee	-8.70381
as	-8.70596
ni	-8.70633
▁uurima	-8.70654
▁kirjeldama	-8.70922
korea	-8.71074
▁õnnetus	-8.71267
▁lihtne	-8.71449
▁avama	-8.71567
▁tipp	-8.71575
▁el	-8.71626
it	-8.7167
▁kirik	-8.71814
▁muutus	-8.71833
▁märts	-8.71974
▁arvestama	-8.72005
▁kahju	-8.72095
ee	-8.72126
▁surm	-8.72176
▁putin	-8.72326
▁kokkulepe	-8.7234
▁50	-8.72559
▁kogemus	-8.72633
▁uuring	-8.72776
▁hindama	-8.72864
▁foto	-8.72988
▁kuulma	-8.73051
▁m	-8.73074
▁vastas	-8.73199
▁võrdle	-8.73244
▁meeldima	-8.73546
▁elav	-8.73651
▁usa	-8.73704
▁kõrge	-8.74017
▁kuuluma	-8.74244
▁ots	-8.746
▁jagama	-8.74802
▁poiss	-8.74808
ala	-8.7489
▁mai	-8.75023
▁omanik	-8.7503
▁jõudnud	-8.75254
▁korraldama	-8.75327
▁kilomeeter	-8.75399
▁vale	-8.75605
▁puu	-8.75988
▁donald	-8.7634
▁nato	-8.76392
▁äri	-8.76452
▁korter	-8.76571
▁haridus	-8.76735
▁muutma	-8.76938
▁loodus	-8.7694
▁riiklik	-8.77072
▁toimuv	-8.77185
▁kontroll	-8.773
▁tulev	-8.77573
▁peal	-8.77575
▁kuidagi	-8.77602
▁2	-8.77728
▁tase	-8.77736
▁kolmas	-8.77874
c	-8.77964
▁tervis	-8.78055
▁ajaleht	-8.78318
▁n	-8.78441
▁õpetaja	-8.78767
▁loom	-8.78864
▁aprill	-8.79192
▁teel	-8.79365
▁keskus	-8.79416
▁saabuma	-8.79513
▁juuni	-8.79659
ud	-8.79739
▁vald	-8.79771
me	-8.80115
ing	-8.80292
▁fotod	-8.80341
▁sündmus	-8.80365
▁keeruline	-8.8059
▁arvamus	-8.80702
▁uuesti	-8.81015
▁minut	-8.81552
▁tüdruk	-8.81663
▁maks	-8.81686
▁politseinik	-8.8175
▁suurbritannia	-8.82087
ile	-8.82123
▁telefon	-8.82517
▁eel	-8.82532
▁40	-8.82613
sem	-8.82932
aeg	-8.83414
▁ajalugu	-8.83444
▁käes	-8.83722
▁kuuluv	-8.83731
▁vahe	-8.84386
▁kuritegu	-8.8441
▁peaaegu	-8.84488
▁uks	-8.84621
▁jaanuar	-8.84777
▁juuli	-8.84941
▁soovita	-8.85013
et	-8.85233
si	-8.85369
▁seejärel	-8.8537
▁kaotama	-8.85453
▁kaup	-8.85561
▁ravi	-8.85624
▁kust	-8.85723
▁vabadus	-8.85761
mägi	-8.85836
▁sattuma	-8.86239
▁100	-8.86377
▁kesk	-8.86512
▁pank	-8.86659
▁ainus	-8.86761
▁endiselt	-8.86901
▁uurimine	-8.86951
▁kommenteerima	-8.86984
▁asjaolu	-8.87053
▁koha	-8.87121
▁tänu	-8.87363
?	-8.87431
▁liikumine	-8.87442
▁väiksem	-8.87543
▁hakata	-8.87574
▁tõdema	-8.8761
▁buss	-8.87692
▁veebruar	-8.87701
▁dokument	-8.87933
▁alkohol	-8.8794
▁paistma	-8.88109
▁september	-8.88171
▁veidi	-8.8836
▁enamik	-8.8838
▁ühendus	-8.88516
sse	-8.88579
tatud	-8.88595
▁protsess	-8.88616
▁öö	-8.88713
▁keskmine	-8.8874
▁talv	-8.88864
▁tõstma	-8.8907
▁kaheksa	-8.89217
▁palk	-8.89267
▁maantee	-8.89306
▁ase	-8.89316
keskus	-8.89343
▁martin	-8.89392
▁sadama	-8.89449
▁sõiduk	-8.89474
aasta	-8.8994
▁puudu	-8.89942
▁tagajärg	-8.90331
▁kaduma	-8.90332
▁teenus	-8.90375
sid	-8.9043
▁turg	-8.90455
üha	-8.90483
▁narva	-8.90603
▁tihti	-8.90607
▁surema	-8.90863
▁piisavalt	-8.90983
▁ehitama	-8.91214
▁pärnu	-8.91222
li	-8.91238
▁seal	-8.91403
üks	-8.91788
▁tõusma	-8.91793
▁grupp	-8.9186
▁ohver	-8.92041
▁õnn	-8.92047
▁jõud	-8.92127
▁maal	-8.92375
▁selg	-8.92417
▁leping	-8.92436
▁tuntud	-8.92716
▁kõrgem	-8.92742
▁allikas	-8.93239
um	-8.93261
▁omavalitsus	-8.93416
est	-8.93465
▁pan	-8.93486
▁selgus	-8.93519
2	-8.93688
▁briti	-8.93793
▁toona	-8.94042
▁kandidaat	-8.94135
▁nägu	-8.94175
▁intervjuu	-8.94249
▁välisminister	-8.94357
▁ba	-8.94402
en	-8.94554
▁viitama	-8.94563
▁lähedal	-8.94611
▁keha	-8.94664
▁suu	-8.94807
▁teadus	-8.94829
▁andnud	-8.95014
3	-8.95049
▁kaitsema	-8.95163
▁energia	-8.95327
ega	-8.956
minister	-8.95804
ar	-8.95847
▁18	-8.95861
▁sõda	-8.95897
▁samm	-8.96002
▁tütar	-8.96082
▁peamine	-8.96109
am	-8.96424
▁saamine	-8.96428
▁tasuma	-8.96647
▁meeter	-8.96802
▁ülesanne	-8.96882
imine	-8.96884
▁möödunud	-8.97119
▁mullu	-8.97261
im	-8.97341
▁mari	-8.97408
▁l	-8.97572
▁võtnud	-8.97581
▁2017.	-8.97864
▁seitse	-8.97872
▁süüdistama	-8.97943
nd	-8.9806
▁13	-8.9817
▁vara	-8.98197
▁isiklik	-8.98201
koht	-8.98334
▁advokaat	-8.98343
▁savisaar	-8.98353
▁koalitsioon	-8.98523
▁aastane	-8.98544
▁igasugu	-8.98658
▁valdkond	-8.98808
ge	-8.98962
▁julgeoleku	-8.98997
▁-	-8.99029
▁sajand	-8.99057
▁suunas	-8.99081
▁nimel	-8.99103
▁õnnestu	-8.99533
▁tõsine	-8.99669
▁kandma	-8.99789
▁v	-8.99856
▁värske	-8.99874
▁prantsusmaa	-8.99878
poliitika	-8.99896
▁süüria	-8.99987
▁bbc	-9.00107
▁perekond	-9.00127
▁kasu	-9.002
—	-9.00257
▁varasem	-9.00281
▁ilmuma	-9.00406
▁ühine	-9.00436
▁pärit	-9.00449
▁14	-9.00619
▁25	-9.00632
▁sealhulgas	-9.00788
▁üritus	-9.00953
▁organisatsioon	-9.01124
▁ettevõtja	-9.01161
▁venelane	-9.0122
▁laud	-9.01346
▁juhtimine	-9.01386
▁tavaline	-9.01432
▁süüd	-9.01457
▁elus	-9.01787
▁esinema	-9.01839
▁sarnane	-9.02042
▁ruum	-9.02135
juht	-9.02314
ia	-9.02359
▁muutunud	-9.02396
▁vangla	-9.02627
▁sügis	-9.02661
▁tuttav	-9.02688
▁kohtu	-9.02699
▁järele	-9.02734
▁reede	-9.02818
▁natuke	-9.02833
▁d	-9.0294
▁justkui	-9.02943
▁lausa	-9.02995
▁prokuratuur	-9.03015
▁materjal	-9.03129
▁toime	-9.0315
▁müüma	-9.03162
▁eelarve	-9.03347
▁kampaania	-9.03494
▁artikkel	-9.03512
7	-9.03612
▁tähtis	-9.03652
▁abikaasa	-9.03702
▁saks	-9.03733
▁urm	-9.03809
▁loomulikult	-9.03821
▁ilus	-9.03832
ri	-9.03923
▁kaitse	-9.04082
▁sõnum	-9.04099
▁pääsema	-9.04116
iline	-9.04189
süsteem	-9.04247
▁kolleeg	-9.04306
▁toimetama	-9.04349
ev	-9.04401
▁kukkuma	-9.04469
▁väidetav	-9.04513
▁valija	-9.04589
▁käinud	-9.04627
▁november	-9.04685
▁tegutsema	-9.049
ra	-9.04923
▁põhi	-9.05003
▁ehitus	-9.05095
▁karistus	-9.05144
▁oktoober	-9.05147
▁pood	-9.0519
▁sageli	-9.05211
▁haigus	-9.05339
▁patsient	-9.05402
▁keskkonna	-9.05419
▁teatud	-9.05496
an	-9.05514
▁linna	-9.05718
▁ohtlik	-9.05742
▁areng	-9.05751
▁pealinn	-9.05794
▁tõenäoliselt	-9.05887
▁pressiesindaja	-9.05971
▁pealt	-9.06158
▁5	-9.06191
ko	-9.0634
▁too	-9.06385
▁üritama	-9.06408
▁2016.	-9.06526
ele	-9.06608
▁heaks	-9.0703
▁helistama	-9.07068
▁autor	-9.07111
▁juhataja	-9.07118
▁hiljuti	-9.07146
▁uudis	-9.07183
▁riigi	-9.07236
▁nimekiri	-9.07301
▁meeskond	-9.07418
▁tingimus	-9.07513
▁kontsert	-9.07731
▁17	-9.07952
▁tänapäev	-9.0796
▁öelnud	-9.08004
▁kõrvale	-9.08044
▁avalikkus	-9.08053
z	-9.0815
▁kivi	-9.08196
▁ole	-9.08351
▁ametlik	-9.08403
▁üro	-9.08454
▁kontrollima	-9.08532
ide	-9.08673
▁19	-9.08698
▁number	-9.08743
▁11	-9.08758
ku	-9.09058
eks	-9.09084
▁vladimir	-9.09262
▁kiire	-9.09289
olema	-9.09458
▁süda	-9.0971
▁vee	-9.09713
▁fraktsioon	-9.09909
▁kim	-9.10073
▁lood	-9.10118
▁vastutus	-9.10311
▁nimelt	-9.10483
▁balti	-9.10485
politsei	-9.10627
▁tõsi	-9.10817
▁abil	-9.10842
▁sotsiaalmeedia	-9.10861
▁new	-9.10976
ö	-9.11
▁toode	-9.11044
▁paremini	-9.11196
▁nõus	-9.11201
▁dollar	-9.11439
▁mäng	-9.11539
▁liiklusõnnetus	-9.11593
▁sisu	-9.11632
kus	-9.11647
vesi	-9.11772
aja	-9.11803
▁tõmbama	-9.11836
▁reisija	-9.11945
▁kaja	-9.12097
▁koer	-9.12185
▁sündima	-9.12328
▁avatud	-9.1243
▁punane	-9.1263
▁jääv	-9.12689
▁märk	-9.12821
▁puudutama	-9.12937
▁jalg	-9.13097
▁leht	-9.13102
nu	-9.13113
▁külm	-9.13234
▁f	-9.13259
▁võimaldama	-9.13436
▁väide	-9.13476
▁ajakirjandus	-9.13847
euroopa	-9.14028
▁kuulama	-9.14062
▁vahele	-9.14074
▁rahu	-9.14172
vaheline	-9.14318
1	-9.14336
▁kesklinn	-9.1436
▁nõu	-9.14405
at	-9.14439
liselt	-9.14494
▁b	-9.14588
▁detsember	-9.14701
▁kavatse	-9.14924
▁kohtunik	-9.15107
▁g	-9.15219
▁rata	-9.15362
▁3	-9.15441
▁lava	-9.15481
▁programm	-9.15517
▁jälgima	-9.15653
▁news	-9.15836
▁miljard	-9.1586
▁lendama	-9.16022
▁riigipea	-9.16306
▁plaanima	-9.16308
ro	-9.1635
▁mäletama	-9.16375
▁kohustus	-9.16402
▁1.	-9.16428
▁sööma	-9.16638
▁poola	-9.16658
lus	-9.16719
lo	-9.16901
▁kevade	-9.1697
▁ründama	-9.17113
▁kaitsevägi	-9.17169
▁tartus	-9.17204
lema	-9.17206
j	-9.17262
▁roheline	-9.17314
▁16	-9.17367
▁võetud	-9.17373
▁itaalia	-9.17497
▁võrra	-9.17554
!	-9.1767
▁kulu	-9.17776
mist	-9.17888
iv	-9.17932
▁reinsalu	-9.1799
▁kriminaal	-9.1809
▁reegel	-9.18109
▁eriline	-9.1818
▁al	-9.18228
▁sise	-9.18258
▁läbirääkimine	-9.18391
▁reis	-9.18619
▁4	-9.1863
▁lahkumine	-9.18643
▁tuul	-9.18666
▁kahtlus	-9.18724
▁andres	-9.18764
▁istung	-9.19353
▁mõjutama	-9.19456
päev	-9.19502
▁kaljul	-9.19587
▁kultuur	-9.19876
▁alt	-9.19972
riik	-9.20633
▁järjest	-9.20639
ult	-9.21085
▁kuul	-9.21254
▁liin	-9.21382
tee	-9.21504
▁arutelu	-9.21509
▁plaat	-9.21513
▁au	-9.21548
▁sada	-9.2172
▁eraldi	-9.21824
▁käitumine	-9.21971
▁kirjama	-9.22232
▁halb	-9.22436
▁lugeja	-9.2249
▁käi	-9.22593
lugu	-9.22618
▁võitma	-9.22625
▁julgeolek	-9.22667
▁relv	-9.2272
▁kala	-9.22773
▁siit	-9.22823
▁katse	-9.22825
aks	-9.22856
▁konkreetne	-9.23012
▁vähendama	-9.23119
▁teos	-9.23171
tult	-9.23388
▁huvitav	-9.23752
▁pidevalt	-9.23791
▁seis	-9.23826
ba	-9.23886
▁lisa	-9.24111
ur	-9.24163
▁inimest	-9.24243
▁laupäev	-9.24447
▁teadlane	-9.24474
ng	-9.24502
▁puhas	-9.2452
▁üheksa	-9.24564
no	-9.24597
▁hotell	-9.24677
▁mõeldud	-9.24777
▁võitlus	-9.24782
▁la	-9.24878
▁eelkõige	-9.25022
▁lausuma	-9.25229
▁kohta	-9.25318
▁rünnak	-9.25324
▁loobuma	-9.25409
▁kiirus	-9.25506
▁kogus	-9.25582
▁helsingi	-9.25647
▁muudatus	-9.25729
▁põhjal	-9.25751
š	-9.25752
▁keskkond	-9.25764
▁vägivald	-9.2579
sa	-9.258
▁leidnud	-9.25811
▁avastama	-9.25913
▁kujutama	-9.25937
▁tõend	-9.26083
▁facebook	-9.26148
–	-9.26176
▁metsa	-9.26242
▁direktor	-9.26274
▁rikkumine	-9.26387
▁selgelt	-9.26432
pärane	-9.26513
▁kaua	-9.26564
▁korduvalt	-9.26597
▁nenti	-9.26701
▁araabia	-9.26719
▁tabama	-9.26777
▁jätkuv	-9.26821
▁presidendi	-9.26842
▁sõiduauto	-9.26874
▁siia	-9.26912
▁kunstnik	-9.26923
▁peamiselt	-9.26952
▁kultuuri	-9.27245
▁kuulutama	-9.27282
▁mere	-9.27371
▁valgus	-9.27375
▁teadmine	-9.27481
▁teenima	-9.27504
vastane	-9.27555
▁rahvus	-9.27676
ap	-9.27699
4	-9.27777
ju	-9.27796
▁suurus	-9.27842
test	-9.28007
▁eurot	-9.28109
teine	-9.28113
vad	-9.28243
▁jätkuma	-9.28269
tallinna	-9.28569
▁langema	-9.28716
w	-9.28868
▁8	-9.28879
▁hukku	-9.29278
to	-9.29424
ha	-9.29441
▁tekkinud	-9.29598
5	-9.29755
▁töötav	-9.29851
▁paber	-9.30046
▁esitatud	-9.30079
▁märkama	-9.30085
▁lähedane	-9.30258
▁kaaluma	-9.3029
▁poeg	-9.30336
▁muidu	-9.30407
▁to	-9.30548
▁1	-9.30591
▁tühi	-9.30742
▁indrek	-9.30837
▁lükkama	-9.30901
▁peo	-9.30928
▁võime	-9.30935
▁ministeerium	-9.30959
▁saadik	-9.31238
▁rida	-9.31251
▁re	-9.31278
▁menetlus	-9.31478
▁selguma	-9.31557
sema	-9.31659
▁kasvanud	-9.31751
▁tore	-9.31758
▁saam	-9.31765
▁eelnõu	-9.31918
▁esile	-9.31937
▁lääne	-9.31943
▁raadio	-9.32063
▁tavaliselt	-9.32131
6	-9.32281
▁positiivne	-9.32371
▁luud	-9.32398
▁kinnisvara	-9.32563
▁kasutus	-9.3268
▁omavahel	-9.32686
▁vaim	-9.32745
ut	-9.32746
▁pandud	-9.32962
▁lahendama	-9.33097
▁järjekord	-9.33251
▁leppima	-9.33323
▁nn	-9.33596
▁toit	-9.33667
▁jaan	-9.33695
▁osakond	-9.33795
▁igaüks	-9.3408
korda	-9.34138
▁kuulus	-9.34138
▁aken	-9.34195
ve	-9.34269
▁leedu	-9.34279
▁põhjama	-9.34437
▁kersti	-9.34439
▁ammu	-9.34459
▁aine	-9.3446
▁keelduma	-9.3468
kiri	-9.34706
son	-9.34892
▁partner	-9.34953
▁vastav	-9.34968
▁lennujaam	-9.35012
▁vend	-9.35288
▁müük	-9.35344
▁ülejäänud	-9.35351
▁informatsioon	-9.35522
▁sõit	-9.35565
▁pikem	-9.35637
▁liidus	-9.35667
▁sobiv	-9.35763
▁külastama	-9.35798
▁määrama	-9.35816
un	-9.359
▁album	-9.3606
▁raudtee	-9.36086
▁nahk	-9.36224
▁vedama	-9.36313
▁vist	-9.36313
▁tekst	-9.36334
▁lootus	-9.36423
▁paraku	-9.36465
▁linnapea	-9.36491
▁volikogu	-9.36585
▁tuba	-9.3663
▁oluliselt	-9.36665
▁vastane	-9.36674
di	-9.36783
▁mägi	-9.36859
▁sobima	-9.36961
nii	-9.37002
▁esmaspäev	-9.37033
▁hakkav	-9.37036
▁vä	-9.37047
▁mulje	-9.37061
▁valla	-9.37118
▁teater	-9.37208
▁talu	-9.37292
▁heli	-9.37305
▁õpilane	-9.37323
▁näide	-9.37373
maja	-9.37401
▁hääletama	-9.37449
▁töökoht	-9.37466
▁soe	-9.37638
va	-9.37662
elu	-9.37769
▁kadunud	-9.37769
küsimus	-9.37782
▁tehas	-9.37791
▁madal	-9.37899
▁kõlama	-9.37927
▁siseminister	-9.37985
▁arve	-9.38
pa	-9.38099
▁lubatud	-9.38101
▁2015.	-9.3822
▁kallis	-9.38233
▁oskus	-9.38283
lisama	-9.38427
▁tulekahju	-9.3843
ettevõte	-9.38447
▁häda	-9.38479
▁soo	-9.38801
or	-9.38854
▁käest	-9.38968
00	-9.38999
kond	-9.39007
tel	-9.39013
▁lööma	-9.39167
▁60	-9.39207
▁vang	-9.3927
▁hispaania	-9.39405
▁olulisem	-9.39477
▁silma	-9.39596
inimene	-9.39613
▁vältima	-9.39794
▁vastavalt	-9.39938
▁tabel	-9.40107
pärast	-9.4014
▁kaitsma	-9.40165
▁põhimõte	-9.40186
▁kahjuks	-9.40226
tele	-9.4025
▁21	-9.4045
▁korraga	-9.40526
▁proovima	-9.40529
▁lumi	-9.40663
▁täielik	-9.40992
▁millal	-9.41271
▁sh	-9.41291
valimine	-9.41462
amet	-9.41494
▁hoolimata	-9.41507
▁kinnitus	-9.4166
▁mõistlik	-9.41681
av	-9.41796
▁rakett	-9.41797
▁suutnud	-9.41848
kama	-9.41862
▁ekspert	-9.4187
▁rong	-9.41953
▁türgi	-9.42138
▁konflikt	-9.4221
▁saade	-9.42218
▁kiitma	-9.42241
▁pikalt	-9.42265
▁kehtima	-9.42375
olev	-9.42857
▁edu	-9.42868
▁24	-9.42972
▁7	-9.43032
asi	-9.43034
pood	-9.43125
▁ulatus	-9.43322
▁öösel	-9.43352
▁kommentaar	-9.43377
▁pension	-9.43393
▁sees	-9.43773
▁saavutama	-9.43814
▁täielikult	-9.43865
tanud	-9.44178
▁lo	-9.44197
▁tõus	-9.44211
▁kandideerima	-9.44429
▁70	-9.4452
ent	-9.44548
▁lõppema	-9.44608
▁täitma	-9.44711
▁sõdur	-9.44722
▁toom	-9.44764
▁lubadus	-9.44855
teenus	-9.44982
stamine	-9.44996
▁nõue	-9.45036
▁siiani	-9.45117
▁kirjas	-9.45197
▁in	-9.45236
▁suunama	-9.45269
kuidas	-9.45285
▁vahetama	-9.4534
▁kasv	-9.45398
▁töötanud	-9.45469
kk	-9.45527
▁äkki	-9.45546
▁tegelane	-9.45562
firma	-9.45565
▁and	-9.45567
▁punkt	-9.45604
▁vabaerakond	-9.45699
▁klass	-9.4579
▁sein	-9.45815
▁vahend	-9.45918
▁jaak	-9.45931
ol	-9.46029
▁taust	-9.46109
▁loomis	-9.46117
ss	-9.46129
▁moodustama	-9.46154
▁kunst	-9.46207
otsiaaldemokraat	-9.46299
▁ilmunud	-9.46341
juures	-9.46385
▁sõja	-9.4642
▁alu	-9.46424
▁sõjali	-9.46669
▁viibima	-9.4687
▁lend	-9.46886
▁üksik	-9.47014
▁tehnoloogia	-9.47042
▁2018.	-9.4705
ruum	-9.47175
▁pöörduma	-9.47206
▁vahepeal	-9.4726
▁ravim	-9.47454
▁err	-9.47476
▁kooli	-9.47548
▁put	-9.47587
▁ost	-9.47662
▁22	-9.47668
▁6	-9.47674
▁edaspidi	-9.47737
▁rahvuslik	-9.4774
▁9	-9.47748
▁sisuliselt	-9.47757
▁internet	-9.47881
▁üllatus	-9.47908
▁juhtunu	-9.47941
▁määr	-9.4805
▁kriis	-9.48067
▁jne	-9.48108
▁meelest	-9.48212
▁kanal	-9.48265
▁jumal	-9.48378
▁põlema	-9.48435
▁oü	-9.48459
▁side	-9.48462
▁iraani	-9.48551
▁pisut	-9.48591
▁prokurör	-9.48604
▁jooksma	-9.48637
▁kerge	-9.48723
▁korras	-9.48787
ts	-9.48811
▁lähe	-9.48819
dma	-9.48924
▁kuluma	-9.48927
▁sots	-9.48972
▁õhk	-9.49056
komisjon	-9.49269
▁may	-9.49311
▁sa	-9.49328
os	-9.49376
▁keelatud	-9.4945
▁kontakt	-9.49625
▁c	-9.49675
▁vaade	-9.49753
▁2018	-9.4976
▁operatsioon	-9.49871
▁peet	-9.49908
▁võitlema	-9.49918
kogu	-9.49998
▁sündinud	-9.50163
vi	-9.50203
▁armastus	-9.50364
8	-9.50401
seadus	-9.50553
▁lühike	-9.50734
▁finants	-9.50788
▁viskama	-9.50853
▁taga	-9.50855
x	-9.50922
bi	-9.50951
▁naaber	-9.50973
▁90	-9.51059
▁ühendriik	-9.51166
▁venekeelne	-9.51186
▁noormees	-9.51293
▁sellepärast	-9.51334
▁kvaliteet	-9.51359
▁tunne	-9.51409
▁mujal	-9.51464
▁tamm	-9.51579
▁positsioon	-9.51738
▁liitlane	-9.51792
ul	-9.51793
▁kommunikatsioon	-9.51802
▁'	-9.51842
▁konto	-9.52063
▁loodud	-9.52084
pi	-9.52084
kool	-9.52119
▁rein	-9.52246
sk	-9.5233
▁üksnes	-9.52335
▁sõltuma	-9.52337
▁tootma	-9.52348
▁ometi	-9.52377
mann	-9.52635
▁näitus	-9.52718
▁põhiseadus	-9.52755
▁algul	-9.52812
▁tele	-9.52867
ema	-9.53031
▁kogukond	-9.5309
▁pühapäev	-9.53096
▁leitud	-9.531
▁andmine	-9.53168
▁näitleja	-9.53169
▁masin	-9.53243
▁sanktsioon	-9.53404
▁järgne	-9.535
▁nõunik	-9.53502
▁kaljulaid	-9.5361
▁koalitsiooni	-9.53666
▁hakanud	-9.5371
▁tagant	-9.53831
▁nädalavahetus	-9.53873
&	-9.53975
▁hoiatama	-9.54017
▁käiv	-9.54076
▁lahkus	-9.54092
▁j	-9.54216
▁aina	-9.54289
uuring	-9.54397
▁hinnang	-9.54486
▁fakt	-9.54501
▁toidu	-9.54695
▁kahtlustama	-9.54822
▁taav	-9.5484
▁asukoht	-9.54895
tega	-9.54904
▁rand	-9.54941
▁tava	-9.54951
▁seadma	-9.55057
▁valmistama	-9.55156
▁spordi	-9.55306
▁analüüs	-9.5537
▁me	-9.55465
▁pakkumine	-9.55486
▁tõsiselt	-9.55564
▁sai	-9.55598
▁vaidlus	-9.55599
miseks	-9.556
▁aus	-9.55641
▁estonia	-9.55803
umine	-9.55805
▁konservatiivne	-9.55835
▁keskendu	-9.5585
osa	-9.55912
▁periood	-9.55977
▁väljakutse	-9.5598
▁nais	-9.56004
gu	-9.56007
▁raport	-9.56071
ak	-9.56115
▁twitter	-9.56192
em	-9.56217
▁värv	-9.56311
▁taotlus	-9.56378
▁riie	-9.56517
raha	-9.56595
▁väljas	-9.56649
▁maailma	-9.56672
▁puudus	-9.56752
▁restoran	-9.56766
▁surve	-9.5677
▁siim	-9.56772
▁pruuki	-9.5679
▁sergei	-9.56793
▁kodune	-9.5682
▁korralik	-9.56854
▁suhtlema	-9.56869
▁tulu	-9.56875
▁palka	-9.56876
saar	-9.56921
▁moel	-9.56924
▁reklaam	-9.56938
▁vaatamata	-9.56986
▁lipp	-9.57079
tund	-9.57187
▁võõras	-9.57282
▁kaugusel	-9.57284
▁esi	-9.57421
▁inim	-9.57448
▁päästja	-9.57566
▁h	-9.57618
▁saatkond	-9.57662
▁23	-9.57805
▁kodumaa	-9.57826
▁teha	-9.57832
▁tahtnud	-9.57854
▁jää	-9.57856
▁esialgu	-9.58014
pressikonverents	-9.58045
▁mälestus	-9.58143
▁ameeriklane	-9.5815
▁kava	-9.58187
▁kand	-9.58362
▁fond	-9.58386
▁territoorium	-9.58408
@	-9.58424
▁kaasas	-9.58484
▁päästma	-9.58582
ane	-9.58604
▁aadress	-9.58789
▁valimisi	-9.58816
▁reuters	-9.5892
töötaja	-9.59127
▁üldiselt	-9.59147
▁kartma	-9.59173
▁üksi	-9.59229
▁alg	-9.59243
▁inglise	-9.59281
eid	-9.59339
▁rõõm	-9.59352
▁lind	-9.59406
▁viljandi	-9.59595
▁laste	-9.59684
▁prantsuse	-9.59745
kõik	-9.59756
▁põhjustama	-9.59763
▁rahva	-9.59786
▁lihtsam	-9.59828
▁küsitlus	-9.59845
▁jooma	-9.59873
▁aed	-9.59894
▁2014.	-9.59909
statud	-9.59966
▁suurepärane	-9.60167
▁tüüp	-9.60294
▁korraldus	-9.60361
▁500	-9.60377
▁india	-9.60377
▁aas	-9.60419
▁paiku	-9.60431
▁laine	-9.60655
▁niimoodi	-9.60691
▁seisund	-9.60967
▁peagi	-9.60974
▁rahul	-9.6098
▁seekord	-9.60996
▁of	-9.61014
nõukogu	-9.61026
▁haige	-9.61051
▁tegelik	-9.61114
▁päevaleht	-9.61133
▁kurss	-9.61166
puu	-9.6127
▁toetaja	-9.61332
▁suurendama	-9.61337
▁ajalooline	-9.61347
▁iisraeli	-9.61371
▁tõeli	-9.61378
▁lään	-9.61417
liit	-9.61525
organisatsioon	-9.61636
▁laulma	-9.61657
▁homme	-9.61673
▁park	-9.61695
▁aja	-9.61777
▁juhtunud	-9.61836
▁jõgi	-9.61897
▁sisaldama	-9.62
▁koosolek	-9.62044
▁sünnipäev	-9.62085
turg	-9.62224
▁pannud	-9.62264
▁kõva	-9.62318
▁le	-9.62434
sed	-9.62639
▁normaalne	-9.62641
▁meeleavaldus	-9.62645
sam	-9.62851
▁raames	-9.62923
valitsus	-9.62943
ov	-9.63049
▁kino	-9.63204
▁rahapesu	-9.63258
▁postimees	-9.63298
programm	-9.63344
▁ühis	-9.63424
▁kannatama	-9.63472
be	-9.63564
taja	-9.636
▁saaremaa	-9.63628
9	-9.63663
▁tohutu	-9.63676
▁turist	-9.63752
▁suursaadik	-9.63781
▁vestlus	-9.63791
▁hunt	-9.63841
▁kaart	-9.6385
trump	-9.63878
▁käim	-9.63911
leht	-9.63921
▁valitud	-9.63921
uks	-9.63938
▁külaline	-9.63982
▁pinge	-9.64102
▁võistlus	-9.64103
▁järv	-9.64113
▁visiit	-9.64151
▁o	-9.64153
▁ületama	-9.64174
▁hirm	-9.64202
▁instituut	-9.6422
▁erakorrali	-9.6425
▁era	-9.64412
▁edukas	-9.64479
▁püsima	-9.64533
▁põlvkond	-9.64593
▁varsti	-9.64605
▁pole	-9.64632
▁80	-9.6466
▁lemmik	-9.64749
▁abielu	-9.64757
tänama	-9.64953
▁28	-9.64979
takse	-9.64995
▁seeder	-9.64999
▁eriala	-9.65017
▁panti	-9.65066
▁kraad	-9.65175
▁põnev	-9.65342
kaart	-9.65352
mima	-9.65378
sõna	-9.65448
▁uurija	-9.65496
▁laulupeo	-9.65613
▁põhjendama	-9.65662
▁äärmiselt	-9.65744
▁kunsti	-9.65762
▁hing	-9.65821
▁julgema	-9.65824
▁ii	-9.65833
▁peeter	-9.65906
▁lennu	-9.66053
▁nädala	-9.66059
▁ilves	-9.66084
▁35	-9.662
▁ama	-9.66208
oma	-9.66225
▁km	-9.66264
▁karm	-9.66444
▁koguma	-9.66475
▁kaitseminister	-9.66524
▁autojuht	-9.66551
▁tähistama	-9.6664
▁post	-9.66761
▁neljas	-9.66826
▁pöörama	-9.66852
leping	-9.66878
ina	-9.66879
man	-9.66973
▁tuleva	-9.66986
▁noorem	-9.67082
kell	-9.67112
▁demokraatia	-9.6716
▁maine	-9.67242
▁vabatahtlik	-9.67278
▁peatama	-9.6739
▁summ	-9.67402
mo	-9.67433
kord	-9.67568
▁maakond	-9.67638
▁tööandja	-9.6764
▁õpetama	-9.67643
▁liha	-9.67781
poolne	-9.6779
▁muuseum	-9.67859
▁saa	-9.67861
▁festival	-9.67908
▁aktiivne	-9.67916
▁washington	-9.67999
▁õhu	-9.68067
▁riigieelarve	-9.6818
▁eelda	-9.68213
mets	-9.68318
▁linnavalitsus	-9.68321
▁soomlane	-9.68347
des	-9.68415
▁tuvastama	-9.6849
▁lasteaed	-9.68511
õigus	-9.68645
▁piiri	-9.68707
▁luure	-9.68727
▁taim	-9.68847
▁tõepoolest	-9.68851
▁tutvustama	-9.6886
▁kannatanu	-9.68896
tema	-9.6892
kima	-9.68977
▁välismaal	-9.69082
▁ähvardama	-9.69118
▁kuskil	-9.69123
▁õnnelik	-9.69225
▁kõigepealt	-9.69248
▁osariik	-9.69329
▁seltskond	-9.69358
▁kasvatama	-9.69434
projekt	-9.69456
▁publik	-9.69504
▁parandama	-9.69531
▁ühtlas	-9.69617
▁liituma	-9.69675
▁ühinema	-9.69737
▁ossinovsk	-9.69743
▁ev	-9.70058
▁muutmine	-9.70071
▁avalikult	-9.70118
▁sundima	-9.70238
▁kohama	-9.7024
▁korrus	-9.70278
▁opositsioon	-9.70317
▁esialgne	-9.70375
▁asutus	-9.70502
▁poja	-9.70506
ž	-9.70644
▁saut	-9.70781
▁päeva	-9.70791
stama	-9.70796
▁esma	-9.70827
co	-9.70845
▁seletama	-9.7085
▁kohapeal	-9.70883
▁püha	-9.70883
▁füüsili	-9.70895
▁lai	-9.70918
ho	-9.7093
▁rääkinud	-9.70944
▁u	-9.70945
▁karjäär	-9.70958
▁ehitamine	-9.70971
▁ülem	-9.71024
▁ühe	-9.71101
▁eestikeelne	-9.71134
▁kodakondsus	-9.71134
▁sild	-9.71281
▁päike	-9.71387
▁õppus	-9.71444
▁kaubandus	-9.71513
▁ava	-9.71513
▁võidu	-9.71552
▁seos	-9.71626
▁väljendama	-9.7167
▁sulgema	-9.7174
▁kriitika	-9.71748
▁aastapäev	-9.71845
do	-9.71962
▁mark	-9.71985
▁ükskõik	-9.72115
▁investeering	-9.72168
virumaa	-9.72173
ini	-9.72218
▁kirjanik	-9.72301
▁kahe	-9.72564
▁spetsialist	-9.72699
▁piisa	-9.72733
▁vägi	-9.72894
▁kolima	-9.72907
▁x	-9.72922
▁korraldamine	-9.72923
▁suhtumine	-9.72936
▁samamoodi	-9.72987
▁iseseisvus	-9.73042
hind	-9.73076
▁aastakümme	-9.73213
▁ääres	-9.73333
▁toimima	-9.73366
▁ve	-9.73413
▁maht	-9.73426
▁põld	-9.73481
ste	-9.73503
▁põllumajandus	-9.7351
▁ristmik	-9.73522
maailm	-9.73602
▁tegutsev	-9.73726
▁kasutaja	-9.73777
▁veri	-9.73989
▁koosseis	-9.74
▁külg	-9.74032
▁vastuvõtt	-9.74074
▁tehniline	-9.74096
pea	-9.74108
▁uudistekanal	-9.74193
ika	-9.74356
▁tootmine	-9.74361
▁toonud	-9.7437
▁samasugune	-9.74485
▁filmima	-9.74508
väli	-9.74597
dus	-9.7461
▁keskel	-9.74634
▁filmi	-9.74696
▁täiendav	-9.74696
▁pro	-9.74701
▁päritolu	-9.74748
▁taani	-9.74805
▁kippu	-9.74953
▁demokraatlik	-9.74955
▁arvuti	-9.74965
▁enamus	-9.74979
▁oli	-9.74981
▁neljapäev	-9.75001
▁hinge	-9.75013
▁tapma	-9.75028
▁lähtuma	-9.75046
▁kiri	-9.75077
▁tavapärane	-9.75126
▁vastupidi	-9.75251
ch	-9.75258
▁teatav	-9.75326
▁300	-9.75339
▁tule	-9.75342
▁võit	-9.75354
▁arusaam	-9.75357
▁mainima	-9.75403
▁co	-9.75449
▁mõrv	-9.75463
▁veetma	-9.755
▁lapsevanem	-9.75506
▁iseenese	-9.75525
▁püsti	-9.75652
▁pähe	-9.7569
▁kohati	-9.75746
▁alternatiiv	-9.75751
▁heitma	-9.75764
justiitsminister	-9.75774
▁laur	-9.7578
▁dr	-9.75805
teenistus	-9.75903
▁joove	-9.75914
▁viru	-9.76017
▁surnud	-9.7613
▁matt	-9.76195
▁elanud	-9.76242
▁eestimaa	-9.76256
▁süü	-9.76264
▁valu	-9.76436
mäng	-9.76715
▁õde	-9.76762
▁ebaseaduslik	-9.76797
nik	-9.76822
▁juhtiv	-9.77017
▁ha	-9.77112
▁teekond	-9.77122
▁pind	-9.77131
▁uhke	-9.7716
kuigi	-9.77169
▁demokraat	-9.77171
erakond	-9.7718
▁tippkohtumine	-9.77217
▁austria	-9.77234
▁juurdlus	-9.77256
▁klubi	-9.7728
▁büroo	-9.77304
▁korruptsiooni	-9.7732
▁leiduma	-9.77419
▁va	-9.77423
▁katus	-9.77534
▁reageerima	-9.7775
▁sattunud	-9.77756
probleem	-9.77763
▁arendamine	-9.77769
▁tapmine	-9.77783
▁proov	-9.77796
▁toim	-9.77813
▁viimati	-9.7784
▁üldi	-9.77961
▁kandis	-9.7799
samas	-9.78029
▁kolmapäev	-9.78069
▁naerma	-9.78074
▁kriitiline	-9.78182
▁austraalia	-9.78216
▁magama	-9.78242
▁st	-9.78261
▁panus	-9.78265
▁linnaosa	-9.78274
▁päriselt	-9.78346
▁kirjutatud	-9.78356
▁raja	-9.78367
▁na	-9.78442
▁nurk	-9.78526
palju	-9.78655
▁rajama	-9.7875
▁su	-9.78848
▁joon	-9.78868
▁levima	-9.78878
▁vahistama	-9.78896
▁paika	-9.78909
▁tükk	-9.78917
▁elektri	-9.78925
punkt	-9.7905
▁26	-9.79116
▁tüli	-9.79121
▁gruusia	-9.79251
▁kehtestama	-9.79323
▁põleng	-9.79341
▁üksteise	-9.79472
kohus	-9.7954
ab	-9.79549
▁üli	-9.79554
▁ülevaade	-9.79567
▁vaataja	-9.79597
▁liikmesriik	-9.79666
▁erakordne	-9.79689
jõud	-9.79697
▁amp	-9.79745
▁saadetud	-9.79773
▁nähtud	-9.79902
▁sadam	-9.79932
▁priit	-9.80015
▁vastuolu	-9.80082
▁london	-9.80085
▁teisipäev	-9.8011
berg	-9.80159
▁ca	-9.80254
tab	-9.80323
▁armastama	-9.80324
▁seda	-9.80343
▁be	-9.804
▁sotsiaalne	-9.80487
▁kiirabi	-9.80499
▁ettevõtlus	-9.80507
▁vähene	-9.80586
ru	-9.80609
▁õhku	-9.80741
▁võtmine	-9.80775
▁näitav	-9.80795
▁juhtkond	-9.8097
▁delfi	-9.80993
▁täpne	-9.81128
tegevus	-9.81199
▁haigekassa	-9.812
▁pime	-9.81202
▁aseesimees	-9.81231
▁unustama	-9.81324
▁puudutav	-9.81369
▁maaleht	-9.81372
▁tehnika	-9.81407
▁kasutatud	-9.81494
tnud	-9.81498
0	-9.81529
▁"	-9.81567
▁ütlev	-9.81589
▁tark	-9.81727
▁majanduslik	-9.81733
sh	-9.81755
▁hääletus	-9.81766
▁kaunis	-9.81919
▁kogunema	-9.81949
kulu	-9.81992
▁uudisteagentuur	-9.82039
▁kutse	-9.8208
itseministeerium	-9.82085
▁tootja	-9.82115
▁vigasta	-9.82156
▁pilk	-9.82181
viis	-9.82246
▁ehitatud	-9.82251
▁kõlvart	-9.82273
▁tarand	-9.82298
▁hoog	-9.82302
▁kliima	-9.82446
▁eeskuju	-9.82453
▁aafrika	-9.82518
▁plahvatus	-9.8268
▁kõigest	-9.82693
▁ametikoht	-9.82824
▁lõpetamine	-9.82841
▁maakohus	-9.82857
▁leidmine	-9.82879
▁w	-9.82912
hi	-9.82921
▁torm	-9.82967
▁kadri	-9.83093
▁nina	-9.83132
▁detail	-9.83175
auto	-9.83231
▁vahtima	-9.83239
▁ühendkuningriik	-9.83245
▁väljak	-9.83327
▁vigastus	-9.83329
öö	-9.8335
ehkki	-9.83363
▁nali	-9.83436
▁simson	-9.83488
▁27	-9.83512
▁mihhail	-9.83543
▁alus	-9.83581
▁kroon	-9.8362
and	-9.8364
▁skandaal	-9.83647
▁prügi	-9.83649
▁kanada	-9.8368
ring	-9.8387
▁kõvasti	-9.84035
▁ra	-9.84075
ly	-9.84089
grupp	-9.84096
▁sooviv	-9.84205
▁õnnestunud	-9.84221
tt	-9.84224
▁odav	-9.84231
▁teadnud	-9.84285
mise	-9.84373
▁emotsioon	-9.8445
▁liik	-9.84451
▁teenistus	-9.84503
▁sammu	-9.84539
▁kaamera	-9.84546
▁nime	-9.84575
sell	-9.84593
▁palve	-9.84617
▁toon	-9.84681
▁he	-9.84755
▁erinevalt	-9.84788
▁hall	-9.84835
plaan	-9.84845
venemaa	-9.84849
▁osalenud	-9.84865
▁järeldus	-9.84888
▁hullem	-9.85018
▁lätis	-9.85042
[	-9.85045
▁]	-9.85045
▁niisugune	-9.85065
▁robert	-9.85089
▁täiskasvanu	-9.85117
▁viies	-9.85144
▁usaldus	-9.85202
likkus	-9.85258
▁edgar	-9.85287
▁hooaeg	-9.85324
▁macron	-9.85335
du	-9.85353
▁avaldatud	-9.85465
▁tõnis	-9.85544
▁versioon	-9.85588
▁huvitama	-9.85619
▁tähtsam	-9.85674
▁reform	-9.85701
taoline	-9.85708
▁tänaseks	-9.85734
uv	-9.85747
▁jõulu	-9.85803
▁kestma	-9.85828
▁tunnistaja	-9.85974
▁tegelev	-9.8599
valdkond	-9.8602
▁pihta	-9.86131
▁õlu	-9.86144
kandidaat	-9.86171
▁tervise	-9.86171
▁väli	-9.862
▁reaalne	-9.86246
▁saatus	-9.86299
▁toodud	-9.86319
▁põgenema	-9.86356
▁vi	-9.86381
administratsioon	-9.86492
▁sõjavägi	-9.86703
▁mingisugu	-9.86734
▁norra	-9.86765
▁facebooki	-9.86776
▁kuhugi	-9.86829
▁kasvav	-9.86966
▁potentsiaal	-9.86975
▁maitse	-9.87017
▁viha	-9.87058
▁liider	-9.87082
▁teadlik	-9.87152
▁vajav	-9.87163
▁parlamendi	-9.87203
▁klaas	-9.87235
▁osapool	-9.87244
sel	-9.8725
▁objekt	-9.87305
▁as	-9.87332
▁kunagine	-9.87338
▁jevgeni	-9.87356
sõit	-9.87404
seks	-9.87424
▁vabastama	-9.87444
▁kurb	-9.87458
▁karu	-9.87483
▁konkurss	-9.87484
▁kirjandus	-9.87542
▁perearst	-9.87544
sugune	-9.87558
▁panustama	-9.87606
▁korraldaja	-9.87666
▁kalev	-9.87763
▁takistama	-9.87802
▁tulistama	-9.87808
▁saada	-9.87837
▁avarii	-9.87988
▁45	-9.88086
ise	-9.88104
▁saladus	-9.88124
▁te	-9.88157
▁tv	-9.88178
▁tuletama	-9.88238
▁väljaspool	-9.88434
20	-9.8848
▁keerama	-9.88495
▁otseselt	-9.88605
▁hukka	-9.88609
▁valitsema	-9.88609
▁lahendamine	-9.8861
▁jalakäija	-9.8862
hoone	-9.88651
pilt	-9.88658
▁vanus	-9.88673
▁pärastlõuna	-9.88684
▁viisil	-9.88777
▁ärimees	-9.888
▁ak	-9.88853
▁surnukeha	-9.89013
▁kreml	-9.89027
tada	-9.89071
▁variant	-9.89111
▁ohutus	-9.89114
▁järelevalve	-9.89143
▁laiali	-9.89167
▁taotlema	-9.89171
▁võimatu	-9.89208
▁selgitus	-9.89214
▁tantsupeo	-9.89254
▁täitmine	-9.89274
maks	-9.89306
▁armee	-9.8941
▁populaarne	-9.89476
▁seade	-9.89531
▁kongress	-9.89546
▁ime	-9.89586
arras	-9.89614
▁surma	-9.89633
▁ühistransport	-9.89655
▁summa	-9.89747
▁protseduur	-9.89809
▁iraan	-9.89816
▁anne	-9.89851
po	-9.89888
kaitse	-9.89962
▁rakvere	-9.89965
iks	-9.89989
▁täna	-9.90001
▁mikser	-9.9008
▁tõestama	-9.90085
▁andrus	-9.90148
▁koor	-9.90171
▁diplomaat	-9.90222
▁turva	-9.90254
▁2019.	-9.90326
▁seksuaalne	-9.9037
▁kulutama	-9.90434
▁suhteli	-9.90548
▁tegija	-9.90567
▁soovitus	-9.90584
ir	-9.90587
sada	-9.90701
▁maria	-9.90733
ameerika	-9.90758
tes	-9.90767
soome	-9.90808
▁￼	-9.90851
▁hoidmine	-9.90889
▁valimis	-9.9095
▁prefektuur	-9.90971
▁pikaajaline	-9.90979
▁täpsemalt	-9.90981
sti	-9.91007
▁ühiskondlik	-9.91106
▁vanaema	-9.91169
▁käituma	-9.91172
▁nelja	-9.91208
vahend	-9.91238
▁tagamine	-9.91364
▁võrdne	-9.91389
▁traditsioonili	-9.91422
▁unistus	-9.91448
▁ilu	-9.91459
▁olemine	-9.91553
▁erinema	-9.91651
▁kallase	-9.91653
▁margus	-9.9166
▁sven	-9.91714
▁föderaal	-9.91764
demokraatlik	-9.91772
▁kuju	-9.91781
▁hukkunu	-9.91859
▁telekanal	-9.91884
▁temperatuur	-9.91965
▁toetav	-9.91988
▁külge	-9.91992
nt	-9.92021
är	-9.9203
liin	-9.92126
▁maksu	-9.92135
tsi	-9.92245
ei	-9.92259
ndama	-9.92264
▁üld	-9.92274
▁kokkupõrge	-9.92308
▁postitus	-9.92381
▁puudumine	-9.92409
▁plats	-9.92443
▁linnavolikogu	-9.92481
▁kuulata	-9.92563
ell	-9.92603
▁teistsugune	-9.92701
jo	-9.92745
▁ekraan	-9.92757
▁osanud	-9.92965
▁harjuma	-9.92982
▁konverents	-9.93033
▁paul	-9.93044
▁tõusnud	-9.93057
bu	-9.93063
▁rajamine	-9.93078
▁lasi	-9.9312
▁odavam	-9.9312
▁york	-9.93144
▁kolmandik	-9.93175
rühm	-9.93184
esimene	-9.93189
▁pidu	-9.93305
▁vorm	-9.93334
▁ootamatult	-9.93488
▁33	-9.93607
▁tasand	-9.9364
number	-9.93739
lev	-9.93743
▁sissetulek	-9.93777
bo	-9.9379
▁lahkunud	-9.93863
▁terav	-9.93874
▁de	-9.93878
go	-9.93888
▁luik	-9.93896
▁vastutama	-9.93901
▁arutle	-9.93902
laps	-9.9402
▁rikas	-9.94062
▁rahastamine	-9.94148
▁rikkuma	-9.94259
▁tai	-9.94357
kõige	-9.9436
▁pilet	-9.94378
▁isiklikult	-9.94383
▁keskmiselt	-9.94484
▁vähendamine	-9.94492
▁peterburi	-9.94519
▁segadus	-9.94538
▁seesama	-9.94669
▁pidev	-9.94706
▁mo	-9.94708
eerima	-9.94727
▁rahaline	-9.94739
▁jong	-9.94766
▁algatus	-9.94773
nüüd	-9.9479
▁it	-9.9479
tas	-9.94836
▁tööstus	-9.94839
▁suunatud	-9.94991
▁lasnamäe	-9.95
eline	-9.95161
▁järgnev	-9.952
▁kusagil	-9.95207
▁madison	-9.9526
▁kasutav	-9.95305
▁ametlikult	-9.95309
tööstus	-9.95398
▁vähenema	-9.9543
▁turvaline	-9.9544
▁igor	-9.95441
▁150	-9.95524
▁ott	-9.95672
▁kuulnud	-9.95796
▁taevas	-9.95853
amine	-9.95853
▁turvalisus	-9.95901
▁appi	-9.95954
▁aju	-9.95964
▁mõjuma	-9.96017
▁ar	-9.96048
▁kahtlustatav	-9.96077
▁kirjutanud	-9.96084
▁viiv	-9.96112
▁sadu	-9.96134
▁tervik	-9.96148
vaker	-9.96155
▁annetus	-9.96159
▁praktika	-9.96181
ametnik	-9.96186
märk	-9.96206
▁kauplus	-9.96228
▁väljaanne	-9.9624
▁täht	-9.96265
▁ilma	-9.96282
▁trumpp	-9.96313
ip	-9.96349
▁ühtne	-9.96402
▁lähi	-9.96403
▁arendama	-9.9652
▁valesti	-9.96548
▁olnud	-9.96563
kümmend	-9.9659
▁kritiseerima	-9.96596
viimane	-9.966
▁tihe	-9.96627
▁looming	-9.9671
▁peadirektor	-9.96772
com	-9.96778
▁20.	-9.96791
▁edastama	-9.96847
▁kasulik	-9.96899
▁valdav	-9.96901
▁inimõigus	-9.97045
▁kindral	-9.97056
▁lahe	-9.97141
▁kõnelema	-9.97169
▁minek	-9.97262
ndus	-9.97267
▁taht	-9.97286
▁vangistus	-9.97289
▁statistika	-9.97292
▁sekund	-9.97293
▁risk	-9.973
allikas	-9.97304
▁kuum	-9.97337
▁ungari	-9.97375
▁ko	-9.9744
film	-9.97464
▁tehing	-9.97543
▁kontor	-9.97562
ajalt	-9.97568
▁meeldiv	-9.97588
küla	-9.97615
▁asuta	-9.97665
he	-9.9767
▁eba	-9.97697
▁suletud	-9.97719
▁välismaalane	-9.97738
▁pakk	-9.97752
▁videos	-9.9782
▁pass	-9.97867
▁kiiremini	-9.97923
▁tume	-9.97934
▁pr	-9.97967
▁pensionär	-9.97996
▁paha	-9.98059
▁vahetult	-9.98236
▁näol	-9.98282
▁mööduma	-9.98295
▁tulenev	-9.98333
▁niivõrd	-9.98367
▁madalam	-9.9837
ant	-9.98414
järv	-9.98431
▁viie	-9.98448
▁ajakiri	-9.98618
▁luba	-9.98661
▁laiem	-9.98668
▁risti	-9.98693
operatsioon	-9.98699
keskkond	-9.98769
▁raud	-9.98789
▁kass	-9.98819
laev	-9.98854
▁toimetus	-9.98947
tar	-9.98993
vaba	-9.99037
abi	-9.99102
▁igati	-9.99251
▁nimetatud	-9.99306
▁teineteise	-9.99324
▁kanep	-9.99324
▁hävitama	-9.99338
▁reisi	-9.99403
▁29	-9.99504
▁õppe	-9.99508
▁kallim	-9.99538
rahandusminister	-9.99549
▁võlg	-9.99579
▁ro	-9.9958
▁muutuv	-9.99595
▁tarbija	-9.99662
▁alal	-9.99714
▁kujul	-9.99794
▁yorg	-9.99799
ver	-9.99802
▁raskem	-9.99907
▁suund	-9.99977
▁pikkus	-10.0007
▁johnson	-10.0015
lu	-10.0021
aegne	-10.0024
▁so	-10.0028
▁globaalne	-10.0029
▁negatiivne	-10.0029
▁y	-10.003
▁saal	-10.0038
▁avamine	-10.0045
▁halvama	-10.0048
▁riia	-10.0049
▁sugugi	-10.0053
▁saabunud	-10.0053
▁teisiti	-10.0069
▁air	-10.0073
▁ennekõike	-10.0075
▁vallavanem	-10.0079
▁puhkus	-10.008
▁katma	-10.008
▁mõiste	-10.0082
▁karistama	-10.0088
linn	-10.0089
▁sõitnud	-10.0091
▁nafta	-10.0099
▁maailmasõda	-10.01
▁mi	-10.01
▁osaleja	-10.0101
▁sihtasutus	-10.0102
▁täpsem	-10.0103
▁äsja	-10.0104
menetlus	-10.0107
▁muusik	-10.0112
▁lause	-10.0113
▁osaliselt	-10.0115
▁reklaami	-10.0116
▁suuru	-10.0135
▁kuningas	-10.014
▁keerulisem	-10.0147
▁juhitud	-10.0152
▁saab	-10.0153
▁kaitsja	-10.0159
▁olla	-10.0166
▁mäg	-10.0166
▁lu	-10.0169
▁tähtsus	-10.0177
piirkond	-10.0177
▁pe	-10.0186
▁sõlmima	-10.0189
▁kehtiv	-10.0195
ijuht	-10.0197
▁kahjustama	-10.0198
▁tegevjuht	-10.0199
▁tarvis	-10.0204
itama	-10.0204
▁kar	-10.0222
▁kuusik	-10.0223
▁kontrolli	-10.0227
▁märg	-10.0245
▁toll	-10.0255
▁kurjategija	-10.0259
▁tonn	-10.026
ps	-10.0262
▁sala	-10.0266
hu	-10.0266
▁kriitik	-10.0274
▁raskus	-10.028
▁kehv	-10.0284
pool	-10.0285
▁digi	-10.0286
▁ootav	-10.029
▁mais	-10.029
isa	-10.0295
▁kaas	-10.0296
kampaania	-10.0296
▁pisike	-10.0298
mus	-10.0301
▁sport	-10.0301
▁päästeamet	-10.0304
▁kapten	-10.0305
▁koguni	-10.0312
▁analüüsima	-10.0313
▁400	-10.0321
▁kohvik	-10.0338
▁meetod	-10.0338
kolm	-10.034
▁nautima	-10.0344
park	-10.0345
▁las	-10.0345
▁32	-10.0364
▁juhtinud	-10.0378
▁tapp	-10.0384
inud	-10.0386
▁harjumaa	-10.0391
partner	-10.0398
▁tutvuma	-10.0399
▁mõnikord	-10.0408
tegemine	-10.0416
vaatama	-10.0419
▁hammas	-10.0425
otsus	-10.0426
▁saanud	-10.0431
▁kaebus	-10.0435
▁john	-10.044
▁regioon	-10.0444
▁19.	-10.0446
▁piisav	-10.0453
▁sot	-10.047
▁puit	-10.0478
▁esiteks	-10.0479
mina	-10.0484
▁turu	-10.0486
▁võitja	-10.0486
▁baas	-10.0492
▁müügi	-10.0493
▁hirmu	-10.0493
▁hulga	-10.0494
▁musta	-10.0495
samuti	-10.0505
▁säilitama	-10.0507
▁tahe	-10.0514
▁suve	-10.0514
▁lähedus	-10.0517
▁kujunema	-10.0517
▁sekkumine	-10.0518
▁langenud	-10.0518
▁eelistama	-10.0521
▁null	-10.0524
▁aastal	-10.0528
▁langetama	-10.053
▁31	-10.0538
▁nord	-10.0542
▁jaanus	-10.0543
▁time	-10.0548
▁mtü	-10.0549
pind	-10.055
salu	-10.0552
vägi	-10.0553
▁aitav	-10.0559
▁igapäevane	-10.0564
10	-10.0565
▁kaubanduskeskus	-10.0568
tasu	-10.0576
▁hollandi	-10.0578
▁etendus	-10.0581
▁kokkuvõte	-10.0595
võrd	-10.0598
mm	-10.0609
▁graafik	-10.061
▁der	-10.0613
asutus	-10.0618
▁danske	-10.062
▁vaher	-10.0622
▁ühendama	-10.0629
▁usaldama	-10.0632
tartu	-10.0635
▁esindama	-10.0636
laud	-10.0636
mõni	-10.0638
▁kahtlane	-10.0642
▁ootus	-10.0644
▁jaapani	-10.0647
▁go	-10.065
▁kaotanud	-10.0668
▁nõudmine	-10.067
▁ajutine	-10.0674
▁muretsema	-10.0683
▁mitme	-10.0688
kuu	-10.069
osakond	-10.0692
▁brexiti	-10.07
▁mootor	-10.0702
▁taastamine	-10.0704
▁kuritegelik	-10.0704
▁altkäemaks	-10.0706
▁voodi	-10.0706
▁jo	-10.0713
käik	-10.0718
eri	-10.0718
raamat	-10.0722
ce	-10.0735
▁üksus	-10.0735
ust	-10.0737
▁koostama	-10.0739
▁erinevus	-10.074
▁narko	-10.0743
▁kontekst	-10.0744
▁minevik	-10.0748
▁peatus	-10.0761
itud	-10.0762
▁suruma	-10.0762
▁vanalinn	-10.0763
▁traditsioon	-10.077
▁haarama	-10.077
▁piirama	-10.0785
kultuur	-10.079
▁suhtuma	-10.0791
▁rahulik	-10.0794
▁vahetus	-10.08
▁kg	-10.0801
so	-10.0804
▁asendama	-10.0806
▁irl	-10.081
▁juur	-10.0813
▁eemal	-10.0813
ija	-10.0815
arst	-10.0816
kohal	-10.0825
▁par	-10.0834
▁käsitlema	-10.0835
▁hull	-10.0839
▁enim	-10.0847
aine	-10.087
▁tähendus	-10.0872
▁tõenäosus	-10.0873
▁ilmne	-10.0877
▁aivar	-10.0884
uu	-10.0887
▁löök	-10.0898
▁olemasolev	-10.0901
õ	-10.0901
▁mahtuma	-10.0901
ck	-10.0902
▁nr	-10.0903
▁anvelt	-10.0903
▁teavitama	-10.0907
▁4.	-10.0916
▁stuudio	-10.0917
▁käik	-10.092
▁vaikselt	-10.0927
▁nõnda	-10.0928
▁uni	-10.093
▁reps	-10.0931
▁pealkiri	-10.0933
ter	-10.0946
ton	-10.0946
▁tunnustama	-10.095
▁peatoimetaja	-10.0951
▁kohalt	-10.0954
▁mõnus	-10.0958
▁korruptsioon	-10.096
▁ennustama	-10.096
▁trahv	-10.0961
▁tulija	-10.0968
riminaalmenetlus	-10.0969
▁ese	-10.0974
▁peasekretär	-10.0977
▁afp	-10.0978
▁narkootikum	-10.0978
▁eelnev	-10.0995
▁pai	-10.1006
▁loomulik	-10.1006
▁am	-10.1006
pp	-10.1009
▁mitmes	-10.1011
▁aleksandr	-10.1012
▁alaealine	-10.103
▁sisenema	-10.1032
▁võimu	-10.1033
▁sinine	-10.1035
▁takso	-10.1036
guma	-10.1037
▁piirang	-10.104
▁vahendus	-10.1042
▁kana	-10.105
▁veebileht	-10.1056
▁pa	-10.106
▁põhimõtteliselt	-10.1061
▁ansip	-10.1061
tis	-10.1065
е	-10.1065
▁15.	-10.1072
▁2.	-10.1073
▁lepe	-10.1077
▁teatri	-10.1084
▁kott	-10.1084
lne	-10.1092
▁otsas	-10.1093
▁jurist	-10.1095
▁paks	-10.1095
▁gümnaasium	-10.11
suur	-10.1106
ü	-10.1109
▁ostmine	-10.1112
▁asja	-10.1124
▁or	-10.1125
las	-10.1129
▁ya	-10.1138
▁otsing	-10.1141
▁palga	-10.1142
▁krimmi	-10.1147
▁karl	-10.1152
▁an	-10.1152
▁tellima	-10.1159
ll	-10.1159
▁neiu	-10.1162
▁harv	-10.1165
▁raivo	-10.1166
its	-10.1172
▁poole	-10.1174
▁tarbimine	-10.1182
▁vabalt	-10.1186
soo	-10.1195
▁meeleolu	-10.12
▁teave	-10.1201
▁kaasaeg	-10.1207
▁käsk	-10.1208
▁kõrgu	-10.1208
▁pala	-10.121
▁mudel	-10.1216
▁korraldatud	-10.1216
▁kohutav	-10.122
paar	-10.122
▁viinud	-10.122
paik	-10.1229
▁11.	-10.1229
é	-10.1233
▁mar	-10.1238
▁kõrgeim	-10.1243
▁3.	-10.1247
▁keeld	-10.1247
▁ainuke	-10.1248
▁jalutama	-10.125
▁viimsi	-10.1255
▁lehekülg	-10.126
▁pehme	-10.1263
▁puutuma	-10.1264
▁kohv	-10.1264
▁super	-10.1265
▁siduma	-10.1269
▁36	-10.127
▁lennuväli	-10.127
▁olu	-10.1275
▁opositsiooni	-10.1276
▁imestama	-10.1277
▁21.	-10.1284
▁režiim	-10.1294
▁jätnud	-10.1297
ism	-10.1297
▁2019	-10.1297
▁lõplik	-10.1298
▁2000	-10.13
▁kusjuures	-10.1301
▁von	-10.1302
kov	-10.1308
tuba	-10.131
juhtum	-10.1312
▁38	-10.1317
▁lähenemine	-10.1324
▁liikunud	-10.1324
▁märkimisväärne	-10.1325
▁tasakaal	-10.133
▁koduleht	-10.1332
▁juut	-10.1333
võim	-10.1337
▁registreerima	-10.1362
materjal	-10.1366
▁professor	-10.1369
rahvas	-10.1371
▁kiirelt	-10.1372
vene	-10.1378
▁tuuma	-10.1379
▁tubli	-10.138
▁heaolu	-10.1382
▁belgia	-10.1384
pe	-10.1384
mu	-10.1385
teema	-10.139
▁laulja	-10.1395
▁jõudmine	-10.1395
▁tulek	-10.1396
▁riigikohus	-10.1396
▁tantsu	-10.1407
▁vormi	-10.1409
toetus	-10.1416
▁iseenesest	-10.1418
mi	-10.142
▁tunnistus	-10.1423
▁oblast	-10.1434
▁hooldekodu	-10.1437
▁kriminaalasi	-10.1438
▁laenuma	-10.1441
▁televisioon	-10.1442
▁ajastu	-10.1455
▁järsk	-10.1463
▁ulatu	-10.1464
▁kurtma	-10.1465
th	-10.1468
▁argument	-10.1472
▁kohustuslik	-10.1473
▁sakslane	-10.1473
▁teadmata	-10.1483
saade	-10.1491
▁kõndima	-10.1495
▁tollal	-10.1496
▁ümbrus	-10.15
siseministeerium	-10.151
▁mm	-10.1517
▁elekter	-10.1518
▁pöördus	-10.1525
▁toetamine	-10.1545
▁peaministri	-10.1546
joon	-10.1548
une	-10.1555
▁tühistama	-10.1561
▁erri	-10.1567
▁kavanda	-10.1569
▁viin	-10.157
▁kahtlemata	-10.1577
▁tundmatu	-10.1579
▁lubanud	-10.1581
▁otsustanud	-10.1581
▁press	-10.159
▁jõudu	-10.1591
näide	-10.1593
ast	-10.1594
▁esindus	-10.1596
▁murdma	-10.1599
▁kilo	-10.16
▁hele	-10.1601
▁piirivalveamet	-10.1601
▁aktsiis	-10.1605
▁jagamine	-10.1608
▁bo	-10.1609
▁alkoholi	-10.1624
▁eemale	-10.1624
▁kaugele	-10.1625
▁lähenema	-10.1628
▁strateegili	-10.163
kivi	-10.1633
▁cnn	-10.1634
▁tiit	-10.164
▁tervishoiu	-10.1643
▁mängu	-10.1644
▁kasum	-10.1644
▁madis	-10.1645
▁ilmselge	-10.1645
▁rõivas	-10.1646
▁norm	-10.1647
▁i	-10.1661
atsioon	-10.1665
▁missioon	-10.1667
▁mugav	-10.1669
▁võinud	-10.1669
▁tuge	-10.1679
▁sobi	-10.1683
▁moodne	-10.1685
▁hiiumaa	-10.1685
▁vaenlane	-10.169
▁välista	-10.1692
ikas	-10.1695
ic	-10.17
▁selts	-10.1702
▁kinki	-10.1704
“	-10.1704
üle	-10.1707
milli	-10.1707
▁juurest	-10.171
▁osalemine	-10.1717
praegu	-10.1718
▁möönma	-10.1722
periood	-10.1722
pu	-10.1727
▁34	-10.173
▁lahing	-10.1732
pere	-10.1733
▁mik	-10.1735
▁pudel	-10.1737
teadlane	-10.1739
▁di	-10.1744
vastu	-10.1749
▁agent	-10.1755
▁kuri	-10.1763
▁narvas	-10.1765
laul	-10.1776
▁toitu	-10.1779
protsess	-10.1781
▁vast	-10.1782
▁põrka	-10.1787
võistlus	-10.1789
su	-10.179
▁klassikaline	-10.1798
ida	-10.1799
▁märksa	-10.1799
▁mueller	-10.1801
▁9.	-10.1803
▁jüri	-10.1803
▁piloot	-10.1805
je	-10.1807
õnnetus	-10.1809
ca	-10.1812
▁lill	-10.1814
eel	-10.1815
▁ootamatu	-10.1815
▁#	-10.1824
▁sunnitud	-10.1826
▁ausalt	-10.1831
▁sõjaväe	-10.1833
▁sugulane	-10.1835
▁est	-10.1841
õhtu	-10.1842
▁välismaa	-10.1849
а	-10.1849
▁olemasolu	-10.1854
▁komme	-10.1854
▁töötamine	-10.1855
jah	-10.1863
▁arvo	-10.1869
▁23.	-10.1882
▁valve	-10.1885
▁transpordi	-10.1887
▁rahulikult	-10.1889
▁külastaja	-10.1896
▁kulge	-10.1898
▁loll	-10.1918
idega	-10.192
▁paik	-10.1924
äri	-10.1937
▁2017	-10.1939
▁rubla	-10.1939
▁12.	-10.1943
▁elukaaslane	-10.1944
▁tasku	-10.1945
▁levinud	-10.1951
▁siht	-10.1951
▁mõtte	-10.1956
▁ainu	-10.1965
▁varjama	-10.1966
▁rehv	-10.1968
▁võtta	-10.197
▁lõik	-10.1974
▁portaal	-10.1975
▁häirekeskus	-10.1975
▁lume	-10.1975
▁pöördumine	-10.1979
▁kahtlusalune	-10.1983
huviline	-10.1983
▁laar	-10.1984
▁lavastus	-10.1986
võimalus	-10.1994
elt	-10.1995
▁mõelnud	-10.1997
▁uurimis	-10.2006
põhi	-10.2007
▁sügav	-10.2008
elmine	-10.2018
▁tugevam	-10.2022
▁üht	-10.2026
kuritegu	-10.2028
eeritud	-10.2034
▁rääkimata	-10.2035
▁kor	-10.2035
▁noorte	-10.2038
▁põhiline	-10.2042
▁vabandama	-10.2047
▁ööpäev	-10.2049
der	-10.2051
▁lõppenud	-10.2056
▁relva	-10.206
▁kogenud	-10.2061
▁tarmo	-10.2064
majandus	-10.2065
▁kaotus	-10.2066
▁rakendama	-10.2071
naine	-10.2072
valimiskampaania	-10.208
lahendus	-10.208
▁lõikama	-10.2089
▁pirita	-10.209
post	-10.2092
▁suuna	-10.2096
▁kalle	-10.2098
▁võimas	-10.2101
▁tervita	-10.2103
▁eitama	-10.2109
▁tudeng	-10.211
ndusministeerium	-10.211
▁marko	-10.2113
▁sektor	-10.2113
▁erik	-10.2114
▁veendunud	-10.2114
▁osakaal	-10.2129
▁65	-10.2132
▁hävitaja	-10.2132
▁man	-10.214
▁*	-10.2146
▁jääm	-10.2148
▁hongkong	-10.2149
▁georg	-10.215
foto	-10.2152
▁treener	-10.2159
▁osaline	-10.216
▁paat	-10.2165
stus	-10.2168
▁eeldus	-10.2175
▁rakendus	-10.2179
▁riigikaitse	-10.2185
▁hukkunud	-10.2185
▁sõidu	-10.2187
▁ranna	-10.219
▁kolme	-10.2192
▁hooldus	-10.2195
hulgas	-10.2198
▁süüdistatav	-10.2207
▁vanaisa	-10.2207
...	-10.2209
▁stockholm	-10.2209
▁algatama	-10.2214
▁mõistus	-10.2217
komitee	-10.2226
toode	-10.2229
▁viibinud	-10.2235
▁vihje	-10.2237
▁esinemine	-10.224
sõda	-10.2242
▁hool	-10.2246
▁2013.	-10.2251
▁karda	-10.2254
▁vabariiklane	-10.2255
▁iseloomusta	-10.2262
video	-10.2265
▁nestor	-10.2266
▁romaan	-10.2271
.19	-10.2274
▁taastama	-10.2274
▁inglismaa	-10.2275
▁10.	-10.2282
▁tööpäev	-10.2283
▁dmit	-10.2284
▁eeter	-10.2285
▁müüja	-10.2294
võime	-10.2297
io	-10.2298
▁pärine	-10.23
▁strateegia	-10.23
op	-10.2307
▁sportlane	-10.2312
▁asetäitja	-10.2322
▁uudisteportaal	-10.2322
var	-10.2325
täitsa	-10.2327
ib	-10.2342
▁püsi	-10.2343
▁usk	-10.2345
tma	-10.235
▁tekitanud	-10.2352
tev	-10.2353
▁vaidlema	-10.2354
▁esitamine	-10.2355
▁öeldud	-10.2356
▁pealtnägija	-10.236
▁joogi	-10.2361
▁kättesaadav	-10.2367
▁rind	-10.2371
▁õppinud	-10.2382
▁mõninga	-10.2384
▁abilinnapea	-10.2386
muusika	-10.2386
▁suuresti	-10.2387
▁rüütel	-10.239
▁propaganda	-10.2393
▁põhjalik	-10.2401
▁väljuma	-10.2408
stik	-10.241
▁laenu	-10.2415
▁reaktsioon	-10.2416
ner	-10.2418
▁meditsiini	-10.2426
▁omaette	-10.2427
▁noh	-10.2434
▁uuris	-10.2434
▁vaev	-10.2437
▁vaikne	-10.244
läbi	-10.2441
▁hari	-10.2455
▁investor	-10.2457
ike	-10.2457
rikas	-10.2459
▁äge	-10.2465
▁for	-10.2468
▁suhtlus	-10.2473
▁reiting	-10.2474
▁tõstmine	-10.2475
▁aastat	-10.248
▁ressurss	-10.2487
▁südame	-10.2488
▁hoiatus	-10.2489
▁kaugelt	-10.2499
valt	-10.2499
▁võimeline	-10.25
▁konkurents	-10.2508
dama	-10.2509
uus	-10.2511
▁trend	-10.2511
▁lugemine	-10.2513
▁tead	-10.2514
▁100.	-10.2514
▁kost	-10.2526
mar	-10.2532
▁ütlus	-10.2534
▁sõjaväelane	-10.2537
▁nõmm	-10.2547
▁kii	-10.2549
▁sekkuma	-10.2554
▁määratud	-10.2565
▁rahvaerakond	-10.2565
ots	-10.2567
▁rooli	-10.2576
ndatud	-10.2589
▁7.	-10.2595
▁kümne	-10.2596
▁lähistel	-10.2598
▁auk	-10.2602
▁vari	-10.2605
▁6.	-10.2617
meelne	-10.2617
▁libe	-10.2624
▁lennufirma	-10.2625
▁jalgpall	-10.2629
võrk	-10.2633
▁kohtuotsus	-10.2633
▁kogutud	-10.2645
▁17.	-10.265
▁riigikokku	-10.2658
▁korraks	-10.2658
▁regionaal	-10.2659
▁harjunud	-10.2659
enne	-10.266
▁pop	-10.266
delf	-10.2661
▁kummaline	-10.2662
▁erand	-10.2664
klass	-10.2664
▁kütus	-10.2668
▁segama	-10.2677
▁vastutav	-10.268
▁2012.	-10.2684
▁muna	-10.2685
▁39	-10.2686
▁kiir	-10.2687
▁meede	-10.2688
oht	-10.269
▁hektar	-10.2693
▁niisama	-10.2695
▁kabinet	-10.2699
ment	-10.2699
▁mälu	-10.2711
▁europarlament	-10.272
▁fa	-10.2721
▁enese	-10.2723
▁haapsalu	-10.2728
politseinik	-10.2734
▁muud	-10.2735
diplomaatiline	-10.2738
▁registreeritud	-10.2751
▁näidanud	-10.2751
▁jürgen	-10.2751
▁lääs	-10.2753
land	-10.2755
▁kasutanud	-10.2756
meister	-10.2757
▁hindamine	-10.276
▁vihm	-10.2764
▁pluss	-10.2766
partei	-10.2771
▁võru	-10.2773
▁nähtav	-10.2778
ekspert	-10.2782
▁apteek	-10.2785
▁kergem	-10.2794
alane	-10.2795
▁lähemalt	-10.2797
▁5.	-10.2798
kõne	-10.2801
▁ulatuslik	-10.2807
era	-10.2808
▁18.	-10.2814
üksi	-10.2814
▁rannik	-10.2814
▁platvorm	-10.2816
▁naasma	-10.2817
▁osutus	-10.282
▁täitama	-10.2824
▁14.	-10.2824
koor	-10.2827
▁helikopter	-10.2827
▁keele	-10.2842
▁korralikult	-10.2849
▁osutama	-10.2851
▁55	-10.2861
▁varasemalt	-10.2864
▁22.	-10.2866
misega	-10.2872
▁kaugel	-10.2872
▁täpsustama	-10.2874
▁eelis	-10.2877
▁pu	-10.288
hea	-10.2881
▁mehhiko	-10.2883
▁köök	-10.2888
▁viidud	-10.289
▁läbima	-10.2893
kuul	-10.29
▁paragrahv	-10.291
▁gaas	-10.2913
▁samba	-10.2922
▁intsident	-10.2924
▁korea	-10.2925
▁kulla	-10.2927
q	-10.293
▁37	-10.2931
▁44	-10.2938
▁interneti	-10.2943
▁tegelikkus	-10.295
▁asutaja	-10.295
▁alanud	-10.2951
▁allkiri	-10.2951
▁praktilise	-10.2951
▁härra	-10.2952
▁bor	-10.2952
▁sepp	-10.2954
▁kalju	-10.2957
▁säära	-10.2957
inspektsioon	-10.2962
,5	-10.2971
▁tänava	-10.2974
▁vere	-10.2975
▁hendrik	-10.2975
▁elanikkond	-10.2977
for	-10.2977
kodu	-10.2979
▁elektroonili	-10.2986
▁tants	-10.2986
▁sõltumatu	-10.3003
▁peksma	-10.3003
▁kadriorg	-10.3004
▁kaljurand	-10.3009
▁kahtlustus	-10.3018
sektor	-10.3029
▁katki	-10.3029
▁do	-10.3031
▁halvasti	-10.3036
▁aidanud	-10.3037
▁minna	-10.3037
▁populaarsus	-10.3038
▁paarkümmend	-10.304
▁tähele	-10.304
▁tolla	-10.3043
liige	-10.3046
▁staadion	-10.3047
kar	-10.3051
olukord	-10.3055
▁koolitus	-10.3063
▁sümbol	-10.3068
▁aktiivselt	-10.3069
▁piiratud	-10.307
▁gaasi	-10.307
vähem	-10.3072
▁vääri	-10.3076
▁ruumima	-10.308
99	-10.3087
▁ligipääs	-10.3094
▁piirivalve	-10.3101
▁digitaal	-10.3102
ag	-10.3117
▁pälvi	-10.3125
▁näitaja	-10.3125
▁mõõtma	-10.3129
▁kursus	-10.3129
▁2011.	-10.3129
▁kerkima	-10.3135
unud	-10.3138
▁soovinud	-10.3139
▁investeerima	-10.3141
▁usu	-10.3143
sari	-10.3146
▁test	-10.3149
keel	-10.3151
▁nähtus	-10.3153
▁õlg	-10.3155
▁juhi	-10.3157
ansambel	-10.3166
▁tugi	-10.3174
▁holland	-10.3182
▁tähtaeg	-10.3184
▁määrus	-10.3192
▁kuiv	-10.3199
▁viktor	-10.3201
▁tervislik	-10.3205
▁pariisi	-10.3206
▁mu	-10.321
tahes	-10.321
▁dav	-10.3211
▁erakonna	-10.3213
üritus	-10.3216
▁š	-10.3224
▁16.	-10.3228
▁elukoht	-10.3229
▁talvik	-10.3234
▁absoluutselt	-10.3234
▁ringkonnakohus	-10.3239
▁gu	-10.3242
▁sündmuskoht	-10.3243
▁signaal	-10.3245
▁24.	-10.3249
▁roos	-10.3252
▁prioriteet	-10.3264
▁üleskutse	-10.3266
ber	-10.3266
▁bussijuht	-10.3267
▁sort	-10.3268
▁purjus	-10.3271
up	-10.3279
per	-10.3284
meeskond	-10.3287
▁talve	-10.3288
▁ülemaailm	-10.3291
▁muru	-10.3292
▁värav	-10.3304
▁jaam	-10.3307
pank	-10.3307
▁struktuur	-10.3317
100	-10.3317
▁saatejuht	-10.3321
liik	-10.3327
▁we	-10.3328
muide	-10.3341
▁mal	-10.3347
▁keskerakondlane	-10.3361
▁51	-10.3361
▁sulgemine	-10.3366
▁kukkunud	-10.3369
▁küllalt	-10.3372
▁kindlustus	-10.3378
koda	-10.339
ides	-10.3397
▁kutsutud	-10.3399
▁nublu	-10.34
▁rumeenia	-10.34
kindlustus	-10.3402
▁kingitus	-10.3407
lõuna	-10.3418
▁põhjalikult	-10.3419
lis	-10.342
▁hüvitis	-10.3423
▁koostamine	-10.3436
▁kaeva	-10.3442
▁poolteist	-10.3443
▁ria	-10.3445
▁stiil	-10.3447
meie	-10.3451
tr	-10.3456
ani	-10.3461
▁teistmoodi	-10.3464
▁edukalt	-10.3464
▁khashog	-10.3466
▁avaldamine	-10.3467
▁mõtlemine	-10.3477
▁kreeka	-10.3484
▁kliimamuutus	-10.3498
▁seks	-10.3499
▁põhinema	-10.3502
▁robot	-10.3511
▁ohutu	-10.3514
▁delfile	-10.3519
teist	-10.3529
▁katastroof	-10.3529
▁riski	-10.3531
▁́	-10.3531
▁dialoog	-10.3531
▁avaldanud	-10.3533
▁sõbralik	-10.3535
▁sarjama	-10.3536
omanik	-10.355
reis	-10.3559
▁sisuline	-10.3561
▁põlv	-10.3561
▁parki	-10.3569
▁õu	-10.3572
seade	-10.3579
▁vein	-10.3581
▁hu	-10.3584
▁kombel	-10.3584
piir	-10.3587
hääl	-10.3589
▁moodi	-10.3593
▁kõrvalt	-10.3593
▁saabumi	-10.3595
▁vältel	-10.36
▁tass	-10.3602
▁42	-10.3602
▁tellimus	-10.3605
▁uskumatu	-10.3607
▁võrdlus	-10.3607
▁poi	-10.361
▁www	-10.3612
▁lõpma	-10.3614
tingimus	-10.3618
▁toimunu	-10.3621
▁parandamine	-10.3633
▁ametiaeg	-10.3634
▁delegatsioon	-10.3641
▁välispoliitika	-10.3641
▁režissöör	-10.3645
aal	-10.3647
nimetatud	-10.3651
▁kustutama	-10.3656
▁kuld	-10.366
▁üksteist	-10.3661
▁arvatud	-10.367
▁mandaat	-10.367
▁veoauto	-10.3673
▁ookean	-10.3675
▁küljest	-10.3679
▁salajane	-10.3679
ett	-10.3679
▁kollane	-10.3679
▁personal	-10.3691
▁brexi	-10.3695
▁juriidili	-10.3698
masin	-10.3702
dega	-10.3707
▁ap	-10.3713
▁suge	-10.3717
idest	-10.3719
▁föderatsioon	-10.3721
▁tulistamine	-10.3722
▁esmalt	-10.3722
▁kumbki	-10.3737
spetsialist	-10.3739
▁kaitsmine	-10.3742
▁lapsepõlv	-10.3743
juba	-10.3743
▁id	-10.3745
▁osalev	-10.3748
▁nuga	-10.3751
▁nõustuma	-10.3752
▁brüssel	-10.3761
tänavu	-10.3762
▁per	-10.3765
▁akadeemia	-10.3766
▁2016	-10.377
vee	-10.377
▁kauem	-10.3772
▁paigutama	-10.3772
agentuur	-10.3777
▁raamatukogu	-10.3786
▁järg	-10.3787
▁pääste	-10.3797
▁ru	-10.3797
▁val	-10.3798
tš	-10.3804
luba	-10.3812
▁reaalsus	-10.3813
▁huvitatud	-10.382
▁moe	-10.3822
▁bu	-10.3826
▁väärt	-10.3834
▁vägivaldne	-10.3836
▁kon	-10.3841
▁riin	-10.3841
▁z	-10.3847
▁kett	-10.3851
ger	-10.3862
▁eraldama	-10.3868
▁maksmine	-10.3869
▁valga	-10.3889
ht	-10.3892
▁kirja	-10.3892
▁em	-10.3901
▁laeva	-10.3903
▁aasia	-10.3904
▁−	-10.3911
küll	-10.3913
▁ekspertiis	-10.392
▁mõistetud	-10.3921
▁rühm	-10.3922
▁omadus	-10.3924
▁valmistatud	-10.3924
▁kõrv	-10.393
▁41	-10.393
▁tundnud	-10.3931
tegu	-10.3937
▁avanema	-10.3941
▁13.	-10.3941
▁kõht	-10.3945
aat	-10.395
▁kuritegevus	-10.3958
▁tü	-10.3961
sin	-10.3972
▁lõbus	-10.3973
▁põllumees	-10.3982
tuma	-10.3983
▁üllatav	-10.3984
▁õigesti	-10.3986
uk	-10.3986
▁meelita	-10.3987
▁poe	-10.399
▁arvav	-10.3991
▁elamine	-10.3992
▁mat	-10.3992
▁patrull	-10.3992
▁sund	-10.3994
▁võrk	-10.3995
▁jälg	-10.3997
▁baar	-10.4005
gas	-10.4019
▁kadumine	-10.4021
▁ostu	-10.4022
▁kantsler	-10.4022
▁sarnaselt	-10.4025
▁valgevene	-10.4025
▁silt	-10.4029
▁kohane	-10.4032
val	-10.4033
▁po	-10.4033
▁konservatiiv	-10.4038
info	-10.4041
▁arengu	-10.4042
▁ostja	-10.4052
riminaalpolitsei	-10.4052
poliitik	-10.4054
fond	-10.4055
ilt	-10.4057
▁tekitav	-10.406
dav	-10.4062
▁õiguslik	-10.4063
▁janek	-10.4064
▁skripali	-10.4064
▁rekord	-10.4073
▁jäi	-10.4078
vahetus	-10.408
▁vaata	-10.4086
▁tuju	-10.409
▁valminud	-10.4093
▁leib	-10.4094
valge	-10.4096
▁imelik	-10.4097
lugema	-10.4098
selline	-10.4113
asunud	-10.4114
▁ettevõtmine	-10.4126
▁lõpetanud	-10.4127
▁tea	-10.4129
▁veerand	-10.413
▁eluaasta	-10.4132
▁perspektiiv	-10.4136
▁trumpi	-10.4139
▁vo	-10.4141
täht	-10.4144
▁kristin	-10.4153
▁tunnus	-10.4153
vabadus	-10.4156
▁toru	-10.416
▁arendus	-10.4161
▁teadis	-10.4166
▁kristjan	-10.4167
▁pugema	-10.4169
▁pettus	-10.4172
▁rainer	-10.4172
▁iseseisev	-10.4174
▁teostama	-10.4181
▁puhuma	-10.4185
▁näpp	-10.4187
▁sari	-10.4188
▁46	-10.4197
▁esmakordne	-10.4199
▁mõrva	-10.4199
▁48	-10.4204
▁meeleavaldaja	-10.4204
▁julia	-10.4205
▁julgus	-10.4206
▁kokk	-10.4209
ühendus	-10.4212
▁eemaldama	-10.4214
lisem	-10.4214
iti	-10.4215
▁kogumine	-10.4216
▁üleval	-10.4217
▁tugevalt	-10.4219
nõu	-10.4219
▁uue	-10.4221
▁londoni	-10.4226
▁kvaliteetne	-10.4227
▁kä	-10.4231
▁alkoholiaktsiis	-10.4232
▁parasjagu	-10.4232
oja	-10.4233
jõgi	-10.4236
teadus	-10.4236
▁teadaoleva	-10.4236
▁puhkama	-10.4247
öine	-10.4248
järgmine	-10.4248
▁ligikaud	-10.4264
▁anonüüm	-10.4265
▁rumal	-10.4267
▁põ	-10.4272
▁mõis	-10.4272
"	-10.4273
▁rõõmusta	-10.4274
ade	-10.4276
del	-10.4278
▁korda	-10.4278
▁olemus	-10.428
▁meister	-10.428
▁puuduv	-10.4284
▁nsv	-10.4287
▁ülemus	-10.429
vus	-10.4292
keelne	-10.4294
▁baltic	-10.43
tase	-10.43
▁ühiselt	-10.4306
▁esitanud	-10.4307
▁saavutamine	-10.431
ang	-10.431
▁30.	-10.4314
president	-10.4317
vorm	-10.4318
▁fbi	-10.4318
▁kliend	-10.433
▁nõrk	-10.4331
▁ebameeldiv	-10.4334
▁hallik	-10.4335
vahe	-10.4336
▁ab	-10.4342
▁jalgratas	-10.4343
▁1000	-10.4343
▁originaal	-10.4344
▁kaetud	-10.4345
▁michael	-10.4346
▁ge	-10.4352
▁pikkune	-10.4352
▁2010.	-10.4356
▁võitleja	-10.436
▁peategela	-10.4362
▁laager	-10.4362
▁piima	-10.4366
▁kaasne	-10.4369
▁sütti	-10.4371
▁kauba	-10.4371
▁aa	-10.4371
▁emotsionaalne	-10.4378
▁ärkama	-10.4379
tunne	-10.438
▁arenema	-10.438
peale	-10.4382
▁seisus	-10.4385
▁brasiilia	-10.4386
▁ringkond	-10.4391
▁täiendama	-10.4391
▁kevad	-10.4392
▁levik	-10.4397
rand	-10.4401
süüdistus	-10.4402
tehnoloogia	-10.4404
▁konkurent	-10.4405
▁torn	-10.4405
▁kanti	-10.4407
▁valitsev	-10.4408
▁bar	-10.441
▁saun	-10.4416
▁toimiv	-10.442
▁sularaha	-10.4421
▁kirjeldus	-10.4425
▁maanteeamet	-10.4427
dest	-10.443
▁poliit	-10.4432
▁turismi	-10.4434
▁hommiku	-10.4437
▁prognoos	-10.4441
▁midagi	-10.4455
▁takistus	-10.4459
▁protest	-10.4462
▁stsenaarium	-10.4464
▁seksi	-10.4466
eakas	-10.4468
sõber	-10.4469
▁75	-10.4469
▁pill	-10.447
▁jt	-10.4471
▁8.	-10.4472
▁oh	-10.4475
▁põhjamaa	-10.4477
▁sünd	-10.4487
▁vahistamine	-10.449
▁peitu	-10.449
▁tutvus	-10.4491
▁värvi	-10.4493
▁ettevalmistus	-10.4494
▁rõõmus	-10.4496
▁pärnumaa	-10.4501
▁fotograaf	-10.4501
öelda	-10.4501
▁wa	-10.4505
▁varahommik	-10.4508
▁gramm	-10.4511
▁laulu	-10.4512
mer	-10.4516
▁hoov	-10.4517
ah	-10.4524
▁lapse	-10.4527
▁lille	-10.4528
▁bussi	-10.4529
▁korduv	-10.453
▁looduslik	-10.4535
▁moodustamine	-10.4536
lennuk	-10.454
kunstnik	-10.4541
▁vaikus	-10.4546
▁valus	-10.4562
▁panka	-10.4568
▁seatud	-10.4569
▁pesu	-10.457
▁põrand	-10.4571
▁con	-10.4576
▁kümmekond	-10.4578
▁tungima	-10.4579
vo	-10.4591
▁staar	-10.4594
tuli	-10.4596
▁vaja	-10.4599
▁sekka	-10.4603
▁tsiviil	-10.4603
▁valmistuma	-10.4605
▁pevkur	-10.4606
▁edetabel	-10.4607
▁2020.	-10.4607
▁maavärin	-10.4609
nenud	-10.4609
▁keskkool	-10.4612
▁ki	-10.4616
▁looja	-10.4617
▁meelelahutus	-10.4622
stanud	-10.4624
▁müüt	-10.4629
meel	-10.4631
lemine	-10.4634
▁kiik	-10.4638
andmed	-10.4643
▁suurenema	-10.4644
eerimine	-10.4645
tulemus	-10.4646
▁kvartal	-10.4647
▁vabastamine	-10.4648
▁ehitaja	-10.4651
'	-10.4652
▁lavastaja	-10.4654
▁arm	-10.4663
▁hüppama	-10.4666
akas	-10.4668
▁puhkema	-10.4672
▁artist	-10.4676
▁tegutsenud	-10.468
▁provints	-10.4681
▁ajaloo	-10.4682
ub	-10.4689
▁lähtuv	-10.4692
▁ränderaamistik	-10.4695
▁kirju	-10.4695
▁vargus	-10.4704
▁võte	-10.4711
▁hank	-10.4713
▁õiglane	-10.4715
▁laiemalt	-10.4721
▁teada	-10.4725
laine	-10.4727
▁treening	-10.4733
tehnika	-10.474
suhe	-10.4744
▁saatel	-10.4746
ravi	-10.475
▁tagu	-10.4753
▁kenasti	-10.4755
▁paav	-10.4761
▁asemele	-10.4767
▁vili	-10.4768
aalne	-10.477
buss	-10.4774
ilm	-10.478
▁võimekus	-10.478
järgne	-10.4782
▁arvelt	-10.4788
sion	-10.4794
▁aktsia	-10.4795
kokkulepe	-10.4798
▁kaasnev	-10.48
▁sünni	-10.4801
▁motiiv	-10.4802
▁tõn	-10.4803
ite	-10.4804
fa	-10.4806
▁õli	-10.4807
▁inimlik	-10.4808
▁li	-10.4821
lend	-10.4825
▁üheskoos	-10.483
▁liig	-10.4831
▁vestlema	-10.4831
▁põhinev	-10.4832
▁aimu	-10.4834
▁panev	-10.4841
▁sp	-10.4849
▁pikemalt	-10.485
▁koosne	-10.4864
▁välimus	-10.4871
vere	-10.4872
▁jalgrattur	-10.4872
▁pääsenud	-10.4874
▁mass	-10.4874
▁tegev	-10.4877
▁otsiv	-10.488
▁professionaalne	-10.4884
▁25.	-10.4892
ratas	-10.4893
▁mang	-10.4894
▁tramm	-10.4895
▁panga	-10.4901
▁valetama	-10.4906
meri	-10.4907
▁korjama	-10.4908
▁da	-10.4908
▁eestvedaja	-10.491
▁rikkus	-10.4917
▁osutuma	-10.4919
▁kleit	-10.4923
möödunud	-10.4923
▁vastanud	-10.4925
▁seisne	-10.4925
▁tool	-10.4926
▁toompea	-10.4931
anud	-10.4931
▁paras	-10.4931
▁kihuta	-10.4931
▁hukkus	-10.4931
neli	-10.4933
▁aste	-10.4945
▁suhtlemine	-10.4947
▁rutt	-10.4947
▁saatnud	-10.4948
▁planeeritud	-10.4948
rahu	-10.4951
▁läänemer	-10.4953
▁liberaalne	-10.4957
saama	-10.4958
▁rongkäik	-10.496
▁psühholoog	-10.4962
▁mail	-10.4964
kokku	-10.4968
atud	-10.4971
kätt	-10.4972
▁ohvitser	-10.4974
▁kohtla	-10.4974
▁är	-10.4975
▁moon	-10.4975
pidi	-10.4977
ff	-10.4979
▁tom	-10.4983
▁youtub	-10.4987
▁toetanud	-10.4988
▁plakat	-10.499
▁lavrov	-10.4995
ä	-10.4998
misest	-10.5
saal	-10.5002
▁näo	-10.5002
▁jõhv	-10.5012
▁raketi	-10.5013
▁helir	-10.5014
▁tu	-10.5017
istlik	-10.5025
▁kujunenud	-10.5026
▁suisa	-10.5026
▁ostetud	-10.5028
▁maas	-10.5028
▁algav	-10.503
▁astunud	-10.5031
tik	-10.5033
▁kogunenud	-10.5034
▁peskov	-10.5036
ry	-10.5039
”	-10.5041
▁droon	-10.5048
päevane	-10.5054
▁kõikjal	-10.506
▁ajutiselt	-10.5065
▁vanglakaristus	-10.5065
▁kavatsus	-10.5069
skond	-10.5075
▁toel	-10.5075
tükk	-10.5078
▁märt	-10.508
ukraina	-10.5081
▁taha	-10.5082
▁soetama	-10.5085
▁ühiskonna	-10.5087
tra	-10.509
▁liiter	-10.5094
avaldus	-10.5095
▁kuupäev	-10.5099
▁häire	-10.5104
▁tunduvalt	-10.5104
▁kl	-10.5106
▁arenenud	-10.5108
▁lahtine	-10.5111
kott	-10.5118
▁theres	-10.5122
▁rool	-10.5126
▁revolutsioon	-10.5127
▁tervist	-10.5133
uga	-10.5134
▁nutma	-10.5134
valik	-10.5135
▁uuriv	-10.5142
▁teatanud	-10.5144
▁asepresident	-10.5145
▁sõprus	-10.515
▁kristlik	-10.5151
▁taksojuht	-10.5151
täis	-10.5152
▁vahelt	-10.5153
▁pen	-10.5155
nn	-10.5156
▁proua	-10.5156
▁sõltuv	-10.5164
▁hümn	-10.5165
üksus	-10.5166
▁ükskord	-10.5172
õpetaja	-10.5174
▁kese	-10.5174
ep	-10.5178
▁peremees	-10.5178
▁maksumaksja	-10.5183
▁iir	-10.5187
▁vastuvõtmine	-10.5187
põhine	-10.5189
▁angel	-10.5189
▁lätlane	-10.5191
meremaa	-10.5193
▁räägitud	-10.5193
▁tallinnas	-10.5196
ale	-10.5197
▁hoidis	-10.5198
▁kalla	-10.5207
н	-10.5213
ski	-10.5216
▁jala	-10.5227
▁lauluväljak	-10.5227
▁mõistagi	-10.5229
▁imeline	-10.5233
▁referendum	-10.5234
▁tuleb	-10.5234
▁üldjuht	-10.5236
klubi	-10.524
▁kategooria	-10.5241
▁loos	-10.5243
▁spioon	-10.5244
▁müür	-10.525
▁preemia	-10.5255
▁asu	-10.5263
▁loome	-10.5265
▁kurat	-10.5265
vara	-10.5265
▁sõitmine	-10.5266
▁maarja	-10.5269
▁kohtuprotsess	-10.527
jaam	-10.5274
▁tani	-10.5275
▁staatus	-10.5276
▁kael	-10.528
muuseum	-10.5281
näitus	-10.5283
▁paljas	-10.5291
▁mahe	-10.5296
▁seitsme	-10.5298
▁olümpia	-10.5299
▁pressi	-10.53
▁põhjendus	-10.5304
▁legendaarne	-10.5304
▁isikuandmed	-10.5306
või	-10.531
▁kuku	-10.5313
▁ülekuulami	-10.5314
▁medal	-10.5315
au	-10.5318
▁ronima	-10.5318
▁talvine	-10.5332
▁tere	-10.5339
arv	-10.5341
▁peen	-10.5344
▁hilisem	-10.5345
▁lõplikult	-10.5346
▁trenn	-10.5348
▁kast	-10.5348
▁jaapan	-10.5352
▁vägistamine	-10.5353
▁tempo	-10.5356
end	-10.5357
▁hoiak	-10.5362
keskerakond	-10.5364
qu	-10.5366
+	-10.5369
▁ep	-10.5374
▁meie	-10.5378
▁sõnavõtt	-10.5387
▁jook	-10.5387
▁tingitud	-10.5387
▁tegutsemine	-10.539
▁tiitel	-10.539
▁reserv	-10.539
▁lõpu	-10.539
▁paanika	-10.539
▁pompeo	-10.5392
▁47	-10.5396
artikkel	-10.5404
▁ujuma	-10.5407
▁arvuta	-10.541
ido	-10.5417
▁äär	-10.542
▁regionaalhaigla	-10.5426
▁sedavõrd	-10.5427
▁loogiline	-10.5427
▁peaprokurör	-10.5428
▁äärde	-10.5428
ule	-10.5441
▁mida	-10.5441
▁ühing	-10.5444
▁terviseamet	-10.5445
▁sula	-10.5446
▁jäämine	-10.5447
mari	-10.545
▁meditsiin	-10.5452
▁sega	-10.5456
▁3000	-10.5459
▁pelga	-10.5459
▁paigas	-10.5459
laste	-10.5461
▁os	-10.5461
▁parlamendiliige	-10.5467
▁jääk	-10.5469
▁merkel	-10.5471
▁otsustav	-10.5471
▁liikleja	-10.5473
▁sisaldav	-10.5474
▁seiklus	-10.5477
▁salv	-10.548
▁võrgustik	-10.548
▁tõeliselt	-10.548
kam	-10.5484
▁kulutus	-10.5485
põhja	-10.5487
▁kergelt	-10.5489
väga	-10.549
▁ti	-10.5491
ate	-10.5497
▁tš	-10.5508
▁aspekt	-10.5509
▁fe	-10.5511
▁vastuseis	-10.5512
▁kompromiss	-10.5513
▁kõrgus	-10.5514
▁saja	-10.5515
▁eliit	-10.5517
kunst	-10.5519
▁meelega	-10.5523
▁oja	-10.5528
▁kliinikum	-10.5528
ekre	-10.5532
▁anuma	-10.5539
▁saba	-10.5539
▁venezuel	-10.554
laager	-10.554
▁kagu	-10.5542
▁veenma	-10.5546
ker	-10.5552
▁teismeline	-10.5556
▁organism	-10.5562
▁vajuma	-10.5565
▁muster	-10.5566
dokument	-10.5569
▁vähenenud	-10.5569
▁teenindus	-10.557
▁austama	-10.557
▁liiv	-10.5574
▁käski	-10.5577
▁kallal	-10.5579
▁hinna	-10.5581
▁mobiiltelefon	-10.5587
▁tsiteeri	-10.5591
▁reaalselt	-10.5592
▁vältimine	-10.5593
▁alustanud	-10.5593
▁läbiotsimine	-10.5594
▁juhata	-10.5594
▁boeing	-10.5597
▁maali	-10.5601
▁iganes	-10.5604
register	-10.5605
aafrika	-10.5612
▁valmima	-10.5612
▁pariis	-10.5616
▁maitsema	-10.5622
▁õlle	-10.5631
▁jutustama	-10.5633
▁king	-10.5634
▁teeniv	-10.5638
hh	-10.5641
▁49	-10.5641
haridus	-10.5646
olu	-10.5646
▁end	-10.565
aldor	-10.5654
▁maasikas	-10.5654
▁tänulik	-10.5663
▁loss	-10.5666
▁kole	-10.5666
▁moodustav	-10.567
▁loog	-10.5673
▁halvem	-10.5674
▁ahistamine	-10.5675
▁merevägi	-10.5676
▁eksisteeri	-10.5677
▁aleksei	-10.5678
▁kaugemale	-10.5684
▁tantsija	-10.5685
▁turundus	-10.5685
▁püü	-10.5688
merge	-10.5689
▁hein	-10.5694
▁aruanne	-10.5699
▁jõu	-10.57
▁varu	-10.5707
▁29.	-10.5708
▁iisrael	-10.5713
▁eestis	-10.5714
▁iseloom	-10.5715
▁õnnetu	-10.5717
▁püüdnud	-10.5719
▁eesots	-10.5722
▁volitus	-10.5722
kaks	-10.5724
tegelane	-10.5735
▁parkla	-10.5735
▁haldus	-10.5737
▁nõustus	-10.5738
▁vähemus	-10.5754
han	-10.5756
za	-10.5758
▁tunnustus	-10.5761
mäe	-10.5764
▁rmk	-10.5765
▁kena	-10.5766
▁seepeale	-10.5772
▁pae	-10.5772
▁swedbanki	-10.5774
ron	-10.5775
▁brüsseli	-10.5777
▁pidamine	-10.5783
▁päikese	-10.5785
uurija	-10.5785
▁600	-10.5786
▁pidulik	-10.5787
▁kujundama	-10.5787
▁inimese	-10.5788
▁surnu	-10.579
▁loov	-10.579
ya	-10.5791
min	-10.5792
▁ah	-10.5792
▁meenu	-10.5795
▁interfax	-10.5804
tootja	-10.5804
▁teadlikult	-10.5813
haigus	-10.5815
mik	-10.5817
misel	-10.5817
▁küber	-10.582
pr	-10.5823
reegel	-10.5824
▁poolsaar	-10.5825
▁allkirjastama	-10.5838
enko	-10.5841
▁heakskiit	-10.5843
▁kollektiiv	-10.5845
aator	-10.5845
▁1,5	-10.5845
▁kitsas	-10.5846
▁säutsu	-10.5849
▁kinnitanud	-10.5855
kriis	-10.5856
▁kuulaja	-10.5858
▁vaktsiin	-10.5858
enese	-10.586
ze	-10.5863
▁pangas	-10.5867
kanal	-10.5869
hiina	-10.5869
▁tootmis	-10.5874
ras	-10.5876
▁taluma	-10.5877
▁juus	-10.5881
ig	-10.5883
algama	-10.5884
▁spetsiaal	-10.5886
▁salaja	-10.5886
▁õppimine	-10.5887
▁nõusolek	-10.5887
▁saabuv	-10.5887
ster	-10.5888
▁pingutus	-10.589
▁vaatav	-10.5893
▁53	-10.5897
▁element	-10.59
▁anti	-10.5916
ny	-10.5917
▁auhind	-10.5925
▁kindlus	-10.5928
▁vangi	-10.5931
▁lasknud	-10.5932
▁sisserändaja	-10.5933
▁vegan	-10.5933
▁ümbritsev	-10.5934
▁kuulunud	-10.5934
▁2015	-10.5934
▁otsimine	-10.5937
▁hüüd	-10.5946
▁istuv	-10.5949
▁31.	-10.5963
esi	-10.5963
▁selle	-10.5964
▁jur	-10.5965
▁iirimaa	-10.597
▁keskk	-10.5971
▁hilja	-10.5972
▁islamiriik	-10.5973
▁mihkel	-10.5976
▁häbi	-10.5976
ühing	-10.5979
▁kasutatav	-10.5983
ahvusringhääling	-10.5993
▁43	-10.5996
▁56	-10.5998
▁ri	-10.6003
▁kr	-10.6005
▁52	-10.6006
▁automaat	-10.6012
▁saalima	-10.6013
▁raimond	-10.6016
▁ivo	-10.6016
fi	-10.6018
▁tegelenud	-10.6019
▁traagiline	-10.6019
▁tervishoid	-10.6023
▁vaesus	-10.6023
▁ränk	-10.6027
▁pärand	-10.6031
▁inimesed	-10.6032
▁euron	-10.6033
▁oodatud	-10.6035
▁mobiil	-10.6036
juurdlus	-10.6038
▁il	-10.6044
▁paikne	-10.6049
lind	-10.6051
▁в	-10.6053
▁telefoni	-10.6057
▁vaktsineerimine	-10.6059
ard	-10.6063
▁olek	-10.6063
tunni	-10.6068
▁igav	-10.6071
▁tn	-10.6079
▁õigusriik	-10.608
▁800	-10.6081
▁kallale	-10.6088
▁võitnud	-10.609
▁tuleviku	-10.609
▁kriisi	-10.6091
▁disain	-10.6094
▁ideoloogia	-10.6103
▁tihtipeale	-10.6104
▁õhuruum	-10.6104
▁ingliskeelne	-10.6105
▁valmisolek	-10.6105
▁asekantsler	-10.6106
▁leid	-10.6108
▁kantselei	-10.6109
mb	-10.611
▁jätmine	-10.6111
▁põgenik	-10.6111
▁kooskõla	-10.6115
▁maksumus	-10.6117
▁osalu	-10.6119
▁puna	-10.6123
▁pika	-10.6126
▁juubel	-10.6129
pidu	-10.6131
▁teadvus	-10.6132
▁lastud	-10.6134
poiss	-10.6135
politseijaoskond	-10.6135
idele	-10.6135
▁kinnipidami	-10.6137
▁ettevaatlik	-10.614
aru	-10.6141
▁posti	-10.6146
▁lugenud	-10.6146
▁säilitamine	-10.6151
▁kaebama	-10.6151
siis	-10.6152
▁viibiv	-10.6153
▁kõikvõimalik	-10.6153
▁puhtalt	-10.6154
▁mainitud	-10.6154
▁florida	-10.6157
▁lõhe	-10.6158
▁valitseja	-10.6159
aste	-10.616
▁haiglasse	-10.616
tatav	-10.6161
▁sügavalt	-10.6163
▁paisku	-10.6166
▁tohutult	-10.6166
▁naiste	-10.6169
▁nu	-10.6178
▁agentuur	-10.6182
nna	-10.6184
▁kodumaine	-10.6191
▁rahulolematu	-10.6192
▁kohtuasi	-10.6194
konna	-10.6199
▁saavutus	-10.62
▁õiguskantsler	-10.6201
ikult	-10.6202
▁johannes	-10.6202
ehitus	-10.6208
▁püks	-10.6208
▁suitsu	-10.6211
tehas	-10.6213
riigikogu	-10.6217
▁hobune	-10.6221
▁koostatud	-10.6226
▁pealegi	-10.6227
▁suitsuma	-10.6229
▁veok	-10.6233
▁jäetud	-10.6235
▁tõenäoline	-10.6235
▁tšehh	-10.6236
▁laht	-10.6238
list	-10.6238
▁raskelt	-10.6241
▁kukk	-10.6242
▁väär	-10.6246
▁tarkvara	-10.6247
▁kaaslane	-10.625
▁raik	-10.6255
▁register	-10.6257
▁mõttetu	-10.6259
ugune	-10.626
▁sent	-10.6261
▁väljend	-10.6262
ohver	-10.6263
nimi	-10.6271
▁aktsioon	-10.6272
▁tundlik	-10.6273
▁sir	-10.6275
▁andrei	-10.6275
▁miinus	-10.6279
▁associa	-10.6279
▁kaubamärk	-10.628
▁sõlmitud	-10.6281
▁üllatama	-10.6283
▁paljastama	-10.6286
▁telefonikõne	-10.6288
▁hirve	-10.629
▁120	-10.6293
▁daam	-10.6294
▁kapo	-10.6298
▁töötasu	-10.6299
▁produtsent	-10.63
▁kahene	-10.6306
▁paigaldama	-10.6307
relv	-10.6307
▁seaduslik	-10.6307
▁varastama	-10.6312
oskus	-10.6317
▁arusaamatu	-10.6319
▁are	-10.6321
▁ni	-10.6325
▁pakend	-10.6325
▁praktiline	-10.6326
▁suveräänsus	-10.6328
suvi	-10.6329
▁ho	-10.6329
▁diivan	-10.6333
▁reporter	-10.6334
atav	-10.6338
hetk	-10.634
▁muutnud	-10.634
▁mor	-10.6344
tuul	-10.6347
▁ametkond	-10.6348
▁õpe	-10.6352
▁tegi	-10.6353
▁kinnistu	-10.6365
▁hoo	-10.6365
raja	-10.637
▁kantud	-10.6372
▁kortermaja	-10.6375
▁california	-10.6382
jev	-10.6391
▁stiili	-10.6392
loom	-10.6393
▁päevakord	-10.6405
ld	-10.6406
riigi	-10.6406
▁lühem	-10.6414
▁kommunistlik	-10.6416
▁vastasseis	-10.6417
▁naljakas	-10.6418
▁ähvardus	-10.6423
▁vasak	-10.6426
▁kaalep	-10.6427
▁kasvõi	-10.6429
▁sooritama	-10.6433
toit	-10.6435
▁toodang	-10.6437
▁hoolitsema	-10.6437
nis	-10.6438
▁sõltuvus	-10.6438
▁umbusaldus	-10.644
-40	-10.644
ill	-10.6441
▁raamatu	-10.6443
▁täiskasvanud	-10.6449
▁vaene	-10.6455
mises	-10.6457
▁kaitseliit	-10.6459
▁betoon	-10.6459
▁pensioni	-10.646
▁pakutud	-10.6462
▁sihtmärk	-10.6462
▁suurendamine	-10.6463
▁mürgitamine	-10.6463
▁päts	-10.6466
▁sünnitus	-10.6467
▁maduro	-10.6468
▁lähis	-10.647
▁tantsima	-10.6472
▁protokoll	-10.6474
iliselt	-10.648
▁šveitsi	-10.6481
▁cha	-10.6481
eni	-10.6483
▁kiriku	-10.6483
▁allveelaev	-10.6485
▁liisa	-10.6488
▁2009.	-10.649
▁elamus	-10.649
▁2008.	-10.6496
ava	-10.6497
kontroll	-10.6501
ley	-10.6503
▁hitler	-10.6504
▁relvajõud	-10.6505
▁viisa	-10.6506
▁kuberner	-10.651
▁pagulane	-10.651
▁retsept	-10.6513
▁you	-10.6516
by	-10.652
▁sugu	-10.6526
toim	-10.6526
ow	-10.6531
ajakirjanik	-10.6534
▁64	-10.6539
väärtus	-10.6541
seis	-10.6543
▁piinlik	-10.6546
▁puiestee	-10.655
▁kannatus	-10.6551
▁paari	-10.6552
▁põhikool	-10.6554
▁kutsunud	-10.6554
и	-10.6554
▁bio	-10.6554
▁esitlema	-10.6554
▁saatmine	-10.6557
▁ber	-10.6559
lin	-10.656
▁anna	-10.656
meedia	-10.6564
nurk	-10.6571
▁tõhus	-10.6571
▁lõhkuma	-10.6578
plaat	-10.658
▁närv	-10.6586
▁tulene	-10.6587
▁maastik	-10.6588
▁arnol	-10.659
▁tegemata	-10.6594
▁kahane	-10.6596
▁stabiilne	-10.6596
▁lisanduma	-10.6598
▁kajastama	-10.6599
▁700	-10.66
▁helilooja	-10.6601
▁kõrgharidus	-10.6602
▁depressioon	-10.6606
▁toov	-10.6608
▁maaelu	-10.6611
liiklus	-10.6611
▁vaevalt	-10.6611
▁leedus	-10.6614
▁je	-10.6623
sen	-10.6626
dis	-10.6629
▁kõ	-10.6633
ey	-10.6639
▁mehe	-10.6642
▁haruldane	-10.6642
▁täidetud	-10.6642
▁tekitatud	-10.6643
▁imema	-10.6648
▁nä	-10.6649
▁1990	-10.665
▁peter	-10.6651
▁juhus	-10.6652
▁randjärv	-10.6655
▁kehtestatu	-10.6659
▁väin	-10.666
▁balticu	-10.6664
▁vanu	-10.6667
▁range	-10.6668
24	-10.6675
tro	-10.6676
▁miil	-10.6679
aim	-10.6687
▁goog	-10.6687
koha	-10.6687
▁loobumi	-10.6687
▁teinekord	-10.6688
art	-10.6689
▁jõuk	-10.6691
▁teeninud	-10.6692
▁muutumine	-10.6693
▁veebi	-10.6693
▁mesila	-10.6695
▁kuskilt	-10.67
▁reisima	-10.67
▁soojus	-10.6701
▁pingutama	-10.6704
▁aktivist	-10.6708
võte	-10.6715
▁paiknev	-10.6717
▁levitama	-10.6718
▁vaatamine	-10.6722
ok	-10.6734
▁ameti	-10.6737
▁loonud	-10.674
▁mölder	-10.6741
▁nalja	-10.6749
▁kaeba	-10.6753
▁matka	-10.6753
▁varas	-10.6754
▁pesa	-10.6755
▁ideaalne	-10.676
ino	-10.6762
▁rahastus	-10.6762
peaminister	-10.6766
muu	-10.6768
▁suusa	-10.6769
ek	-10.6779
▁isiku	-10.6781
▁niikuinii	-10.6782
▁planeet	-10.6782
▁kauge	-10.6782
▁igapäevaselt	-10.6783
▁eriprokurör	-10.6784
▁regulaarselt	-10.6784
▁fookus	-10.6786
▁jälgimine	-10.6786
▁komitee	-10.6786
gen	-10.6786
kindel	-10.6788
▁koormus	-10.6788
▁ladu	-10.6793
▁kraam	-10.6795
▁tõlgenda	-10.6796
euros	-10.6798
▁sall	-10.6804
▁nooruk	-10.6805
▁koridor	-10.6807
hooaeg	-10.6813
koalitsioon	-10.6813
▁sõrm	-10.6816
▁magus	-10.6819
▁rada	-10.6819
uline	-10.682
–19	-10.6823
▁serv	-10.6825
▁pesema	-10.6825
saamine	-10.6825
▁abielluma	-10.6828
▁hiiglaslik	-10.6829
▁makse	-10.683
▁inimkond	-10.6831
▁vill	-10.6832
▁juhtimis	-10.6832
▁tänapäevane	-10.6833
kohtunik	-10.6835
▁kuulsus	-10.6838
▁doktor	-10.6839
▁ernits	-10.6841
aastaselt	-10.6842
▁hulgast	-10.6842
teater	-10.6843
▁viimaks	-10.6846
▁tuule	-10.6847
▁arendaja	-10.6848
у	-10.6854
▁piirdu	-10.6854
▁2007.	-10.6857
▁skeem	-10.6863
▁efekt	-10.6865
teade	-10.6867
vald	-10.6867
▁pühendatud	-10.6877
▁saak	-10.6877
korida	-10.6878
▁kiisler	-10.6879
▁populaarsem	-10.6882
festival	-10.6883
rä	-10.6885
katse	-10.6887
▁pääsemine	-10.6888
▁kiirem	-10.689
aar	-10.6891
▁unistama	-10.6894
▁termin	-10.6897
▁tunnel	-10.6899
▁katrin	-10.69
▁meenutav	-10.6903
▁liidu	-10.6903
▁analüüsi	-10.6904
▁jutu	-10.6905
▁dis	-10.6905
▁gur	-10.6907
▁kaitsepolitsei	-10.6912
▁emakeel	-10.6916
▁ver	-10.6927
rk	-10.6941
tallinn	-10.6942
▁max	-10.6951
aad	-10.6951
stunud	-10.6955
▁bal	-10.6956
iitsministeerium	-10.6956
▁seisnud	-10.6959
uut	-10.6962
▁parane	-10.6966
▁eksimus	-10.6971
▁riho	-10.6973
▁rahvastik	-10.6975
▁elmar	-10.6977
tz	-10.6978
▁puude	-10.6978
▁esindajateko	-10.6979
▁nikolai	-10.6982
eelne	-10.6984
▁viide	-10.6988
▁retoorikas	-10.6988
▁rahastama	-10.699
▁kirjutamine	-10.6992
▁jä	-10.6995
od	-10.7008
▁nuti	-10.7016
▁kilogramm	-10.7019
▁tänaseni	-10.7019
▁õhujõud	-10.702
▁kaine	-10.7021
▁juhuslikult	-10.7022
koer	-10.7022
▁tegelemine	-10.7025
▁institutsioon	-10.7026
talu	-10.7027
▁purusta	-10.7028
▁teisalt	-10.703
▁vest	-10.703
▁räppar	-10.7032
▁arhitekt	-10.7032
▁hoiu	-10.7035
▁fi	-10.7037
50	-10.7039
▁mõtlev	-10.7044
võrgustik	-10.7047
ova	-10.7055
endama	-10.7065
▁opereeri	-10.7067
▁rektor	-10.7067
▁berliini	-10.7068
▁andme	-10.7075
▁peipsi	-10.7075
▁juhan	-10.7075
▁välisriik	-10.7076
▁oi	-10.7078
▁hannes	-10.708
▁kaotamine	-10.7083
▁vasakpool	-10.7086
jutt	-10.7089
▁jätkami	-10.7092
▁valda	-10.7096
kava	-10.7097
peo	-10.7098
▁langus	-10.7099
▁vähenemine	-10.71
▁traktor	-10.7103
▁loomine	-10.7104
▁üleminek	-10.7106
▁tulumaks	-10.7115
▁van	-10.7117
▁ründaja	-10.712
▁kaitseväelane	-10.7121
,9	-10.7122
ens	-10.7127
▁maksuamet	-10.7127
atu	-10.7128
▁teooria	-10.7131
▁pärt	-10.7134
▁kur	-10.7134
▁tarbima	-10.7134
▁harjutama	-10.7135
▁omamoodi	-10.7138
,4	-10.7142
hn	-10.7142
▁kogudus	-10.7144
teks	-10.715
▁kümnend	-10.7151
▁omandama	-10.7151
▁rahandus	-10.7157
▁vaat	-10.7168
▁suunduma	-10.7168
▁koppel	-10.7169
▁kolonel	-10.7171
▁tõ	-10.7172
▁biit	-10.7175
▁naas	-10.7176
▁liis	-10.7177
▁im	-10.7179
▁sikk	-10.7179
▁liigutama	-10.7179
▁kuulamine	-10.7184
▁tajuma	-10.7184
▁peab	-10.7185
▁ain	-10.7185
▁koosnev	-10.7189
▁se	-10.719
▁rike	-10.7191
▁planeerima	-10.7193
,8	-10.7197
vool	-10.7199
strateegia	-10.7199
▁pomm	-10.7202
▁pettai	-10.7209
▁mängija	-10.7211
▁pahameel	-10.7213
▁kergesti	-10.7214
▁akadeemili	-10.7214
staja	-10.7215
▁alustamine	-10.722
▁paus	-10.7221
▁mihkelson	-10.7221
▁terrori	-10.7222
▁eelistus	-10.7227
▁salu	-10.7228
▁hagi	-10.7229
▁protsenti	-10.723
vanem	-10.7235
▁54	-10.7235
▁rull	-10.7237
▁enn	-10.724
ran	-10.7244
▁elumaja	-10.7246
saksamaa	-10.7248
▁koristama	-10.7252
dy	-10.7254
▁kits	-10.7255
▁hääle	-10.7256
▁lastekaitse	-10.7263
▁selgitamine	-10.7264
▁läbiviimine	-10.7264
▁põhjendatud	-10.7265
äkki	-10.7267
kal	-10.7268
▁kahtlema	-10.7268
▁tagasiside	-10.7269
▁tookord	-10.727
▁situatsioon	-10.7272
▁paralleel	-10.7275
▁kartul	-10.728
oot	-10.7284
▁lahkumis	-10.7291
direktor	-10.7292
▁kinnitav	-10.7294
▁tuumarelv	-10.7297
tunud	-10.7301
▁sündmuskohal	-10.7302
reformierakond	-10.7302
wa	-10.7305
kuma	-10.7308
▁ehe	-10.731
▁bakter	-10.7312
▁esikoht	-10.7315
▁pink	-10.7317
tum	-10.732
▁müra	-10.7322
▁kol	-10.7324
lased	-10.7327
▁lee	-10.733
▁kättesaadavus	-10.733
▁tahes	-10.7334
▁kakskümmend	-10.7335
▁julge	-10.7337
ati	-10.7341
likum	-10.7345
▁tuhande	-10.7346
▁en	-10.7349
▁ga	-10.7354
noor	-10.7356
▁kuldne	-10.7356
we	-10.7359
stav	-10.736
▁pakkunud	-10.7361
▁tarvitamine	-10.7361
▁relvastatud	-10.7361
ena	-10.7362
häire	-10.7363
kate	-10.7363
▁uurinud	-10.7364
▁kuuba	-10.7364
▁langetamine	-10.7364
▁identiteet	-10.7369
▁ser	-10.7371
silm	-10.7371
▁veenduma	-10.7373
sina	-10.7375
sündmus	-10.7381
▁püsiv	-10.7381
▁insener	-10.7382
▁mich	-10.7383
ndamine	-10.7383
konnaprokuratuur	-10.7388
▁peast	-10.739
▁lähedale	-10.7391
▁vabandust	-10.7393
varem	-10.7403
▁85	-10.7405
▁kaasama	-10.7407
äär	-10.7409
▁otsast	-10.741
▁justiits	-10.7411
etu	-10.7415
▁maapiirkond	-10.7418
▁vabanema	-10.742
▁mässuli	-10.7434
nagu	-10.7435
▁rain	-10.7436
▁jõe	-10.7441
▁car	-10.7441
▁väärtuslik	-10.7444
nda	-10.7448
▁varustus	-10.745
▁kliinik	-10.7453
▁aut	-10.7456
▁taan	-10.746
▁maksimaalse	-10.746
▁senaator	-10.746
▁tra	-10.7462
▁abort	-10.7464
▁fänn	-10.7465
▁ahi	-10.7466
▁28.	-10.7472
rin	-10.7473
".	-10.7482
▁gre	-10.7482
▁с	-10.7485
▁etapp	-10.749
idama	-10.7494
gus	-10.7494
aga	-10.7498
▁tagasihoidlik	-10.7498
press	-10.7498
▁vähk	-10.7499
kä	-10.7499
eestlane	-10.7499
▁onu	-10.7501
▁keskhaigla	-10.751
▁kuues	-10.751
▁eriplaneering	-10.751
▁tõsiasi	-10.7514
▁tagantjärele	-10.7514
kesk	-10.7515
▁kalmistu	-10.7516
▁cohen	-10.7517
▁aleksander	-10.7519
▁hoid	-10.7521
utama	-10.7522
▁mööbel	-10.7526
ettevõtja	-10.7529
tegelikult	-10.7534
konto	-10.7534
kaaslane	-10.7539
▁liigne	-10.7539
▁kõrg	-10.7545
▁liberaal	-10.7548
▁toodetud	-10.7548
▁tööjõud	-10.7552
▁matma	-10.7554
▁atmosfäär	-10.7561
▁unikaalne	-10.7561
▁veider	-10.7561
▁kõla	-10.7561
kultuuriminister	-10.7562
▁vallavalitsus	-10.7563
▁tugevdama	-10.7564
▁rän	-10.7564
siga	-10.7567
ns	-10.7568
▁käivitama	-10.7571
ole	-10.7572
▁niinistö	-10.7572
vam	-10.7573
▁ukrain	-10.7575
kur	-10.758
▁tri	-10.758
aid	-10.7581
riigiprokuratuur	-10.7589
▁26.	-10.7589
nädal	-10.7591
▁katsetama	-10.7591
ler	-10.7592
har	-10.7593
▁paavst	-10.7597
portaal	-10.7601
lan	-10.7604
▁kohtunud	-10.7611
▁paremäärmuslik	-10.7611
▁emmanu	-10.7611
kirja	-10.7611
▁andmebaas	-10.7611
▁tellitud	-10.7614
vajadus	-10.7616
▁58	-10.7618
▁raam	-10.7621
prokurör	-10.7624
▁ur	-10.7624
jää	-10.7624
▁bän	-10.7627
eg	-10.7631
▁tartumaa	-10.7631
▁plast	-10.7632
▁raba	-10.7634
▁oleks	-10.7635
▁avalikustama	-10.7645
▁otsa	-10.7647
all	-10.7653
jalg	-10.7654
▁1990.	-10.7655
р	-10.7661
▁trellid	-10.7662
▁ajavahem	-10.7662
▁silmitsi	-10.7663
skama	-10.7663
▁juhitav	-10.7666
mani	-10.7666
siin	-10.7667
▁esinenud	-10.7667
▁riigihaldus	-10.7668
nov	-10.7668
▁gräzin	-10.7668
õhk	-10.767
▁250	-10.7675
▁rist	-10.7683
▁ehitis	-10.7684
▁arusaadav	-10.7684
▁vaimulik	-10.7684
vaade	-10.7686
▁peegelda	-10.7689
▁huumor	-10.7692
▁luule	-10.7695
kuju	-10.7697
▁jube	-10.77
▁järgi	-10.7701
,3	-10.7704
▁kahjulik	-10.7706
▁inimesi	-10.7714
lisus	-10.7715
▁puhta	-10.7717
läti	-10.7719
▁bi	-10.7719
▁kah	-10.7721
▁standard	-10.7724
▁indoneesia	-10.7725
▁vaatlema	-10.7725
▁ist	-10.7726
▁hankima	-10.7726
▁kostma	-10.7727
ime	-10.7727
konverents	-10.773
▁112	-10.7733
▁segane	-10.7738
sõiduk	-10.7739
aed	-10.774
▁katkestama	-10.7745
▁sta	-10.7745
▁du	-10.7746
▁viirus	-10.7747
tselluloositehas	-10.775
▁õis	-10.7752
60	-10.7757
korraldus	-10.7758
dele	-10.7759
▁mõnevõrra	-10.7765
▁päästmine	-10.7765
▁artur	-10.7766
▁psühholoogiline	-10.7767
▁tabanud	-10.7768
▁piirivalvur	-10.7769
▁õhtuleht	-10.7775
▁üliõpilane	-10.7775
dam	-10.7776
▁trepp	-10.7776
▁kasvatamine	-10.7776
▁tablett	-10.7779
▁vaik	-10.7783
▁sõltumata	-10.7786
kett	-10.779
▁kinnitatud	-10.7791
▁valimiste	-10.7797
▁puhke	-10.7805
▁pooleli	-10.7806
▁ukrainla	-10.781
lennu	-10.7811
▁mur	-10.7811
▁valitsusjuht	-10.7813
▁kõnelus	-10.7814
▁27.	-10.7815
▁ger	-10.7816
▁enesetapp	-10.7817
▁märgitud	-10.7818
▁tagasiastumine	-10.7819
▁istanbul	-10.782
▁napilt	-10.782
▁armas	-10.7821
▁emo	-10.7822
▁mängiv	-10.7824
▁suri	-10.7824
duma	-10.7826
▁hell	-10.783
▁kere	-10.7835
▁hans	-10.784
▁udu	-10.7841
▁astumine	-10.7843
▁käsitöö	-10.7847
▁debatt	-10.785
▁kangelane	-10.785
utus	-10.7856
▁ministri	-10.7856
▁mõjutav	-10.7864
▁luu	-10.7865
▁tiim	-10.7866
▁atko	-10.787
firm	-10.787
▁loodetav	-10.7871
▁kõrgetasemeli	-10.7872
▁metall	-10.7876
▁tõnisson	-10.7876
▁5000	-10.7877
▁infosüsteem	-10.7883
tamm	-10.7883
▁levi	-10.7891
▁valitsemine	-10.7893
itamine	-10.7894
▁rootsla	-10.7895
▁valmistamine	-10.7898
▁ostnud	-10.7901
▁nats	-10.7903
л	-10.7906
▁peatuma	-10.7916
kiht	-10.7919
▁parajasti	-10.7922
▁usaldusväärne	-10.7922
▁liikuv	-10.7922
vend	-10.7922
last	-10.7922
▁keemia	-10.7924
▁teaduslik	-10.7925
▁diskussioon	-10.7927
▁roosa	-10.7927
▁ilmar	-10.7928
▁luuletus	-10.7929
▁tuletõrje	-10.7929
▁poliitiliselt	-10.7931
pro	-10.7931
laadne	-10.7933
▁viitsi	-10.7937
▁hiinla	-10.7939
▁kanepi	-10.7944
▁tõsisem	-10.7946
uur	-10.7948
rada	-10.795
järel	-10.795
▁häirima	-10.7952
▁mäe	-10.7952
▁ku	-10.7955
ringkond	-10.7956
ob	-10.7962
▁kaalu	-10.7969
pidama	-10.7972
▁nutitelefon	-10.7974
▁hirmus	-10.7976
▁kra	-10.7976
▁laekunud	-10.7976
▁veteran	-10.798
▁anda	-10.7982
▁majanduskasv	-10.7982
▁rääkimine	-10.7983
▁käive	-10.7983
▁seisev	-10.7984
▁oks	-10.7985
▁palo	-10.7989
▁haud	-10.7991
rik	-10.7992
praegune	-10.7993
40	-10.7993
▁julm	-10.7996
▁mujale	-10.7999
▁veen	-10.8
▁peatamine	-10.8001
men	-10.8002
▁pikendama	-10.8004
▁investeerimis	-10.8006
▁kraav	-10.8014
▁kapital	-10.8014
rov	-10.8015
itus	-10.8016
poeg	-10.8018
ajaleht	-10.8021
▁bmw	-10.8027
▁kandidatuur	-10.8027
▁agressiivne	-10.8027
▁ajateenija	-10.8027
▁kõnnitee	-10.8027
▁mõõt	-10.8027
▁rasedus	-10.8027
▁märganud	-10.8028
▁pilv	-10.803
▁nõudlus	-10.8033
▁kogunud	-10.8046
pakk	-10.8046
▁metsik	-10.8055
▁63	-10.8065
pai	-10.8069
▁stress	-10.8072
▁laiendama	-10.8072
▁rapla	-10.8079
▁etteheide	-10.808
▁üpris	-10.808
▁võrdselt	-10.8081
▁prantslane	-10.8081
▁üksinda	-10.8081
▁hoolikalt	-10.8082
▁infotehnoloogia	-10.8084
▁tarvitama	-10.8084
▁kehtestamine	-10.8089
▁vägivalla	-10.809
▁rock	-10.8099
▁vastupidine	-10.8102
▁jahi	-10.8108
▁tor	-10.8109
▁sügavam	-10.8109
kompleks	-10.811
▁aeguma	-10.8114
▁vilja	-10.8117
▁sten	-10.8117
reform	-10.8121
▁sõidutee	-10.8123
▁saate	-10.8124
▁mood	-10.8126
▁uhkus	-10.8127
uudis	-10.813
▁võõr	-10.8131
oloogia	-10.8133
▁toor	-10.8133
▁aktuaalne	-10.8134
▁keskerakonna	-10.8134
▁pettumus	-10.8134
▁naisterahvas	-10.8134
▁maailmavaade	-10.8135
▁tuginema	-10.8135
▁naha	-10.8136
▁minu	-10.814
▁võitlemine	-10.8141
▁vandeadvokaat	-10.8141
▁loosung	-10.8141
▁kihn	-10.8144
▁pankrott	-10.8144
lõige	-10.8153
tati	-10.8155
▁oleg	-10.8161
kasutus	-10.8162
olek	-10.8163
▁esindav	-10.8165
ern	-10.8166
kohtu	-10.8167
▁lennuki	-10.8168
▁sibul	-10.8168
▁marek	-10.8171
▁esinev	-10.8172
narva	-10.818
▁sol	-10.8181
▁gi	-10.8182
saks	-10.819
▁olga	-10.819
▁vabatahtlikult	-10.8191
▁arengukava	-10.8191
ses	-10.8193
▁krist	-10.8196
▁arstiabi	-10.8196
▁visioon	-10.8196
▁õppejõud	-10.8198
,6	-10.8204
▁repinski	-10.8204
▁tar	-10.8204
▁funktsioon	-10.8206
▁väärikas	-10.8206
▁transport	-10.821
▁mugavus	-10.8212
kor	-10.8212
rt	-10.822
▁parempool	-10.8221
▁rõiva	-10.8223
▁võlu	-10.8226
▁etv	-10.8227
▁ad	-10.8228
▁2014	-10.8231
▁67	-10.8231
▁lehm	-10.8233
akt	-10.8233
á	-10.8237
▁palu	-10.8238
▁missugune	-10.824
▁ligu	-10.824
▁sentimeeter	-10.8241
▁palgatõus	-10.8242
▁raekoda	-10.8242
▁erimeelsus	-10.8242
▁miinimum	-10.8243
▁turvamees	-10.8243
ation	-10.8244
▁kujutav	-10.8248
▁arvutus	-10.8252
▁mõistmine	-10.8253
▁pisar	-10.8254
▁liikumis	-10.8256
sõ	-10.8256
▁füüsiliselt	-10.8257
riie	-10.8259
▁seostama	-10.8261
▁sini	-10.8264
▁62	-10.8265
▁ok	-10.8268
▁radikaal	-10.8276
▁kolmene	-10.8276
▁viljandimaa	-10.8286
▁asetama	-10.8287
kasvataja	-10.8287
ana	-10.8291
-10	-10.8292
▁nt	-10.8293
▁viit	-10.8294
▁ülima	-10.8295
▁okei	-10.8296
▁särav	-10.8296
▁väsinud	-10.8298
▁hanno	-10.83
▁kandev	-10.8304
▁peit	-10.8305
▁tüüpili	-10.8305
▁sihtkoht	-10.8306
kohustus	-10.8307
sõja	-10.8311
gan	-10.8323
par	-10.8323
▁viina	-10.8325
▁sky	-10.8325
▁piim	-10.8328
▁57	-10.8333
▁kütt	-10.8342
▁lammas	-10.8351
▁lepitud	-10.8352
▁kandideerimine	-10.8352
▁seaduseelnõu	-10.8352
▁is	-10.8356
atus	-10.8358
▁natukene	-10.8359
▁san	-10.8365
▁tugevus	-10.8366
▁lahus	-10.8368
▁jaoskond	-10.8369
▁lähemale	-10.8369
▁raie	-10.8369
den	-10.8383
rist	-10.8386
▁lühi	-10.839
ez	-10.8394
▁koera	-10.8397
▁alaver	-10.8398
nõunik	-10.8398
▁sammas	-10.8399
▁reguleerima	-10.8401
▁pra	-10.8402
▁orkaan	-10.8406
läbirääkimine	-10.8408
▁pakutav	-10.841
kohtumine	-10.8411
▁muudetud	-10.8411
kontsert	-10.8413
huvi	-10.8415
▁rahakott	-10.8415
liis	-10.8415
▁koobas	-10.8417
▁seen	-10.8418
▁ärevus	-10.8421
▁real	-10.8422
▁äärmus	-10.8422
viru	-10.8423
▁start	-10.8427
▁käe	-10.8429
baas	-10.8433
▁cm	-10.8434
nimeli	-10.8437
▁firmas	-10.8438
.30	-10.8452
kaubandus	-10.8452
▁sool	-10.8453
▁kirg	-10.8454
▁sisemi	-10.846
kon	-10.8461
▁piirikaubandus	-10.8461
sein	-10.8461
kallas	-10.8463
▁meeskonnaliige	-10.8466
▁piiramine	-10.8467
,7	-10.8467
▁bassein	-10.8473
▁leek	-10.8473
▁asula	-10.8475
.2017	-10.8475
▁rühmitus	-10.8477
▁kaug	-10.8477
▁ülemine	-10.8478
sson	-10.8483
▁firm	-10.8483
▁kahetsema	-10.8486
▁kapp	-10.8489
▁aia	-10.849
▁valdus	-10.8491
▁lihas	-10.8493
▁lubav	-10.8494
ug	-10.8496
▁tarve	-10.8497
▁ebamugav	-10.8497
▁ir	-10.8501
▁postitama	-10.8502
proov	-10.8506
haigla	-10.8511
▁läbinud	-10.8512
▁moslem	-10.8512
▁loominguline	-10.8517
▁arvatavasti	-10.8518
▁za	-10.8518
▁majapidamine	-10.8519
▁instagram	-10.852
▁rakendamine	-10.852
▁peterson	-10.8522
märkimisväärselt	-10.8522
▁nägemus	-10.8523
▁britt	-10.8524
▁ambitsioon	-10.8525
▁mini	-10.8526
auk	-10.8531
▁ts	-10.8536
▁tagatud	-10.8544
üü	-10.8545
lk	-10.8545
din	-10.8547
▁ravima	-10.8547
rus	-10.8551
▁käitumis	-10.8551
anna	-10.8553
her	-10.8557
▁vastanu	-10.8557
mitu	-10.8559
müük	-10.8559
▁kasvu	-10.8559
▁valk	-10.856
▁ummik	-10.8566
ekspress	-10.8568
▁maksimaalne	-10.8572
▁perling	-10.8572
▁erasektor	-10.8573
▁raul	-10.8574
▁eriolukord	-10.8576
▁kõrvaldama	-10.8577
jaan	-10.8581
▁aega	-10.8584
liikmeli	-10.8585
▁pärn	-10.8585
rünnak	-10.8586
▁põlva	-10.8587
▁sch	-10.859
▁oskav	-10.8591
▁sirge	-10.8591
▁tiina	-10.8593
▁pakkima	-10.8594
▁arvestus	-10.8594
▁nordica	-10.8595
▁soodus	-10.8599
▁pildistama	-10.86
▁tam	-10.8604
▁pommi	-10.8604
▁koondama	-10.8605
▁peri	-10.8605
▁puhastama	-10.8605
▁tõstata	-10.8608
▁lõhn	-10.8609
▁foorum	-10.8609
▁pall	-10.861
käsi	-10.8617
▁põrgu	-10.8619
▁moodusta	-10.862
ude	-10.8624
▁paki	-10.8628
▁farm	-10.8629
▁valimistulemus	-10.8629
sepp	-10.863
▁ossinovski	-10.8632
soov	-10.8634
▁teeolu	-10.8635
▁paratamatult	-10.8636
▁esindatud	-10.8636
erakonnakaaslane	-10.8638
▁nipp	-10.8639
▁hinnatud	-10.864
kkel	-10.8649
▁leet	-10.8657
▁kert	-10.8667
▁toimetaja	-10.8668
▁protesti	-10.867
▁ühekord	-10.8675
▁room	-10.8676
▁gr	-10.8676
▁ametiühing	-10.8676
platvorm	-10.8678
album	-10.8679
▁pildi	-10.8681
▁mer	-10.8682
▁kohusetäitja	-10.8685
▁abivajaja	-10.8686
▁kuninglik	-10.8686
▁vahejuhtum	-10.8693
hl	-10.871
pel	-10.8715
lanna	-10.873
▁karjuma	-10.8742
tõ	-10.8742
▁tekkimine	-10.8743
▁kogemata	-10.8747
▁loeng	-10.8747
▁eraisik	-10.8747
▁kommunist	-10.8748
▁riigijuht	-10.8748
▁maksnud	-10.875
▁tiib	-10.8755
poliitiline	-10.8756
▁naer	-10.8757
sild	-10.876
uke	-10.8763
rootsi	-10.8765
▁zelenskõi	-10.8767
kogemus	-10.8774
▁laadima	-10.8778
õnn	-10.8779
▁tseremoonia	-10.8786
▁0	-10.879
▁järve	-10.8791
▁suvali	-10.8797
▁visuaal	-10.8799
▁sõbranna	-10.8799
palk	-10.8802
▁tank	-10.8803
jas	-10.8803
▁ettekanne	-10.8805
▁automaatselt	-10.8806
▁austus	-10.8809
▁tähistamine	-10.8809
▁noorus	-10.8809
▁meditsiinili	-10.881
iin	-10.8813
▁59	-10.8815
▁järk	-10.8817
▁liiva	-10.8824
luu	-10.8825
▁mujalt	-10.8827
▁up	-10.8827
▁õe	-10.8827
ila	-10.8828
▁üksikas	-10.8828
▁õues	-10.8829
▁osta	-10.8829
ettepanek	-10.8832
▁hor	-10.8833
▁kavandama	-10.8833
▁salong	-10.8834
bar	-10.8838
tur	-10.884
uid	-10.884
paber	-10.8853
▁kate	-10.8856
▁beep	-10.8858
▁metsandus	-10.8858
▁saavutanud	-10.8859
▁lennart	-10.886
ning	-10.8861
м	-10.8863
▁lahke	-10.8864
▁vahur	-10.8867
rida	-10.8874
▁vooglaid	-10.8875
▁my	-10.8876
▁lett	-10.8877
▁tammsaar	-10.8878
▁seesugune	-10.8882
26	-10.8882
▁lõ	-10.8882
▁66	-10.8891
ion	-10.8897
90	-10.8903
seisev	-10.8906
lõpp	-10.8907
tegija	-10.8909
▁hi	-10.8911
▁nõudnud	-10.8914
▁prints	-10.8915
▁hämar	-10.8915
▁pettunud	-10.8916
▁vabadussõda	-10.8917
▁elluviimine	-10.8917
▁toimimine	-10.8918
lõik	-10.8918
▁laek	-10.892
▁nälg	-10.892
▁tooraine	-10.892
▁andeka	-10.8923
▁sõlmimi	-10.8925
korra	-10.8925
▁edendamine	-10.8926
che	-10.8929
▁põlevkivi	-10.893
▁singel	-10.8933
▁pi	-10.8938
▁pl	-10.894
▁šveits	-10.8944
▁peegel	-10.8945
▁stseen	-10.8946
tesse	-10.8947
ndanud	-10.8947
▁välismai	-10.8948
▁kitarr	-10.8958
▁peitma	-10.8961
▁liitumi	-10.8964
▁gei	-10.8968
▁väljaütlemi	-10.8971
▁tehnikaülikool	-10.8973
om	-10.8973
▁pooldaja	-10.8976
▁vassiljev	-10.8977
▁taxify	-10.8978
▁tuletõrjuja	-10.8978
▁ajav	-10.898
▁gross	-10.8981
oloog	-10.8986
sest	-10.8991
▁süütama	-10.8992
▁vajutama	-10.8994
▁vaatlus	-10.8995
▁poolas	-10.8999
▁arhiiv	-10.9005
▁meeletu	-10.9012
▁toiduaine	-10.9012
▁kuressaare	-10.9013
▁sügise	-10.9013
▁moos	-10.9017
damine	-10.9018
uni	-10.9022
idma	-10.9023
▁pre	-10.9026
▁mikro	-10.9031
▁pikaaegne	-10.9031
vana	-10.9032
▁hõlmama	-10.9033
▁eraelu	-10.9034
▁komöödia	-10.9037
kohalik	-10.9037
▁tühistamine	-10.9039
▁massi	-10.904
ldus	-10.9042
▁õun	-10.9043
▁toetuma	-10.9043
▁kingo	-10.9046
▁ben	-10.9048
▁lenduma	-10.9055
▁lust	-10.9056
▁natsi	-10.9061
▁sobilik	-10.9064
mart	-10.9072
▁karin	-10.9075
▁hobi	-10.9075
▁kaasamine	-10.9075
tuur	-10.9076
erima	-10.9077
▁kutsuv	-10.9082
▁rahuldama	-10.9085
▁öelda	-10.9085
▁naabri	-10.9087
д	-10.9087
▁sagedamini	-10.9089
▁hädavajalik	-10.909
utamine	-10.9091
▁tehisintellekt	-10.9092
▁varustatud	-10.9092
▁ühendatud	-10.9093
▁skandinaavia	-10.9093
▁istunud	-10.9094
▁nor	-10.9095
▁müüdud	-10.9095
▁ülemkohus	-10.9097
▁uudiste	-10.9101
▁2006.	-10.911
▁sisseränne	-10.911
▁jõuline	-10.9111
vabrik	-10.9118
lang	-10.9128
▁põlluaas	-10.9129
ajalugu	-10.9134
arve	-10.9135
▁armastav	-10.9135
king	-10.9141
▁vihma	-10.9146
if	-10.9147
▁tingimisi	-10.9149
▁jõupingutus	-10.9149
▁ruutmeeter	-10.9149
▁aitäh	-10.9155
▁erdoğan	-10.9157
▁72	-10.9157
▁konsultatsioon	-10.9157
▁sõitja	-10.9158
▁jaht	-10.9158
▁üritav	-10.9159
äärne	-10.916
▁lint	-10.9161
▁loogika	-10.9161
.2018	-10.9161
▁ehitustöö	-10.9162
▁pimedus	-10.9169
▁mõjus	-10.9176
▁nääs	-10.9177
▁külma	-10.9178
nk	-10.9179
põ	-10.9181
▁võti	-10.9186
▁remont	-10.9192
▁teadaolev	-10.9193
▁õnne	-10.9193
▁teise	-10.92
▁lehe	-10.92
▁ee	-10.9202
▁music	-10.9204
▁lä	-10.9205
▁berliin	-10.9208
▁sõidukiirus	-10.9208
▁vallavolikogu	-10.9208
lõ	-10.9208
▁mee	-10.9208
▁ajateenistus	-10.921
▁väliskaubandus	-10.921
▁häiritud	-10.921
▁gustav	-10.9211
▁meeldinud	-10.9212
▁küsinud	-10.9213
▁ületanud	-10.9214
sar	-10.9217
lg	-10.9217
▁hoidnud	-10.9218
▁seriaal	-10.922
▁allianss	-10.9221
roll	-10.9228
hall	-10.9232
▁kari	-10.9239
ülem	-10.9241
▁pauk	-10.9243
tiiv	-10.9245
▁särk	-10.9251
▁alluv	-10.926
▁lahkuv	-10.9263
▁keerukas	-10.9268
▁telliskivi	-10.9268
▁viitav	-10.9271
▁2,5	-10.9272
▁kuritarvitamine	-10.9276
liikumine	-10.9281
ute	-10.9282
▁kaader	-10.9283
▁okupatsioon	-10.9284
▁tunnista	-10.9287
▁disaini	-10.929
▁hiv	-10.9292
iste	-10.9298
▁kun	-10.93
▁vasta	-10.9305
▁volinik	-10.931
▁võimaldav	-10.9312
▁anneta	-10.9317
nõue	-10.932
sõidu	-10.9322
aken	-10.9323
▁bur	-10.9324
▁nõrgem	-10.9328
▁aeglaselt	-10.9328
▁kaal	-10.9331
▁spiiker	-10.9333
▁loetle	-10.9334
▁lendav	-10.9334
aan	-10.9334
ь	-10.9335
▁valinud	-10.9335
▁kontseptsioon	-10.9337
▁tunnistanud	-10.9337
▁jätku	-10.9339
▁sünnipäeva	-10.9341
▁kolimi	-10.9344
▁tähelepanelik	-10.9344
▁laulupidu	-10.9344
▁toonita	-10.9347
▁hoida	-10.9353
vaat	-10.9356
koormus	-10.9356
▁col	-10.9358
seas	-10.9359
▁sul	-10.9364
kast	-10.9365
side	-10.9366
▁henn	-10.9367
▁ülim	-10.9368
torn	-10.9371
▁helm	-10.9374
kukkumine	-10.9376
prokuratuur	-10.9377
atama	-10.9379
tänane	-10.9387
▁un	-10.9389
▁tõrjuma	-10.9389
▁lahutus	-10.9389
▁vägev	-10.9389
▁kohtuistung	-10.9389
▁laen	-10.9392
▁põlenud	-10.9393
▁tali	-10.9394
▁vaino	-10.9394
▁mesi	-10.9395
▁põruta	-10.9396
skandaal	-10.9398
▁hoolima	-10.94
▁vello	-10.9401
▁kruus	-10.9405
▁valvur	-10.9405
kümme	-10.9406
isse	-10.9407
küsitlus	-10.9408
oo	-10.941
▁lätt	-10.9411
▁jääda	-10.9411
▁vaikima	-10.9414
▁homo	-10.9416
30	-10.9419
▁pruun	-10.9419
▁täpsus	-10.942
stiil	-10.9422
▁art	-10.9442
70	-10.9444
▁1500	-10.9449
tagasi	-10.945
▁skyp	-10.945
▁süütu	-10.9451
▁muigama	-10.9451
▁algatatud	-10.9451
▁tingimata	-10.9452
▁jahimees	-10.9452
▁soodusta	-10.9454
▁sea	-10.9455
▁uudo	-10.9457
▁soovitud	-10.946
▁herg	-10.9465
▁tekk	-10.9468
nduma	-10.947
▁soola	-10.9471
▁netanyahu	-10.9475
pidaja	-10.948
▁valmimi	-10.9486
▁deklaratsioon	-10.9486
▁proovi	-10.949
▁põletama	-10.949
▁tööturg	-10.9492
▁rase	-10.9494
т	-10.9502
▁topelt	-10.9503
▁kõrgel	-10.9505
▁petrov	-10.9505
põlv	-10.9509
▁kuusk	-10.9509
▁pbk	-10.9511
kol	-10.9513
▁toimumine	-10.9513
▁vallandama	-10.9514
▁õigustama	-10.9514
▁rehi	-10.9515
▁stabiilsus	-10.9516
▁laas	-10.952
▁inter	-10.952
▁männik	-10.9528
mullu	-10.9529
▁mäh	-10.9533
▁tarkus	-10.954
▁rei	-10.9546
▁68	-10.9554
▁käimine	-10.9559
▁vihane	-10.9561
tera	-10.9567
ium	-10.9572
▁siiamaani	-10.9573
▁leyen	-10.9573
▁nimetanud	-10.9575
▁pentus	-10.9576
▁ants	-10.9579
▁maffia	-10.958
▁pangandus	-10.9582
▁planeerimine	-10.9584
▁obama	-10.9585
▁viibimine	-10.9586
▁laiama	-10.9587
▁saatuslik	-10.9588
▁ilmumine	-10.9589
▁lootusetu	-10.9596
-20	-10.9597
▁finaal	-10.9604
▁ohu	-10.9613
▁61	-10.9613
organ	-10.9616
▁viimine	-10.9619
▁ralli	-10.962
▁volkswagen	-10.9623
▁kokaiin	-10.9623
pilet	-10.9623
kino	-10.9626
tamist	-10.9626
▁swedbank	-10.9626
▁möödas	-10.9628
pan	-10.9632
▁veendumus	-10.9635
▁kooseluseadus	-10.9635
▁suurepäraselt	-10.9635
▁pol	-10.9637
▁määramine	-10.9637
▁varjatud	-10.9639
▁õppekava	-10.964
▁kavanaugh	-10.9641
▁põder	-10.9644
▁meedik	-10.9644
▁pakkuja	-10.9644
▁kuvand	-10.9645
▁ülle	-10.9645
jä	-10.9649
▁kujund	-10.965
▁pärima	-10.9652
▁kopter	-10.9654
sele	-10.9657
ai	-10.9657
▁vaidlustama	-10.9662
▁ülekanne	-10.9662
▁raputama	-10.9666
▁armu	-10.9667
tsoon	-10.9678
▁harjumus	-10.968
▁võlts	-10.9681
▁puidu	-10.9681
vedu	-10.9692
▁hambaarst	-10.9698
harjuma	-10.9698
muidugi	-10.9698
▁õrn	-10.9699
▁ööklubi	-10.97
▁hulgaliselt	-10.97
▁naaberriik	-10.9702
▁paljus	-10.9703
▁nimetami	-10.971
▁tööriist	-10.9715
▁süvenema	-10.9716
kujuline	-10.9718
▁lülitama	-10.9719
▁söömine	-10.972
▁keskpäev	-10.9724
▁saadav	-10.9726
▁tanki	-10.9727
lett	-10.9729
ven	-10.973
в	-10.9732
▁müü	-10.9733
hm	-10.9733
▁lõputu	-10.9734
▁jms	-10.9736
▁purk	-10.9737
esse	-10.9738
summ	-10.9743
▁ravimi	-10.9743
keeld	-10.9748
▁tunni	-10.9754
▁naeratama	-10.9754
▁matus	-10.9757
14	-10.9759
▁fantaasia	-10.976
▁suurenenud	-10.9761
▁ainulaadne	-10.9761
▁mootorratas	-10.9761
▁tekitamine	-10.9762
▁esinumber	-10.9762
▁õiglus	-10.9763
▁tulirelv	-10.9768
▁garantii	-10.9768
▁karmim	-10.9769
▁gripp	-10.9771
mudel	-10.9772
▁viisakas	-10.9775
▁sõ	-10.9784
▁harjutus	-10.9784
meetri	-10.9785
▁raplamaa	-10.9785
▁vaimu	-10.9786
▁maanduma	-10.9787
▁läheb	-10.979
▁hoiduma	-10.9793
▁uuendus	-10.9794
oos	-10.9796
euro	-10.9799
bin	-10.98
iku	-10.9807
▁vaenulik	-10.9809
▁esinda	-10.9813
▁salm	-10.9818
▁kiht	-10.982
ham	-10.9823
▁rohkelt	-10.9828
määr	-10.983
▁airline	-10.9832
▁evakueerima	-10.984
▁usutav	-10.9843
▁võlgu	-10.9844
▁annabel	-10.9847
▁rippuma	-10.985
▁läbiv	-10.9852
▁kiirustama	-10.9861
too	-10.9869
▁kiil	-10.9869
▁nutikas	-10.9869
ity	-10.987
▁laua	-10.9872
▁katsuma	-10.9873
pla	-10.9877
loo	-10.9884
▁lembit	-10.9887
▁usutlus	-10.9887
▁advokaadibüroo	-10.9887
▁ühistranspordi	-10.9888
dr	-10.9889
▁löönud	-10.989
▁jean	-10.9891
misele	-10.9891
▁eraldatud	-10.9891
välja	-10.9892
nimelt	-10.9892
▁kaitstud	-10.9893
▁keila	-10.9893
▁wall	-10.9895
▁kandmine	-10.9898
▁her	-10.9901
▁terrorism	-10.9902
▁haav	-10.9903
▁pic	-10.9905
▁liigutus	-10.9906
▁paremale	-10.9907
▁kassa	-10.9908
▁murelik	-10.9908
▁kaasus	-10.9911
▁tulistaja	-10.9912
naaber	-10.9916
▁jõgeva	-10.9918
▁tuur	-10.9918
▁pahanda	-10.9925
▁ühendav	-10.9927
tuv	-10.993
▁tõe	-10.9933
▁võrumaa	-10.9936
▁alluma	-10.9936
▁kaamer	-10.9937
pakkumine	-10.9943
roo	-10.9943
▁perekonna	-10.9943
▁taime	-10.9949
▁vedanud	-10.9952
▁sisenemine	-10.9952
▁pakkuv	-10.9953
▁üleüldse	-10.9953
▁vastutustundlik	-10.9955
▁karistatud	-10.9956
helme	-10.9956
▁sis	-10.9957
dik	-10.9958
▁elustiil	-10.996
▁võsa	-10.9961
▁kross	-10.9961
▁mõistetav	-10.9963
▁rae	-10.9966
kr	-10.9967
▁mega	-10.9969
detud	-10.9972
▁jõustuma	-10.9974
sisene	-10.9976
rich	-10.9977
▁juhuslik	-10.9979
▁diagnoos	-10.998
▁top	-10.9981
▁ajaloola	-10.999
eti	-10.9994
▁õudus	-11.0004
▁ulatuv	-11.0008
▁piire	-11.0009
▁kohanema	-11.001
▁kohvi	-11.0016
▁iseseisvalt	-11.0016
▁reisilennuk	-11.0017
▁konkreetselt	-11.0017
▁enneolematu	-11.0017
▁päästekeskus	-11.0019
tamiseks	-11.0019
▁pöördunud	-11.0019
ers	-11.0024
tsioon	-11.0031
▁varad	-11.0032
▁kõrgkool	-11.0038
▁kaevandus	-11.0038
▁küsitlema	-11.004
▁kelly	-11.0041
▁teenindama	-11.0042
▁tegur	-11.0043
▁vedelik	-11.0046
▁har	-11.0046
▁ajanud	-11.0049
gh	-11.005
▁org	-11.0053
ata	-11.0054
▁cr	-11.0057
▁edenda	-11.0064
ling	-11.0065
▁absurdne	-11.0066
▁mürk	-11.0069
▁kü	-11.0069
▁tap	-11.007
▁juncker	-11.0073
▁moraalne	-11.0074
kahju	-11.0077
▁kuumus	-11.0077
tulu	-11.008
▁läks	-11.008
▁teenetemärk	-11.0081
▁homne	-11.0081
▁vaadanud	-11.0082
▁city	-11.0082
▁teder	-11.0082
advokaat	-11.0084
twitter	-11.0084
▁kemerovo	-11.0085
siiski	-11.0086
▁sõnavabadus	-11.0087
▁personaal	-11.0087
▁paldiski	-11.0091
▁eristama	-11.0092
▁katsetus	-11.0103
▁küpse	-11.0103
▁ideaal	-11.0107
▁selliselt	-11.0109
mata	-11.011
▁kir	-11.011
08	-11.0112
▁stalin	-11.0114
▁eksima	-11.0115
▁afganistani	-11.0121
я	-11.0124
*	-11.0124
ukas	-11.013
▁wi	-11.0131
▁saksa	-11.0134
▁niisiis	-11.0135
▁plaani	-11.0136
ann	-11.0137
▁koju	-11.0138
▁säästma	-11.0139
ott	-11.0142
▁adolf	-11.0146
▁clinton	-11.0146
▁herkel	-11.0146
▁salvestama	-11.0148
▁matemaatika	-11.0149
▁säilinud	-11.0149
hiljem	-11.015
▁loomaaed	-11.015
▁ebaseaduslikult	-11.015
▁üleujutus	-11.015
▁võrreldav	-11.0151
▁kamp	-11.0151
▁regulatsioon	-11.0155
▁eriteenistus	-11.0155
▁veep	-11.0157
bel	-11.0157
▁tragöödia	-11.0159
▁kelder	-11.0161
▁tormama	-11.0161
▁miljonit	-11.0166
▁vilets	-11.0167
▁riigikontroll	-11.0168
▁kolmandaks	-11.0168
80	-11.0168
▁rajatud	-11.0171
▁vaip	-11.0171
▁eksperiment	-11.0172
▁väl	-11.0173
▁kõrgelt	-11.0178
▁lepingu	-11.018
▁tera	-11.0188
kaas	-11.0188
▁stal	-11.0188
müüja	-11.0193
kari	-11.0193
▁tä	-11.0196
▁kär	-11.0199
tüdruk	-11.0203
bama	-11.0207
19	-11.0207
▁klaasi	-11.0209
▁bond	-11.021
▁jätkusuutlik	-11.0211
▁koond	-11.0212
▁plagiaat	-11.0212
lise	-11.0212
▁rahvahääletus	-11.0213
▁samasooli	-11.0213
▁tihedalt	-11.0213
▁tolli	-11.0214
▁ülemkogu	-11.0215
▁varandus	-11.0216
▁sauna	-11.0216
meede	-11.0217
ajakiri	-11.0217
▁lähim	-11.022
ige	-11.022
▁kristiina	-11.022
ica	-11.0225
▁mc	-11.0228
mark	-11.0229
▁ros	-11.0231
▁kujundami	-11.0236
▁vanasti	-11.0237
▁kehvem	-11.0238
▁kardav	-11.0239
klaas	-11.0239
▁rea	-11.024
▁müts	-11.024
▁maikuu	-11.0241
▁uuem	-11.0245
▁2005.	-11.0247
▁nurm	-11.0249
▁lei	-11.0249
▁venemaal	-11.025
▁riiul	-11.0253
väljak	-11.0254
▁leida	-11.0255
▁kohver	-11.0257
▁lõvi	-11.0258
rahvusvaheliselt	-11.0263
▁mismoodi	-11.0265
12	-11.0265
▁kogema	-11.0267
▁nagunii	-11.0269
▁suure	-11.027
▁trahvi	-11.0272
▁ratta	-11.0273
▁saku	-11.0273
▁4000	-11.0273
plats	-11.0275
▁filiaal	-11.0278
▁ladina	-11.0278
▁prügikast	-11.0281
▁liialt	-11.0281
tsev	-11.0281
▁riigiasutus	-11.0281
▁julgusta	-11.0281
▁keskeali	-11.0282
▁kinnist	-11.0282
▁kask	-11.0282
▁sümptom	-11.0283
▁tellis	-11.0284
kat	-11.0285
▁huawei	-11.0287
▁veterinaar	-11.0288
stada	-11.0289
▁pädevus	-11.029
▁siber	-11.0291
▁180	-11.0293
▁kevadi	-11.0293
▁söögi	-11.0303
▁markus	-11.031
ser	-11.031
▁võ	-11.0313
▁järgnenud	-11.0316
ese	-11.0318
▁kokkuleppeta	-11.0319
▁lähedalt	-11.032
▁koda	-11.0327
▁lubamatu	-11.0331
▁palm	-11.0332
maastik	-11.0336
▁mõõde	-11.0342
▁janno	-11.0346
▁juhtimisõigus	-11.0346
rõõm	-11.0346
▁peakorter	-11.0347
kliinik	-11.0349
▁eemaldamine	-11.035
müümine	-11.035
▁daily	-11.0352
alla	-11.0352
▁vahendusel	-11.0353
▁üüri	-11.0354
▁liitunud	-11.0355
▁kuriteo	-11.0356
▁meremees	-11.0356
▁ojasoo	-11.0356
▁transportima	-11.0356
▁tädi	-11.0357
▁jooks	-11.0357
▁pöör	-11.036
▁pälvinud	-11.0362
mängija	-11.0366
liha	-11.0369
▁vahemer	-11.0379
▁vool	-11.038
▁põhjustatud	-11.038
▁sooja	-11.0382
hooldus	-11.0393
uti	-11.0397
sõbralik	-11.0404
▁ebatavaline	-11.0412
▁liidukantsler	-11.0412
▁hilisõhtu	-11.0412
▁ründamine	-11.0412
▁igapäevaelu	-11.0412
▁puudujääk	-11.0413
▁kiskuma	-11.0413
▁urve	-11.0413
▁riigireform	-11.0414
▁suurejooneli	-11.0414
▁riigiametnik	-11.0416
tüüp	-11.0417
▁notar	-11.0417
▁mnt	-11.0417
▁vahistatud	-11.0418
liikluskorraldus	-11.042
▁kurd	-11.0422
agu	-11.0422
▁teravalt	-11.0424
režiim	-11.0424
▁vastaja	-11.0424
▁skulptuur	-11.0425
▁avastamine	-11.0425
rõ	-11.0425
una	-11.0427
▁kuue	-11.0427
▁kater	-11.0428
▁enda	-11.0431
▁pingeline	-11.0432
▁tööminister	-11.0435
vä	-11.0436
▁paraad	-11.0436
▁tlt	-11.0438
▁ker	-11.0442
jan	-11.0448
usk	-11.0451
▁lennundus	-11.0453
▁kümnes	-11.0462
▁mind	-11.0463
▁voor	-11.0465
ppima	-11.047
▁piloodi	-11.047
▁mikk	-11.047
▁eksam	-11.0475
▁ke	-11.0476
positsioon	-11.0477
objekt	-11.0485
▁tunnustatud	-11.0486
▁seadnud	-11.0486
ther	-11.0486
▁aastavahetus	-11.0486
▁nar	-11.0487
tõsi	-11.0488
▁sirje	-11.0488
▁majutus	-11.0488
toidu	-11.0488
▁siiras	-11.0488
kiirus	-11.049
▁maapind	-11.049
▁galerii	-11.0491
fe	-11.0499
pet	-11.05
▁intensiiv	-11.0501
▁dj	-11.0501
▁tolmu	-11.0502
idel	-11.0502
▁vastuoluline	-11.0503
▁kaitsev	-11.0503
▁püstitama	-11.0503
▁terrorist	-11.0504
▁maksuvaba	-11.0506
▁külastus	-11.0506
▁ohustama	-11.0512
mootor	-11.0515
▁kandnud	-11.0516
▁hotelli	-11.0521
resident	-11.0523
van	-11.0524
▁kih	-11.0527
põld	-11.0528
mängimine	-11.0533
▁kulunud	-11.0534
▁dia	-11.0535
▁politse	-11.054
ülo	-11.0541
▁provokatsioon	-11.0548
▁sõnajalg	-11.0552
paraat	-11.0555
▁737	-11.0557
▁palunud	-11.0558
▁pire	-11.0561
vel	-11.0565
▁kiiev	-11.0568
erik	-11.0569
sadam	-11.0576
▁une	-11.0577
▁isiksus	-11.0579
tagune	-11.0579
▁uk	-11.0583
bus	-11.0587
▁71	-11.0587
▁alanda	-11.0588
▁kaasatud	-11.0588
▁voolama	-11.0588
▁pistma	-11.059
▁mare	-11.0591
▁sügavu	-11.0595
dra	-11.0597
külg	-11.06
▁reklaamima	-11.06
ish	-11.0602
▁karila	-11.0603
keskkonna	-11.0607
▁metsane	-11.0614
▁initsiatiiv	-11.0616
▁toyota	-11.0616
toliku	-11.0616
▁rääkida	-11.0617
▁kaubamaja	-11.0618
▁seisukord	-11.062
▁male	-11.0622
▁dokumentaalfilm	-11.0623
▁asfalt	-11.0624
▁reket	-11.0625
▁alexander	-11.0626
▁kuninganna	-11.0627
▁kriteerium	-11.0628
45	-11.0629
way	-11.0634
koos	-11.0637
▁ul	-11.0642
rd	-11.0646
▁1980	-11.0648
itav	-11.0649
az	-11.0652
valgus	-11.0654
ex	-11.0659
▁1980.	-11.0663
tion	-11.0664
tootmine	-11.0664
ades	-11.0665
▁kaupmees	-11.0666
▁ac	-11.0671
are	-11.0671
.15	-11.0672
▁mil	-11.0678
rg	-11.0681
▁rassistlik	-11.0682
▁+	-11.0682
▁vanim	-11.0683
▁jõuliselt	-11.0687
▁ettekirjutus	-11.0687
▁ratastool	-11.0687
▁ravikindlustus	-11.0688
▁turvaliselt	-11.0689
▁pet	-11.0689
▁tuvastamine	-11.0689
▁jagatud	-11.0689
▁abc	-11.069
maht	-11.0691
jür	-11.0692
▁rutiin	-11.0692
▁armeenia	-11.0695
▁komp	-11.0696
oon	-11.0701
▁tulla	-11.0704
▁parv	-11.0712
▁can	-11.0713
▁remontima	-11.0714
▁linnu	-11.0717
▁aeglane	-11.0718
▁kohtus	-11.0722
▁põhiseaduslik	-11.0725
alg	-11.0726
▁leevendama	-11.0728
▁loe	-11.0728
loomulikult	-11.073
▁omav	-11.0733
▁läänemaa	-11.0733
▁hoolitse	-11.0733
▁lähem	-11.0733
▁cia	-11.0734
▁kop	-11.074
ria	-11.0741
▁pur	-11.0748
▁põhimõtteli	-11.0748
▁peaks	-11.075
haa	-11.0753
püha	-11.0754
▁sei	-11.0754
▁köögi	-11.0754
▁pensionitõus	-11.0755
▁meesterahvas	-11.0755
▁sootuks	-11.0755
▁rusikas	-11.0755
▁võitlev	-11.0757
▁allapoole	-11.0759
▁uskunud	-11.0759
▁ühtsus	-11.076
▁spordikeskus	-11.0761
instituut	-11.0762
▁alustatud	-11.0763
▁näha	-11.0764
▁huvitavam	-11.0765
kolmas	-11.0767
▁kompleks	-11.0768
▁ilmuv	-11.077
▁om	-11.0777
▁kuskile	-11.078
▁hamba	-11.0781
▁sig	-11.0787
▁vait	-11.0789
ealine	-11.0791
▁mänd	-11.0791
ola	-11.0792
▁välistatud	-11.0793
▁valitsuse	-11.0799
▁pang	-11.0801
ründama	-11.0802
▁idapiir	-11.0804
tekst	-11.0805
▁pihl	-11.0807
▁astuv	-11.081
▁var	-11.0812
▁bill	-11.0818
,2	-11.0821
▁keskkonnaamet	-11.0822
▁puhastus	-11.0822
paremusjärjestus	-11.0824
▁eurooplane	-11.0824
▁turvavöö	-11.0825
▁elamisluba	-11.0825
▁tuvastatud	-11.0826
▁kristen	-11.0827
▁sõjalaev	-11.0827
pall	-11.0828
▁mänginud	-11.0828
▁gonsior	-11.0829
▁bulgaaria	-11.0829
▁ülla	-11.0829
▁mander	-11.0829
isamaa	-11.083
▁siirdu	-11.0833
▁protestija	-11.0835
▁intress	-11.0835
▁migrant	-11.0837
▁innovatsioon	-11.0839
▁rikkam	-11.084
▁world	-11.0841
▁vol	-11.0842
▁kolmkümmend	-11.0843
▁erki	-11.0851
▁rinne	-11.0851
sch	-11.0858
▁eluiga	-11.0859
▁tasa	-11.0863
▁trans	-11.0865
▁tööleping	-11.0871
iirimaa	-11.0874
▁ületamine	-11.0878
puudus	-11.0887
▁kannatanud	-11.089
▁pisi	-11.089
und	-11.0893
▁pulm	-11.0895
▁airways	-11.0895
▁kurikuulus	-11.0895
▁iraak	-11.0895
▁koopia	-11.0896
▁rahvaarv	-11.0898
▁lovi	-11.09
kasvatus	-11.0901
▁lääneriik	-11.0901
▁konstantin	-11.0904
▁eelne	-11.0905
▁stream	-11.0908
arendus	-11.0908
▁linnatranspor	-11.0911
▁telk	-11.0917
▁tööle	-11.0923
linna	-11.0925
▁õõnesta	-11.0926
▁organ	-11.093
▁lao	-11.0931
▁star	-11.0933
▁petma	-11.0934
piirang	-11.0934
▁lagi	-11.0936
.20	-11.0936
väär	-11.0942
▁tiik	-11.0942
▁veski	-11.0943
▁väljumi	-11.0955
▁küljes	-11.0956
▁otsustamine	-11.096
▁särg	-11.096
▁loto	-11.0961
▁varakult	-11.0962
▁rinna	-11.0962
pilk	-11.0965
▁naeratus	-11.0966
▁mootorsõiduk	-11.0966
datud	-11.0967
▁mõistnud	-11.0967
▁nõuanne	-11.0967
kokkuvõte	-11.0969
▁kohtlemine	-11.097
▁õhtusöök	-11.0973
▁infrastruktuur	-11.0973
▁dirigent	-11.0973
▁registreerimine	-11.0973
leitnant	-11.0973
▁targem	-11.0974
rosimannus	-11.0974
väike	-11.0975
▁bänd	-11.0975
▁kindlustama	-11.0977
skaja	-11.0979
▁anton	-11.0983
▁pinnas	-11.0985
▁hämmastav	-11.0985
▁teadlikkus	-11.0985
toru	-11.0985
▁perenaine	-11.0985
itu	-11.0986
▁jahe	-11.0988
kahtlus	-11.0989
▁aktsiisi	-11.0991
▁hiin	-11.0993
▁suhkur	-11.0993
▁mugavam	-11.0998
▁uudne	-11.0999
▁bra	-11.0999
isk	-11.1004
▁bin	-11.1006
▁lisatud	-11.1012
▁by	-11.1016
▁väljatöötami	-11.1017
▁lahingu	-11.1022
▁napp	-11.1024
▁pangakonto	-11.1025
varu	-11.1028
▁teeb	-11.103
▁kahepool	-11.103
tlema	-11.1033
▁kusagilt	-11.1035
▁tasapisi	-11.1037
▁uuritud	-11.1041
▁täitnud	-11.1042
▁hõbe	-11.1043
ndav	-11.1044
▁eluohtlik	-11.1045
о	-11.1047
▁kroonprints	-11.1047
▁vulkaan	-11.1051
▁ch	-11.1057
▁lav	-11.1057
▁pal	-11.1057
▁sve	-11.1058
▁naa	-11.1058
▁vastupanu	-11.1059
▁asjaosali	-11.106
▁69	-11.1062
tervis	-11.1062
.1	-11.1066
▁mon	-11.1067
bra	-11.1067
▁reit	-11.1068
▁õigustatud	-11.1069
▁senini	-11.107
▁kil	-11.1071
akadeemia	-11.1072
▁jalgpalli	-11.1075
▁haru	-11.1081
▁rahvastiku	-11.1083
kaup	-11.1084
hk	-11.1084
▁välispoliitili	-11.1085
▁tööline	-11.1087
▁allik	-11.1087
▁katuse	-11.1089
▁põllu	-11.1091
▁kosmose	-11.1093
▁bell	-11.1099
▁fu	-11.1099
▁tualett	-11.1108
tavad	-11.1109
▁demonstreeri	-11.1109
▁lastehaigla	-11.111
▁vastuvõtu	-11.1111
▁palling	-11.1112
▁oodanud	-11.1112
▁ülal	-11.1112
kandja	-11.1115
▁motivatsioon	-11.1115
▁tapetud	-11.1115
tumine	-11.1115
▁märkus	-11.1116
▁pereliige	-11.1117
▁tahab	-11.1117
rääkima	-11.1119
▁rohe	-11.1119
▁times	-11.1121
▁toivo	-11.1121
▁rahule	-11.1122
▁kohtlema	-11.1125
ovitš	-11.1126
▁veini	-11.1127
▁tõuk	-11.1129
▁pinna	-11.1129
▁juhendaja	-11.113
tal	-11.1131
viga	-11.1134
▁töövõime	-11.1134
▁varaja	-11.1136
use	-11.1138
▁taju	-11.1139
isik	-11.1141
▁salapärane	-11.1141
metsa	-11.1142
▁nael	-11.1144
▁oo	-11.1144
▁professionaal	-11.115
▁gaza	-11.1153
▁massili	-11.1156
maal	-11.116
hel	-11.1161
▁laip	-11.1164
35	-11.1168
▁haavama	-11.1173
▁ohtlikum	-11.1177
iz	-11.1179
▁makstud	-11.1181
▁ehitanud	-11.1182
▁õhutemperatuur	-11.1182
▁arvukus	-11.1182
▁putini	-11.1182
▁mõjuv	-11.1183
▁tarbi	-11.1183
▁peatselt	-11.1183
ty	-11.1184
jooks	-11.1185
▁siiralt	-11.1186
anne	-11.1187
▁levitamine	-11.119
▁2003.	-11.119
eest	-11.1191
hääletus	-11.1191
▁väljasaatmi	-11.1192
▁kee	-11.1193
▁jõutud	-11.1194
▁puhastamine	-11.1195
▁vis	-11.1198
▁76	-11.1201
kordne	-11.1201
▁kodus	-11.1203
▁130	-11.1204
▁põhjustanud	-11.1204
▁siil	-11.1206
kul	-11.1207
▁tapa	-11.1211
▁laskmine	-11.1212
▁2004.	-11.1221
▁alar	-11.1227
raam	-11.1229
õli	-11.1229
▁seletus	-11.1231
▁mastaap	-11.1231
rack	-11.1252
▁2000.	-11.1254
▁veetase	-11.1257
uja	-11.1257
lava	-11.1258
▁kataloonia	-11.1259
▁kirjalik	-11.1261
▁spetsiifili	-11.1262
pima	-11.1263
telefon	-11.1263
teadaoleva	-11.1266
raport	-11.1267
▁loetud	-11.1268
▁erm	-11.1271
▁riske	-11.1273
jälg	-11.1273
▁sal	-11.1274
teemali	-11.1277
▁rahumeelne	-11.1281
▁lammutama	-11.1287
▁1991.	-11.1288
linnamägi	-11.1289
▁toote	-11.1289
stamis	-11.1289
▁lähemal	-11.129
▁sotsiaalmaks	-11.13
▁lar	-11.1301
mehe	-11.1302
ci	-11.1307
▁arhitektuur	-11.1308
ühiskond	-11.1309
▁puhk	-11.1312
af	-11.1316
pol	-11.1317
▁vastik	-11.1318
▁tal	-11.1319
ren	-11.1323
▁kokkuhoid	-11.1327
▁don	-11.1327
▁lühiajaline	-11.1328
▁munitsipaal	-11.1328
▁reformierakonna	-11.1328
▁kaasreisija	-11.1328
▁black	-11.1328
▁tüütu	-11.1329
▁riigigümnaasium	-11.1329
▁põlev	-11.133
▁üldkogu	-11.1331
▁koondis	-11.1331
▁leviv	-11.1331
▁saadaval	-11.1331
▁kö	-11.1332
▁omniv	-11.1333
▁iial	-11.1333
▁tõlge	-11.1334
▁asjatundja	-11.1336
▁kunstili	-11.1336
▁epstein	-11.1337
▁tellija	-11.1337
▁õ	-11.1338
meetod	-11.1338
ülikool	-11.1339
tuhat	-11.134
▁soovija	-11.1341
▁kolledž	-11.1342
▁tervitus	-11.1347
▁moment	-11.1348
tähtis	-11.1349
▁asendus	-11.1349
▁hüvitama	-11.1352
▁naps	-11.1353
▁eripära	-11.1354
car	-11.1358
▁nõ	-11.1367
vaim	-11.1373
▁kirglik	-11.1377
▁patt	-11.1377
▁ekspressi	-11.1378
▁reisimine	-11.1379
▁viia	-11.1384
▁mess	-11.1384
▁vitamiin	-11.1386
aarne	-11.1387
lia	-11.139
▁ütle	-11.1391
▁keskpank	-11.1392
01	-11.1394
▁süüdla	-11.1395
zz	-11.1395
▁port	-11.1398
gr	-11.1399
▁kal	-11.14
▁järeltulija	-11.1402
▁kahetsusväärne	-11.1402
▁vaatepilt	-11.1402
▁kurjus	-11.1402
▁mälestusmärk	-11.1405
▁kik	-11.1405
▁olenema	-11.1405
▁pikali	-11.1406
▁juust	-11.1406
▁luksemburg	-11.1406
▁lukk	-11.1409
▁pilkuma	-11.1409
võitlus	-11.1413
energia	-11.1413
järelevalve	-11.1414
karjäär	-11.1414
pärnu	-11.1415
sega	-11.1417
▁kaos	-11.1417
▁keemiarelv	-11.1421
hin	-11.1427
▁sissepääs	-11.1429
firmas	-11.143
▁laser	-11.1431
▁mille	-11.1433
▁2013	-11.1437
,1	-11.1438
▁absoluutne	-11.144
▁eestisse	-11.1447
▁350	-11.1448
▁rõdu	-11.1449
▁ettevalmistami	-11.145
▁värk	-11.1453
▁holm	-11.1456
▁aparaat	-11.1458
▁bioloogili	-11.146
▁baltimaad	-11.1461
liider	-11.1465
▁luksus	-11.1471
▁vägista	-11.1474
▁tr	-11.1476
▁lõbu	-11.1476
▁loode	-11.1476
▁väljaselgitami	-11.1477
▁mustanahaline	-11.1477
▁ebavõrdsus	-11.1477
▁optimistlik	-11.1478
▁lapselaps	-11.1478
▁hävitamine	-11.1478
▁soojem	-11.1479
▁kohalolek	-11.148
▁jaanipäev	-11.1481
▁teoreetili	-11.1483
▁agur	-11.1485
▁teene	-11.1486
lä	-11.1486
▁erkk	-11.1488
▁abistama	-11.1491
▁nimetus	-11.1499
▁türk	-11.1499
▁helsinki	-11.1502
▁lina	-11.1504
▁valer	-11.1505
▁karp	-11.1505
▁seitsmes	-11.1507
▁raiuma	-11.1508
▁group	-11.1509
ung	-11.151
▁palav	-11.151
▁tunnetama	-11.1511
▁hooldaja	-11.1511
▁sena	-11.1512
▁episood	-11.1513
▁lipu	-11.1513
kursus	-11.1517
▁programmi	-11.1518
imis	-11.153
meeter	-11.153
▁seksuaal	-11.1534
▁joonistama	-11.1537
▁kant	-11.1541
11	-11.1542
▁novosti	-11.1545
iko	-11.1548
▁organiseerima	-11.1549
ac	-11.1549
▁urmas	-11.1549
▁äärmuslik	-11.155
▁resolutsioon	-11.1552
taotlus	-11.1552
▁paremäärmusla	-11.1552
▁magistritöö	-11.1552
▁tarvitanud	-11.1553
▁väikelinn	-11.1553
▁esmaabi	-11.1554
▁ühesugune	-11.1554
▁argo	-11.1555
▁lühidalt	-11.1557
▁airlinesi	-11.1558
▁avalikustamine	-11.1559
▁millegi	-11.1559
▁tauni	-11.1559
mõõt	-11.1561
▁inspiratsioon	-11.1562
▁kaksik	-11.1562
▁manafort	-11.1563
▁kos	-11.1572
kalt	-11.1573
▁lõhki	-11.1575
▁esineja	-11.1578
▁epp	-11.1579
▁lasteaia	-11.1581
▁toimik	-11.1582
.3	-11.1588
mõ	-11.159
▁kõrva	-11.159
▁74	-11.1591
▁varuma	-11.1593
▁orkester	-11.1597
karistus	-11.1597
▁ülikooli	-11.1599
võima	-11.16
▁õitse	-11.1603
▁rii	-11.1604
▁renti	-11.1605
▁dollarit	-11.1607
▁õpi	-11.1613
▁võrdlemis	-11.1616
▁rim	-11.1616
▁teisi	-11.1616
▁assang	-11.1621
▁rahutus	-11.1624
▁alkoholijoove	-11.1628
▁labor	-11.1628
▁tõota	-11.1628
▁nende	-11.1629
▁simon	-11.1629
▁osutunud	-11.163
▁elamu	-11.1631
▁zand	-11.1632
▁märksõna	-11.1633
▁keer	-11.1633
▁kirjeldatud	-11.1634
▁marsruut	-11.1635
▁eduard	-11.1637
▁väliskomisjon	-11.1639
▁rubriik	-11.1639
korter	-11.1639
aktsioon	-11.1643
▁komponent	-11.1647
▁hirmutama	-11.1649
▁suhkru	-11.1651
▁laus	-11.1653
▁heategevus	-11.1654
samm	-11.1655
▁kontrollitud	-11.1655
▁plastik	-11.1655
▁vir	-11.1657
▁panemine	-11.1658
▁võrgu	-11.1661
ees	-11.1662
▁ühte	-11.1662
▁app	-11.167
▁väljastama	-11.167
▁analüütik	-11.168
▁muinsuskaitse	-11.1682
renema	-11.1684
▁ametivõim	-11.1688
tulema	-11.1694
▁lihtsusta	-11.1702
▁privaat	-11.1702
nor	-11.1704
▁intellektuaal	-11.1704
▁kohtutäitur	-11.1704
▁õhtupoolik	-11.1704
▁erapooletu	-11.1704
▁trepikoda	-11.1704
▁efektiivne	-11.1704
▁vannituba	-11.1704
▁magamistuba	-11.1704
▁street	-11.1704
▁ühist	-11.1706
▁sünge	-11.1706
▁aimama	-11.1707
▁kalamaja	-11.1707
▁operatiiv	-11.1707
▁toetatud	-11.1708
▁puutunud	-11.171
▁tehtav	-11.1712
▁paju	-11.1713
▁valimiskomisjon	-11.1716
ovsk	-11.1716
eelarve	-11.1717
▁joomine	-11.1718
esialgne	-11.1719
esmaspäev	-11.1719
▁reet	-11.1719
▁kuulumine	-11.1719
▁röövima	-11.1721
▁kinnis	-11.1721
▁kri	-11.1722
▁fo	-11.1724
▁spaa	-11.1725
▁kritiseeri	-11.1725
▁harku	-11.1728
▁kumb	-11.1728
▁carl	-11.173
▁kiirenda	-11.1731
toom	-11.1733
▁vahetamine	-11.1735
200	-11.1735
ära	-11.1737
17	-11.1742
pri	-11.1743
▁kütte	-11.1744
▁kardin	-11.175
▁es	-11.1751
▁paa	-11.1754
▁tõi	-11.1756
▁superstaar	-11.1758
.2	-11.1766
▁kaar	-11.1767
fer	-11.177
▁tallink	-11.1772
▁areeni	-11.1772
uda	-11.1773
▁rikkunud	-11.1781
▁tsahken	-11.1781
▁hinnatõus	-11.1781
▁toimepanemine	-11.1782
▁autoriteet	-11.1782
▁kaastunne	-11.1782
▁tugevdamine	-11.1784
▁oliver	-11.1785
▁kristlane	-11.1785
▁rahustama	-11.1786
▁ahto	-11.1786
▁riigikantselei	-11.1789
▁kõlba	-11.1791
▁suits	-11.1793
▁haridussüsteem	-11.1794
▁rütm	-11.1795
▁ihu	-11.1796
▁üksmeel	-11.1796
restoran	-11.1796
▁sööm	-11.1798
▁võistle	-11.1801
▁putukas	-11.1801
võ	-11.1805
▁järvamaa	-11.1806
▁moldova	-11.1806
▁hanke	-11.1807
kim	-11.181
▁roni	-11.181
▁sekretär	-11.1812
fo	-11.1813
▁kibe	-11.1818
▁imik	-11.182
▁tohtinud	-11.1826
▁eespool	-11.1828
▁kultuuriline	-11.1833
▁võimsus	-11.1839
▁propageeri	-11.1842
seega	-11.1846
▁monument	-11.1847
▁rumm	-11.1855
▁vii	-11.1856
ström	-11.1859
▁kinnipeetav	-11.1859
▁korrektne	-11.1859
▁nähtamatu	-11.1859
ula	-11.1859
.10	-11.1859
▁1996	-11.1859
▁jälk	-11.186
▁puruks	-11.1861
▁hei	-11.1862
▁paralleelselt	-11.1866
▁guardian	-11.1869
▁metalli	-11.187
▁uutis	-11.1874
-35	-11.1874
▁tuntum	-11.1875
▁logo	-11.1876
▁juhis	-11.1877
▁pär	-11.1878
▁salvestus	-11.1879
▁hitt	-11.1879
▁lõke	-11.1881
mulle	-11.1882
▁koori	-11.1883
-1	-11.1883
paigas	-11.1885
▁99	-11.1886
ken	-11.1886
▁tõendama	-11.1888
reklaam	-11.189
▁ringis	-11.1895
▁bel	-11.1895
▁analoog	-11.1896
▁parvlaev	-11.1897
▁langev	-11.1898
nult	-11.19
tabel	-11.1903
kõ	-11.1903
▁mall	-11.1909
hoid	-11.1911
▁kõlav	-11.1913
▁suurlinn	-11.1916
▁loo	-11.1917
▁populistlik	-11.1919
▁valem	-11.1924
isi	-11.1924
ilma	-11.1927
▁jõukas	-11.1928
▁brän	-11.193
▁tro	-11.193
▁silmi	-11.1934
▁hiigel	-11.1934
▁suvila	-11.1934
▁ukse	-11.1935
must	-11.1935
▁eelkäija	-11.1937
▁sinimustvalge	-11.1937
▁tallinlane	-11.1937
▁üritanud	-11.1937
▁emotsionaalselt	-11.1937
▁vallandamine	-11.1938
▁vilu	-11.1941
▁läbipaistev	-11.1942
tü	-11.1947
▁toetusrühm	-11.1949
▁pidav	-11.195
temperatuur	-11.1952
▁teatas	-11.1953
pomm	-11.1955
▁1992.	-11.1956
▁roo	-11.1958
▁maxima	-11.1959
▁protestima	-11.1965
▁eksport	-11.1967
etendus	-11.1968
▁osutami	-11.1969
▁juustu	-11.1969
▁disainer	-11.197
▁cor	-11.1975
▁mõne	-11.1983
▁nähtu	-11.1985
▁petro	-11.1986
▁kaubik	-11.2004
▁vare	-11.2013
ülesanne	-11.2013
▁ülekaal	-11.2013
▁venezuela	-11.2014
▁foor	-11.2016
▁pidurdama	-11.2017
▁suudetud	-11.2017
▁privaatsus	-11.2018
▁mus	-11.2019
▁kättemaks	-11.2021
tika	-11.2021
▁liiklusmärk	-11.2021
eelnõu	-11.2023
▁sünnitama	-11.2029
varustus	-11.2029
▁öko	-11.2032
prantsusmaa	-11.2032
▁küsiv	-11.2035
ää	-11.2035
▁gran	-11.2037
briti	-11.2047
▁eluviis	-11.2048
▁koo	-11.2056
seim	-11.2058
▁saatja	-11.2059
eta	-11.2061
▁lang	-11.2064
hal	-11.2065
serv	-11.2075
▁karja	-11.2078
▁harr	-11.2078
vii	-11.2083
may	-11.2084
stan	-11.2085
bas	-11.2088
roheline	-11.2089
▁häiriv	-11.2091
▁kommenteeri	-11.2094
▁õigeusk	-11.2095
▁uuendama	-11.2095
▁agressioon	-11.2095
▁richard	-11.2095
▁tähtsaim	-11.2095
▁pikivahe	-11.2095
▁niiskus	-11.2096
▁peatänav	-11.2097
▁evelin	-11.2097
▁elurikkus	-11.2097
▁ilusam	-11.2103
▁väärtustama	-11.2104
▁pühendunud	-11.2104
▁koostööpartner	-11.2104
▁akt	-11.2106
urm	-11.2108
▁pat	-11.2108
▁varjupaik	-11.2108
▁areen	-11.2112
vitamiin	-11.2112
▁aktiivsem	-11.2114
▁õpp	-11.2114
lised	-11.2115
▁õping	-11.2116
▁sööv	-11.2121
hoidja	-11.2121
kaja	-11.2122
▁eluaegne	-11.2122
▁rändama	-11.2123
▁plahvatama	-11.2123
med	-11.2124
▁hääletamine	-11.2125
õn	-11.213
istama	-11.213
tšenko	-11.2132
▁ühend	-11.2132
▁nutt	-11.2135
▁parandus	-11.2137
í	-11.2139
õde	-11.2139
iir	-11.214
▁usin	-11.2141
▁radar	-11.2142
▁võtme	-11.2142
▁barr	-11.2152
▁heit	-11.2155
▁pits	-11.2156
aimekaitsevahend	-11.2158
▁alam	-11.216
▁и	-11.2161
▁saaja	-11.2167
büroo	-11.2169
▁mask	-11.2169
▁osalus	-11.2171
▁islandi	-11.2171
moodi	-11.2171
▁soodsam	-11.2173
slav	-11.2175
▁pyongyang	-11.2175
▁väärkohtlemine	-11.2175
▁eestvedami	-11.2175
▁edene	-11.2176
▁ohtralt	-11.2176
▁keskpaigas	-11.2176
▁island	-11.2176
kuus	-11.2178
▁täiuslik	-11.2178
▁kassi	-11.2179
▁elati	-11.2179
▁libise	-11.2179
▁saarestik	-11.2181
endine	-11.2183
▁armastatud	-11.2183
▁tosin	-11.2184
▁šokk	-11.2184
▁kehtesta	-11.2187
▁mõjutanud	-11.2187
▁vasakule	-11.219
▁eeldatav	-11.2191
▁hoole	-11.2191
▁laialt	-11.2192
▁gps	-11.2193
hiljuti	-11.2194
▁pindala	-11.2196
efekt	-11.2198
▁kohtuv	-11.2198
▁trass	-11.2202
▁elukeskkond	-11.2202
▁andis	-11.2206
▁heik	-11.2208
▁operaator	-11.2208
tool	-11.2213
▁pääs	-11.2214
▁kirjutav	-11.2216
▁jagu	-11.2218
▁puue	-11.2222
▁väitnud	-11.223
jala	-11.223
▁hai	-11.2234
▁sanomat	-11.2235
▁tähista	-11.224
▁nappi	-11.2242
con	-11.2242
▁marss	-11.2245
rü	-11.2246
▁liidr	-11.2249
▁liibanoni	-11.225
▁regulaar	-11.2251
«	-11.2255
▁pealtnäh	-11.2256
▁valimislubadus	-11.2256
löök	-11.2256
▁varju	-11.2257
▁comey	-11.2258
▁jaksama	-11.2258
▁külastanud	-11.226
▁liibüa	-11.2261
ehk	-11.2262
▁kasutada	-11.2264
▁taiwan	-11.2264
▁käsitsi	-11.2265
▁hukkumine	-11.2267
▁organiseeritu	-11.2267
▁paradiis	-11.2267
▁konsensus	-11.2268
▁mõõdukas	-11.227
detailplaneering	-11.2272
▁lõpetus	-11.2274
skeem	-11.2276
▁maraton	-11.2278
▁arutanud	-11.2278
▁kaardi	-11.2278
pakett	-11.2284
▁formaat	-11.2288
▁sättima	-11.229
▁ham	-11.2292
selg	-11.2299
▁helge	-11.23
▁kahjustus	-11.23
▁majanduslikult	-11.2301
▁er	-11.2302
ы	-11.2303
tsema	-11.2306
▁rahaliselt	-11.2311
▁laura	-11.2311
tor	-11.2314
▁hill	-11.2315
▁bolt	-11.2318
▁sander	-11.2319
▁uut	-11.232
▁liht	-11.2323
mor	-11.2327
tan	-11.2327
eeter	-11.2328
▁pidur	-11.2333
järg	-11.2334
▁sügavus	-11.2334
▁järsult	-11.2337
▁lükati	-11.2337
▁rbk	-11.2337
▁suurusjärk	-11.2337
▁väljendanud	-11.2337
▁nbc	-11.2338
▁varro	-11.2338
▁väljakuulutami	-11.2339
▁alevik	-11.234
▁navalnõi	-11.2341
▁lisaraha	-11.2342
▁kemikaal	-11.2342
▁jaganud	-11.2343
▁grand	-11.2344
▁orbán	-11.2345
▁hais	-11.2346
▁statistikaamet	-11.2347
▁andre	-11.2347
kes	-11.235
▁õuna	-11.2351
▁portfell	-11.2352
▁toitlustus	-11.2353
▁skt	-11.2356
▁kaits	-11.2362
▁vint	-11.2362
▁paas	-11.2362
▁vil	-11.2364
▁lage	-11.2366
▁moto	-11.2366
▁sanders	-11.2367
▁kaitseväe	-11.2371
▁islami	-11.2371
the	-11.2373
▁murd	-11.2373
tehing	-11.2375
▁kandideeriv	-11.2377
rakk	-11.2378
residentsus	-11.2379
▁popp	-11.2383
▁supp	-11.2388
kõnelus	-11.239
▁wc	-11.2391
▁artisti	-11.2393
▁ennetama	-11.2393
▁teler	-11.2399
alles	-11.24
▁juhend	-11.2402
▁6000	-11.2404
▁pussita	-11.2406
kütt	-11.2418
»	-11.2419
▁positiivselt	-11.2419
▁herbert	-11.2419
▁bussipeatus	-11.2419
▁leppinud	-11.2419
port	-11.242
▁suhelnud	-11.242
▁tekkiv	-11.242
▁lasu	-11.242
▁vormistama	-11.2421
▁ratsionaal	-11.2424
▁jelena	-11.2425
▁klassika	-11.2425
▁haigestumine	-11.2428
▁spetsiaalselt	-11.2428
▁ööbi	-11.2431
rong	-11.2433
▁slovakkia	-11.2435
ten	-11.2437
▁kirst	-11.2438
▁kõri	-11.2443
▁investeeri	-11.2444
▁show	-11.2444
kohaline	-11.2447
▁komm	-11.2449
▁rendi	-11.2449
▁nukk	-11.245
▁korra	-11.246
▁seadis	-11.247
taim	-11.2471
▁südalinn	-11.2475
▁laast	-11.2478
▁kiievi	-11.248
▁jalgu	-11.2486
ura	-11.2487
stumine	-11.2489
▁kis	-11.249
jagu	-11.249
▁annus	-11.2491
▁import	-11.2493
▁pahatahtlik	-11.25
▁hindu	-11.2501
▁häkker	-11.2501
▁katedraal	-11.2501
▁klandorf	-11.2501
▁memoriaal	-11.2501
▁oponent	-11.2501
▁mootorrattur	-11.2501
▁totaalne	-11.2502
▁lagunema	-11.2503
▁tüll	-11.2503
▁eestkõneleja	-11.2503
▁rahvapartei	-11.2503
▁relvastus	-11.2503
▁vali	-11.2505
▁peni	-11.2509
▁korb	-11.2512
▁ex	-11.2512
▁krunt	-11.2512
▁romantili	-11.2513
▁julgelt	-11.2514
▁sar	-11.2519
▁kaarel	-11.2519
▁win	-11.252
▁jaotus	-11.2525
minek	-11.2528
▁arvatav	-11.2529
veer	-11.253
▁vanune	-11.2531
▁jalas	-11.2536
ühtlas	-11.2536
▁osuta	-11.2537
▁töörühm	-11.2544
▁maasika	-11.2544
▁osavõt	-11.2546
▁sõle	-11.2547
▁lööv	-11.2551
▁ettenähtu	-11.2552
▁informatsiooni	-11.2554
▁puur	-11.2555
üs	-11.2559
▁kaela	-11.2563
.2016	-11.257
▁tõlk	-11.2572
▁vandenõu	-11.2575
▁jooksva	-11.2578
▁mul	-11.258
▁vastuvõetamatu	-11.2585
▁pensionisamba	-11.2585
▁viimne	-11.2585
▁valimisjaoskond	-11.2585
▁tähelepanek	-11.2585
▁sünnitusosakond	-11.2586
▁viivitamatult	-11.2586
▁op	-11.2587
▁peep	-11.2589
▁maandumine	-11.2589
▁õhkkond	-11.259
märgi	-11.259
mure	-11.2591
part	-11.2591
▁gra	-11.2593
▁elektrilevi	-11.2594
valu	-11.2595
▁migratsiooni	-11.2595
▁varastatud	-11.2597
volinik	-11.2598
▁jalgsi	-11.2598
▁portree	-11.2599
▁porno	-11.26
▁mercedes	-11.2602
▁taeva	-11.2605
missioon	-11.2606
▁2001.	-11.2607
paus	-11.2609
põhjus	-11.2609
lv	-11.2609
▁boss	-11.2615
▁süli	-11.2618
▁imetlema	-11.2618
lifting	-11.2619
▁juhtumine	-11.262
sur	-11.2622
▁tamme	-11.2625
▁maandus	-11.2629
▁nüanss	-11.2631
▁meeste	-11.2632
istus	-11.2633
mel	-11.2642
▁vihka	-11.2643
▁leina	-11.2645
▁kurt	-11.2647
▁telekas	-11.2648
▁tür	-11.2649
▁pakett	-11.265
▁moosi	-11.2653
air	-11.2653
▁jäätmed	-11.2656
kaamera	-11.2662
sport	-11.2662
▁jagav	-11.2663
kom	-11.2665
protsendi	-11.2665
▁käivita	-11.2665
▁rai	-11.2668
▁materiaal	-11.2669
▁frank	-11.2669
▁hinne	-11.267
toon	-11.267
▁kuulutatud	-11.267
▁roman	-11.2671
▁algataja	-11.2671
▁trüki	-11.2672
▁1,2	-11.2672
▁franciscus	-11.2672
▁kangro	-11.2672
▁sobimatu	-11.2679
▁monika	-11.2681
▁tõusev	-11.2681
▁uibo	-11.2681
▁ilta	-11.2681
▁määrav	-11.2681
landi	-11.2682
▁kodusõda	-11.2684
▁rahvusriik	-11.2685
▁seminar	-11.2686
hoog	-11.2687
▁pääse	-11.2688
▁hindav	-11.2689
▁kollektsioon	-11.269
15	-11.2692
23	-11.2692
▁media	-11.2693
▁ennustus	-11.2694
▁laienema	-11.2694
kutse	-11.2699
▁toiming	-11.27
tatakse	-11.2702
▁kreem	-11.2702
lepe	-11.2702
▁nägemine	-11.2702
▁teenu	-11.2708
▁vähim	-11.2711
▁nähtavus	-11.2711
▁link	-11.2711
▁koheselt	-11.2712
▁likvideerimi	-11.2716
▁sügaval	-11.2717
▁rebane	-11.272
▁töötu	-11.2721
▁äpp	-11.2724
▁bir	-11.2727
▁2021.	-11.2731
▁tankla	-11.2731
▁vangista	-11.2736
▁kahjum	-11.2737
▁äratama	-11.2739
▁kasutu	-11.2739
▁küps	-11.274
▁eas	-11.2741
▁väljaõpe	-11.2743
▁ind	-11.2744
summa	-11.2745
▁kordus	-11.2745
▁kommerts	-11.2746
dor	-11.2747
▁virtuaal	-11.2748
▁ruumi	-11.2749
▁paindlik	-11.2751
▁grill	-11.2752
▁silla	-11.2753
▁diktaator	-11.2754
▁ideoloogiline	-11.2754
▁konsulaat	-11.2754
▁esimese	-11.2754
▁räpane	-11.2754
▁planeering	-11.2755
▁pätt	-11.2755
▁solidaarsus	-11.2755
▁1,3	-11.2756
▁oligarh	-11.2756
▁efektiivsem	-11.2757
▁sõnastus	-11.2764
▁kotkas	-11.2768
ärimees	-11.2769
▁varssavi	-11.2771
▁mõ	-11.2772
▁kõnelev	-11.2773
▁para	-11.2773
▁eriliselt	-11.2775
▁annetaja	-11.2777
▁parlamentaar	-11.2778
enamik	-11.2779
muutus	-11.2781
▁soin	-11.2781
▁kaalutlus	-11.2782
▁kris	-11.2782
aasia	-11.2784
▁79	-11.2789
lp	-11.279
▁afganistan	-11.2793
▁küünal	-11.2794
kan	-11.2794
kala	-11.2797
kaar	-11.2805
▁korduma	-11.2806
▁väljaandmi	-11.2808
▁avaldu	-11.2816
▁sõltumatus	-11.2825
alumine	-11.2831
mess	-11.2831
▁eirama	-11.2836
ø	-11.2839
▁maroko	-11.2839
▁narkootili	-11.2839
▁tõenäolisem	-11.2839
▁ülekäiguraja	-11.2839
▁veerpalu	-11.2839
▁liinibuss	-11.2839
▁kaklus	-11.284
▁toimetulek	-11.284
▁olulisus	-11.284
▁iii	-11.284
▁õudne	-11.284
▁rahulolu	-11.284
▁tsoon	-11.2841
▁rent	-11.2841
semalt	-11.2842
▁koit	-11.2843
▁otsinud	-11.2845
▁seadusemuudatus	-11.2845
▁värvili	-11.2848
ssima	-11.2848
▁peksmine	-11.285
▁pulma	-11.2852
▁rasmus	-11.2854
▁rõhk	-11.2859
vaidlus	-11.2861
▁und	-11.2862
protseduur	-11.2863
▁lips	-11.2863
▁kirjelda	-11.2863
laupäev	-11.2868
▁lennud	-11.2869
sc	-11.287
▁hart	-11.2874
▁soodustus	-11.2874
lune	-11.2895
▁kinnitamine	-11.29
▁pla	-11.2905
üro	-11.2908
55	-11.2908
▁riietus	-11.2911
▁rus	-11.2916
itega	-11.2918
▁jätkav	-11.2919
▁ilme	-11.292
investeering	-11.2922
▁ohvr	-11.2923
pikk	-11.2923
▁päri	-11.2923
danud	-11.2924
leja	-11.2924
▁erjk	-11.2925
▁löödud	-11.2925
laenuühist	-11.2925
▁kerkinud	-11.2925
▁kilekott	-11.2925
▁pensionifond	-11.2926
▁arvestatav	-11.2927
gar	-11.2927
▁märgatavalt	-11.2927
▁kontori	-11.2928
▁kõrvuti	-11.2928
▁kohtusaal	-11.2928
▁160	-11.293
.45	-11.2931
▁säilimine	-11.2931
06	-11.2932
▁korraldav	-11.2933
eldi	-11.2935
▁tõlkima	-11.2935
▁süst	-11.2936
▁bre	-11.2936
▁danis	-11.2936
▁land	-11.2939
▁blu	-11.2939
▁veere	-11.2939
▁kukkus	-11.2941
▁lät	-11.2942
bla	-11.2943
särk	-11.2943
▁konteiner	-11.2944
▁95	-11.2947
tulekahju	-11.2949
major	-11.295
kohe	-11.2951
▁hä	-11.2952
seejärel	-11.2954
▁ääre	-11.2958
teos	-11.2958
▁seotus	-11.2958
▁liitus	-11.2963
▁pakistani	-11.2965
▁valimistel	-11.2967
▁pataljon	-11.2969
▁leebe	-11.297
▁selver	-11.2971
pesu	-11.2972
▁väe	-11.2973
▁viir	-11.2976
▁rände	-11.2983
ood	-11.2985
norm	-11.299
▁tolliamet	-11.2996
hari	-11.2999
võtt	-11.3001
▁olid	-11.3004
▁klaver	-11.3006
▁2020	-11.301
▁lükanud	-11.3012
▁väljapressimine	-11.3012
▁lehvita	-11.3012
▁viisakalt	-11.3012
▁katuseraha	-11.3013
▁vai	-11.3014
▁täituma	-11.3014
▁pavel	-11.3014
▁vabanemine	-11.3015
okk	-11.3015
▁xx	-11.3016
▁konkurend	-11.3017
▁majanduskriis	-11.3017
▁preester	-11.302
▁bürokraatia	-11.3021
▁villa	-11.3022
▁sead	-11.3022
▁skrip	-11.3023
amalt	-11.3025
toomine	-11.3027
▁kära	-11.3028
transport	-11.303
▁väljendu	-11.3032
▁selgem	-11.3035
kindlasti	-11.3037
▁veekogu	-11.3039
▁kaheksas	-11.3039
▁blogi	-11.304
▁energeetika	-11.304
▁lukas	-11.304
ou	-11.3041
▁kuller	-11.3041
▁laos	-11.3043
õppus	-11.3043
▁arakas	-11.3048
▁sõitis	-11.3049
martin	-11.3052
▁looduskaitse	-11.3052
▁riide	-11.3054
nikov	-11.3055
▁röövi	-11.3059
–200	-11.3061
▁sau	-11.3061
aparaat	-11.3063
▁tausta	-11.3063
▁söök	-11.3063
▁kõrvaldami	-11.3065
our	-11.3068
▁varisema	-11.307
▁tagumik	-11.3071
ano	-11.3071
ire	-11.3075
▁broneeri	-11.3075
▁ärrita	-11.3076
▁tähe	-11.3079
▁halla	-11.308
vähk	-11.3082
pill	-11.3084
▁jõ	-11.3085
▁hiline	-11.3086
▁bro	-11.3086
▁kius	-11.3088
gra	-11.3088
ske	-11.3088
▁mandri	-11.309
▁leidu	-11.3091
▁jm	-11.3093
▁stardi	-11.3094
▁astu	-11.3098
▁rongi	-11.3098
▁seaduse	-11.3099
asumine	-11.3099
▁arutlus	-11.31
▁rikkalik	-11.31
väljaanne	-11.31
▁pihkva	-11.3101
▁//	-11.3101
▁andmekaitse	-11.3101
č	-11.3101
▁alko	-11.3101
▁tõtt	-11.3102
▁luureteenistus	-11.3103
▁lähenev	-11.3103
▁põgenemine	-11.3104
soon	-11.3105
▁taganema	-11.3106
▁peatükk	-11.3106
▁põud	-11.3107
▁kristiine	-11.3108
▁avar	-11.3108
▁seadusandlus	-11.3109
▁seas	-11.311
vik	-11.3117
värv	-11.3117
▁lendur	-11.3118
▁konkureerima	-11.3119
stuudio	-11.312
hommik	-11.3123
▁maru	-11.3125
▁tasumine	-11.3126
▁lahutama	-11.3126
▁muda	-11.3127
▁dna	-11.3127
▁distants	-11.3128
▁kaheaastane	-11.3129
▁lae	-11.3134
▁77	-11.3136
pala	-11.3137
set	-11.3138
▁hel	-11.314
▁tagastama	-11.314
▁tru	-11.314
▁kooselu	-11.3143
▁õhtuti	-11.3151
▁salisbury	-11.3152
▁fs	-11.3153
jäätmed	-11.3153
▁soovi	-11.3155
▁sassi	-11.3156
▁lõhna	-11.3157
▁naise	-11.3159
▁uudi	-11.316
▁ramm	-11.3165
ohutus	-11.3168
27	-11.317
▁üleandmi	-11.3172
▁han	-11.3174
gema	-11.3176
▁73	-11.3176
▁maret	-11.3179
▁psühho	-11.3182
▁segi	-11.3184
▁remondi	-11.3185
▁meil	-11.3185
▁kaugem	-11.3187
rat	-11.3187
▁manööver	-11.3188
▁ebaõiglane	-11.3188
ähisuhtevägivald	-11.3188
▁turvalisem	-11.319
▁ilmateenistus	-11.3191
▁õppetund	-11.3191
▁veer	-11.3192
▁eero	-11.3193
▁sõidukijuht	-11.3194
▁laenama	-11.3194
▁sisaldus	-11.3198
▁lukašenka	-11.32
▁sõim	-11.32
▁päästeteenistus	-11.3201
▁kliendi	-11.3203
ller	-11.3204
▁prill	-11.3204
▁sõnastama	-11.3207
õr	-11.3207
▁tõde	-11.3211
pl	-11.3213
▁süüdimõistmi	-11.3213
▁kirjastus	-11.3214
millal	-11.3215
helsingi	-11.3215
▁tööd	-11.3215
▁uber	-11.3219
surm	-11.322
sanomat	-11.322
▁kompenseerima	-11.3222
sioon	-11.3223
▁ivan	-11.3224
▁inimeste	-11.3225
fu	-11.3227
▁arne	-11.3227
▁pankur	-11.3229
▁pöörane	-11.323
baar	-11.3232
▁lag	-11.3233
▁säilima	-11.3235
▁näe	-11.3237
▁arhitektuuri	-11.3243
haav	-11.3243
▁hang	-11.3246
▁arsti	-11.325
▁valitse	-11.3252
ora	-11.3253
▁egiptuse	-11.3256
andja	-11.3258
▁tähelda	-11.3262
▁pus	-11.3265
▁ruut	-11.3265
▁peatee	-11.3266
▁revolutsioonili	-11.3266
▁võrdsus	-11.3271
▁kahetsus	-11.3273
▁hambaravi	-11.3275
▁kumm	-11.3276
▁kokkulepitu	-11.3278
▁tsitaat	-11.3278
▁laskemoon	-11.3278
▁unenägu	-11.3278
▁deniss	-11.3278
▁mitmekesisus	-11.3278
▁säti	-11.3278
▁ruube	-11.3278
▁pressiteade	-11.3278
с	-11.3278
▁raudteejaam	-11.328
▁liikme	-11.328
▁elron	-11.3281
▁padar	-11.3282
▁avastus	-11.3283
▁akna	-11.3283
▁ecuador	-11.3283
▁äripartner	-11.3283
▁mice	-11.3283
▁kontserdi	-11.3284
▁kesköö	-11.3286
▁gunnar	-11.3286
▁memo	-11.3286
▁diskrimineerimi	-11.3287
▁kustutamine	-11.3287
▁michal	-11.3289
▁järelda	-11.329
▁püüdlus	-11.329
▁900	-11.3291
cc	-11.3294
▁who	-11.3296
▁torkama	-11.3297
▁eetiline	-11.3298
▁ann	-11.3307
▁mõisa	-11.3311
▁tara	-11.3322
▁maitsev	-11.3323
▁olen	-11.3325
▁verine	-11.333
▁väljendus	-11.3333
▁lobjakas	-11.3333
värav	-11.3334
valve	-11.3339
▁vallutama	-11.334
▁elva	-11.3344
▁hous	-11.3349
staar	-11.335
▁mulla	-11.3353
kapital	-11.3355
▁ülejäänu	-11.3359
▁objektiiv	-11.3359
▁vaen	-11.3363
▁vt	-11.3363
suu	-11.3364
▁alustav	-11.3366
▁plaadi	-11.3366
▁ettekujutus	-11.3368
▁šoki	-11.3368
▁sõjaväeluure	-11.3368
▁kuraator	-11.3368
▁tehniliselt	-11.3368
▁veni	-11.3369
▁mürgine	-11.337
▁juudi	-11.337
▁korraldanud	-11.337
▁ingrid	-11.3372
▁instrument	-11.3373
▁pooleteise	-11.3373
▁porošenko	-11.3373
▁toiduamet	-11.3373
▁kati	-11.3375
▁interaktiiv	-11.3377
▁vadi	-11.3379
▁tapnud	-11.3379
professor	-11.338
▁laevastik	-11.3381
▁sademe	-11.3381
õiguskaitseorgan	-11.3384
▁rõhuta	-11.3386
▁seleta	-11.3386
▁fassaad	-11.3387
kvaliteet	-11.3388
▁valama	-11.3389
itäis	-11.339
▁sam	-11.3392
▁likvideerima	-11.3392
42	-11.3393
▁beebi	-11.3393
▁leiti	-11.3393
suurbritannia	-11.3396
▁paberi	-11.3401
puhkus	-11.3402
▁esitle	-11.3405
▁umbusaldusavald	-11.3405
öör	-11.3407
▁jäme	-11.3407
mõis	-11.3408
▁arvutis	-11.3409
aas	-11.3409
ristusseadustik	-11.3412
-19	-11.3416
44	-11.3418
cu	-11.3418
ohvitser	-11.3419
▁miljardär	-11.3419
mini	-11.3421
▁lama	-11.3421
▁inspektor	-11.3421
▁otepää	-11.3422
▁otsingu	-11.3425
laagen	-11.3428
▁keskaeg	-11.3428
▁nad	-11.3453
mängu	-11.3454
▁trumm	-11.3456
▁jood	-11.3456
▁amazon	-11.3457
▁malta	-11.3459
▁süstemaatili	-11.3459
▁kombineeri	-11.3459
▁asjakohane	-11.3459
▁kalduma	-11.3459
▁lagunemine	-11.3459
▁ilmaolu	-11.346
▁pedofiil	-11.346
▁käituv	-11.3461
▁elades	-11.3461
▁motiveerima	-11.3461
ake	-11.3462
▁stenbock	-11.3462
▁kummi	-11.3463
▁mikrofon	-11.3463
▁realistlik	-11.3463
▁hoitud	-11.3464
▁strasbourg	-11.3464
▁teheran	-11.3464
tmine	-11.3464
▁võtmes	-11.3464
▁uurimus	-11.3465
▁veneetsia	-11.3466
nus	-11.3466
▁vahetuma	-11.3467
iit	-11.3468
▁vähiravifond	-11.3469
▁teke	-11.347
▁juubeliaasta	-11.347
▁bolton	-11.3471
▁boonus	-11.3471
▁püstol	-11.3472
▁butina	-11.3473
▁röövimine	-11.3474
▁kile	-11.3478
▁marion	-11.3484
tõrje	-11.3486
koalitsioonilepe	-11.3489
keha	-11.349
▁reformi	-11.349
analüütik	-11.3491
turu	-11.3499
▁aw	-11.3499
aegu	-11.3501
02	-11.3502
▁kuulutus	-11.3502
▁mag	-11.3502
▁stev	-11.3505
▁pühendu	-11.3507
▁abivahend	-11.3509
▁töötlema	-11.3509
▁kaval	-11.3509
▁emm	-11.3513
▁ivar	-11.3515
▁jõgevamaa	-11.3518
suund	-11.3523
▁renoveerimi	-11.3523
▁solvav	-11.3525
preemia	-11.3525
▁istutama	-11.3526
▁hange	-11.3528
sp	-11.3535
päi	-11.3535
13	-11.3536
rah	-11.354
▁teras	-11.3543
▁korv	-11.3545
▁mistahes	-11.3546
▁meeskonna	-11.3547
▁pakendi	-11.3547
.4	-11.355
▁colombia	-11.355
▁minimaalne	-11.355
▁töötukassa	-11.355
▁suurenemine	-11.3551
▁käsutus	-11.3552
▁hüpe	-11.3552
▁küsitav	-11.3554
tule	-11.3554
otstarve	-11.3555
▁peavalu	-11.3555
▁vanavanem	-11.3557
▁tabamine	-11.3558
tandem	-11.3559
▁elektroonika	-11.3559
nal	-11.356
▁tempel	-11.3561
▁sööt	-11.3562
▁testima	-11.3564
▁kange	-11.3569
▁edukam	-11.3569
▁viking	-11.3573
▁vaatleja	-11.3574
▁hüvitami	-11.3574
▁rööv	-11.3575
▁juubeli	-11.3576
18	-11.3578
koostöö	-11.3579
tseremoonia	-11.358
▁egiptus	-11.3581
võit	-11.3583
▁mh	-11.3584
veski	-11.3584
▁palavik	-11.3584
▁rõhu	-11.3586
▁kangema	-11.3586
▁salisburys	-11.3588
▁doping	-11.3589
farm	-11.3589
rr	-11.359
makse	-11.3595
vest	-11.3609
▁bon	-11.3611
▁rä	-11.3614
▁major	-11.3617
▁ähvardav	-11.3619
▁pressima	-11.362
▁mac	-11.3622
▁särama	-11.3625
▁ter	-11.3628
▁vahest	-11.3628
▁ša	-11.3629
▁ast	-11.3629
▁sajas	-11.3634
ase	-11.3635
▁garanteeri	-11.3636
▁lõhke	-11.3637
▁õhutõrje	-11.3639
nä	-11.3639
▁hakka	-11.3641
▁alex	-11.3641
atoorium	-11.3643
▁ekstreem	-11.3643
enesestmõistetav	-11.3643
▁pealtvaataja	-11.3644
ndaja	-11.3644
▁tuletorn	-11.3644
▁libedus	-11.3645
▁erivajadus	-11.3648
▁põdder	-11.365
▁tegel	-11.365
▁filipiin	-11.365
▁ähvardamine	-11.3651
▁riputa	-11.3651
▁sündi	-11.3654
▁lastefond	-11.3654
▁trolli	-11.3654
▁esitus	-11.3656
igal	-11.3656
▁paavo	-11.3657
▁puhkenud	-11.3658
▁haridusminister	-11.366
▁teostamine	-11.366
kindlus	-11.3663
lai	-11.3664
..1	-11.3668
ligi	-11.3669
▁päästa	-11.367
▁sema	-11.3671
eesmärk	-11.3673
raadio	-11.3674
▁võimus	-11.3674
▁asutatud	-11.3675
▁bri	-11.3676
▁menüü	-11.3676
saadik	-11.3677
▁dan	-11.368
kütus	-11.368
▁kasahstani	-11.3681
uba	-11.3683
gre	-11.3684
▁vala	-11.3684
▁86	-11.3687
tehnoloogiline	-11.3688
idesse	-11.3688
tooma	-11.3691
▁residents	-11.3691
▁piires	-11.3692
tlik	-11.3695
▁keeldumi	-11.3697
▁põhjalikum	-11.3699
tegema	-11.3704
▁sirgu	-11.3705
▁tegele	-11.3708
.￼	-11.371
▁soom	-11.3711
tsemine	-11.3713
▁islam	-11.3715
▁paremal	-11.3716
▁ali	-11.3718
▁möödasõit	-11.372
▁treeni	-11.372
▁ristlaan	-11.3721
▁faas	-11.3722
hein	-11.3723
▁ave	-11.3727
▁pädev	-11.3728
▁ford	-11.373
poolest	-11.373
ble	-11.3732
▁tatjana	-11.3736
▁üllatunud	-11.3737
▁airbus	-11.3737
▁suitsetamine	-11.3737
▁sihik	-11.3738
▁soojenemine	-11.3739
▁asepeaminister	-11.3739
▁unustanud	-11.374
▁panustanud	-11.374
▁religioon	-11.3741
▁edastamine	-11.3741
▁les	-11.3743
▁tööseisak	-11.3743
▁teelõik	-11.3744
▁lõunaosa	-11.3744
ajastu	-11.3747
▁umbusaldami	-11.3747
▁liidumaa	-11.3749
▁polnud	-11.3749
▁1993.	-11.375
▁voorus	-11.375
▁sportlik	-11.375
voor	-11.3751
▁pühkima	-11.3754
▁habe	-11.3755
▁uimasti	-11.3756
▁lepp	-11.3758
▁võr	-11.3761
▁ene	-11.3763
▁trauma	-11.3763
▁dopingu	-11.3765
kil	-11.3767
kilomeetri	-11.3767
п	-11.3768
▁parts	-11.3768
mõlema	-11.377
▁meta	-11.3771
▁minev	-11.3774
▁kaevur	-11.3774
▁poolsada	-11.3775
▁logistika	-11.3776
eerimis	-11.3778
▁moora	-11.3781
▁õpetus	-11.3783
▁kelm	-11.3785
▁maits	-11.3793
esti	-11.38
▁küt	-11.3802
án	-11.3803
▁tippjuht	-11.3805
▁lõks	-11.3806
▁88	-11.3808
▁halvene	-11.3809
▁õpilas	-11.3811
▁maksmata	-11.3814
▁avi	-11.3816
▁vaktsineerima	-11.3825
▁ärev	-11.3825
▁neti	-11.3828
ranna	-11.383
▁soomes	-11.383
▁gorbatšov	-11.3831
▁sümboolne	-11.3831
▁närvimürk	-11.3831
▁kärpima	-11.3831
▁riigihange	-11.3831
▁mustamäe	-11.3832
▁väljapoole	-11.3833
▁nokia	-11.3835
▁hakkab	-11.3835
▁harry	-11.3836
isüsteem	-11.3837
▁apollo	-11.3838
▁paigaldamine	-11.3839
seid	-11.3841
▁sotsiaaltöötaja	-11.3841
▁aita	-11.3843
▁viktoria	-11.3843
ilu	-11.3846
äss	-11.3846
külaline	-11.3848
▁põhjaosa	-11.385
▁börs	-11.385
▁teavitus	-11.3852
▁kohustatud	-11.3853
▁sand	-11.3856
oh	-11.3858
▁tõsta	-11.386
eh	-11.386
analüüs	-11.386
nia	-11.3862
▁brex	-11.3862
sõnum	-11.3863
talitus	-11.3863
iministeerium	-11.3864
▁illegaalne	-11.3867
-8	-11.387
09	-11.3874
üür	-11.3875
▁rivi	-11.3877
▁joom	-11.3879
▁at	-11.3882
▁pileti	-11.3886
▁mak	-11.3887
▁suurelt	-11.3892
▁juhe	-11.3895
▁2010	-11.3898
▁rühma	-11.39
pudel	-11.3901
▁arvel	-11.3902
ats	-11.3903
▁keit	-11.3907
muna	-11.3908
laen	-11.3909
▁rev	-11.391
▁vaadata	-11.391
▁vaht	-11.3912
mõte	-11.3913
▁101	-11.3916
▁abiline	-11.3918
▁valiv	-11.392
▁tihedam	-11.3924
▁kuritarvita	-11.3925
▁iraagi	-11.3926
▁testament	-11.3926
▁üleriigiline	-11.3926
▁paigutatud	-11.3926
▁ž	-11.3927
▁rahvasaadik	-11.3927
▁halvim	-11.3927
▁peidetud	-11.3928
▁tantsupidu	-11.393
▁survestama	-11.393
▁inimelu	-11.3931
▁suveaeg	-11.3932
▁dar	-11.3932
▁põlissoomla	-11.3934
33	-11.3935
▁reageeri	-11.3935
▁metoodika	-11.3937
▁impeerium	-11.394
▁orav	-11.3944
▁plaanitud	-11.3944
▁ringi	-11.3947
▁neutraalne	-11.3948
pur	-11.3949
▁vahetu	-11.3951
▁virk	-11.3951
▁konkurentsi	-11.3951
▁ram	-11.3951
dunud	-11.3951
▁tuua	-11.3952
▁maksimum	-11.3954
▁elementaar	-11.3954
ice	-11.3959
▁tänak	-11.3959
juhtunu	-11.396
▁konfiskeeri	-11.396
ajakirjandus	-11.3961
▁lug	-11.3964
▁pööre	-11.3964
nas	-11.3965
▁oll	-11.3966
auhind	-11.3967
▁paigutami	-11.3967
▁laane	-11.3974
ost	-11.3974
▁eelistav	-11.3975
lehekülg	-11.3976
dal	-11.3977
▁vabandus	-11.3977
▁kannatav	-11.3977
▁keskendunud	-11.3978
▁mõt	-11.398
▁süüdistav	-11.3981
▁näitamine	-11.3982
lisa	-11.3983
rek	-11.3983
62	-11.3983
▁tuulik	-11.3984
▁käibemaks	-11.3986
päästeamet	-11.3995
▁hollywood	-11.3996
seen	-11.3996
▁vähi	-11.3997
.5	-11.3998
▁tõkestami	-11.3998
▁kooslus	-11.4002
▁haiglane	-11.4004
▁list	-11.4006
▁tasuline	-11.4007
▁seeme	-11.4012
panek	-11.4017
▁***	-11.4019
▁reguleeri	-11.4019
▁arvele	-11.402
▁nova	-11.402
iskama	-11.4021
▁eurovision	-11.4022
▁spekulatsioon	-11.4022
▁kuningriik	-11.4022
▁viiendik	-11.4022
▁rändelepe	-11.4022
ita	-11.4022
▁külaskäik	-11.4022
▁rassism	-11.4023
▁kuulutanud	-11.4023
▁piiripunkt	-11.4025
▁imre	-11.4026
▁publica	-11.4026
▁ülemnõukogu	-11.4026
▁võla	-11.4026
▁paigaldatud	-11.4027
▁margit	-11.4027
▁sarapuu	-11.4028
▁lageraie	-11.4028
▁lauristin	-11.4029
▁ostav	-11.4029
▁edulugu	-11.4029
▁110	-11.4031
▁massiliselt	-11.4031
▁suguvõsa	-11.4032
▁afd	-11.4032
spordi	-11.4034
top	-11.4036
▁lõputult	-11.4036
▁ust	-11.4037
▁kingitud	-11.4037
ram	-11.4046
▁nauding	-11.4046
▁kõrts	-11.4048
▁paranemine	-11.4049
▁ht	-11.4049
▁presidend	-11.4051
▁arno	-11.4052
lon	-11.4055
▁massiiv	-11.4058
versioon	-11.406
▁eerik	-11.4063
seisund	-11.4065
▁kaebu	-11.4066
▁kõhu	-11.4067
▁maismaa	-11.4067
▁vagun	-11.4068
▁legend	-11.4072
mitte	-11.4073
▁liitma	-11.4074
▁müüv	-11.4075
▁82	-11.4076
alu	-11.4076
▁kaugemal	-11.4078
▁solvama	-11.4079
rein	-11.4082
tipp	-11.4082
▁küsi	-11.4084
▁sulg	-11.4086
▁fred	-11.4087
▁asend	-11.4089
▁ken	-11.4089
▁õigu	-11.4093
▁rünnakus	-11.4093
toimetaja	-11.4099
▁laialda	-11.4099
pinge	-11.4101
▁lisandu	-11.4103
▁punkti	-11.4106
▁kire	-11.4106
▁alasti	-11.4107
▁vastavus	-11.411
▁küllik	-11.4111
cht	-11.4114
▁konts	-11.4114
▁hal	-11.4115
▁hr	-11.4115
▁palestiinla	-11.4119
▁hoogsalt	-11.4119
▁kaasliikleja	-11.4119
▁konstruktiivne	-11.4119
▁südametunnistus	-11.412
▁naiivne	-11.412
▁texa	-11.412
▁tõestus	-11.412
jõesuu	-11.4121
▁linnahall	-11.4121
▁raadiojaam	-11.4122
▁hakatud	-11.4122
-­	-11.4123
▁küberrünnak	-11.4126
▁mõista	-11.4128
sotsiaal	-11.413
▁karv	-11.4131
й	-11.4131
▁bolsonaro	-11.4131
▁2011	-11.4132
▁julgenud	-11.4136
rahva	-11.4137
▁koputama	-11.4138
▁zahharova	-11.414
▁temaatika	-11.4144
▁veet	-11.4146
▁vihakõne	-11.4146
▁omand	-11.4148
▁kutsika	-11.415
kapp	-11.415
▁paratamatu	-11.4151
püks	-11.4152
▁igavene	-11.4153
▁ümbritsema	-11.4154
hotell	-11.4155
sarnane	-11.4155
▁sisaldu	-11.4158
tuntud	-11.4158
kauba	-11.4161
-2	-11.4162
putin	-11.4163
▁omajagu	-11.4164
don	-11.4165
▁1200	-11.4165
lov	-11.4166
andmine	-11.4168
▁katkema	-11.417
rs	-11.4177
▁moodustu	-11.4177
▁•	-11.4177
▁€	-11.4178
▁vanamees	-11.4178
▁eesistumi	-11.4178
▁joe	-11.4178
mond	-11.4181
▁timo	-11.4182
▁laekuma	-11.4185
▁tur	-11.4187
▁klapp	-11.4188
▁son	-11.4191
ootama	-11.4193
▁tasakaalu	-11.4196
▁iva	-11.4197
▁mõrvar	-11.42
otsing	-11.4202
▁kaljulai	-11.4202
▁kla	-11.4202
▁kasvatus	-11.4208
▁mürgi	-11.4208
▁hävima	-11.4208
▁tormi	-11.421
tulek	-11.4214
▁guaidó	-11.4215
▁kaliningrad	-11.4217
▁lükatud	-11.4217
▁korrigeeri	-11.4217
▁lamellrehv	-11.4217
▁järeleandmi	-11.4217
▁kersna	-11.4217
▁öösiti	-11.4217
▁toidulisand	-11.4217
▁ajapikendus	-11.4217
▁vokaal	-11.4218
▁ilmatark	-11.4218
▁käitlemine	-11.4218
▁soodne	-11.4219
▁valimisprogramm	-11.422
▁saavutatud	-11.4222
▁mööbli	-11.4223
▁grupeering	-11.4223
▁langemine	-11.4224
▁efektiivsus	-11.4224
▁segu	-11.4224
▁teenitud	-11.4224
▁vaimustus	-11.4225
▁izmailova	-11.4226
mugavalt	-11.4226
▁klooster	-11.4226
▁ursula	-11.4227
▁tahtlikult	-11.4228
cha	-11.4228
▁protsend	-11.4231
▁metsavend	-11.4231
▁direktiiv	-11.4231
▁hilinemine	-11.4232
▁õhuke	-11.4233
▁paranenud	-11.4235
astus	-11.4237
▁bla	-11.4237
▁pin	-11.4238
▁geenius	-11.4239
▁hukkamõist	-11.424
▁kõrgele	-11.4241
▁rahvuslane	-11.4242
put	-11.4243
▁kuur	-11.4249
õpp	-11.425
▁saul	-11.4252
▁individuaalne	-11.4252
▁äripäev	-11.4252
▁mahla	-11.4258
▁pühapäeva	-11.4265
▁pärl	-11.4269
▁gar	-11.4269
▁kogunev	-11.4271
▁tsükkel	-11.4272
▁kuuldav	-11.4278
▁määratlema	-11.4282
ft	-11.4283
▁hullu	-11.4283
▁olenev	-11.4285
▁aabi	-11.4287
25	-11.4292
▁väik	-11.4292
▁saare	-11.4293
lender	-11.4294
▁ringhääling	-11.4296
▁rakk	-11.4299
▁kehti	-11.43
tul	-11.4302
▁green	-11.4309
juhtimine	-11.431
▁peks	-11.431
vastus	-11.4311
▁liivi	-11.4314
▁ilutulestik	-11.4314
▁miljonär	-11.4315
▁pantvang	-11.4316
ė	-11.4316
▁amsterdam	-11.4316
▁vastastikune	-11.4316
▁immigrant	-11.4316
▁rõõmsalt	-11.4316
▁konsulaad	-11.4316
▁võltsitud	-11.4317
▁keskkonnamõju	-11.4317
▁kunstimuuseum	-11.4318
▁ehitusluba	-11.432
▁rahvuspark	-11.432
▁ennetähtaeg	-11.432
▁selgunud	-11.4321
▁aar	-11.4321
▁assamblee	-11.4321
▁ebaõnnestunud	-11.4322
▁müstili	-11.4322
▁žürii	-11.4323
▁sm	-11.4323
▁92	-11.4324
▁vilepuhuja	-11.4325
▁põõsas	-11.4326
▁ana	-11.4328
▁külastamine	-11.433
▁kustutustöö	-11.433
▁tööülesanne	-11.4331
▁rangelt	-11.4332
etus	-11.4333
▁naasnud	-11.4333
▁tul	-11.4335
▁menetle	-11.4335
▁kütma	-11.4339
▁universaal	-11.434
▁teo	-11.4346
▁olümpiamäng	-11.4348
kompanii	-11.4348
▁muuta	-11.4349
vat	-11.4352
▁kuulu	-11.4353
▁ze	-11.4353
▁suundus	-11.4355
▁brit	-11.4355
türgi	-11.4355
▁kohatu	-11.4355
▁kulukas	-11.4357
▁jõukus	-11.4358
▁paet	-11.4358
▁toimus	-11.4359
▁kosmos	-11.4359
▁jabur	-11.4365
linlane	-11.4366
▁81	-11.4369
-16	-11.437
▁eetika	-11.437
teaduskond	-11.437
▁sile	-11.4372
▁hunnik	-11.4373
mood	-11.4374
amp	-11.4374
reede	-11.4376
▁bass	-11.4379
ainus	-11.4384
▁puudulik	-11.4388
kindlustusamet	-11.4389
▁laad	-11.4391
▁kutsu	-11.4394
tänav	-11.4399
▁liini	-11.4401
▁pagulas	-11.4404
▁ü	-11.4406
▁geeni	-11.4406
▁turism	-11.4408
▁sarv	-11.4409
▁iseloomulik	-11.4409
▁soovitav	-11.4411
▁surmanuhtlus	-11.4416
▁usaldusväärsus	-11.4416
▁vihja	-11.4416
▁hoius	-11.4417
▁olgu	-11.4417
▁elevant	-11.4417
▁mõtteviis	-11.4418
▁sissetung	-11.4418
▁meediaväljaanne	-11.4419
▁mänguasi	-11.4419
▁turvatöötaja	-11.4419
▁leppeta	-11.442
▁aetud	-11.4422
▁kautsjon	-11.4425
▁kiidetud	-11.4425
▁maatükk	-11.4426
▁moham	-11.4427
▁tüür	-11.4428
▁alusetu	-11.443
▁riigiprokurör	-11.443
▁armuma	-11.4433
▁hõlm	-11.4433
▁harju	-11.4433
iss	-11.4435
▁eestlanna	-11.4436
▁eluaeg	-11.4436
▁head	-11.4437
▁terviklik	-11.4438
▁ülikond	-11.4438
▁murekoht	-11.4438
▁maksim	-11.4438
▁1994.	-11.4439
▁sõidutama	-11.4439
▁mõõtmine	-11.4442
tima	-11.4443
▁jääb	-11.4444
▁saagi	-11.4445
▁tht	-11.4446
▁elupaik	-11.4447
korraldaja	-11.4449
▁pekingi	-11.4449
tunnistus	-11.4451
▁mõnu	-11.4451
▁ahistamis	-11.4451
välis	-11.4452
▁inspireeri	-11.4453
protsent	-11.4455
tütar	-11.4455
▁pori	-11.4457
väärne	-11.4458
▁spekuleerima	-11.4459
▁2012	-11.446
▁rass	-11.4463
õpetamine	-11.4463
▁gru	-11.4471
▁süüdi	-11.4473
poole	-11.4477
▁miin	-11.4481
▁ol	-11.4483
ary	-11.4484
▁talitus	-11.4486
▁banaan	-11.4488
▁saati	-11.4492
▁satu	-11.4493
▁laik	-11.4494
▁ületav	-11.4495
▁miljoni	-11.4495
▁taro	-11.4496
▁elamis	-11.4498
▁nädalal	-11.4499
▁staap	-11.4501
utav	-11.4501
ston	-11.4504
kirjandus	-11.4505
▁war	-11.4506
▁vahva	-11.451
karp	-11.4511
▁по	-11.4511
▁ignoreerima	-11.4517
▁käidud	-11.4517
▁kuumalaine	-11.4518
▁oviir	-11.4518
▁volvo	-11.4518
▁vedamine	-11.4518
▁lahene	-11.4519
▁kokkupuude	-11.4519
▁võõrusta	-11.4519
▁kertš	-11.452
▁kohtualu	-11.452
▁hingamine	-11.452
▁jõustunud	-11.4521
▁ttü	-11.4521
▁maksusüsteem	-11.4523
▁otsib	-11.4523
▁migratsioon	-11.4525
▁vahekord	-11.4526
tek	-11.4526
▁taktika	-11.4528
müür	-11.4528
▁vajunud	-11.4528
▁grupi	-11.453
▁mõnusalt	-11.4532
▁treenima	-11.4535
▁raamistik	-11.4537
▁käitus	-11.4537
▁min	-11.454
▁2002.	-11.4541
▁piina	-11.4541
eil	-11.4543
▁jälgiv	-11.4543
▁veebiväljaan	-11.4544
isev	-11.4545
▁informeerima	-11.4546
▁hooletu	-11.4546
▁pull	-11.4547
koolitus	-11.4547
taan	-11.4548
▁nõrkus	-11.4548
▁otsustaja	-11.4548
mõju	-11.455
cr	-11.4554
salong	-11.4556
▁hooliv	-11.4557
retk	-11.4558
▁näituse	-11.4564
▁valgustus	-11.4565
▁seik	-11.4565
41	-11.4566
▁olme	-11.4567
▁arutatud	-11.4567
▁humanitaar	-11.4569
▁lis	-11.4572
▁peakontor	-11.4573
▁2008	-11.458
▁käivitu	-11.4584
ч	-11.4584
näitaja	-11.4585
rit	-11.4585
▁lea	-11.4595
▁okupatsiooni	-11.4597
ahi	-11.4598
▁kinnine	-11.4599
▁nõutud	-11.46
▁pid	-11.4602
demokraat	-11.4608
▁inspektsioon	-11.4615
▁1999.	-11.4616
hinna	-11.4618
▁cash	-11.4618
vanker	-11.4619
▁kasvuhoonegaas	-11.4619
▁tuntuim	-11.4619
▁ülemäära	-11.4619
▁jalutuskäik	-11.4619
▁värbama	-11.4619
▁lennanud	-11.462
▁kiru	-11.462
▁olulisim	-11.462
▁taanduma	-11.462
▁riigisaladus	-11.462
▁paigal	-11.462
järgult	-11.4621
▁aadu	-11.4621
▁arenev	-11.4621
▁avasta	-11.4621
▁põgenenud	-11.4622
▁äriühing	-11.4623
▁ebaselge	-11.4625
▁rääkiv	-11.4626
burg	-11.4626
▁tõukeratas	-11.4627
▁kovalenko	-11.4627
▁oskar	-11.4628
heli	-11.4628
kangelane	-11.4629
▁eriarst	-11.4629
▁aaviksoo	-11.463
▁hüsteeria	-11.463
▁heina	-11.4631
▁maaomanik	-11.4631
▁uuendamine	-11.4631
▁ahv	-11.4632
▁müünud	-11.4633
lit	-11.4634
▁üürnik	-11.4635
▁proovinud	-11.4636
▁puhtus	-11.4637
▁saarts	-11.4638
▁jakob	-11.4638
▁võta	-11.4638
▁sõbra	-11.4639
▁ulatama	-11.4639
ibüroo	-11.4641
▁käsitlus	-11.4642
ntama	-11.4643
▁suhte	-11.4644
▁niitma	-11.4645
▁sillar	-11.4647
▁tasuta	-11.4648
▁aktsionär	-11.465
▁üksjagu	-11.4653
▁eksootili	-11.4656
▁tagav	-11.4657
itaalia	-11.466
toimetus	-11.466
▁püss	-11.466
ito	-11.4661
jäänud	-11.4662
▁sagedus	-11.4663
element	-11.4664
▁atlandi	-11.4671
▁kolmanda	-11.4671
▁leh	-11.4677
▁töötlemi	-11.4677
▁kõikuma	-11.4678
▁eluruum	-11.4678
▁vöö	-11.4679
▁ming	-11.468
▁kolmik	-11.468
kilo	-11.4683
kaitseakadeemia	-11.4685
lill	-11.4686
sol	-11.469
▁territoriaal	-11.4691
▁agro	-11.4692
atiline	-11.4694
▁hol	-11.4697
▁kisa	-11.4699
tsimees	-11.47
▁kompetents	-11.4703
▁valgamaa	-11.4708
pilv	-11.4709
16	-11.4709
▁uuringu	-11.471
▁tii	-11.4712
▁fri	-11.4713
▁tulemine	-11.4714
▁räpp	-11.4715
raskus	-11.4716
▁ühinenud	-11.4717
▁kolmeaasta	-11.472
saa	-11.4721
▁kood	-11.4722
▁lgbt	-11.4722
▁teretulnud	-11.4722
▁netflix	-11.4722
▁neonats	-11.4722
▁vakra	-11.4723
▁sittow	-11.4723
▁kahekesi	-11.4723
▁kahekordne	-11.4723
▁muusikal	-11.4723
▁popmuusika	-11.4724
▁arendustegevus	-11.4724
▁menetlema	-11.4724
▁otseülekanne	-11.4724
▁skeptiline	-11.4724
▁seadusandja	-11.4726
▁suunduv	-11.4726
▁3,5	-11.4727
aju	-11.4727
▁leiborist	-11.4727
▁loobunud	-11.4728
▁sellegipoolest	-11.4728
▁vaikimine	-11.4728
▁tütarlaps	-11.4728
▁tõsidus	-11.4729
▁reservväela	-11.4729
▁lahendatud	-11.473
▁koolimaja	-11.473
▁ühendamine	-11.473
▁nõustunud	-11.4731
▁kvaliteedi	-11.4731
▁kritiseerinud	-11.4734
graafik	-11.4735
edasi	-11.4735
▁kall	-11.4736
▁põranda	-11.4738
juhi	-11.4739
idas	-11.4739
ay	-11.474
▁eestimaalane	-11.474
star	-11.474
▁profiil	-11.4741
lähedane	-11.4742
bor	-11.4743
▁kalline	-11.4743
▁krooni	-11.4746
▁õiguskomisjon	-11.4747
▁1970	-11.4747
ew	-11.475
▁pühendama	-11.475
▁niipea	-11.4752
jon	-11.4755
▁õiet	-11.4756
▁sodi	-11.4758
▁ihka	-11.4759
▁pahane	-11.4759
inal	-11.4762
▁ce	-11.4764
▁savi	-11.4765
ikaaslane	-11.4771
▁varjus	-11.4772
▁blokeerima	-11.4774
▁küün	-11.4776
▁projektijuht	-11.4777
uh	-11.4781
▁leevendami	-11.4783
▁kremli	-11.4783
▁valdo	-11.4786
▁janar	-11.4789
▁mars	-11.4793
.12	-11.4795
▁hõivama	-11.4796
▁truu	-11.4796
▁karjääri	-11.4799
▁dokumentaal	-11.4799
▁disko	-11.4801
▁altkäemaksu	-11.4802
ander	-11.4803
▁2500	-11.4808
majandamine	-11.4811
▁senat	-11.4811
▁kasutamata	-11.4811
▁metroo	-11.4813
▁ip	-11.4814
▁lekita	-11.4814
▁turt	-11.4818
▁abistami	-11.4819
▁niisamuti	-11.4821
▁kusagile	-11.4821
▁mel	-11.4824
▁lapsed	-11.4826
▁muljetavaldav	-11.4827
▁repertuaar	-11.4827
▁väsimus	-11.4827
▁ralf	-11.4827
▁korrakaitsja	-11.4827
▁vaatenurk	-11.4827
▁asjaajamine	-11.4827
kalevipoeg	-11.4827
▁juurdlusbüroo	-11.4827
▁kunstiteos	-11.4827
praktika	-11.4828
▁pruut	-11.4828
▁muhk	-11.4828
▁lastekodu	-11.4829
▁tre	-11.483
▁alamäe	-11.4831
▁põltsamaa	-11.4831
õhu	-11.4831
▁kre	-11.4833
▁krimmis	-11.4833
▁filosoof	-11.4835
abuma	-11.4835
▁tort	-11.4837
▁ere	-11.4837
▁browder	-11.4837
▁evestus	-11.4837
▁golf	-11.4837
õpe	-11.4838
▁aktiivsus	-11.484
▁novost	-11.4841
▁meeletult	-11.4841
▁aavik	-11.4841
▁tahtlik	-11.4841
▁stipendium	-11.4841
▁ühesõna	-11.4842
▁läbikukkumine	-11.4843
▁long	-11.4844
▁igatse	-11.4845
▁kostüüm	-11.4847
▁immigratsiooni	-11.4848
▁käru	-11.485
▁fort	-11.485
▁tagatis	-11.4851
▁mahukas	-11.4851
▁tähistav	-11.4851
▁psühholoogia	-11.4852
▁paiskama	-11.4854
▁hapnik	-11.4855
▁kroonika	-11.4856
inski	-11.4857
▁lõiku	-11.4859
▁mä	-11.4859
ни	-11.486
mere	-11.486
▁liigu	-11.486
▁olend	-11.4861
vas	-11.4862
▁kulm	-11.4862
▁sk	-11.4863
▁lakk	-11.4865
▁loodav	-11.4865
▁fin	-11.4865
tasand	-11.4867
▁päriselu	-11.4868
iidne	-11.4868
▁komb	-11.4868
struktuur	-11.4869
orkester	-11.4869
€	-11.4869
deklaratsioon	-11.4869
kurjategija	-11.4869
▁lõksuma	-11.487
▁eksportima	-11.4871
▁masina	-11.4872
▁vastutasu	-11.4872
48	-11.4874
▁ef	-11.4875
hunt	-11.4875
▁vann	-11.4875
▁varustama	-11.4878
▁ahel	-11.4879
irama	-11.4886
▁lubamine	-11.4886
.11	-11.4887
▁herne	-11.4887
▁iv	-11.4888
▁gas	-11.489
▁filmide	-11.4892
org	-11.4892
võtmine	-11.4895
▁vaevu	-11.4895
kirik	-11.4901
ldamine	-11.4906
▁nimetav	-11.4909
▁kasuta	-11.491
claud	-11.4911
▁vaeva	-11.4915
▁rap	-11.4917
▁lemmikloom	-11.4923
▁saudi	-11.4923
käitumine	-11.4928
▁140	-11.4929
▁nupp	-11.493
▁adekvaatne	-11.4932
▁fantastiline	-11.4932
▁jõhker	-11.4932
▁malaisia	-11.4932
▁vastutustundetu	-11.4932
▁pürgi	-11.4932
▁koloonia	-11.4932
▁hussar	-11.4932
▁müüdav	-11.4933
▁väärteomenetlus	-11.4933
▁lõppemine	-11.4934
▁varivalitsus	-11.4934
▁interne	-11.4934
▁esinaine	-11.4934
▁näidatud	-11.4936
▁arvestanud	-11.4936
▁maakonna	-11.4938
kaal	-11.4939
▁nigeeria	-11.494
▁kiitus	-11.494
▁vaesem	-11.494
▁suht	-11.4942
▁avo	-11.4942
▁integratsioon	-11.4947
▁ulfsak	-11.4948
▁teadvustama	-11.4948
▁küpros	-11.495
võitu	-11.4951
▁tõu	-11.4953
▁venita	-11.4954
▁kirjutis	-11.4956
77	-11.4958
▁kontsern	-11.4959
kirjanik	-11.4961
▁juhenda	-11.4964
▁teeni	-11.4964
▁koristus	-11.4965
atiivne	-11.4966
▁kodutu	-11.4966
▁liibanon	-11.4966
▁nik	-11.4967
▁bensiin	-11.4968
rama	-11.4968
▁ai	-11.4968
▁pärg	-11.4968
▁seire	-11.4969
▁keemili	-11.4969
nc	-11.4971
üh	-11.4972
poli	-11.4974
▁hirmutav	-11.4974
mehhanism	-11.4975
•	-11.4975
inspektor	-11.4975
cia	-11.4976
läinud	-11.4976
▁organiseeri	-11.4978
ys	-11.4978
▁suunamine	-11.498
nce	-11.498
▁arenda	-11.4983
ivaba	-11.4984
▁kinodes	-11.4986
▁leningradi	-11.4986
▁operatsiooni	-11.4992
lavastus	-11.4993
▁hävi	-11.4994
niline	-11.4997
▁kaur	-11.4997
▁tel	-11.5
▁virumaa	-11.5
idee	-11.5001
▁ehtne	-11.5004
▁tilk	-11.5006
ong	-11.5012
käigu	-11.5013
▁nõust	-11.5019
▁umb	-11.5021
liiga	-11.5024
turism	-11.5027
▁banki	-11.5028
risk	-11.5029
▁põnevus	-11.5029
kin	-11.503
▁kahtlustatu	-11.5031
▁kirurg	-11.5035
ī	-11.5038
à	-11.5038
▁allahindlus	-11.5038
▁odessa	-11.5038
▁vähihaige	-11.5038
▁punaarmee	-11.5038
▁õigusemõistmi	-11.5038
▁oscar	-11.5039
▁telefoninumber	-11.5039
▁fox	-11.504
▁ministrikoht	-11.5041
▁vahemik	-11.5042
▁politseipatrull	-11.5042
kaamer	-11.5043
▁kellaaeg	-11.5043
▁donetski	-11.5044
▁perekonnanim	-11.5045
▁küsitud	-11.5046
▁olenemata	-11.5047
▁diplom	-11.5048
▁keelustamine	-11.505
▁serbia	-11.505
▁laiendamine	-11.5051
▁ren	-11.5052
geen	-11.5054
▁riigihank	-11.5055
enberg	-11.5055
bri	-11.5059
▁peaasi	-11.5061
▁teda	-11.5062
▁br	-11.5062
▁teadur	-11.5066
õis	-11.5068
▁kartuli	-11.5073
▁jumalaem	-11.508
poola	-11.5085
vabaerakond	-11.5086
rima	-11.5086
▁maastiku	-11.5091
▁lamp	-11.5091
võib	-11.5095
▁reostus	-11.51
▁saaks	-11.5102
▁lüli	-11.5108
▁haigl	-11.511
▁väi	-11.5112
▁spiooni	-11.5112
▁tö	-11.5115
kümne	-11.512
itsema	-11.5122
▁viil	-11.5123
ence	-11.5125
▁skripal	-11.5126
▁üleilm	-11.5126
▁mölla	-11.5128
piim	-11.513
olo	-11.5135
▁jooksu	-11.5136
▁sili	-11.5136
▁mü	-11.5136
▁seostu	-11.5137
bert	-11.5143
uurimine	-11.5145
▁ehmatus	-11.5146
▁loetelu	-11.5146
▁vahistati	-11.5146
▁vaieldamatu	-11.5146
▁magnitski	-11.5146
▁siduv	-11.5146
▁ekspordi	-11.5146
▁võttis	-11.5146
▁не	-11.5147
ette	-11.5147
▁albert	-11.5148
▁sahinad	-11.5148
▁jeesus	-11.5148
▁eriarvamus	-11.5148
▁tavapäraselt	-11.5149
▁tšetšeenia	-11.5149
▁köit	-11.515
pidamine	-11.515
▁sisustus	-11.5152
gis	-11.5152
▁arvanud	-11.5153
▁kolinud	-11.5154
▁taldrik	-11.5155
▁taotlemine	-11.5156
▁merle	-11.5157
▁streik	-11.5158
▁hilinema	-11.5159
tai	-11.5164
▁sub	-11.5164
▁teenindaja	-11.5168
▁folk	-11.5168
▁võimsam	-11.5168
▁ettevõtte	-11.5171
meditsiin	-11.5171
▁lõhesta	-11.5174
▁puutuv	-11.5176
▁laske	-11.518
▁väljapääs	-11.5181
▁uinu	-11.5182
ntar	-11.5183
zin	-11.5184
luure	-11.5187
aprill	-11.5188
valimisi	-11.5189
▁värvika	-11.5189
▁kõn	-11.5191
▁avatus	-11.5192
▁rod	-11.5192
süüria	-11.5192
▁rajoon	-11.5193
vestlus	-11.5193
tarbimine	-11.5193
▁lift	-11.5194
▁robi	-11.5196
▁eaka	-11.5197
kla	-11.5198
▁78	-11.5198
statav	-11.5198
võtma	-11.5201
iisraeli	-11.5202
eeriv	-11.5204
▁alamko	-11.5204
▁teki	-11.5207
õiguslik	-11.5208
sama	-11.5208
▁aktsepteerima	-11.5209
-18	-11.521
protsendili	-11.5212
konkurss	-11.5215
▁autorooli	-11.5221
ney	-11.5222
▁rünnaku	-11.5226
ränne	-11.5226
▁garaaž	-11.5226
▁kohtumaja	-11.5228
▁visa	-11.5228
▁ranniku	-11.523
▁mod	-11.5234
ст	-11.5235
▁naast	-11.5235
rupp	-11.5239
parlamendisaadik	-11.5241
riba	-11.5243
keskne	-11.5247
▁saata	-11.5248
▁gripi	-11.5254
▁karakter	-11.5254
▁eksklusiiv	-11.5254
▁taipama	-11.5255
▁väljastpoolt	-11.5255
▁taastuvenergia	-11.5255
▁tagaotsitav	-11.5255
▁aktsiaselts	-11.5255
▁tuumalepe	-11.5255
▁uurimiskomitee	-11.5256
igi	-11.5256
▁õnnitlema	-11.5257
▁toppima	-11.5257
▁kiuste	-11.5259
▁pealetung	-11.5259
▁sattumine	-11.526
▁medvedev	-11.5262
▁siseasi	-11.5263
▁küsitletu	-11.5263
▁singapuri	-11.5264
▁partnerlus	-11.5264
▁venima	-11.5264
▁rahvuslus	-11.5265
arm	-11.5267
▁varjamine	-11.5268
▁sätestama	-11.5269
▁soetami	-11.5274
▁kasvataja	-11.5275
▁sun	-11.5276
▁heameel	-11.5277
▁korvpalli	-11.5277
▁pistmi	-11.528
korruseline	-11.528
▁õigem	-11.5282
▁haare	-11.5284
▁politseiametnik	-11.5286
▁iss	-11.5286
▁pooldama	-11.5291
▁hil	-11.5295
▁kandja	-11.5295
▁eraldami	-11.5296
▁oota	-11.5299
▁komplekt	-11.53
▁lavastama	-11.5301
hunnik	-11.5301
harjutus	-11.5302
reostus	-11.5302
näitleja	-11.5302
▁esitav	-11.5304
▁laats	-11.5304
к	-11.5305
eaegne	-11.5305
▁sil	-11.5308
▁viltu	-11.5311
▁kuuldus	-11.5313
▁terrass	-11.5315
▁kujundus	-11.5319
▁koomik	-11.532
▁maailmas	-11.5321
▁sõimama	-11.5324
upp	-11.5325
▁madu	-11.5325
▁liitlas	-11.5326
▁soovitatav	-11.5327
▁ilmuta	-11.5328
oom	-11.5331
▁paulus	-11.5331
▁topeltagen	-11.5331
▁kuusalu	-11.5332
▁hüü	-11.5332
▁möödumi	-11.5332
▁katke	-11.5334
▁2009	-11.5334
▁vietnami	-11.5335
▁räägi	-11.5341
▁vahi	-11.5344
▁uppu	-11.5344
taga	-11.5345
но	-11.5347
ли	-11.5349
▁ennetus	-11.535
▁salo	-11.5351
▁laius	-11.5351
▁kodulinn	-11.5353
▁magu	-11.5353
▁lõi	-11.5354
▁mary	-11.5358
tin	-11.5361
▁kev	-11.5363
ю	-11.5364
▁lojaalsus	-11.5364
▁tommy	-11.5364
▁dramaatiline	-11.5364
▁hävituslennuk	-11.5364
▁aktsiisitõus	-11.5365
▁hubert	-11.5365
▁tsiviilisik	-11.5365
▁häbenema	-11.5365
▁käekäik	-11.5365
▁guardi	-11.5365
▁külmkapp	-11.5366
▁with	-11.5366
ess	-11.5366
▁süütegu	-11.5367
▁hankimine	-11.5368
▁väärikus	-11.5368
▁kahjustav	-11.537
▁marianne	-11.537
erdama	-11.5371
▁lendamine	-11.5371
▁lammutamine	-11.5371
▁võidelnud	-11.5371
▁tsirkus	-11.5372
▁lugupeetu	-11.5372
▁kaspar	-11.5375
▁sha	-11.5376
▁üleeile	-11.5379
▁geen	-11.5379
▁kartus	-11.538
▁vihkamine	-11.5382
▁rolli	-11.5383
▁intervjuus	-11.5384
▁maksta	-11.5385
jus	-11.5386
kaev	-11.5387
▁nöör	-11.5387
▁suusataja	-11.5389
▁poisi	-11.5389
▁alp	-11.5391
▁põdema	-11.5391
▁ilusti	-11.5392
▁vedelema	-11.5393
▁kajastus	-11.5394
▁narkomaan	-11.5395
▁valetamine	-11.5396
ekraan	-11.5397
informatsioon	-11.5398
▁üleriiklik	-11.5402
tub	-11.5404
nski	-11.5405
▁konstruktsioon	-11.5405
kile	-11.541
kolleegium	-11.5412
▁paku	-11.5413
moskva	-11.5413
umbes	-11.5413
▁järva	-11.5413
▁praam	-11.5414
▁koondu	-11.5414
kasv	-11.5414
▁tõhusam	-11.5415
▁uputa	-11.5418
▁osanik	-11.5418
▁page	-11.5419
▁närvi	-11.542
▁suvepäev	-11.5421
▁luga	-11.5425
▁johan	-11.5427
▁troon	-11.5428
heit	-11.5429
▁mehhanism	-11.543
▁triin	-11.543
▁läbimine	-11.5431
▁varja	-11.5433
▁spotify	-11.5436
▁seest	-11.5439
▁valimiseel	-11.5441
▁naerata	-11.5442
▁isu	-11.5442
▁piirkondlik	-11.5443
▁keeles	-11.5445
▁asjalik	-11.5447
▁immigratsioon	-11.5453
ša	-11.5453
▁sur	-11.5453
soe	-11.5461
tha	-11.5463
▁uppuma	-11.5464
haldus	-11.5465
▁paigut	-11.5466
▁surev	-11.5468
kana	-11.5471
▁ö	-11.5475
·	-11.5475
▁bääd	-11.5475
▁kriminaalkorras	-11.5475
▁kaotaja	-11.5476
▁sillamäe	-11.5476
▁pastor	-11.5476
▁haldusreform	-11.5476
▁mõrvakatse	-11.5476
▁eesistuja	-11.5476
▁raiskama	-11.5476
▁vastuvõetav	-11.5477
▁esivanem	-11.5477
▁1919	-11.5477
▁riis	-11.5478
▁elizabeth	-11.5479
▁lahkuda	-11.548
▁pensioniiga	-11.5481
▁hõivatud	-11.5481
▁korvpall	-11.5482
▁keskpaik	-11.5482
▁sunni	-11.5482
▁tõrge	-11.5485
▁andeks	-11.5485
▁hanschmidt	-11.5486
▁väejuhatus	-11.5487
▁valimispäev	-11.5489
▁puitu	-11.549
▁meenutus	-11.549
pension	-11.549
▁politoloog	-11.549
▁kombinatsioon	-11.5493
▁kukutama	-11.5494
▁peetav	-11.5495
▁patarei	-11.5496
▁solvu	-11.5497
▁aitamine	-11.5499
47	-11.5499
▁vall	-11.55
▁mitmekesine	-11.5501
▁konkureeriv	-11.5502
ilmselt	-11.5507
▁finantseeri	-11.5507
▁vaheldus	-11.5508
▁niiske	-11.5509
alice	-11.5511
▁kitse	-11.5516
▁tegutsemis	-11.5516
▁roht	-11.5517
▁kasvaja	-11.5517
pesa	-11.5519
▁kütuse	-11.552
voodi	-11.5522
51	-11.5522
tsükkel	-11.5525
aktsiis	-11.5525
sügis	-11.5525
▁toitumis	-11.5526
edu	-11.5527
mmas	-11.5527
▁kõrvu	-11.5528
▁parkimine	-11.5529
▁karva	-11.553
▁kill	-11.5531
miin	-11.5536
õige	-11.5542
▁prognoosima	-11.5543
▁toa	-11.5545
peal	-11.5548
valmis	-11.555
kogus	-11.555
▁juhatu	-11.555
▁juhtkiri	-11.5556
￼	-11.5557
▁mut	-11.5559
▁leiva	-11.556
▁omandamine	-11.5561
▁vältimatu	-11.5561
ool	-11.5561
oluline	-11.5562
▁mobiili	-11.5562
▁gala	-11.5562
treener	-11.5563
▁vääriv	-11.5566
desse	-11.5566
▁на	-11.5571
▁talle	-11.5572
nato	-11.5576
▁esinemis	-11.5577
kodanik	-11.5578
tõus	-11.5578
ator	-11.5579
34	-11.558
vaht	-11.5582
▁eurole	-11.5585
▁külalis	-11.5587
▁donbass	-11.5588
▁mahajäetu	-11.5588
▁militaar	-11.5588
▁rünnanud	-11.5588
▁tõmmanud	-11.5588
▁kõrvaklapp	-11.5588
▁purunema	-11.5589
▁poseeri	-11.5589
▁juhiluba	-11.5589
▁nõupidamine	-11.5589
▁glamuur	-11.5589
▁olav	-11.5589
hai	-11.559
▁hoiatanud	-11.5591
▁randpere	-11.5591
▁hädaolukord	-11.5591
▁valeuudis	-11.5591
▁vingugaas	-11.5592
▁kunstlik	-11.5592
▁takistamine	-11.5592
▁lõputöö	-11.5593
▁valimisnimekir	-11.5594
▁tõstetud	-11.5595
gur	-11.5595
▁guud	-11.5596
▁karistamine	-11.5596
▁aku	-11.5597
▁populaarseim	-11.5597
▁kinnipeetu	-11.5597
▁pant	-11.5598
▁vahendaja	-11.5599
vasta	-11.5599
▁haak	-11.5599
kauplus	-11.5599
▁avastanud	-11.5599
▁tunnetus	-11.56
▁populism	-11.5602
▁sandra	-11.5602
▁finnair	-11.5604
▁filosoofia	-11.5605
▁õigusabi	-11.5605
▁lahku	-11.5605
▁kõlanud	-11.5607
▁kokkusaamine	-11.5607
tuulepark	-11.5609
▁postkast	-11.561
▁moraal	-11.5611
▁vallas	-11.5611
ksid	-11.5612
sportlane	-11.5612
▁jaani	-11.5613
itš	-11.5613
▁kohanda	-11.5613
▁ümbrik	-11.5613
▁qu	-11.5614
agent	-11.5616
▁kangas	-11.5624
intervjuu	-11.5625
▁vanur	-11.5625
torm	-11.5625
sing	-11.5626
▁mui	-11.5627
gramm	-11.563
-3	-11.5633
▁anneli	-11.5634
euron	-11.5634
▁pee	-11.5634
▁eksi	-11.5635
sõitja	-11.5638
teisipäev	-11.5639
▁säästu	-11.5641
▁vedel	-11.5642
pink	-11.5644
▁põgenemis	-11.5646
aline	-11.5648
▁õnnestumine	-11.5648
▁mas	-11.5648
▁lik	-11.5649
▁koolitama	-11.5657
▁hüüdnim	-11.5658
minut	-11.5662
▁žanr	-11.5662
▁helista	-11.5662
turist	-11.5667
õhutama	-11.5668
▁sim	-11.5668
03	-11.5669
▁henrik	-11.567
▁kuva	-11.567
▁politseijuht	-11.5672
▁üleöö	-11.5673
21	-11.5674
▁viibi	-11.5679
▁lööm	-11.5679
rahvavabariik	-11.568
▁elin	-11.5682
▁miljar	-11.5685
▁kurg	-11.5685
sü	-11.5688
▁börsi	-11.5688
kad	-11.5689
äpp	-11.5689
▁tep	-11.569
▁jäätme	-11.5694
selts	-11.5695
▁1989.	-11.5696
▁suverään	-11.5696
▁saksamaal	-11.5697
▁hooldama	-11.5697
lipp	-11.5697
▁tuim	-11.5698
dar	-11.5699
▁sümpaatne	-11.5701
▁pidada	-11.5702
▁madrid	-11.5702
▁jutuajamine	-11.5702
▁that	-11.5702
▁igavesti	-11.5702
▁enesekindlus	-11.5702
▁kategooriliselt	-11.5702
▁ebakindlus	-11.5702
▁nutiseade	-11.5703
▁luuletaja	-11.5703
▁svt	-11.5703
▁külvama	-11.5704
▁pööranud	-11.5706
▁tutvumine	-11.5706
▁laialdaselt	-11.5707
▁arestimaja	-11.5707
▁konfiskeerima	-11.5708
▁okupeeritud	-11.5709
▁higi	-11.5712
▁minemine	-11.5714
ütlema	-11.5715
▁jooksnud	-11.5716
▁facto	-11.5716
▁kohtusüsteem	-11.5717
▁punk	-11.5717
▁lühenda	-11.5717
▁gal	-11.5718
▁tehnoloogili	-11.5719
▁sponsor	-11.5721
tüli	-11.5722
▁ob	-11.5724
▁ometigi	-11.5726
▁elektrijaam	-11.5727
▁eu	-11.5728
bis	-11.5728
tööline	-11.5729
▁tulumaksuvaba	-11.5729
▁tänaval	-11.5731
▁maire	-11.5731
▁ket	-11.5732
▁eru	-11.5733
isto	-11.5735
▁personali	-11.5736
▁kauaks	-11.5738
▁kiusa	-11.5739
päeva	-11.574
laadi	-11.574
▁kaksteist	-11.5741
jõu	-11.5742
▁kokkupuu	-11.5744
kohvik	-11.5745
▁püüd	-11.5747
haige	-11.5748
▁tan	-11.5748
bre	-11.5749
▁play	-11.575
▁jäädvustama	-11.575
▁ell	-11.5751
insener	-11.5754
fraktsioon	-11.5754
hirm	-11.5754
tänapäev	-11.5754
sotsiaalminister	-11.5755
▁lennuliiklus	-11.5761
▁sääst	-11.5762
▁pikka	-11.5763
▁tusk	-11.5763
ohtlik	-11.5764
▁ing	-11.5766
ahel	-11.5767
rikk	-11.5767
▁marie	-11.5768
▁halva	-11.5768
▁kroonili	-11.5769
▁kaitseala	-11.577
49	-11.5774
värk	-11.5776
▁luksuslik	-11.5782
▁piirkonna	-11.5783
▁draama	-11.5783
lova	-11.5784
▁ego	-11.5785
▁ajalehe	-11.5789
stseen	-11.5789
ix	-11.579
▁rää	-11.5798
robot	-11.5799
▁kõlar	-11.5802
ain	-11.5806
▁imp	-11.5807
bon	-11.581
▁sto	-11.581
▁klassi	-11.5813
kir	-11.5814
▁parkimis	-11.5815
aho	-11.5816
▁interjöör	-11.5816
▁legaalne	-11.5816
▁statistili	-11.5816
▁stefan	-11.5816
▁tootlus	-11.5816
▁eales	-11.5817
▁kuulujutt	-11.5817
▁tõr	-11.5817
▁veiko	-11.5817
▁ründav	-11.5818
▁bussiliin	-11.5818
▁hugo	-11.5818
▁pahandus	-11.5819
▁leppik	-11.582
poolt	-11.582
aaž	-11.5822
▁2007	-11.5822
▁barcelon	-11.5822
▁allan	-11.5823
▁kauamängiv	-11.5823
▁ülevaatus	-11.5823
▁taanlane	-11.5823
▁ekskursioon	-11.5824
▁pikendamine	-11.5825
▁lisandus	-11.5826
▁ajamine	-11.5827
▁oksjon	-11.5828
▁vasakul	-11.5831
▁lõhu	-11.5831
▁sedasi	-11.5831
▁türklane	-11.5832
▁pargi	-11.5834
▁kelmus	-11.5834
▁kurv	-11.5835
▁maksa	-11.5835
▁hü	-11.5836
elektrikatkestus	-11.5836
▁riigikogulane	-11.5837
sete	-11.5838
▁sule	-11.5846
▁lp	-11.5847
▁soomus	-11.5849
hr	-11.5849
▁süga	-11.585
▁õppeaasta	-11.5852
▁kogumik	-11.5853
kut	-11.5856
▁marssima	-11.5857
▁tööõnnetus	-11.5863
▁modern	-11.5866
▁sündmuskohalt	-11.5868
koridor	-11.587
facebook	-11.587
kel	-11.587
▁tükkima	-11.5871
.2015	-11.5872
▁vigastatu	-11.5872
hoov	-11.5873
kogukond	-11.5876
leen	-11.588
22	-11.5881
og	-11.5881
andres	-11.5882
▁tell	-11.5883
▁juurdepääs	-11.5884
▁okupeeri	-11.5885
kandis	-11.5885
sugu	-11.5887
foorum	-11.5887
▁üür	-11.5888
▁pul	-11.5891
suurus	-11.5893
▁võiks	-11.5895
▁välju	-11.5895
▁koge	-11.5897
▁mõttekaasla	-11.5899
ris	-11.5901
▁inetu	-11.5907
▁online	-11.591
▁algatami	-11.5911
▁rohke	-11.5913
▁käib	-11.5914
▁tiir	-11.5915
▁allkirjasta	-11.5915
▁opti	-11.5916
▁annekteerimi	-11.5916
▁christi	-11.5916
▁öeldu	-11.5919
▁kuule	-11.5919
▁ait	-11.5919
▁rekonstrueerimi	-11.592
▁lü	-11.5921
istamine	-11.5923
▁rusu	-11.5924
▁telg	-11.5925
päästja	-11.5927
eetika	-11.5931
▁hiid	-11.5932
▁maailmavaat	-11.5933
▁intelligentne	-11.5933
▁päästekomando	-11.5933
▁tilluke	-11.5933
▁maksupettus	-11.5933
▁tõestanud	-11.5933
▁tõlgendus	-11.5933
▁ennast	-11.5934
▁valimisringkond	-11.5934
▁metskits	-11.5934
▁what	-11.5934
▁päevavalge	-11.5935
▁veskimägi	-11.5935
▁vorst	-11.594
▁fänd	-11.5942
▁kaotav	-11.5942
-200	-11.5942
▁reageerinud	-11.5943
pass	-11.5943
▁lumm	-11.5943
▁schmidt	-11.5943
▁pelg	-11.5945
▁mõistlikum	-11.5948
▁printsiip	-11.595
▁tiri	-11.595
▁lam	-11.5951
▁röövel	-11.5951
▁kolonn	-11.5952
▁eelnenud	-11.5953
▁kahanenud	-11.5954
▁liikmed	-11.5954
▁opel	-11.5955
minutil	-11.5955
▁hiir	-11.5955
▁liisima	-11.5956
▁lamama	-11.5958
▁käsitlev	-11.5961
▁madalaim	-11.5964
▁südamlik	-11.5964
▁kulda	-11.5965
▁esine	-11.5966
rakett	-11.5967
▁manifesti	-11.5969
▁sokk	-11.597
tv	-11.5971
liidu	-11.5971
nimekiri	-11.5971
▁õhurünnak	-11.5977
▁andur	-11.598
miski	-11.598
lumi	-11.5983
arvamus	-11.5984
72	-11.5985
täi	-11.5985
▁said	-11.5986
▁võimek	-11.5987
▁dv	-11.5987
▁valvama	-11.5987
▁kamber	-11.599
▁soolo	-11.599
▁püsimine	-11.5995
▁koordineerima	-11.5997
▁des	-11.5997
laur	-11.6004
ents	-11.6006
▁festivali	-11.6008
nahk	-11.6009
kontor	-11.601
▁rt	-11.601
▁saavad	-11.601
▁hädaabinumb	-11.6015
▁den	-11.6016
▁söö	-11.6018
▁siberi	-11.6032
▁tõni	-11.6032
aastase	-11.6033
stuma	-11.6033
jaht	-11.6035
▁portugali	-11.6037
▁maini	-11.6038
▁kuulamis	-11.6039
▁kong	-11.6039
jook	-11.6044
▁sw	-11.6044
tam	-11.6046
nder	-11.6046
▁aastaks	-11.605
▁reisiuudised	-11.605
▁neeger	-11.605
kandidaadi	-11.605
▁ettearvamatu	-11.605
▁nooguta	-11.605
▁naeruväärne	-11.605
▁pärsia	-11.605
▁kehtetu	-11.6051
▁numbrimärk	-11.6051
▁keerutama	-11.6051
▁uraan	-11.6051
▁silmapaistev	-11.6051
▁enesekindel	-11.6051
üt	-11.6051
▁jeff	-11.6052
▁pagan	-11.6052
▁eelarvamus	-11.6052
▁rikutud	-11.6053
г	-11.6053
▁elektriauto	-11.6054
▁päring	-11.6054
▁telesaade	-11.6054
▁pensionisüsteem	-11.6054
▁koormama	-11.6056
tavalt	-11.6058
▁laulmine	-11.6059
▁süüdistaja	-11.6059
rata	-11.606
▁tegevuskava	-11.606
▁taastuma	-11.6061
▁free	-11.6062
kriitik	-11.6063
▁sisekontroll	-11.6065
▁marja	-11.607
▁päevik	-11.6074
▁uustulnuk	-11.6075
▁teen	-11.6075
▁joodik	-11.6077
▁tunde	-11.6078
▁magnet	-11.6079
ump	-11.6082
▁siinsamas	-11.6086
▁projekti	-11.6088
▁riigiduum	-11.6089
taks	-11.6089
▁lein	-11.609
▁liiklemi	-11.609
▁arvuka	-11.6091
▁veoki	-11.6094
▁kitarri	-11.6105
hoiatus	-11.6107
aruanne	-11.6107
hä	-11.6107
hästi	-11.6107
uz	-11.6108
▁suhtu	-11.6109
kasutaja	-11.6112
▁83	-11.6118
▁kokkuleppe	-11.6119
vili	-11.6123
.18	-11.6124
▁lott	-11.6127
▁kodaniku	-11.6131
sotsiaalkomisjon	-11.6132
▁ajend	-11.6138
hank	-11.6138
▁poolakas	-11.6139
stra	-11.6139
rdama	-11.6139
▁sester	-11.6141
▁vananemi	-11.6141
▁viska	-11.6143
▁telli	-11.6147
oru	-11.6147
▁intervjueerima	-11.6147
▁lanka	-11.6148
▁menetlemi	-11.6149
▁võimalda	-11.6151
alist	-11.6152
antud	-11.6153
app	-11.6154
37	-11.6154
▁laienda	-11.6156
onema	-11.6157
tasid	-11.6158
ben	-11.6159
▁song	-11.6159
▁litsents	-11.6166
▁proviisor	-11.6169
▁innovaatiline	-11.6169
▁kasutuselevõtt	-11.6169
▁spiegel	-11.6169
▁rituaal	-11.617
▁optimaal	-11.617
▁keldo	-11.617
▁bild	-11.617
▁kultuuripealinn	-11.617
▁nõudlik	-11.6171
ühis	-11.6171
▁eeluurimine	-11.6171
▁tartlane	-11.6171
▁ohkama	-11.6172
▁alane	-11.6173
etapp	-11.6173
▁scott	-11.6174
▁suitsetama	-11.6174
▁lõhmus	-11.6176
▁mahutama	-11.6176
▁sõlminud	-11.6176
▁püsivalt	-11.618
▁söögikoht	-11.618
illa	-11.618
▁express	-11.6181
▁puuvil	-11.6181
▁pani	-11.6182
▁kaasik	-11.6183
▁kang	-11.6183
▁portugal	-11.6183
▁tähtpäev	-11.6185
▁tehtu	-11.6188
▁taaskord	-11.619
▁pruul	-11.6192
▁ehmata	-11.6192
prognoos	-11.6193
▁purjeta	-11.6194
▁jones	-11.6194
▁tellimine	-11.6195
▁mereväe	-11.6195
▁uuenda	-11.6198
▁taavi	-11.6199
▁laat	-11.6202
ть	-11.6202
visiit	-11.6204
▁köögivil	-11.6207
▁testi	-11.6209
▁ohutum	-11.6211
▁arusaamatus	-11.6212
▁serveeri	-11.6212
ugu	-11.6213
▁kompensatsioon	-11.6215
akoristuspäev	-11.622
toor	-11.622
▁mö	-11.622
ord	-11.622
▁täi	-11.6222
maksu	-11.6223
▁tüü	-11.6225
▁2005	-11.6225
▁piltlikult	-11.6227
▁haava	-11.6227
armastus	-11.6229
▁debat	-11.6229
▁teist	-11.6232
▁thoma	-11.6233
klient	-11.6233
liseks	-11.6234
▁iha	-11.6234
▁trammi	-11.6238
likumalt	-11.624
▁kaaluv	-11.6244
▁häält	-11.6244
itele	-11.6248
▁puhtam	-11.6248
ping	-11.6249
▁võtte	-11.6251
▁hangi	-11.6253
▁rekordili	-11.6253
▁metoo	-11.6255
▁tähelepanuväär	-11.6256
▁mahu	-11.6258
oorm	-11.6258
▁grilli	-11.6258
▁mont	-11.6258
teraapia	-11.6259
▁ball	-11.6259
lina	-11.6259
▁kraadi	-11.626
▁viini	-11.6265
bl	-11.6266
▁simm	-11.627
▁modell	-11.6271
oi	-11.6274
ugri	-11.6275
▁universum	-11.6276
▁tarne	-11.6277
▁leer	-11.6279
▁nõukogude	-11.6279
▁fra	-11.6284
▁tõste	-11.6285
▁selja	-11.6285
▁capital	-11.629
▁politico	-11.629
▁lähedasi	-11.629
▁vikerraadio	-11.629
▁android	-11.629
▁seljakott	-11.629
▁elada	-11.629
▁äkili	-11.6291
▁turvatunne	-11.6292
▁kohtuvaidlus	-11.6292
▁mupo	-11.6292
▁amazona	-11.6292
▁numbri	-11.6292
▁steven	-11.6293
▁kaudselt	-11.6293
▁international	-11.6293
▁jer	-11.6294
▁aserbaidžaan	-11.6294
▁religioosne	-11.6294
▁tervishoiuteenu	-11.6295
▁konventsioon	-11.6296
▁keeldunud	-11.6297
▁meediakanal	-11.6297
▁vabrik	-11.6297
▁narratiiv	-11.6297
▁sertifikaat	-11.6298
▁maagili	-11.6299
▁jätkub	-11.6299
▁jänes	-11.6301
▁vastuluure	-11.6302
lott	-11.6305
▁skaala	-11.6306
▁rattur	-11.6309
▁paka	-11.6309
▁allpool	-11.6311
▁võõrkeel	-11.6312
▁intervjueeri	-11.6312
▁otsekohe	-11.6314
▁zo	-11.6314
▁äratus	-11.6315
▁teenimine	-11.6316
▁linateose	-11.6317
▁meele	-11.6317
▁tik	-11.6317
▁arreteerima	-11.6317
▁oska	-11.6318
▁perekondlik	-11.6319
kand	-11.632
inger	-11.632
▁näite	-11.632
ox	-11.6321
▁koostis	-11.6324
▁jalgratta	-11.6325
▁naasmine	-11.6326
▁järgimine	-11.6326
▁kgb	-11.6326
▁sisserände	-11.6327
▁big	-11.6327
-4	-11.6328
uc	-11.6329
▁keskele	-11.633
istung	-11.6332
▁probleeme	-11.6332
tades	-11.6335
▁seletuskir	-11.6335
05	-11.6337
rem	-11.6337
▁valmiv	-11.6338
lux	-11.634
▁tont	-11.6342
paistev	-11.6345
toodang	-11.6346
▁matk	-11.6348
hoiu	-11.6348
sia	-11.6348
intsident	-11.6349
▁neelama	-11.6349
▁marine	-11.635
puha	-11.6351
▁baltikumi	-11.6353
ahistama	-11.6353
parempopulistlik	-11.6362
märts	-11.6363
dorf	-11.6365
▁sära	-11.6365
low	-11.6368
▁otsustatud	-11.6368
▁hop	-11.6368
labor	-11.6368
▁džäss	-11.6372
▁por	-11.6373
▁rob	-11.6373
▁zu	-11.6373
avarii	-11.6373
▁viik	-11.6373
dia	-11.6374
▁lihts	-11.6374
tunnus	-11.6374
▁rasv	-11.638
war	-11.638
viimine	-11.6383
▁soul	-11.6384
▁kommunism	-11.6385
pataljon	-11.6387
▁ag	-11.6391
märg	-11.6398
▁viida	-11.6399
itt	-11.6401
noo	-11.6402
▁südaöö	-11.6402
▁sikkuti	-11.6404
▁kõiksugu	-11.6408
▁kull	-11.6409
▁hulluma	-11.641
kõlblik	-11.6411
vastassuunavöönd	-11.6412
▁abhaasia	-11.6412
▁mccain	-11.6412
▁fpö	-11.6412
▁maakera	-11.6412
▁valimiskünni	-11.6412
▁karjus	-11.6412
▁kirjavahetus	-11.6413
▁nihe	-11.6413
▁nüüdisaeg	-11.6414
▁sarah	-11.6415
▁bush	-11.6415
▁cv	-11.6416
▁unustatud	-11.6416
▁joov	-11.6416
▁mustvalge	-11.6418
▁advokatuur	-11.642
▁kallo	-11.6421
▁queen	-11.6422
▁kogunemine	-11.6423
▁hommikuti	-11.6423
▁teekate	-11.6424
▁näidend	-11.6424
päraselt	-11.6425
itöö	-11.6425
ajev	-11.6425
▁paadi	-11.6426
ovo	-11.6428
▁samanimeli	-11.6428
▁metsaomanik	-11.6428
ville	-11.6431
▁raskesti	-11.6431
benz	-11.6434
edel	-11.6434
▁vajanud	-11.6439
▁vajalikkus	-11.6439
▁1960.	-11.644
▁enesetunne	-11.644
▁ohutult	-11.6441
▁viilm	-11.6442
▁eralda	-11.6444
▁taastatud	-11.6449
kood	-11.645
28	-11.6451
▁unt	-11.6453
▁taasiseseisvumi	-11.6454
▁kutsumine	-11.6455
võimekus	-11.6458
▁raag	-11.6461
▁toidus	-11.6466
▁kirss	-11.6466
▁kuuma	-11.6469
▁toitma	-11.6472
kunagi	-11.6473
kapten	-11.6473
▁nö	-11.6473
▁äp	-11.6474
veri	-11.6474
▁geo	-11.6474
▁magas	-11.6475
tikuregister	-11.6477
▁mõistatus	-11.6477
▁loovutama	-11.6477
▁jõulud	-11.6477
uht	-11.6479
▁hingamis	-11.6482
▁gor	-11.6487
rum	-11.649
nõ	-11.649
▁pakistan	-11.6491
▁pesemi	-11.6494
▁ppa	-11.6495
▁metsava	-11.6496
▁1995.	-11.6498
▁serva	-11.6499
▁haldami	-11.65
▁lin	-11.6503
vaatamata	-11.6503
▁katar	-11.6503
▁christoph	-11.6504
▁jee	-11.6504
kaljul	-11.6506
▁del	-11.6506
▁bob	-11.6509
▁käia	-11.6509
▁pü	-11.6515
pealinn	-11.6516
▁aht	-11.6518
▁tabas	-11.6524
plahvatus	-11.6524
umist	-11.6524
laulja	-11.6525
▁reaal	-11.6525
sime	-11.6528
ldud	-11.6528
▁märgili	-11.6534
▁alumiinium	-11.6535
▁bitcoin	-11.6535
▁reitelmann	-11.6535
▁ühendemiraat	-11.6535
▁ballistili	-11.6535
▁kellakeeramine	-11.6535
▁irooniline	-11.6535
▁ilmsiks	-11.6535
▁kimbuta	-11.6536
▁charles	-11.6536
▁piinama	-11.6536
▁seadusandlik	-11.6536
▁väärtegu	-11.6536
▁kuulsam	-11.6538
▁koolibuss	-11.6538
▁kruusmägi	-11.6538
▁97	-11.654
▁ülestunnistus	-11.654
pühapäev	-11.654
▁konkurentsivõim	-11.6541
▁toimeaine	-11.6541
▁loopima	-11.6542
▁lekkima	-11.6543
▁võistkond	-11.6543
▁kuulanud	-11.6543
▁söönud	-11.6544
▁jõukam	-11.6545
▁tiiu	-11.6545
▁hiljaks	-11.6546
▁toetust	-11.6547
▁peatunud	-11.655
▁cla	-11.655
ümbruskond	-11.6552
▁ürg	-11.6552
▁küsimine	-11.6552
üm	-11.6556
moos	-11.6558
sisaldus	-11.6559
▁kosmeetika	-11.6559
armee	-11.6559
▁kohtusse	-11.6561
kär	-11.6561
off	-11.6562
▁kn	-11.6564
▁osav	-11.6566
▁giid	-11.6566
rohkem	-11.6568
pakend	-11.6568
▁meest	-11.6568
▁down	-11.6568
▁170	-11.657
met	-11.657
perekond	-11.6571
▁hum	-11.6571
▁lumine	-11.6573
▁kodumais	-11.6575
▁segamine	-11.6576
mass	-11.6578
▁kokkumäng	-11.6579
▁eitanud	-11.6584
▁plasti	-11.6585
int	-11.6586
ralli	-11.6586
▁meeldi	-11.6588
▁korteri	-11.6589
poi	-11.659
39	-11.6591
▁ivanova	-11.6593
▁ving	-11.6594
mä	-11.6595
ikuine	-11.6597
ossinovsk	-11.6598
looma	-11.66
viirus	-11.6601
lahing	-11.6602
да	-11.6603
▁tige	-11.6604
▁juhti	-11.6605
▁euroni	-11.6609
peeter	-11.6609
▁kaelas	-11.6611
▁tungiv	-11.6612
adega	-11.6613
▁terminal	-11.6616
võru	-11.6617
▁poo	-11.6618
▁häir	-11.6619
jutu	-11.662
▁ä	-11.6621
▁tarbimis	-11.6624
▁panda	-11.6624
segu	-11.6625
▁asju	-11.6627
▁omastamine	-11.6628
ates	-11.6634
▁hõre	-11.6637
▁iste	-11.664
zo	-11.6641
deks	-11.6643
rid	-11.6645
▁alale	-11.6646
▁1998.	-11.6649
▁säuts	-11.6652
süü	-11.6653
▁padi	-11.6654
tter	-11.6655
▁miinimumpal	-11.6657
▁meem	-11.6659
å	-11.666
▁facebookis	-11.666
▁eutanaasia	-11.666
▁illusioon	-11.666
▁murettekitav	-11.666
▁poseidon	-11.666
▁tendents	-11.666
▁tsivilisatsioon	-11.666
▁tööhõive	-11.666
hoolekanne	-11.666
▁kübarsepp	-11.666
▁kaaperda	-11.666
▁ämari	-11.6661
▁ingl	-11.6661
▁ühtaegu	-11.6661
▁hotellituba	-11.6661
▁aiandus	-11.6661
▁mesinik	-11.6661
▁operatiivjuht	-11.6662
▁ülbe	-11.6663
▁äike	-11.6663
▁pukk	-11.6664
▁naissoo	-11.6664
hape	-11.6664
▁puusepp	-11.6664
▁lk	-11.6664
▁karjamaa	-11.6664
▁lõpetada	-11.6665
▁üksindus	-11.6665
kahjustus	-11.6666
▁gold	-11.6666
▁neem	-11.6667
▁lähiaasta	-11.6668
▁palee	-11.6668
▁närviline	-11.667
▁selguv	-11.667
▁eurosaadik	-11.667
▁järgmiselt	-11.6671
▁sikkut	-11.6671
▁väljasõit	-11.6672
▁ühtlane	-11.6673
▁süütamine	-11.6674
▁tegevusluba	-11.6675
▁korrespondent	-11.6677
▁arvamuslugu	-11.6678
▁trei	-11.6678
▁metsloom	-11.6679
▁noo	-11.6679
▁hansapank	-11.6683
▁vääriline	-11.6683
▁ennelõuna	-11.6683
lar	-11.6685
▁hingama	-11.669
▁uu	-11.6691
plokk	-11.6692
▁saasta	-11.6693
▁rännak	-11.6693
▁kõver	-11.6694
▁mitukümmend	-11.6695
▁eesmaa	-11.6695
jäämine	-11.6695
▁rait	-11.6697
voog	-11.6698
▁projekteerimi	-11.6702
▁twitteris	-11.6703
▁jälitama	-11.6706
maaleht	-11.6706
▁johann	-11.6706
vaidluskomisjon	-11.6707
ero	-11.6708
▁pott	-11.6709
▁säte	-11.6711
▁vaimselt	-11.6712
▁veidike	-11.6714
▁huul	-11.6719
▁1991	-11.6719
jaa	-11.672
sena	-11.6721
▁vär	-11.6721
2018	-11.6723
põleng	-11.6723
pruun	-11.6724
finaal	-11.6725
postitus	-11.6725
▁kalur	-11.6727
▁ek	-11.6728
▁1918	-11.673
osaline	-11.673
aegselt	-11.6731
vangla	-11.6731
yl	-11.6733
iseerimine	-11.6735
▁trükki	-11.6735
▁noot	-11.6736
32	-11.6736
▁videod	-11.6737
▁süsinik	-11.6737
murd	-11.6737
▁kitsam	-11.6738
näi	-11.6739
▁taliba	-11.6739
▁kul	-11.6739
▁siiri	-11.6739
lism	-11.6739
kuningas	-11.6745
tamise	-11.6745
▁mutt	-11.6746
adele	-11.6752
õhutamine	-11.6757
üli	-11.6758
▁transpordiamet	-11.6761
▁mošee	-11.6761
▁opositsioonili	-11.6763
▁ümar	-11.6768
▁sundi	-11.6771
▁loon	-11.6772
oc	-11.6775
tava	-11.6776
▁estoni	-11.6777
▁hindamis	-11.6779
▁väljuv	-11.678
▁kõl	-11.6781
üles	-11.6783
▁jätkata	-11.6783
▁seonduv	-11.6783
▁singapur	-11.6784
$	-11.6787
▁läbimõeldud	-11.6787
▁hüpata	-11.6787
▁vandenõuteooria	-11.6787
▁suhtekorraldus	-11.6787
▁minimaalse	-11.6787
▁segamini	-11.6787
▁ebaõige	-11.6787
ncy	-11.6788
▁pii	-11.6788
grad	-11.6788
▁kohtupidamine	-11.6788
▁kasiino	-11.6788
▁halduskohus	-11.6789
▁juukse	-11.6789
▁toimub	-11.6789
▁kolmveerand	-11.6789
▁käitunud	-11.6789
▁riigikohtu	-11.6789
▁good	-11.679
.25	-11.679
▁kurz	-11.679
▁1,6	-11.679
▁lugupidamine	-11.6791
▁kaasmaala	-11.6791
▁õigemini	-11.6791
▁kasvatanud	-11.6792
▁pes	-11.6793
▁teenindamine	-11.6793
stein	-11.6793
▁terroristlik	-11.6794
▁jälginud	-11.6794
▁ähvardanud	-11.6794
▁riigipiir	-11.6795
▁õigusakt	-11.6795
andi	-11.6795
▁män	-11.6795
▁peaspetsialist	-11.6797
▁joonud	-11.6797
▁silver	-11.6797
▁üleeuroopali	-11.6798
▁elukvaliteet	-11.6798
▁kargama	-11.6799
▁objektiivne	-11.6802
▁kultuurikeskus	-11.6802
▁välk	-11.6803
▁mast	-11.6803
▁cap	-11.6803
▁lahutamatu	-11.6804
▁eksinud	-11.6807
▁vormel	-11.6807
▁lõpptulemus	-11.6808
▁miller	-11.6809
▁innustama	-11.681
ago	-11.681
▁avane	-11.6813
▁rula	-11.6813
▁haabersti	-11.6813
▁päästetud	-11.6813
▁väino	-11.6817
▁kaardistama	-11.6818
seni	-11.6819
▁blokk	-11.682
iidi	-11.6821
▁puus	-11.6824
▁sobinud	-11.6825
sak	-11.6825
▁sek	-11.6827
riist	-11.6828
salv	-11.683
▁che	-11.6831
ich	-11.6831
▁rebima	-11.6832
▁sää	-11.6832
▁makedoonia	-11.6832
▁kollektiivne	-11.6833
▁will	-11.6835
▁absurd	-11.6835
▁istumine	-11.6836
▁naised	-11.6838
▁keri	-11.6841
▁konsulteerima	-11.6845
▁arutav	-11.6848
juur	-11.6851
▁irin	-11.6851
koosolek	-11.6851
б	-11.6852
september	-11.6853
▁labori	-11.6853
esiteks	-11.6853
▁ökoloogili	-11.6854
▁rokk	-11.6855
tead	-11.6856
▁laskuma	-11.6856
▁riietu	-11.6857
kolmapäev	-11.6859
▁täitev	-11.6862
▁kasvatav	-11.6863
59	-11.6866
▁kob	-11.6872
▁mats	-11.6874
suunaline	-11.6875
▁sportima	-11.6875
asja	-11.6879
▁ülesõit	-11.6879
▁ska	-11.6887
▁ky	-11.6888
▁merik	-11.6894
▁astus	-11.6898
evitš	-11.6899
▁veelkord	-11.6902
▁kontrolliv	-11.6902
▁hiphop	-11.6906
lam	-11.6907
kadu	-11.691
▁tudengi	-11.6912
▁kõvem	-11.6915
rehabilitatsioon	-11.6915
▁patsiendi	-11.6915
▁lörts	-11.6915
▁mõõk	-11.6915
▁prostituut	-11.6915
▁vaatamisväärsus	-11.6915
▁sukelduja	-11.6915
▁tauno	-11.6915
▁sloveenia	-11.6915
▁üleüldi	-11.6915
▁suremus	-11.6915
▁kaotatud	-11.6916
▁pensionireform	-11.6916
▁süvariik	-11.6916
▁haarav	-11.6916
▁karistatav	-11.6917
▁õppur	-11.6917
▁ühisavaldus	-11.6917
▁kultus	-11.6917
▁sealiha	-11.6919
▁kreekas	-11.6919
▁hanso	-11.6919
▁sääsk	-11.692
▁kliinili	-11.692
▁ohustav	-11.6921
▁ootab	-11.6921
▁tuulberg	-11.6922
indrek	-11.6923
▁jaotama	-11.6923
▁korobeinik	-11.6924
▁vaevama	-11.6925
fra	-11.6926
▁puuk	-11.6926
▁lisandunud	-11.6926
▁admiral	-11.6928
▁avaldav	-11.6929
▁volmer	-11.6929
▁ärima	-11.6931
▁teadusminister	-11.6935
▁talent	-11.6936
sool	-11.6937
ach	-11.6941
bell	-11.6942
▁pealinna	-11.6944
▁american	-11.6945
▁löögi	-11.6947
▁ämber	-11.6947
kukk	-11.695
▁ebamugavus	-11.695
cs	-11.6952
▁mono	-11.6952
▁läänemets	-11.6953
▁tassima	-11.6955
▁sidus	-11.6955
▁paisu	-11.6956
vamine	-11.6956
▁palvetama	-11.6957
▁boy	-11.6958
▁kehastama	-11.6958
▁pigistama	-11.696
talv	-11.6962
▁trikk	-11.6963
iha	-11.6964
▁rajatis	-11.6965
protestiaktsioon	-11.6966
cy	-11.6966
▁teravam	-11.6967
▁ehi	-11.697
lidma	-11.6974
▁lamba	-11.6976
▁toss	-11.698
▁kadu	-11.6981
vigastus	-11.6982
ametivõim	-11.6982
komissar	-11.6983
▁siruta	-11.6984
paat	-11.6984
▁orja	-11.6988
▁wal	-11.6991
pääs	-11.6995
remont	-11.6996
▁kompanii	-11.6996
▁kulgev	-11.6998
karu	-11.7
sala	-11.7001
▁õhkutõusmi	-11.7002
▁suju	-11.7004
▁õigustus	-11.7005
▁sü	-11.7006
tihti	-11.7006
▁õpik	-11.7006
▁indi	-11.7007
▁teadmatus	-11.7008
▁mikko	-11.7009
▁puutumatus	-11.701
▁nõustama	-11.7015
▁eraldu	-11.7015
▁nak	-11.702
sima	-11.7023
▁jätka	-11.7023
▁veis	-11.7023
ā	-11.7025
ža	-11.7025
▁koli	-11.7028
▁toots	-11.7029
▁lähikond	-11.703
kooliõpilane	-11.703
▁pund	-11.703
▁1940.	-11.7034
▁mune	-11.7038
▁põhjendamatu	-11.7039
leheküljel	-11.7043
▁rassi	-11.7045
▁naturaal	-11.7045
▁verbaal	-11.7045
▁lõhkekeha	-11.7045
▁konjak	-11.7045
gunema	-11.7046
▁põgus	-11.7046
▁kangur	-11.7046
▁jalanõu	-11.7046
▁peastaap	-11.7047
▁rahvariie	-11.7047
-15	-11.7047
▁tulumaksu	-11.7047
▁väljapanek	-11.7047
▁karmilt	-11.7048
tap	-11.7048
▁piilu	-11.7048
▁järjepidevalt	-11.7049
▁piirkiirus	-11.705
▁part	-11.705
▁pesitse	-11.705
▁kruvi	-11.705
▁ühisosa	-11.7051
▁blog	-11.7051
▁ahju	-11.7052
▁mitteametlik	-11.7053
tehniline	-11.7053
▁koondamine	-11.7055
▁tarrant	-11.7058
▁abipolitseinik	-11.7058
▁avastatud	-11.706
rikkuja	-11.706
▁kiusamine	-11.7061
▁veetnud	-11.7064
▁eksitav	-11.7064
▁legaliseerimi	-11.7067
▁püütud	-11.7067
▁mitteresident	-11.7068
▁odavamalt	-11.7068
▁kuuse	-11.7071
▁promo	-11.7071
▁taal	-11.7072
▁kaitsevõime	-11.7075
▁kiirgus	-11.7075
toll	-11.7082
kamber	-11.7082
▁aegunud	-11.7083
▁brigaad	-11.7083
▁rohi	-11.7083
vari	-11.7085
ш	-11.7086
jääk	-11.7086
▁tsi	-11.7088
koondis	-11.7088
▁bränd	-11.709
▁pulber	-11.7091
nõi	-11.7091
▁videoid	-11.7092
▁füüsika	-11.7092
ance	-11.7094
-12	-11.7095
▁aresti	-11.7096
.14	-11.7098
▁sõnul	-11.7098
▁jope	-11.7098
▁hüvit	-11.71
kirurg	-11.7101
▁ivanov	-11.7103
▁tselluloositeha	-11.7104
▁täit	-11.7104
▁jär	-11.7105
rull	-11.7107
kuur	-11.7111
kirjutaja	-11.7114
ressurss	-11.7114
austraalia	-11.7114
hhin	-11.7117
rai	-11.7117
▁olija	-11.7119
▁yo	-11.712
kumm	-11.712
▁mig	-11.7121
▁šokolaad	-11.7123
▁87	-11.7123
▁kurbus	-11.7125
maaeluminister	-11.7127
seeder	-11.7127
▁põhjustav	-11.7127
▁ülalpidami	-11.7131
▁laiuta	-11.7132
▁kaupo	-11.7134
▁elulugu	-11.7142
▁kont	-11.7142
▁jackson	-11.7143
elamus	-11.7147
▁alo	-11.7147
▁peking	-11.7147
▁1970.	-11.7147
▁maastur	-11.7148
kaupa	-11.7149
▁kosk	-11.715
▁kann	-11.7151
tegur	-11.7151
vargus	-11.7153
produtsent	-11.7154
▁seina	-11.7156
kaupmees	-11.7157
▁paisuma	-11.7158
ometi	-11.7162
▁ülesehitami	-11.7162
▁mad	-11.7162
▁lähte	-11.7163
▁krimm	-11.7164
pop	-11.7164
▁valimised	-11.7168
endla	-11.7168
▁harrasta	-11.717
vabariik	-11.7171
▁päät	-11.7171
stri	-11.7172
lasi	-11.7173
▁rocc	-11.7174
▁kaubalaev	-11.7176
▁järjekindlalt	-11.7177
▁tõstnud	-11.7177
▁mobiliseeri	-11.7177
▁ümberringi	-11.7177
▁jätta	-11.7177
▁meistrivõistlus	-11.7177
▁ammenda	-11.7177
▁pühendumus	-11.7177
▁tõlkija	-11.7177
▁ragnar	-11.7177
lääne	-11.7179
▁seg	-11.7179
▁young	-11.7179
▁ülemvõim	-11.718
▁selgitanud	-11.718
▁raadiosaade	-11.7181
▁küüniline	-11.7181
▁keelusta	-11.7182
hing	-11.7183
daja	-11.7184
▁toidupood	-11.7184
▁ekspeditsioon	-11.7184
▁eramaja	-11.7184
▁oranž	-11.7184
▁psühhiaater	-11.7185
▁pargitud	-11.7185
▁prii	-11.7185
▁arvestatud	-11.7186
▁margo	-11.7186
▁vihmamets	-11.7186
▁inspireeritud	-11.7186
rei	-11.7186
▁sadakond	-11.7187
▁henry	-11.7187
▁käepära	-11.7188
▁pääsuke	-11.7188
▁merevesi	-11.7189
▁voldemar	-11.7189
▁https	-11.7192
▁mõtisklema	-11.7193
▁valitsemis	-11.7193
▁põlengu	-11.7197
▁alustus	-11.7198
▁rick	-11.7199
▁naistevasta	-11.7199
▁enp	-11.72
▁mett	-11.7202
▁laulukaar	-11.7202
▁kergitama	-11.7205
▁piibel	-11.7205
▁tõdem	-11.7205
▁doonor	-11.7205
vang	-11.7206
▁eestlased	-11.7206
ić	-11.7211
▁eelk	-11.7213
▁lollus	-11.7213
niit	-11.7214
elema	-11.7214
▁eria	-11.7214
▁tarist	-11.7217
▁parteikaasla	-11.7217
▁pik	-11.7218
▁hard	-11.7218
▁rasku	-11.7222
▁liv	-11.7223
▁mill	-11.7223
sten	-11.7224
uudi	-11.7224
▁sy	-11.7229
▁rõõmu	-11.7229
▁linnake	-11.7231
▁tüüri	-11.7233
hous	-11.7234
▁patrioot	-11.7236
▁maar	-11.7239
võimalik	-11.724
▁joonista	-11.7242
moon	-11.7242
new	-11.7243
▁krista	-11.7243
▁parda	-11.7244
sai	-11.7244
investor	-11.7245
mur	-11.7245
▁surmav	-11.7246
▁leebem	-11.7246
johnson	-11.7247
alkohol	-11.7247
kombel	-11.7248
dlema	-11.7248
külastaja	-11.7249
▁susi	-11.7249
▁valiku	-11.7249
▁vares	-11.7249
▁prae	-11.7251
▁wo	-11.7257
venelane	-11.7257
vastutus	-11.7257
▁toi	-11.7258
▁ratase	-11.7258
▁harilik	-11.7263
pööre	-11.7265
▁haigestu	-11.7269
▁testimi	-11.7271
htuma	-11.7278
hoidmine	-11.7278
▁piin	-11.728
▁raimo	-11.7281
▁laupäeva	-11.7281
▁joonis	-11.7281
▁tubaka	-11.7282
▁katmine	-11.7286
▁putuka	-11.7286
▁voolu	-11.7287
▁holokaust	-11.7289
wan	-11.7293
leppemenetlus	-11.7293
õud	-11.7294
bul	-11.7294
▁tundi	-11.7295
▁vs	-11.7295
▁leia	-11.7297
▁järjepidev	-11.73
can	-11.7303
▁nutika	-11.7304
ting	-11.7306
▁õhuvä	-11.731
▁amfetamiin	-11.731
▁konfidentsiaal	-11.731
▁stsenarist	-11.731
▁tänini	-11.731
▁ultimaatum	-11.731
▁ametivanne	-11.731
▁geograafili	-11.731
▁lühikommentaar	-11.731
▁ebaaus	-11.731
▁itaalla	-11.731
▁prisma	-11.731
▁kramp	-11.731
▁kontserdisaal	-11.731
▁asendusliige	-11.731
▁national	-11.7311
▁parasiit	-11.7311
▁riisalu	-11.7311
▁kuhi	-11.7311
▁taotle	-11.7312
▁tuumajaam	-11.7312
▁kandideerinud	-11.7313
▁võltsimine	-11.7313
▁tohi	-11.7313
idu	-11.7313
▁laienemine	-11.7315
▁siseriiklik	-11.7317
▁hääletanud	-11.7317
▁sõjaväeli	-11.7317
▁lõpetatud	-11.7317
▁katastroofiline	-11.7318
▁julgeolekujõud	-11.7319
▁välijuht	-11.7319
▁õppetöö	-11.7319
▁postkontor	-11.732
▁hetkeseis	-11.732
▁84	-11.732
uts	-11.732
konservatiivne	-11.7321
▁visiidi	-11.7324
hol	-11.7324
viha	-11.7325
raud	-11.7325
▁süüdistatud	-11.7326
ink	-11.7328
▁kongo	-11.7329
▁muuseumi	-11.733
kraat	-11.7331
▁pandi	-11.7331
▁tüvi	-11.7335
järjekord	-11.7336
▁praha	-11.7337
▁uur	-11.7338
▁pakt	-11.7341
hee	-11.7342
▁nut	-11.7342
▁lebama	-11.7343
▁pääsev	-11.7344
▁naabrus	-11.7345
▁passiivne	-11.7345
▁jim	-11.7346
▁hävitav	-11.7348
▁reetma	-11.735
▁metsav	-11.735
▁ringtee	-11.7351
▁krimi	-11.7351
kri	-11.7351
▁kabiin	-11.7352
▁leiutama	-11.7354
▁у	-11.7354
▁lähipäev	-11.7355
▁maailmavaateli	-11.7355
▁nõukogudeaeg	-11.7362
▁heino	-11.7362
rent	-11.7369
▁kuma	-11.737
ре	-11.7374
▁malev	-11.7378
pöör	-11.7381
tants	-11.7381
hispaania	-11.7382
nõmm	-11.7383
▁kurk	-11.7384
tuks	-11.7384
▁sih	-11.7384
▁turisti	-11.7385
▁peaosa	-11.7386
iisik	-11.7387
▁müncheni	-11.739
▁1944.	-11.739
▁linastu	-11.7395
loss	-11.7395
võidu	-11.7395
▁sisus	-11.7397
kaitseminister	-11.7397
selgus	-11.7397
▁manipuleerima	-11.7397
▁tunnusta	-11.74
▁aud	-11.74
üsi	-11.74
kaalukalt	-11.7407
▁katt	-11.7408
pettus	-11.7408
▁noorim	-11.741
avalik	-11.7411
algus	-11.7411
▁arvu	-11.7413
▁00	-11.7413
vahel	-11.7414
ó	-11.7415
▁hooldami	-11.7418
▁luuk	-11.742
▁enno	-11.7432
▁näinud	-11.7433
▁oru	-11.7433
tic	-11.7435
▁neo	-11.7436
▁kriminaaluurimi	-11.7437
lju	-11.7438
▁kõigi	-11.7439
▁teet	-11.744
07	-11.7444
▁gröönimaa	-11.7445
▁kvalifikatsioon	-11.7445
▁stockmann	-11.7445
▁wikileaks	-11.7445
▁ümmargune	-11.7445
▁administratiiv	-11.7445
▁bashar	-11.7445
▁doktoritöö	-11.7445
▁harvester	-11.7445
▁teistpidi	-11.7445
▁palgasõdur	-11.7445
▁terroriakt	-11.7446
▁solvang	-11.7446
▁patu	-11.7446
tiim	-11.7446
▁pingerida	-11.7447
▁edusamm	-11.7447
▁tuntus	-11.7447
▁köha	-11.7447
kassa	-11.7447
▁käekiri	-11.7447
▁tublisti	-11.7448
▁hõbemägi	-11.7448
▁viisakus	-11.7449
▁hillary	-11.7449
▁terviseprobleem	-11.7449
▁toidulaud	-11.7449
jen	-11.7449
▁tuvastanud	-11.745
▁terviklikkus	-11.745
▁ülestõus	-11.745
▁õie	-11.7451
▁ajakirjanduslik	-11.7452
▁haiglaravi	-11.7452
▁toronto	-11.7452
▁süüdistamine	-11.7453
tahtma	-11.7453
▁liigutamine	-11.7453
▁hapu	-11.7454
▁visatud	-11.7455
▁intensiivravi	-11.7455
ros	-11.7456
▁rehe	-11.7456
▁abinõu	-11.7457
▁edasiminek	-11.7457
▁pria	-11.7459
▁kommenteerinud	-11.7459
▁lenne	-11.7462
▁nakkus	-11.7463
päris	-11.7464
▁1988.	-11.7464
▁nõlv	-11.7465
▁kond	-11.7465
▁mürgistus	-11.7468
▁vedur	-11.7469
▁väetis	-11.7469
pär	-11.7469
▁juhitavus	-11.7471
▁tervi	-11.7473
▁pah	-11.7475
nam	-11.7475
anu	-11.7475
▁valmistanud	-11.7475
▁alandamine	-11.7476
lood	-11.7477
▁kehakaal	-11.748
rahvus	-11.7483
▁sip	-11.7485
▁kapitali	-11.7488
▁lahvata	-11.7491
äk	-11.7494
tulev	-11.7494
linnak	-11.7496
▁demo	-11.7497
▁lennutama	-11.7498
▁mängufilm	-11.7501
▁tagumi	-11.7502
vann	-11.7502
▁jor	-11.7502
▁kuuene	-11.7502
▁lõpus	-11.7503
▁sae	-11.7506
▁defineerima	-11.7509
▁tegutse	-11.7512
▁tiitli	-11.7512
▁külmuta	-11.7512
sand	-11.7514
▁pump	-11.7516
▁laiv	-11.7516
iteet	-11.7518
▁töögrupp	-11.7521
▁pelgama	-11.7522
▁fre	-11.7529
▁roy	-11.7532
▁juhtus	-11.7533
▁hundi	-11.7534
▁к	-11.7535
▁vabariiklik	-11.7537
▁ste	-11.7537
▁bru	-11.7537
▁idioot	-11.7538
unt	-11.7539
taguse	-11.7539
▁1920	-11.7541
▁eeskiri	-11.7542
igu	-11.7542
▁ree	-11.7543
▁multi	-11.7549
alus	-11.7549
▁1997.	-11.7549
▁tehno	-11.7551
▁chi	-11.7552
▁naut	-11.7552
▁teleka	-11.7553
▁tarvit	-11.7554
konnaliige	-11.7555
▁dor	-11.7558
▁abordi	-11.7561
▁juhu	-11.7561
▁naastu	-11.7562
iivne	-11.7564
▁tööjõu	-11.7566
▁osalenu	-11.7566
▁jõude	-11.7567
.05	-11.7567
▁müüd	-11.7573
▁ilmeka	-11.7576
trükk	-11.7576
mõõdu	-11.758
▁solidaar	-11.758
▁teadustöö	-11.758
▁raskenda	-11.758
▁koonduslaag	-11.7581
▁riigireetmi	-11.7582
▁geneetiline	-11.7582
▁tõkkepuu	-11.7582
▁vastsündinu	-11.7582
▁volodõmõr	-11.7582
▁wagner	-11.7582
▁aktsent	-11.7582
▁rek	-11.7582
▁keerukam	-11.7582
▁tõmmatud	-11.7582
▁sisask	-11.7582
▁elering	-11.7582
▁küberturvalisus	-11.7582
▁salvestatud	-11.7582
▁telefonivestlus	-11.7582
▁rossija	-11.7582
▁hulganisti	-11.7582
▁sajaprotsendili	-11.7582
▁küsimärk	-11.7583
▁q	-11.7583
▁1968	-11.7583
▁katsumus	-11.7583
▁2006	-11.7583
▁annika	-11.7583
▁andrew	-11.7584
▁lennubaas	-11.7584
▁ron	-11.7584
▁löfven	-11.7584
▁ökosüsteem	-11.7584
▁normaalselt	-11.7584
konkurentsivõime	-11.7585
▁ettevaatlikult	-11.7585
▁salastatud	-11.7586
▁sujuvalt	-11.7586
▁ultraheli	-11.7587
▁suuteli	-11.7588
▁450	-11.7588
▁põsk	-11.7588
▁vabariigi	-11.7589
▁veidemann	-11.759
▁kontrast	-11.7592
▁kaevandamine	-11.7592
▁reguleeritud	-11.7592
▁lepik	-11.7593
▁pildistamine	-11.7593
▁tõsisemalt	-11.7594
▁ärahoidmine	-11.7594
▁cdu	-11.7594
▁hoi	-11.7597
▁separatist	-11.7601
▁happ	-11.7601
▁politseiülem	-11.7602
-17	-11.7604
▁sülearvuti	-11.7604
▁reportaaž	-11.7604
supp	-11.7605
▁inimestele	-11.7606
▁tir	-11.7607
ans	-11.7612
▁sümboliseeri	-11.7612
▁peavad	-11.7615
reisija	-11.7617
▁riigimets	-11.7618
▁bank	-11.7619
▁teised	-11.7619
▁orienteeru	-11.7619
▁fikseerima	-11.762
▁ajutis	-11.7621
▁baari	-11.7625
revolutsioon	-11.7626
▁häving	-11.7627
▁investeerimi	-11.7627
gang	-11.7628
▁solma	-11.7628
▁värisema	-11.7629
▁libisemine	-11.7631
▁tugevasti	-11.7632
▁pir	-11.7635
▁sä	-11.7635
▁kloor	-11.7636
room	-11.7636
hus	-11.7637
assad	-11.7641
tung	-11.7644
▁liikluses	-11.7645
▁invest	-11.7647
▁üürima	-11.7647
▁üheksas	-11.7647
õpetus	-11.7647
yn	-11.7647
hulk	-11.7648
▁reageerimi	-11.7648
▁hõiva	-11.765
▁lõpeta	-11.765
punane	-11.7652
muudatus	-11.7653
kuune	-11.7657
autor	-11.7658
hooldaja	-11.7658
kategooria	-11.7658
▁abikaas	-11.7659
variant	-11.7659
iseerima	-11.766
▁nicol	-11.7662
▁men	-11.7665
buum	-11.7666
cher	-11.7668
▁2004	-11.7668
▁sujuv	-11.7669
pääste	-11.7675
▁96	-11.7675
▁ennetav	-11.7676
▁kom	-11.7676
▁kunman	-11.7676
sz	-11.7677
▁nool	-11.7679
▁1987.	-11.768
▁staaž	-11.768
▁tähendav	-11.7682
▁delikaat	-11.7687
▁kavatsev	-11.7693
▁fan	-11.7696
hool	-11.7696
nime	-11.7697
▁süüdimõistetu	-11.7697
▁raun	-11.7698
▁mao	-11.7703
▁janu	-11.7705
▁mõn	-11.7706
▁räpi	-11.7711
▁vargu	-11.7711
▁meelsus	-11.7712
▁argi	-11.7717
▁enriko	-11.7721
▁geniaalne	-11.7721
▁ümbrikupalk	-11.7721
▁spontaan	-11.7721
▁varrak	-11.7721
▁daxin	-11.7721
▁nälja	-11.7721
▁keiser	-11.7721
▁dušš	-11.7721
▁domineerima	-11.7721
▁aukonsul	-11.7721
▁riigikontrolör	-11.7721
▁kruusimägi	-11.7721
välisminister	-11.7722
▁staabi	-11.7722
▁cruz	-11.7722
▁ojasalu	-11.7722
▁õhusõiduk	-11.7723
▁vrakk	-11.7723
▁ae	-11.7725
▁kõneisik	-11.7725
▁palestiina	-11.7726
▁lahenda	-11.7726
▁žest	-11.7727
▁seeria	-11.7727
▁valitsuskabinet	-11.7727
▁orgaanili	-11.7727
▁maaülikool	-11.7728
▁raviasutus	-11.7729
▁jäätee	-11.773
▁piiskop	-11.773
▁7000	-11.7731
▁plaadifirma	-11.7732
▁assotsiatsioon	-11.7733
lly	-11.7733
▁spordiala	-11.7736
puit	-11.7737
▁peapiiskop	-11.7737
▁atraktsioon	-11.7737
66	-11.7738
▁värbami	-11.7738
▁murtud	-11.774
roomi	-11.7741
▁huvigrupp	-11.7741
▁järelvalve	-11.7742
▁kristall	-11.7742
▁läänemaailm	-11.7743
▁taristu	-11.7743
evastane	-11.7746
▁tina	-11.7747
▁fl	-11.7748
▁poolik	-11.7748
▁kümneaastane	-11.7748
▁aster	-11.7749
▁puru	-11.775
▁kevi	-11.7755
▁tunnistamine	-11.7755
▁nõutav	-11.7757
▁mõnet	-11.7761
▁põlvamaa	-11.7762
▁tanker	-11.7763
96	-11.7763
▁suru	-11.7764
▁deba	-11.7764
43	-11.7766
mehed	-11.7767
▁mõjuvõim	-11.777
▁hüppa	-11.7771
lex	-11.7776
▁hii	-11.7777
▁avanev	-11.778
endus	-11.778
-6	-11.7781
telt	-11.7782
▁täitmata	-11.7783
sots	-11.7785
kant	-11.7785
▁osalem	-11.7785
▁avalduses	-11.7786
▁ootamatus	-11.7787
▁ühik	-11.7787
india	-11.779
▁kaev	-11.779
elanik	-11.7791
▁ingel	-11.7791
▁esitlus	-11.7793
▁startima	-11.7796
august	-11.7797
▁tõmba	-11.7798
kongress	-11.7799
põhimõte	-11.7799
personal	-11.7799
▁vett	-11.7799
puhastus	-11.78
vein	-11.78
paraku	-11.78
nägu	-11.78
standard	-11.78
raudtee	-11.78
▁peatu	-11.7801
▁she	-11.7802
▁laiu	-11.7802
häda	-11.7805
lant	-11.7806
legend	-11.7806
▁jorda	-11.7807
eldama	-11.7807
ostja	-11.7808
▁retk	-11.7809
suits	-11.7813
▁teem	-11.7814
hy	-11.7816
[...]
