<unk>	0
<s>	0
</s>	0
,	-3.17453
.	-3.26564
▁je	-3.45067
▁i	-3.62696
▁u	-3.74782
▁na	-4.32021
▁se	-4.3395
a	-4.39637
▁da	-4.39959
▁su	-4.65593
▁za	-4.74532
e	-4.98136
▁a	-4.98985
u	-5.02705
▁s	-5.04411
▁-	-5.15918
▁od	-5.16235
m	-5.28303
i	-5.2867
o	-5.2874
▁ne	-5.34202
▁to	-5.41733
▁koji	-5.50722
▁što	-5.56252
▁kako	-5.63065
▁o	-5.64869
▁će	-5.65178
om	-5.70362
▁iz	-5.74198
▁nije	-5.84076
▁sam	-5.8496
:	-5.85725
▁bi	-5.88342
▁te	-5.9324
-	-5.95043
▁ali	-5.95234
▁do	-6.03987
▁'	-6.05181
▁"	-6.06016
ti	-6.08966
▁kao	-6.10211
ma	-6.11353
la	-6.12595
▁sve	-6.151
▁po	-6.15794
li	-6.19349
▁nakon	-6.27184
▁koje	-6.32329
▁pa	-6.3336
▁ili	-6.34214
▁ga	-6.34383
▁godine	-6.35637
▁sa	-6.40532
ih	-6.40604
▁bio	-6.41071
▁koja	-6.44038
▁smo	-6.45473
'	-6.46391
▁više	-6.47127
h	-6.47191
▁mi	-6.47867
▁jer	-6.49017
▁samo	-6.49758
▁biti	-6.50475
▁još	-6.52528
ne	-6.59432
▁kad	-6.62512
▁no	-6.6462
og	-6.65685
▁zbog	-6.66677
ju	-6.66737
▁bilo	-6.6684
te	-6.69219
▁(	-6.70063
j	-6.70633
na	-6.7069
g	-6.72232
?	-6.72314
▁mu	-6.72386
▁ako	-6.75552
▁li	-6.7722
▁rekao	-6.77339
▁tako	-6.79902
le	-6.81576
▁može	-6.81832
▁već	-6.82195
s	-6.82433
lo	-6.83088
▁godina	-6.83811
▁prije	-6.84192
im	-6.85972
mo	-6.88272
t	-6.88841
▁bila	-6.8888
▁ima	-6.92592
▁ih	-6.94048
▁uz	-6.96967
!	-6.97832
▁ljudi	-6.9842
)	-6.98607
oj	-6.99018
▁ni	-6.99055
š	-6.99518
...	-7.00677
▁dana	-7.00779
▁dok	-7.01179
▁kada	-7.02986
",	-7.04676
▁kaže	-7.07283
ni	-7.07966
ima	-7.08255
▁	-7.09049
je	-7.0959
▁oko	-7.11008
▁on	-7.12385
▁prema	-7.13519
▁jedan	-7.14052
ja	-7.14073
▁bez	-7.14706
▁nam	-7.15884
▁ja	-7.16376
"	-7.16508
▁nisu	-7.20474
nja	-7.2073
▁mogu	-7.2134
▁me	-7.23788
▁nego	-7.25202
n	-7.26083
▁toga	-7.26217
▁tri	-7.28043
nje	-7.29262
▁vrijeme	-7.30018
▁tu	-7.30597
▁svoje	-7.31394
▁kod	-7.32416
▁protiv	-7.3397
▁nekoliko	-7.34551
▁dva	-7.36985
nu	-7.37465
ka	-7.38476
▁im	-7.39402
▁ti	-7.39667
▁danas	-7.4071
▁joj	-7.41771
ca	-7.43783
▁kuna	-7.44278
▁nas	-7.44415
▁gdje	-7.44512
▁svi	-7.44656
▁čak	-7.45204
▁treba	-7.45531
▁nešto	-7.45673
▁uvijek	-7.47665
no	-7.47821
▁nema	-7.47861
▁bili	-7.49097
▁koju	-7.49145
▁puno	-7.50045
▁ovo	-7.5057
▁si	-7.50854
▁sada	-7.5186
▁dobro	-7.52571
▁sad	-7.53571
▁tome	-7.55001
▁taj	-7.55322
▁prvi	-7.55354
▁iako	-7.55991
'.	-7.56232
▁onda	-7.56826
▁jako	-7.57617
▁–	-7.57776
▁ona	-7.58795
▁pod	-7.58956
▁oni	-7.60281
ci	-7.6193
▁tijekom	-7.62718
k	-7.63669
d	-7.63995
▁malo	-7.64469
c	-7.64895
▁dan	-7.65676
▁put	-7.66237
▁radi	-7.66888
▁dvije	-7.67413
▁ove	-7.68198
▁posto	-7.68723
▁rekla	-7.70408
▁ju	-7.70851
▁svoj	-7.71837
▁ovaj	-7.72493
▁koliko	-7.73253
▁njih	-7.73387
▁milijuna	-7.74269
▁neće	-7.75705
▁život	-7.77316
▁vrlo	-7.7736
▁pet	-7.77884
ce	-7.78673
▁pri	-7.78697
▁ipak	-7.79057
ta	-7.79184
▁kojima	-7.79503
".	-7.79508
▁video	-7.79544
▁puta	-7.79851
▁kojem	-7.8001
▁imaju	-7.80195
▁hrvatskoj	-7.80485
▁bih	-7.81499
▁dio	-7.81828
▁jednom	-7.82067
▁također	-7.82131
▁nisam	-7.82134
▁način	-7.82741
▁vam	-7.82786
▁svoju	-7.83004
▁kojoj	-7.83298
▁ta	-7.83324
r	-7.83617
▁baš	-7.83686
▁neki	-7.83889
za	-7.84098
▁hrvatske	-7.84182
▁osim	-7.84361
p	-7.85216
▁dalje	-7.86649
nju	-7.86836
▁drugi	-7.87114
▁između	-7.87122
▁pre	-7.87318
ova	-7.88343
l	-7.88426
▁imao	-7.88521
▁ste	-7.88727
▁jedna	-7.89316
▁možda	-7.89681
▁tek	-7.90766
▁tko	-7.90795
▁novi	-7.90878
▁tada	-7.90881
▁svojim	-7.92035
ku	-7.92585
▁njega	-7.92601
va	-7.94284
da	-7.94586
ke	-7.94694
▁sati	-7.94984
▁poput	-7.95108
▁“	-7.9614
▁ono	-7.96544
▁zato	-7.96752
ći	-7.97758
nih	-7.98421
▁četiri	-7.98876
▁ništa	-7.98925
▁pred	-7.99366
▁ćemo	-7.99968
nom	-8.01123
▁često	-8.01266
▁kroz	-8.01292
▁među	-8.02001
▁mora	-8.0203
▁riječ	-8.02777
▁obitelji	-8.03372
▁tom	-8.04026
▁g	-8.04037
v	-8.0435
▁žena	-8.04544
▁možete	-8.04924
▁svaki	-8.08156
▁vremena	-8.08386
▁teško	-8.08412
▁preko	-8.08415
▁stvari	-8.08476
▁druge	-8.08552
st	-8.09527
▁hrvatska	-8.10324
▁pogledajte	-8.10411
▁sebe	-8.10673
▁hdz	-8.11653
▁upravo	-8.11682
▁zašto	-8.12019
▁manje	-8.12636
▁mogao	-8.13141
▁priča	-8.1333
re	-8.13609
▁kojeg	-8.1365
▁odmah	-8.13845
ra	-8.14143
▁vas	-8.14807
▁niti	-8.14881
▁piše	-8.15325
▁gotovo	-8.16421
an	-8.16835
▁policija	-8.16942
▁neke	-8.17193
▁njegov	-8.17413
▁10	-8.1752
z	-8.17555
▁toliko	-8.17902
▁„	-8.18281
▁broj	-8.18657
▁imati	-8.18843
),	-8.19309
',	-8.19703
▁žene	-8.1985
▁par	-8.19876
nog	-8.20397
▁pitanje	-8.20931
▁kasnije	-8.21004
▁njegova	-8.21142
po	-8.21381
▁dijete	-8.21477
sti	-8.21518
▁tim	-8.21658
▁zna	-8.21742
ba	-8.22034
▁minuta	-8.22613
em	-8.23088
▁dr	-8.23149
sa	-8.23587
▁vi	-8.2364
▁odnosno	-8.23753
ve	-8.24069
▁želi	-8.24283
▁nikad	-8.24752
di	-8.2476
▁20	-8.24901
to	-8.25779
▁zapravo	-8.25781
▁mjesto	-8.26263
▁pomoć	-8.26976
▁ću	-8.27029
▁šest	-8.27258
de	-8.2734
▁svijetu	-8.27646
▁e	-8.27779
cu	-8.27911
▁čini	-8.28025
▁predsjednik	-8.28075
▁pro	-8.28219
▁njima	-8.28561
nim	-8.28743
▁svih	-8.29128
▁kraju	-8.30464
▁bolje	-8.30593
▁postoji	-8.30957
▁de	-8.30974
▁djece	-8.31364
▁života	-8.31421
/	-8.3171
▁svim	-8.32236
▁strane	-8.32553
▁posebno	-8.32781
▁nitko	-8.33025
y	-8.33411
ga	-8.33592
▁one	-8.33873
▁godinu	-8.34331
▁imala	-8.34412
▁posao	-8.34429
▁zagrebu	-8.35067
▁ova	-8.35417
▁tamo	-8.35602
b	-8.35674
▁eu	-8.36064
če	-8.36179
▁eura	-8.36184
▁reći	-8.3623
▁netko	-8.36418
ove	-8.36544
▁veliki	-8.36945
▁svom	-8.38381
▁znači	-8.38488
lu	-8.3849
▁zajedno	-8.39163
▁imali	-8.39574
▁dobio	-8.39872
▁najviše	-8.4044
tu	-8.40462
ica	-8.40633
▁naime	-8.41001
▁problem	-8.41069
ru	-8.41561
ov	-8.43113
▁mene	-8.43165
▁kazao	-8.43232
▁bude	-8.43359
▁smatra	-8.44716
▁15	-8.45121
▁osoba	-8.45229
▁mogli	-8.45783
zi	-8.45842
ri	-8.46011
▁bit	-8.46079
▁prošle	-8.46093
▁prvo	-8.46611
ji	-8.46644
▁utakmice	-8.47129
▁ovom	-8.47245
▁24	-8.47292
▁mnogi	-8.47381
▁obitelj	-8.47415
me	-8.48218
▁pomoći	-8.4831
▁opet	-8.48604
▁slučaju	-8.48803
▁kuće	-8.49152
▁možemo	-8.49413
).	-8.497
▁potpuno	-8.50033
▁mogla	-8.50131
▁dovoljno	-8.50254
▁1	-8.50347
▁trenutku	-8.50678
▁2	-8.51068
▁ma	-8.51355
▁tog	-8.51413
▁znam	-8.51896
pa	-8.52085
▁sigurno	-8.52232
▁ovog	-8.52392
ki	-8.52558
▁najbolje	-8.52722
▁nove	-8.52854
▁vlada	-8.52877
▁čovjek	-8.52968
▁svog	-8.53288
▁jednog	-8.53834
vi	-8.53857
▁jednu	-8.54125
▁sezone	-8.54285
do	-8.54474
▁hrvatski	-8.54539
▁kažu	-8.54675
▁naravno	-8.5524
▁problema	-8.55386
du	-8.55398
▁mjeseci	-8.55421
▁govori	-8.56286
▁vjerojatno	-8.56298
▁mjestu	-8.56309
▁obzir	-8.56565
▁mislim	-8.56781
▁mjesta	-8.56846
▁prava	-8.56857
▁novac	-8.56927
ske	-8.56934
▁1.	-8.56994
▁la	-8.57172
▁deset	-8.57364
▁vode	-8.57383
▁mnogo	-8.57484
ice	-8.57537
▁zagreb	-8.57558
▁izgleda	-8.57922
▁svijeta	-8.5815
▁brzo	-8.58161
▁žele	-8.58214
▁ovdje	-8.58277
ovi	-8.58512
▁5	-8.58848
▁jedno	-8.59066
▁jednostavno	-8.59224
”	-8.60231
▁međutim	-8.60233
▁hrvatsku	-8.60663
▁raditi	-8.60712
jući	-8.60896
▁životu	-8.61235
▁pravo	-8.61252
▁isto	-8.61345
▁tisuća	-8.61482
ski	-8.61542
▁inače	-8.62151
ž	-8.62324
▁majka	-8.62479
▁najbolji	-8.62519
▁nikada	-8.62637
▁svega	-8.62654
▁potom	-8.62716
▁3	-8.63226
▁svojoj	-8.6326
▁d	-8.63408
▁ime	-8.63423
▁‘	-8.63446
▁kraj	-8.63563
▁tvrdi	-8.63739
▁30	-8.63946
lja	-8.64261
ić	-8.64459
▁moj	-8.64566
▁nismo	-8.64605
▁12	-8.65169
▁dodao	-8.65268
▁nad	-8.65281
▁kući	-8.65479
▁vidjeti	-8.65564
in	-8.65697
▁naj	-8.65937
▁dobar	-8.66493
▁velika	-8.66578
▁njezin	-8.66851
▁ponovno	-8.66903
▁djeca	-8.66959
▁trebao	-8.67201
ost	-8.67305
ko	-8.67558
▁uopće	-8.67718
▁ćete	-8.67963
▁tijelo	-8.68003
f	-8.68268
▁naš	-8.6838
▁došao	-8.68569
▁ivan	-8.69069
▁imamo	-8.69152
▁neka	-8.69455
▁rad	-8.69753
▁ranije	-8.70044
▁prvaka	-8.70062
▁ide	-8.70282
▁navodno	-8.7029
▁čega	-8.70294
▁kn	-8.70325
jte	-8.70456
▁previše	-8.70489
▁naše	-8.70604
▁njemu	-8.70683
▁dolara	-8.71161
▁bile	-8.71205
ak	-8.71264
▁ministar	-8.71341
▁kojim	-8.71542
▁moguće	-8.71612
▁re	-8.71717
▁godinama	-8.71818
▁kraja	-8.72011
▁ljubav	-8.72125
kom	-8.72204
se	-8.7273
▁grad	-8.72744
▁sebi	-8.72803
▁velike	-8.72849
▁jasno	-8.73229
▁vodi	-8.7343
▁napraviti	-8.73481
▁tih	-8.73489
▁stranke	-8.73679
č	-8.74063
▁djecu	-8.74344
▁igra	-8.74407
▁time	-8.74523
▁cijeli	-8.74595
že	-8.74786
▁ljude	-8.75134
▁njihov	-8.75151
▁nalazi	-8.75433
▁možeš	-8.75504
ska	-8.75511
▁sud	-8.75686
su	-8.758
▁3.	-8.76034
▁otac	-8.76171
▁dolazi	-8.76217
ili	-8.76225
▁sata	-8.76362
mi	-8.76413
▁dugo	-8.76543
▁nedavno	-8.7669
ije	-8.76806
▁drugih	-8.77326
▁sedam	-8.77567
▁18	-8.77861
▁njegove	-8.78139
▁bolesti	-8.78325
▁živi	-8.78351
▁barem	-8.79244
▁2.	-8.79517
▁50	-8.79776
x	-8.79909
▁svijet	-8.80082
▁prva	-8.80087
▁meni	-8.80381
ši	-8.80736
▁moći	-8.8092
▁doći	-8.82057
▁mjeseca	-8.82292
▁2017.	-8.82339
▁lige	-8.82443
ha	-8.82639
“	-8.82698
▁kojih	-8.82859
2	-8.83102
ša	-8.83217
▁ljudima	-8.83436
▁pravi	-8.83706
▁gol	-8.83721
▁pola	-8.83768
ro	-8.8378
▁lako	-8.83806
▁svojih	-8.83811
▁bivši	-8.8387
▁100	-8.84134
si	-8.84171
▁vlade	-8.84458
▁važno	-8.84502
▁dinamo	-8.84573
▁grada	-8.84578
▁4	-8.85104
▁postao	-8.85117
▁trener	-8.85171
▁11	-8.8522
▁zatim	-8.85247
▁iza	-8.8533
▁b	-8.85344
▁2018.	-8.85515
iji	-8.85757
▁19	-8.85802
▁tijela	-8.85862
▁zabio	-8.86158
’	-8.86326
▁god	-8.86447
▁6	-8.86669
▁osobe	-8.86676
lje	-8.87052
▁dobiti	-8.87168
ži	-8.87298
▁stoji	-8.87304
▁objavio	-8.87399
▁the	-8.87431
▁počeo	-8.87527
▁fotografije	-8.87806
▁raz	-8.88012
cima	-8.88111
▁onih	-8.88145
▁postoje	-8.882
▁drugim	-8.8832
▁igrača	-8.88348
▁potrebno	-8.88449
be	-8.88635
▁utakmica	-8.88683
▁osam	-8.88975
▁zemlje	-8.89183
▁premijer	-8.89255
▁stvar	-8.89404
▁umjesto	-8.89683
▁društvenim	-8.89976
▁mjesec	-8.90213
▁poslije	-8.90818
osti	-8.90923
▁k	-8.90926
▁trebalo	-8.91313
▁želim	-8.91324
▁dobili	-8.91328
▁dodaje	-8.91416
vši	-8.9146
▁najveći	-8.91566
▁sdp	-8.92069
▁petak	-8.92119
bi	-8.92203
▁imam	-8.92361
▁c	-8.92519
▁klub	-8.92794
▁ponedjeljak	-8.92795
▁rekli	-8.92803
▁svima	-8.92945
▁četvrtak	-8.93116
▁ispred	-8.93148
▁tjedna	-8.93182
▁države	-8.93217
▁čemu	-8.93218
noj	-8.93279
▁europske	-8.93783
▁plenković	-8.93792
▁2019.	-8.93815
▁većina	-8.94063
▁rade	-8.94146
▁povijesti	-8.94158
▁ovu	-8.94277
▁ispod	-8.94316
ze	-8.94394
▁predsjednika	-8.94428
ija	-8.94523
▁radio	-8.94582
▁ovih	-8.94677
▁moraju	-8.94692
▁dogodilo	-8.94711
▁mrežama	-8.94742
▁pak	-8.94882
bu	-8.94933
▁utakmicu	-8.94993
▁automobila	-8.95195
▁nova	-8.95414
▁prve	-8.95433
▁dobila	-8.9548
▁sustav	-8.95701
▁napisao	-8.95822
▁dosta	-8.96223
sata	-8.96261
▁le	-8.96273
▁trebala	-8.96513
w	-8.96516
▁16	-8.9656
▁supruga	-8.97028
▁13	-8.97245
▁znaju	-8.97551
▁niz	-8.97559
še	-8.97701
nije	-8.97909
▁auto	-8.9797
1	-8.97984
."	-8.98151
▁vidi	-8.98152
▁slučaj	-8.98284
▁drugom	-8.98353
vo	-8.98475
▁14	-8.98554
▁sat	-8.98639
▁17	-8.98649
▁država	-8.98719
▁stalno	-8.98803
nica	-8.98942
▁pitanja	-8.99003
▁hrvatskog	-8.9908
nice	-8.99192
gu	-8.99232
▁vezi	-8.99584
▁javnosti	-8.99603
ča	-8.9966
▁sina	-8.99835
cije	-9.00132
▁al	-9.00155
▁automobil	-9.00213
▁moja	-9.00529
▁super	-9.00566
▁roditelji	-9.00604
▁di	-9.01017
nici	-9.01023
▁izjavio	-9.0103
▁sin	-9.01103
▁40	-9.01307
▁subotu	-9.01355
jem	-9.01459
▁nedjelju	-9.01469
▁srijedu	-9.01584
▁stvarno	-9.01607
▁njim	-9.01656
sta	-9.0168
▁vozila	-9.01996
▁film	-9.02094
▁njihova	-9.02144
ća	-9.02375
go	-9.0268
▁p	-9.02791
▁putem	-9.02819
▁kluba	-9.02901
er	-9.03014
skog	-9.03138
;	-9.03166
▁počela	-9.03311
▁ćeš	-9.03396
▁navodi	-9.03444
▁momčad	-9.03454
▁ro	-9.03614
▁htio	-9.03635
▁novu	-9.03643
▁toj	-9.03689
▁trebali	-9.038
či	-9.03802
5	-9.03969
▁prvom	-9.04051
▁druga	-9.04146
▁utorak	-9.04182
▁ovim	-9.04244
▁svibnja	-9.04379
▁nekim	-9.04422
▁cilj	-9.04515
▁ruke	-9.04522
▁drugo	-9.04551
▁hoće	-9.04655
▁jedne	-9.0474
▁točno	-9.04866
▁moje	-9.04953
njem	-9.05196
▁moglo	-9.05329
▁metara	-9.05378
▁ostati	-9.05491
▁vrata	-9.05601
sku	-9.05699
▁bismo	-9.05928
▁smrti	-9.06092
▁igrač	-9.0622
▁njihove	-9.06231
▁nju	-9.0624
▁primjer	-9.06258
▁novca	-9.06313
▁poručio	-9.06639
▁veze	-9.06701
▁tjedan	-9.06868
čić	-9.06896
▁odlučio	-9.06918
▁sami	-9.06981
▁pol	-9.07036
▁prvog	-9.07045
▁području	-9.07092
▁rada	-9.07178
će	-9.07236
▁glavni	-9.07578
bo	-9.07652
▁čeka	-9.07785
▁priliku	-9.07828
▁objavila	-9.07873
▁moramo	-9.08047
▁igrati	-9.08193
▁prilikom	-9.08517
▁travnja	-9.08559
▁sva	-9.08674
▁osjećaj	-9.09118
▁rata	-9.09139
▁ponekad	-9.0926
▁uglavnom	-9.09341
▁ožujka	-9.09467
3	-9.09691
▁zagreba	-9.09998
▁novom	-9.10115
▁2016.	-9.10339
▁završio	-9.10391
▁događa	-9.10485
▁drugog	-9.10486
▁zatvora	-9.10574
▁momčadi	-9.10615
▁stanje	-9.10807
▁ko	-9.11221
▁koristi	-9.11406
7	-9.11497
▁njezina	-9.11547
▁tvrtke	-9.11558
▁vlasti	-9.11602
▁new	-9.11614
▁ostali	-9.11738
▁uskoro	-9.11812
▁7	-9.11901
▁4.	-9.11936
skom	-9.12052
▁kojom	-9.12071
▁bar	-9.12082
▁posla	-9.12364
ge	-9.12587
▁isti	-9.12617
▁25	-9.12854
▁ka	-9.12915
▁''	-9.12939
icu	-9.13205
6	-9.13381
lj	-9.13667
▁dakle	-9.13705
pro	-9.14279
▁pu	-9.14357
iti	-9.14385
▁ujutro	-9.14478
▁ističe	-9.14548
pe	-9.14781
▁gradu	-9.14792
▁razloga	-9.14841
▁otišao	-9.14869
▁nemaju	-9.15243
▁godini	-9.15357
▁trenutno	-9.15393
▁muškarac	-9.15436
▁tad	-9.15652
▁mama	-9.15708
▁svaka	-9.15736
▁dosad	-9.15806
▁ljubavi	-9.15925
▁svakom	-9.15931
▁vidio	-9.16006
▁jedino	-9.16012
▁pronaći	-9.161
▁projekt	-9.16167
▁bolnici	-9.16377
▁očekuje	-9.164
▁luka	-9.16451
▁glumica	-9.16716
▁igrao	-9.16788
▁policije	-9.16947
▁mediji	-9.1699
▁njegovu	-9.17026
vanje	-9.17051
▁stoga	-9.17145
ovima	-9.17218
iz	-9.1733
▁takav	-9.17347
▁mnoge	-9.17437
▁misli	-9.17532
▁veliku	-9.17554
▁rezultat	-9.17597
▁zaista	-9.17686
▁škole	-9.17887
▁priprema	-9.17975
▁objašnjava	-9.18115
▁8	-9.18236
▁član	-9.18637
ža	-9.18756
▁m	-9.18765
▁pjevačica	-9.18766
▁njoj	-9.18794
▁redu	-9.18981
ici	-9.19105
▁osvojio	-9.19207
▁zemlji	-9.19231
▁vozač	-9.19317
▁riječi	-9.19333
▁napravio	-9.19547
▁loše	-9.19585
▁uspio	-9.19615
▁evo	-9.19632
▁utakmici	-9.19705
▁javnost	-9.19858
ch	-9.19887
▁jedini	-9.19986
▁hit	-9.20069
▁bolji	-9.20128
8	-9.20253
▁voli	-9.20461
com	-9.2051
▁došla	-9.20678
▁vratiti	-9.20837
▁veći	-9.20869
▁napisala	-9.20906
▁program	-9.20929
▁odlučila	-9.20933
▁seks	-9.21236
▁mogućnost	-9.21246
▁razlog	-9.21595
▁odgovor	-9.21609
▁ba	-9.21667
▁postala	-9.21719
▁takve	-9.21795
▁prenosi	-9.22064
▁sama	-9.22103
▁mladi	-9.22124
▁unatoč	-9.22168
▁primjerice	-9.22191
▁noći	-9.22275
▁nje	-9.22326
▁kim	-9.22356
30	-9.2247
io	-9.22562
▁istraživanja	-9.2264
▁ostao	-9.22672
▁priču	-9.2272
pre	-9.22971
▁lakše	-9.22974
hr	-9.23068
▁mali	-9.23243
▁novog	-9.23432
▁istaknuo	-9.23636
▁naći	-9.23657
▁dobra	-9.2371
▁rat	-9.23812
vanja	-9.24068
▁ovoj	-9.24233
▁najmanje	-9.24487
▁devet	-9.24671
▁pitanju	-9.24708
▁došlo	-9.24742
▁siječnja	-9.25077
▁5.	-9.25165
▁dijelu	-9.25223
▁nama	-9.25225
▁zakona	-9.25622
▁cijelo	-9.25634
sko	-9.2578
▁dvoje	-9.26077
▁ugovor	-9.26133
▁nesreće	-9.26149
▁odluku	-9.26296
lju	-9.26361
▁cijena	-9.26363
žu	-9.26548
▁posljednjih	-9.26603
▁gu	-9.26627
▁počinje	-9.2663
▁ubrzo	-9.2664
▁znak	-9.2664
▁sasvim	-9.26688
▁ra	-9.26836
od	-9.2692
▁gola	-9.27004
▁donosi	-9.27014
▁očito	-9.27131
▁priče	-9.27134
on	-9.2714
▁van	-9.27284
▁trebaju	-9.27374
▁znao	-9.27632
tom	-9.27796
▁ruku	-9.27809
▁instagramu	-9.27818
▁izvor	-9.27855
▁prvu	-9.27879
▁naša	-9.28035
▁bol	-9.28115
▁glas	-9.28199
▁zvijezda	-9.28204
▁napada	-9.28682
skoj	-9.28812
▁v	-9.28848
▁san	-9.28977
čan	-9.29094
▁vole	-9.29217
▁ići	-9.29292
al	-9.29462
▁istraživanje	-9.2948
▁početku	-9.29486
▁onaj	-9.29508
▁znamo	-9.29622
▁plan	-9.29779
▁volim	-9.2981
▁9	-9.29835
▁pe	-9.29862
▁budući	-9.29883
▁ovako	-9.29954
▁stigao	-9.30091
▁minuti	-9.30169
▁promjene	-9.30244
pi	-9.30328
▁lice	-9.30597
▁instagram	-9.30655
▁najčešće	-9.30755
▁izbora	-9.30973
or	-9.31184
▁dinama	-9.31246
▁boje	-9.3125
▁odnosu	-9.31318
▁ha	-9.31466
▁200	-9.31553
▁obzira	-9.31605
▁joomboos	-9.31748
▁novo	-9.31959
▁tvrde	-9.31992
▁tiče	-9.31998
▁kilometara	-9.3207
▁hrane	-9.32206
▁predsjednica	-9.32253
▁f	-9.32448
▁z	-9.32456
▁trump	-9.32514
▁kojemu	-9.32523
ila	-9.32564
▁učiniti	-9.32591
▁odluka	-9.32636
▁ulogu	-9.32785
▁uoči	-9.3287
pri	-9.32872
▁novih	-9.32948
▁igre	-9.33209
▁imena	-9.33271
▁izbore	-9.33412
▁21	-9.33437
▁pokazuje	-9.33456
▁koristiti	-9.33533
▁bu	-9.3357
▁ivana	-9.33802
▁zdravlje	-9.33882
▁traži	-9.33993
▁njegovo	-9.34012
▁hrvatskih	-9.34171
▁uprave	-9.34225
▁razvoj	-9.34242
▁prostor	-9.34267
ina	-9.34351
▁kilograma	-9.3439
▁veljače	-9.34408
▁direktor	-9.3443
▁izborima	-9.34497
▁situacija	-9.345
▁došli	-9.34519
▁znati	-9.34545
is	-9.34611
▁javlja	-9.34632
▁čiji	-9.34783
▁zakon	-9.34895
▁prijatelji	-9.34912
▁postupak	-9.3494
▁dolaze	-9.34976
9	-9.35036
▁partner	-9.35046
▁be	-9.35079
▁du	-9.35182
▁početka	-9.35215
▁doma	-9.35235
▁europe	-9.35321
▁stanju	-9.35401
▁model	-9.35407
▁pokazala	-9.35441
▁ovi	-9.35524
▁vidjeli	-9.356
▁rješenje	-9.35691
▁drugu	-9.35853
▁postati	-9.35856
tri	-9.35985
4	-9.36154
▁diljem	-9.36231
▁suda	-9.36275
▁krajem	-9.363
▁svake	-9.36388
▁nažalost	-9.36396
▁napokon	-9.36448
co	-9.36516
▁doista	-9.3657
ing	-9.36642
▁početkom	-9.36885
▁vratio	-9.36887
▁javno	-9.37021
▁želimo	-9.37022
▁svemu	-9.37185
šte	-9.37194
▁imate	-9.3729
nik	-9.37307
sto	-9.37338
▁dati	-9.37402
▁meghan	-9.3745
▁cijelu	-9.37594
▁našem	-9.37619
▁europi	-9.37929
▁skoro	-9.37955
▁europski	-9.38
▁jednoj	-9.38055
▁2015.	-9.382
▁ru	-9.38223
▁pokazao	-9.38365
▁marko	-9.38803
▁dodala	-9.38842
▁youtube	-9.38842
▁narod	-9.38872
▁jest	-9.38883
▁kuću	-9.38982
▁izvan	-9.38988
▁ovoga	-9.39014
▁pjesmu	-9.39198
▁prati	-9.39266
▁ministarstvo	-9.39282
▁budu	-9.39294
▁nekih	-9.3935
▁hrvatskom	-9.3936
▁korak	-9.3945
▁izbor	-9.39511
▁poslova	-9.39683
us	-9.39708
▁daleko	-9.39755
▁real	-9.40089
▁čovjeka	-9.40116
▁treći	-9.40169
en	-9.40235
iju	-9.40238
▁pomaže	-9.40264
▁naslov	-9.40362
▁nekad	-9.40577
▁društvo	-9.40828
▁djela	-9.40862
▁neko	-9.41113
▁biste	-9.41266
00	-9.41383
▁ukupno	-9.41423
▁sto	-9.41656
zu	-9.41665
▁cijene	-9.41682
▁izgubio	-9.41709
▁bodova	-9.41814
▁lo	-9.41835
▁činjenica	-9.41855
▁nagradn	-9.41901
▁uspjeli	-9.41968
▁facebook	-9.42028
▁pravila	-9.42117
▁počeli	-9.42179
▁unutar	-9.42396
▁stan	-9.42457
▁partnera	-9.42487
nicu	-9.42586
▁razini	-9.42608
▁dobi	-9.42879
▁igrači	-9.42902
▁mo	-9.42953
▁smije	-9.4299
▁plaća	-9.43014
lić	-9.43116
”,	-9.43177
▁zahtjev	-9.43299
▁dodatno	-9.43336
▁dodajte	-9.43378
▁60	-9.43413
▁muškarci	-9.43536
▁6.	-9.43615
▁via	-9.43683
▁jučer	-9.43702
ću	-9.4372
man	-9.4382
▁kakav	-9.4394
ac	-9.44011
▁koriste	-9.44075
▁snage	-9.44234
▁sudu	-9.44246
ović	-9.44402
▁republike	-9.44405
▁zahvaljujući	-9.44406
▁društvu	-9.44522
▁giphy	-9.44581
▁glavu	-9.44758
▁brojne	-9.44768
▁svakog	-9.44779
“,	-9.44827
▁ku	-9.44831
▁oba	-9.44917
ču	-9.44959
▁otkrio	-9.44996
▁list	-9.45093
▁fa	-9.45369
▁ulici	-9.45459
▁nosi	-9.45479
▁pogotovo	-9.45539
▁vlasnik	-9.45546
▁poznat	-9.45612
vati	-9.45612
▁ras	-9.45632
ković	-9.45691
▁ca	-9.45778
▁filma	-9.45801
▁h	-9.45866
▁pobjede	-9.45884
▁odlučili	-9.46033
▁američki	-9.46154
▁ostale	-9.46307
▁svojom	-9.46373
▁male	-9.46466
&	-9.46578
nji	-9.466
pu	-9.46675
▁odnos	-9.46686
▁hajduk	-9.46834
▁objasnio	-9.46854
▁svakako	-9.46873
▁otići	-9.46969
▁pada	-9.47377
▁informacije	-9.47386
▁ostala	-9.47453
▁7.	-9.47465
▁traje	-9.47585
▁22	-9.47838
▁prijatelja	-9.47983
▁otkrila	-9.48054
▁nekog	-9.48091
▁liječnici	-9.48193
▁lipnja	-9.4843
▁parlament	-9.48636
▁čim	-9.48766
▁odgovorio	-9.48874
ver	-9.48881
▁suprug	-9.49125
▁dođe	-9.49313
▁građana	-9.49356
▁sustava	-9.49378
▁šef	-9.49392
▁svjetski	-9.49505
godišnji	-9.49552
▁predstavlja	-9.49621
▁srca	-9.49692
▁stranici	-9.497
▁bo	-9.49722
▁konačno	-9.49737
šta	-9.49758
▁pronašli	-9.49836
▁smatraju	-9.49848
▁tv	-9.49958
▁lijepo	-9.49985
▁zemalja	-9.50022
▁morao	-9.50068
▁bolnicu	-9.50095
▁proces	-9.50107
▁prijatelj	-9.50108
ć	-9.50151
▁rizik	-9.50159
▁niste	-9.50203
ciju	-9.50241
▁nastupa	-9.50806
▁smrt	-9.50896
▁potrebe	-9.50959
▁iznad	-9.51025
▁terenu	-9.51061
%	-9.51238
▁proizvoda	-9.51254
▁minute	-9.51338
▁oči	-9.51457
▁ministarstva	-9.51474
▁moram	-9.51544
▁krvi	-9.51602
▁ispričao	-9.5174
▁2014.	-9.51777
▁srce	-9.51956
▁glumac	-9.52003
▁novim	-9.52453
▁probleme	-9.52469
▁navečer	-9.52659
▁hranu	-9.52796
▁srbije	-9.52944
gi	-9.53062
cija	-9.5309
▁pristup	-9.53093
▁rođendan	-9.53123
▁borbe	-9.5315
▁podataka	-9.53177
▁vrijednosti	-9.53256
▁gledati	-9.53522
▁brat	-9.53601
▁fotografiju	-9.53695
▁mir	-9.53701
▁aktivnosti	-9.53755
▁njegovi	-9.53832
▁profilu	-9.5386
▁lica	-9.53872
▁znali	-9.53873
▁gore	-9.54027
▁obično	-9.5408
▁svjetskog	-9.54266
▁slično	-9.54266
▁odlično	-9.54441
▁kože	-9.54494
ter	-9.5453
▁dom	-9.54538
▁milan	-9.54558
....	-9.54726
▁š	-9.54799
▁mogućnosti	-9.54818
▁daje	-9.54845
▁govorio	-9.5485
▁23	-9.5488
▁vjerujem	-9.54908
▁neku	-9.54925
đi	-9.54976
▁ideja	-9.55089
▁n	-9.55144
▁pobjedu	-9.55186
▁stručnjaci	-9.55286
▁društva	-9.55382
▁postaje	-9.55474
▁traže	-9.555
▁broju	-9.55505
▁ke	-9.55532
▁pored	-9.55545
▁jaja	-9.55545
ovo	-9.55561
▁rast	-9.55571
rija	-9.55785
tan	-9.56018
▁kupiti	-9.56106
▁račun	-9.5615
ira	-9.5634
▁živjeti	-9.56386
▁krenuo	-9.56398
▁rak	-9.56407
ar	-9.5641
▁kćer	-9.5643
▁djeteta	-9.56437
▁l	-9.56464
▁iskustvo	-9.5662
▁budućnosti	-9.56629
▁djeci	-9.56636
▁8.	-9.56659
▁centar	-9.56662
nija	-9.56718
▁poznati	-9.56786
▁kazala	-9.56837
”.	-9.56905
▁spremni	-9.56966
▁kuća	-9.56979
▁njezine	-9.57007
▁ozljede	-9.57035
▁zaključio	-9.57084
▁stranka	-9.57154
▁napad	-9.57203
ako	-9.57251
▁centra	-9.5735
ck	-9.57473
▁oca	-9.57588
▁poslu	-9.57619
▁fotografija	-9.57749
▁jedva	-9.57862
niji	-9.57949
▁žive	-9.57962
▁planira	-9.57995
▁pogledaj	-9.58021
skih	-9.58038
▁snaga	-9.58162
▁svaku	-9.58168
▁ostaje	-9.58176
▁dobre	-9.58269
▁trenutak	-9.58291
▁želite	-9.58313
▁muškarca	-9.58377
lom	-9.58487
▁isključivo	-9.5852
▁odluke	-9.58648
▁računa	-9.58673
▁kupa	-9.58854
▁potpunosti	-9.58932
▁naši	-9.58957
▁prvoj	-9.58957
▁motor	-9.59094
▁zanima	-9.59099
▁red	-9.59116
▁godišnje	-9.59227
vali	-9.59577
▁lu	-9.59646
▁obje	-9.59711
▁znala	-9.59782
▁najboljih	-9.5989
ciji	-9.5991
▁posljednji	-9.59924
▁fi	-9.59932
▁bitno	-9.60195
▁ulja	-9.60206
▁nositi	-9.6021
▁ozbiljno	-9.60221
ine	-9.60271
▁prošli	-9.60337
▁kosu	-9.60338
▁novoj	-9.60389
▁promjena	-9.60404
▁uljanik	-9.60404
▁jednako	-9.60462
▁uspjeh	-9.60545
▁sljedeći	-9.60565
▁medijima	-9.60578
▁istina	-9.60595
▁šećera	-9.60674
▁10.	-9.60715
▁muškaraca	-9.60773
▁splitu	-9.60773
▁posljednje	-9.60884
lije	-9.60902
ng	-9.61036
vu	-9.61063
▁razliku	-9.61239
▁početak	-9.61259
▁kćeri	-9.61349
▁poznato	-9.61394
▁uključujući	-9.61405
▁najavio	-9.61469
▁našeg	-9.61504
▁nagrade	-9.6154
▁takva	-9.61611
▁poruku	-9.61813
▁glasova	-9.61857
nd	-9.61884
▁poziv	-9.61922
▁doba	-9.62027
▁drugoj	-9.621
tra	-9.62129
▁goran	-9.6221
▁tijelu	-9.62233
▁ci	-9.62297
▁drago	-9.62395
fi	-9.6243
▁pokazuju	-9.6255
▁pjesme	-9.62584
▁potvrdio	-9.62637
▁stoljeća	-9.62725
nka	-9.62732
▁građani	-9.62746
▁of	-9.62796
▁podatke	-9.62796
▁inter	-9.62813
▁mladić	-9.62837
▁zadnji	-9.62878
▁finale	-9.63123
dr	-9.63185
▁tebe	-9.63213
▁definitivno	-9.63225
▁pritom	-9.63282
kr	-9.63299
rije	-9.63318
▁blizini	-9.63362
▁dogoditi	-9.63531
▁naših	-9.63706
▁pao	-9.63729
▁raste	-9.63832
▁kr	-9.63862
▁sreće	-9.63932
▁bandić	-9.64115
▁t	-9.64131
▁podršku	-9.64218
▁op	-9.64238
▁co	-9.64276
▁nagradu	-9.64332
▁redovito	-9.64362
▁ana	-9.64362
▁svatko	-9.64587
▁blizu	-9.646
▁top	-9.6465
▁ušao	-9.64677
▁boja	-9.64684
šić	-9.64689
▁prilično	-9.6472
th	-9.64738
▁noge	-9.64741
▁zid	-9.64771
▁vijest	-9.64777
▁ostalo	-9.64828
▁njihovu	-9.64861
▁milijardi	-9.64864
tor	-9.64875
▁vodu	-9.64909
▁meso	-9.64978
▁hvala	-9.65102
▁drži	-9.65114
▁djevojke	-9.65153
ster	-9.65249
▁karijere	-9.6537
▁školu	-9.65588
▁voditelj	-9.65643
▁osuđen	-9.65655
▁odgovara	-9.65668
sh	-9.6571
▁školi	-9.65733
▁vina	-9.65805
▁nastaviti	-9.65833
▁grupe	-9.66101
▁skupine	-9.66199
▁mala	-9.66269
▁policijsk	-9.66275
▁ante	-9.66279
▁njegovom	-9.66327
▁čime	-9.66337
▁ligi	-9.66384
▁htjela	-9.6639
▁nasilja	-9.66391
▁showa	-9.66578
▁kazne	-9.66597
▁šanse	-9.6661
▁napravili	-9.66641
▁ministrica	-9.66698
▁navijači	-9.66705
▁iznimno	-9.66715
▁budućnost	-9.66768
eva	-9.66789
▁požar	-9.66827
▁mladih	-9.66893
skim	-9.66945
▁horoskopski	-9.67022
▁promijeniti	-9.67056
▁kviz	-9.67057
▁zastupnika	-9.67132
▁odnosi	-9.6719
▁rukama	-9.67194
▁normalno	-9.67209
▁noć	-9.6722
▁drugačije	-9.67271
▁osobito	-9.6729
▁car	-9.67293
ran	-9.67295
▁strani	-9.67303
▁km	-9.67317
▁iste	-9.67338
▁finala	-9.67469
▁rijeka	-9.67493
▁zemlja	-9.67494
đu	-9.67518
▁cijele	-9.67716
▁znanstvenici	-9.67721
▁njihovo	-9.67753
▁prošlog	-9.6776
▁kratko	-9.67791
▁politički	-9.67798
▁karijeri	-9.67864
šu	-9.67901
▁miris	-9.68006
▁milijun	-9.6801
▁35	-9.68019
▁centru	-9.68089
▁raka	-9.68177
▁putu	-9.68227
▁našim	-9.68334
▁jesu	-9.68366
▁velikim	-9.68366
▁izgled	-9.68438
▁morali	-9.68447
▁utjecaj	-9.68477
▁veza	-9.68531
▁članovi	-9.68564
▁knjige	-9.68759
▁policiji	-9.68761
▁različitih	-9.68892
▁facebooku	-9.69018
▁nadam	-9.6902
▁ispričala	-9.6903
vao	-9.69058
▁riješiti	-9.69074
▁0	-9.69161
▁vaš	-9.69248
▁ženama	-9.69258
▁mjere	-9.69276
▁tvoj	-9.69283
▁9.	-9.69298
▁najveća	-9.69308
met	-9.69395
▁pogled	-9.69396
▁anti	-9.69471
▁pokazati	-9.69559
▁marin	-9.69562
▁pun	-9.69642
▁klubu	-9.69643
▁članova	-9.6965
▁90	-9.69724
▁slika	-9.69733
▁beba	-9.69776
▁odgovornost	-9.69819
▁12.	-9.69905
▁sigurnost	-9.69938
▁područja	-9.69965
▁seksa	-9.70003
▁prijedlog	-9.70038
▁informacija	-9.70042
▁poruka	-9.70043
▁škola	-9.70043
▁žrtve	-9.70117
▁pjevač	-9.70154
▁ljeto	-9.70389
▁usta	-9.70394
▁velikoj	-9.70402
▁djevojka	-9.70423
▁man	-9.70426
▁iznosi	-9.70455
▁sigurnosti	-9.70561
▁karijeru	-9.70574
▁nastavio	-9.70597
▁sudac	-9.7073
▁susret	-9.70888
▁r	-9.70906
▁njegovim	-9.7094
▁stav	-9.71078
▁majke	-9.71128
▁nogomet	-9.71197
▁vezu	-9.71199
▁čine	-9.71216
▁ubojstva	-9.71263
▁velik	-9.71281
▁dao	-9.71315
▁soli	-9.7134
▁davor	-9.71344
▁ri	-9.71364
son	-9.7141
▁najvećih	-9.71412
▁grabar	-9.71574
▁nastup	-9.71622
▁strah	-9.71689
▁vide	-9.71697
▁borbi	-9.71734
▁večeri	-9.71735
fa	-9.7184
▁pomalo	-9.71917
▁spreman	-9.71956
mir	-9.71997
ijom	-9.72011
▁kar	-9.72031
▁brod	-9.72063
▁neću	-9.72131
ss	-9.72226
▁gradonačelnik	-9.72237
▁bolnice	-9.72442
▁pozvao	-9.72479
▁recept	-9.72524
▁hr	-9.72676
▁objasnila	-9.72696
▁djelo	-9.72697
▁njom	-9.7271
ovu	-9.72754
▁crkve	-9.72785
godišnjak	-9.72966
▁nemam	-9.7298
▁andrej	-9.7303
▁koga	-9.73032
tro	-9.7306
▁roditelja	-9.73076
▁pi	-9.73098
▁nekom	-9.73181
▁govore	-9.73256
▁more	-9.7329
van	-9.73294
▁članak	-9.73337
▁stavite	-9.73361
▁riječima	-9.73362
▁tvrtka	-9.73368
▁zemlju	-9.73438
▁filmu	-9.73445
▁priznao	-9.73467
▁vr	-9.73487
▁velikom	-9.73525
▁vrsta	-9.73542
▁prvih	-9.73562
▁golova	-9.73612
▁prostora	-9.73619
▁serije	-9.7362
▁medija	-9.73736
▁300	-9.73769
▁dječak	-9.73903
▁sveučilišta	-9.7391
▁zatvor	-9.74001
▁vrijedi	-9.74007
▁želio	-9.74033
▁sekundi	-9.74147
▁bolest	-9.7416
đe	-9.74163
▁uspješno	-9.74173
▁velikog	-9.74215
▁znakovi	-9.74267
▁nikako	-9.74298
▁show	-9.74318
▁tomislav	-9.74396
?.	-9.74428
▁drugima	-9.74574
▁pravu	-9.74634
▁veliko	-9.74645
ste	-9.74721
▁voda	-9.74727
▁vjeruje	-9.74743
▁kon	-9.74757
nika	-9.74788
▁josip	-9.74911
▁proizvodi	-9.74952
nost	-9.75054
▁rezultate	-9.75125
▁negdje	-9.75162
red	-9.75231
▁povijest	-9.75238
▁političke	-9.75263
▁pobijedio	-9.75334
▁poruke	-9.75341
▁finalu	-9.75365
▁ured	-9.75365
▁stranu	-9.75415
0	-9.75429
▁rijeci	-9.75501
▁nagrada	-9.75514
▁prošao	-9.75581
▁2013.	-9.75742
▁tisuće	-9.75822
▁kći	-9.75823
zna	-9.75826
šću	-9.75832
▁ubio	-9.75854
stva	-9.7589
▁roku	-9.75948
▁500	-9.76014
▁promet	-9.76152
▁sreću	-9.76225
rić	-9.76233
▁državni	-9.76329
▁službe	-9.76378
▁jedina	-9.76385
▁kola	-9.76416
▁11.	-9.76487
▁cijeni	-9.76648
▁pra	-9.76905
▁rezultati	-9.76908
▁vani	-9.76912
▁kaznu	-9.76964
bra	-9.77035
▁udara	-9.7716
▁para	-9.77237
hi	-9.77249
▁stari	-9.77286
▁podsjetimo	-9.77294
▁iznos	-9.77339
▁nastavlja	-9.77368
vr	-9.77399
nce	-9.77449
▁imaš	-9.77462
▁htjeli	-9.77607
▁njemačkoj	-9.77779
▁želja	-9.77797
▁slijedi	-9.77797
▁may	-9.77896
▁ostalih	-9.77908
▁vidim	-9.7794
▁in	-9.77946
▁uspjela	-9.78017
▁prodaje	-9.78132
▁stigla	-9.78183
▁dijela	-9.78185
▁he	-9.78192
▁završila	-9.78207
▁zanimljivo	-9.78243
the	-9.78308
▁pripreme	-9.78346
▁sviđa	-9.78357
▁otišla	-9.78429
▁otkrili	-9.78429
icom	-9.78656
god	-9.78666
▁osobno	-9.78717
▁njen	-9.78734
▁iskustva	-9.7876
▁govoriti	-9.78795
▁njegovog	-9.78867
▁pas	-9.78921
▁situaciju	-9.78925
▁tržištu	-9.79008
▁njegovih	-9.79296
bri	-9.79311
▁velikih	-9.79335
▁glavi	-9.79468
▁kioscima	-9.79508
▁cijela	-9.7951
▁tip	-9.79553
▁kakva	-9.79602
▁poznata	-9.79654
der	-9.7972
▁priopćenju	-9.79758
▁70	-9.79793
▁zaštitu	-9.79842
▁sezoni	-9.79843
▁obrane	-9.79844
▁veće	-9.79888
▁desetak	-9.79922
▁uzrok	-9.79936
▁proizvod	-9.79996
▁pokušao	-9.80101
▁rado	-9.80467
▁premijera	-9.80499
▁hajduka	-9.80556
el	-9.80658
▁vijeća	-9.80683
▁ministra	-9.80685
▁vraća	-9.80694
▁tata	-9.80818
▁udario	-9.80818
▁njihovim	-9.80838
▁apsolutno	-9.80846
▁rođen	-9.80907
▁pala	-9.80912
20	-9.80928
▁boli	-9.80938
▁nekako	-9.81024
▁nalaze	-9.81119
▁dovesti	-9.81191
▁mar	-9.81305
▁morate	-9.81349
▁kožu	-9.8138
▁el	-9.81452
▁zvijezde	-9.81463
▁sretni	-9.81473
▁radila	-9.81562
▁pobjeda	-9.81616
▁osjeća	-9.81696
▁morati	-9.81747
đa	-9.81755
▁vaše	-9.81831
▁mario	-9.8188
▁plaće	-9.81894
▁sutra	-9.82159
▁rijeke	-9.823
▁reprezentacije	-9.82385
▁proveo	-9.82387
▁želje	-9.82557
▁brak	-9.82584
▁festival	-9.82634
▁djevojčica	-9.82643
▁ukoliko	-9.82685
▁otkriva	-9.82688
▁rok	-9.82704
nosti	-9.82743
▁radili	-9.82757
▁programa	-9.82812
▁harry	-9.82826
▁teren	-9.82892
▁skupa	-9.82939
▁planu	-9.82986
▁poena	-9.83029
▁odigrao	-9.83049
▁troje	-9.83051
▁kolege	-9.83248
▁onima	-9.83383
▁trenutačno	-9.83406
▁45	-9.83498
▁bavi	-9.83553
▁misle	-9.83576
▁znate	-9.8361
▁preminuo	-9.83682
▁braku	-9.83684
▁sestra	-9.83705
▁broja	-9.83771
▁izazov	-9.83791
▁djeluje	-9.83812
▁službeno	-9.83819
▁podaci	-9.83985
▁star	-9.84028
▁vidjela	-9.84064
▁vrh	-9.84117
▁mlade	-9.84152
▁rodila	-9.84209
▁energije	-9.84218
▁bivšeg	-9.84252
ry	-9.84286
▁sestre	-9.84318
▁radu	-9.84359
▁posljedica	-9.84416
ner	-9.84475
▁odnose	-9.84531
▁mijenja	-9.84598
▁događaja	-9.84671
▁stol	-9.84707
▁iskreno	-9.8471
▁unije	-9.84756
stra	-9.84814
▁loptu	-9.84822
▁teške	-9.84832
▁odvjetnik	-9.84906
▁rijetko	-9.84961
era	-9.84966
▁nemojte	-9.8499
▁morala	-9.85022
▁ml	-9.85078
es	-9.85166
cijom	-9.85253
▁mail	-9.8531
▁idu	-9.85323
▁boji	-9.85337
▁festivala	-9.85377
▁izjavila	-9.85444
▁stvara	-9.8545
▁pokazali	-9.85455
▁svakodnevno	-9.85499
ho	-9.85519
▁njegovoj	-9.85521
▁sobom	-9.85529
▁koncert	-9.85607
▁sretan	-9.85625
▁zaštiti	-9.85743
raz	-9.85767
▁nasilje	-9.85794
▁vodio	-9.85837
▁vrijednost	-9.85921
▁ulje	-9.85929
▁nikakve	-9.8597
▁različite	-9.85976
▁kolega	-9.8601
▁natječaja	-9.86033
▁udruge	-9.86063
▁ujedno	-9.86078
▁vikend	-9.86091
▁sklopu	-9.86094
▁situacije	-9.86148
▁mišljenje	-9.86237
▁ženu	-9.86263
▁27	-9.86281
50	-9.86286
▁vjerovati	-9.86418
▁poziva	-9.86436
dan	-9.86454
▁ikad	-9.86475
▁onoga	-9.86539
▁nudi	-9.86557
▁sport	-9.86587
ton	-9.86673
▁pažnju	-9.86774
▁češće	-9.86776
▁15.	-9.86887
▁razgovor	-9.86932
▁ubojstvo	-9.87044
▁vrste	-9.87051
▁sol	-9.87124
▁takvih	-9.87149
▁granice	-9.87151
▁strana	-9.87308
▁tražiti	-9.87339
▁napadač	-9.87358
▁radnika	-9.87376
▁kose	-9.87393
▁siguran	-9.87499
▁ob	-9.87601
▁državi	-9.87675
kov	-9.87693
ly	-9.87715
▁leđa	-9.8778
▁zatvoru	-9.87795
at	-9.8782
▁21.	-9.87827
▁kakve	-9.88041
▁britanski	-9.88048
▁28	-9.88054
▁nekoga	-9.88103
▁obliku	-9.88136
▁vladi	-9.88239
ber	-9.88375
▁projekta	-9.88433
▁europskih	-9.88478
▁13.	-9.88501
lija	-9.88551
kla	-9.88589
▁pokušava	-9.88647
▁zaštite	-9.88676
▁šećer	-9.88689
▁izgubila	-9.88774
▁jednim	-9.88798
▁vama	-9.88834
▁trudnoće	-9.88859
▁zasad	-9.88866
▁per	-9.88867
▁dnevno	-9.8887
▁želiš	-9.88877
▁našu	-9.88908
▁sadrži	-9.88977
▁pop	-9.88993
▁j	-9.88997
▁liječenje	-9.89075
▁rh	-9.89095
▁poslao	-9.8912
▁jo	-9.89162
▁nogometaš	-9.89167
▁vrhu	-9.89174
▁međunarodn	-9.89182
ev	-9.89185
▁naglašava	-9.89215
▁snagu	-9.89236
▁nevjerojatno	-9.8926
▁osvojila	-9.89311
čki	-9.89334
▁državnog	-9.89338
▁proći	-9.89399
▁petra	-9.89441
▁poraz	-9.89448
▁studija	-9.89472
▁njihovih	-9.89475
▁nesreći	-9.89503
▁sanja	-9.89567
it	-9.89633
▁sezona	-9.89638
▁platiti	-9.89706
▁podacima	-9.89745
▁interesa	-9.89791
▁knjiga	-9.89923
▁pokušaj	-9.89997
▁lani	-9.9008
▁županije	-9.90159
▁žao	-9.9018
▁postane	-9.90269
▁split	-9.90372
▁80	-9.90376
▁sporazum	-9.90401
▁ceste	-9.90435
▁istom	-9.90466
▁tjedana	-9.90482
▁provodi	-9.90615
▁baka	-9.90681
▁prijateljima	-9.90861
▁europskog	-9.90873
▁umro	-9.90938
▁politike	-9.9099
▁sir	-9.91051
▁sljedeće	-9.91106
▁mesa	-9.91121
▁ve	-9.91123
▁pokazalo	-9.91176
njima	-9.91192
▁tražio	-9.91226
▁ot	-9.91235
▁ljeta	-9.9127
▁zove	-9.91324
▁najveće	-9.91324
▁našli	-9.91358
▁jelena	-9.91465
▁zastupnik	-9.91512
▁slavi	-9.91522
▁skupina	-9.91549
!.	-9.91631
▁njihovi	-9.91671
▁svako	-9.91786
▁sastojci	-9.91796
▁liječnika	-9.91911
▁modela	-9.91911
▁odlazak	-9.9193
▁test	-9.91947
▁nada	-9.9204
os	-9.92125
▁33	-9.92167
▁autor	-9.92238
▁uživati	-9.92243
▁održava	-9.92253
▁savršeno	-9.92269
dom	-9.92298
▁znaš	-9.92341
▁grama	-9.92407
▁donio	-9.92471
▁četvero	-9.92492
▁dogodi	-9.92605
▁prošlo	-9.92616
▁polu	-9.92692
▁26	-9.92792
▁trend	-9.92792
igra	-9.92808
▁najbolja	-9.92848
▁odličan	-9.92881
▁večer	-9.92995
nić	-9.92999
▁volio	-9.93067
▁sezonu	-9.9307
▁sumnja	-9.93089
▁interes	-9.93195
▁navijača	-9.93291
▁20.	-9.93342
▁tvrtki	-9.93357
▁magazina	-9.93362
▁hnl	-9.93453
ns	-9.935
▁napravila	-9.93504
▁temelju	-9.93519
▁david	-9.93549
irati	-9.93554
▁150	-9.93575
▁tvoje	-9.93599
▁donijeti	-9.93607
▁novinarima	-9.93649
▁teže	-9.93656
▁odnosa	-9.93699
▁znanja	-9.93769
▁web	-9.93817
▁2012.	-9.93837
▁gleda	-9.93866
jer	-9.9388
▁sp	-9.93942
tre	-9.93953
▁našoj	-9.93994
▁vijesti	-9.94115
▁smjeru	-9.94119
▁govor	-9.94124
▁pratiti	-9.94134
nt	-9.94283
▁br	-9.94294
▁tema	-9.94388
▁prosinca	-9.94417
▁većinu	-9.94438
▁saznaj	-9.94453
per	-9.94557
▁lagano	-9.94607
▁bra	-9.94611
▁natječaj	-9.94661
▁međuvremenu	-9.94707
▁treće	-9.94718
▁fe	-9.94759
▁glumi	-9.94771
▁detalje	-9.94773
...'	-9.94897
▁borbu	-9.94911
▁zadnje	-9.94921
▁nemoguće	-9.9509
▁ostalim	-9.95114
▁igru	-9.95236
▁njemačke	-9.95292
▁go	-9.9534
▁ligu	-9.95356
▁doslovno	-9.95391
ite	-9.95411
▁brojni	-9.95445
▁ce	-9.95553
▁city	-9.95578
▁manchester	-9.95585
▁tzv	-9.95587
rom	-9.95647
▁uhićen	-9.95652
▁izlazi	-9.95653
tak	-9.95666
▁igrali	-9.95764
▁nastavak	-9.95784
▁razvija	-9.95822
▁ovisi	-9.95835
▁suradnji	-9.9588
▁gubi	-9.95895
vala	-9.95932
vanju	-9.95942
▁polako	-9.95962
▁zoran	-9.96043
▁mom	-9.96052
▁uživa	-9.96095
▁listi	-9.96133
▁medije	-9.96153
▁najvažnije	-9.96252
▁srbiji	-9.96282
▁dječaka	-9.96336
▁pregled	-9.96419
▁vatrogasci	-9.96471
eve	-9.96475
▁mreže	-9.96572
▁parlamentu	-9.96642
▁sadržaj	-9.96646
10	-9.96683
▁čija	-9.9685
▁cijelog	-9.96866
▁w	-9.96888
▁puni	-9.969
kao	-9.96936
▁čuo	-9.96975
▁ravnatelj	-9.96984
▁pitao	-9.97144
▁x	-9.97195
▁showu	-9.97295
▁razne	-9.97383
▁14.	-9.97451
▁krenula	-9.97526
▁otvoreno	-9.97584
▁sigurni	-9.9766
▁bivša	-9.97665
▁rasta	-9.97696
▁kuha	-9.97696
▁dobri	-9.97727
▁maja	-9.97746
▁ekipa	-9.97765
▁kapetan	-9.97765
▁sprema	-9.9779
▁oboje	-9.97868
▁stavlja	-9.97876
▁objavili	-9.97981
▁euro	-9.98012
▁zagrebačkom	-9.98018
▁lista	-9.98131
▁kamen	-9.9815
▁počelo	-9.98404
grad	-9.98492
▁komentara	-9.98532
▁izuzetno	-9.98767
▁sav	-9.98817
▁mandata	-9.98934
▁ozljeda	-9.9895
▁djecom	-9.98974
ob	-9.98974
▁glave	-9.98974
▁kriv	-9.98981
▁podsjeća	-9.99002
▁policiju	-9.99078
▁ostane	-9.9908
▁proizvode	-9.99096
▁boda	-9.9914
▁policajci	-9.99153
▁ivo	-9.99326
▁kandidata	-9.99369
▁izašao	-9.9938
▁prvenstva	-9.99584
▁hrvatskim	-9.99598
▁čije	-9.99621
▁kate	-9.99709
▁milijarde	-9.99716
▁slobodno	-9.99749
▁sumnje	-9.99758
▁bebe	-9.99775
.000	-9.99848
op	-9.99879
▁ar	-9.99909
ps	-9.99913
▁održati	-9.99978
▁pitali	-9.99991
▁luke	-10
▁znanosti	-10.0001
▁saboru	-10.0003
▁mjeri	-10.0007
▁stres	-10.0009
sp	-10.001
log	-10.0011
▁tro	-10.0018
▁posve	-10.0021
▁marija	-10.0023
▁naziva	-10.0028
▁natjecanja	-10.003
▁američke	-10.003
▁operacije	-10.003
▁riješi	-10.0046
▁nisi	-10.006
▁osobu	-10.0061
▁rješenja	-10.0061
▁slučajeva	-10.0063
▁priznati	-10.0066
▁nazvao	-10.0066
▁vodom	-10.007
▁igraju	-10.0072
sve	-10.0073
▁članica	-10.0074
▁portal	-10.008
▁žlice	-10.0082
▁čast	-10.0083
▁takvim	-10.0083
▁roditeljima	-10.0085
▁europskom	-10.0086
▁suprugom	-10.0086
▁zgrade	-10.0092
▁prilika	-10.0102
▁domu	-10.0105
▁banke	-10.011
▁srpske	-10.0113
▁18.	-10.0126
▁aviona	-10.0129
▁išao	-10.0129
▁istaknula	-10.0133
▁osjećam	-10.0136
▁prvak	-10.0139
▁sredstva	-10.0144
▁organizacije	-10.0144
fe	-10.0151
ley	-10.0153
▁most	-10.0155
▁izaći	-10.0159
ana	-10.0159
▁naglasio	-10.0164
▁njezino	-10.0167
nuti	-10.0167
▁gori	-10.0169
▁našao	-10.017
lica	-10.0171
▁stiže	-10.0175
▁twitteru	-10.0192
▁srpski	-10.0192
▁pjesma	-10.0194
lan	-10.0198
ića	-10.0198
▁vlast	-10.0199
▁navode	-10.0203
tr	-10.0209
▁prodaju	-10.0211
▁hu	-10.0211
▁bori	-10.0215
▁mog	-10.0217
▁važan	-10.0217
▁ber	-10.0226
▁područje	-10.0227
▁situaciji	-10.0227
▁kompanije	-10.0238
▁srednje	-10.0243
▁grupa	-10.0247
▁ista	-10.0248
▁igri	-10.0248
kako	-10.0252
▁29	-10.0255
den	-10.0258
▁nastavku	-10.0259
▁ozlijeđen	-10.0267
▁uzeo	-10.027
▁razgovarati	-10.0271
▁robert	-10.0273
▁kolu	-10.0273
▁papa	-10.0276
▁danima	-10.0277
▁med	-10.0279
▁smislu	-10.028
▁brže	-10.0281
▁vozača	-10.029
gra	-10.0297
▁oblik	-10.0299
▁njezinu	-10.0305
▁2011.	-10.0322
▁istrage	-10.0322
▁satima	-10.033
▁zida	-10.0332
▁status	-10.0334
čke	-10.0335
mer	-10.0337
▁pita	-10.0339
▁kreće	-10.0345
ljiv	-10.0352
▁mag	-10.0357
▁vidimo	-10.0364
▁prvenstvu	-10.0364
irao	-10.037
▁krenuli	-10.037
ndi	-10.0378
▁izbori	-10.0382
▁moraš	-10.0391
▁njihovom	-10.0403
▁kra	-10.0406
▁modni	-10.042
▁avion	-10.0426
bio	-10.0431
▁ugovora	-10.0432
▁početi	-10.0436
▁politiku	-10.0439
▁vozilo	-10.0444
▁poseban	-10.045
▁bog	-10.0452
▁fizički	-10.0458
▁šteta	-10.046
▁brine	-10.0462
▁ki	-10.0464
▁posljedice	-10.0471
tić	-10.0475
cama	-10.048
▁stupnjeva	-10.0482
▁svejedno	-10.0489
▁udar	-10.0489
24	-10.0493
▁ratu	-10.0495
▁postali	-10.0497
▁novinar	-10.0502
▁agencija	-10.0503
čka	-10.0511
▁beogradu	-10.0515
▁nogu	-10.0522
▁vratila	-10.0523
▁širi	-10.0523
▁igrače	-10.0526
▁zemljama	-10.0526
ot	-10.0526
gla	-10.0527
▁kome	-10.0528
▁čaj	-10.0529
stvo	-10.0536
por	-10.0537
▁trening	-10.0538
▁rep	-10.0541
▁profesor	-10.0543
▁potez	-10.0548
▁boris	-10.0549
▁stati	-10.055
▁32	-10.0554
▁mobitel	-10.0558
▁željko	-10.0559
il	-10.056
lji	-10.0561
▁duboko	-10.0561
▁prednost	-10.0564
▁protekl	-10.0566
▁odbora	-10.0567
▁utjecati	-10.0579
▁svjesni	-10.059
▁stil	-10.0599
▁otprilike	-10.0601
▁ok	-10.0615
▁knjizi	-10.0622
▁komentirao	-10.0623
▁dojam	-10.0625
▁16.	-10.0626
ven	-10.0631
▁ostavio	-10.0635
▁cijenu	-10.0644
▁piva	-10.0648
▁ponašanje	-10.0652
▁36	-10.0661
▁hrani	-10.067
▁sjećam	-10.0675
▁kontrolu	-10.0677
▁trenera	-10.0677
▁ž	-10.0679
▁val	-10.0687
▁upozorava	-10.0697
▁staviti	-10.0698
▁listu	-10.0698
▁udruga	-10.0708
▁najprije	-10.0711
▁radim	-10.0715
čni	-10.0727
▁pivo	-10.0734
▁svu	-10.0734
▁konferenciji	-10.0765
▁čitav	-10.0765
▁tra	-10.0769
▁igor	-10.077
▁nenad	-10.077
rin	-10.0774
▁hi	-10.0777
▁potrebna	-10.078
▁liverpool	-10.078
ur	-10.0787
▁voditi	-10.0787
▁dogovor	-10.0792
▁damir	-10.0796
▁post	-10.0806
stvu	-10.0807
▁sta	-10.0807
▁alkohola	-10.0811
▁vježba	-10.0812
ovoj	-10.0822
▁krv	-10.0825
nes	-10.0826
▁ša	-10.0826
▁svjetskom	-10.0827
▁mandat	-10.0838
▁zagrebački	-10.0839
▁vremenu	-10.0843
▁takvo	-10.0844
▁psa	-10.0844
ovih	-10.0846
▁završiti	-10.0848
dnjih	-10.085
▁magazin	-10.0853
•	-10.0854
''	-10.0857
▁oduvijek	-10.0867
▁pruža	-10.0869
▁pr	-10.0873
▁državne	-10.0876
▁kakvu	-10.0876
lov	-10.0877
▁dobru	-10.0878
▁krevetu	-10.0878
▁razvoja	-10.0879
▁&	-10.0881
ovog	-10.089
uz	-10.0895
▁liste	-10.0898
▁donosimo	-10.09
ek	-10.0906
▁var	-10.0911
▁mislio	-10.0913
▁razdoblju	-10.0921
▁politika	-10.0921
▁nikola	-10.0924
▁zračn	-10.0927
▁dvojica	-10.0934
▁kla	-10.0941
▁kompanija	-10.0943
▁uljanika	-10.0944
▁dobiva	-10.0948
▁moru	-10.0959
▁itekako	-10.0978
▁19.	-10.0982
▁17.	-10.0986
▁rod	-10.0987
▁samog	-10.099
▁ideje	-10.099
▁putovanja	-10.0991
▁tvoja	-10.0993
ed	-10.0999
▁glavna	-10.1
▁album	-10.1001
▁mira	-10.1001
godišnja	-10.1003
▁ši	-10.1005
▁razlika	-10.1012
▁daily	-10.1012
▁internet	-10.1046
▁uvjetima	-10.1053
▁podržava	-10.1056
▁hns	-10.1058
▁dug	-10.106
▁izjave	-10.1068
▁sliku	-10.107
▁mreža	-10.108
▁funkcionira	-10.1089
ty	-10.1091
rt	-10.1095
▁kojega	-10.1095
izam	-10.1099
▁slobodu	-10.1102
▁nedostaje	-10.1103
▁domaće	-10.1111
▁daju	-10.1116
▁povećava	-10.112
▁dali	-10.1128
▁slučajno	-10.1129
▁vozio	-10.1137
▁istog	-10.1138
▁kanal	-10.1153
▁stranci	-10.1154
▁online	-10.1154
▁prima	-10.1154
▁nećemo	-10.1156
ron	-10.1165
▁tržište	-10.1171
▁temperatura	-10.1172
▁problemi	-10.1185
kin	-10.1193
▁vremenom	-10.1194
ška	-10.1198
▁videostar	-10.1198
▁očekivati	-10.1206
▁pad	-10.1206
▁čuli	-10.1212
▁braka	-10.1217
▁ponudi	-10.123
▁brkić	-10.1231
▁vrt	-10.124
▁čelu	-10.1243
▁duže	-10.1245
▁zadru	-10.1247
▁jesti	-10.1249
▁sobi	-10.1249
▁prosvjed	-10.1253
▁prisjeća	-10.1253
▁proljeće	-10.1264
▁2010.	-10.1264
“.	-10.1267
▁svakoj	-10.1275
▁razgovoru	-10.1279
▁dulje	-10.1284
eg	-10.1284
▁sjajno	-10.1287
sje	-10.1287
▁novinara	-10.1293
▁kazna	-10.1294
▁osijek	-10.1296
▁mosta	-10.1304
▁če	-10.1309
▁ribe	-10.1312
što	-10.1317
▁manji	-10.1321
▁budi	-10.1322
ama	-10.1323
zo	-10.1326
▁čuva	-10.133
▁gra	-10.1331
▁odjeću	-10.1334
▁ge	-10.1335
▁ples	-10.1336
▁savjet	-10.134
▁boriti	-10.1344
▁voditeljica	-10.135
▁načina	-10.1351
▁naroda	-10.1361
▁kolo	-10.1362
▁trebaš	-10.1362
vom	-10.1363
▁mirko	-10.1364
▁skladu	-10.1366
▁internetu	-10.1378
▁zločin	-10.1379
▁ponudu	-10.1381
jev	-10.139
▁telefon	-10.1393
men	-10.1396
▁svjetske	-10.1397
▁moć	-10.1403
▁opasnosti	-10.1403
▁stigli	-10.1404
kra	-10.1406
▁kanalu	-10.1413
▁bur	-10.1415
▁autobus	-10.1417
▁jezik	-10.142
kon	-10.1422
tar	-10.1426
▁lijek	-10.1426
▁društvene	-10.1428
▁mozga	-10.1428
▁obrazovanja	-10.143
▁svoja	-10.1442
lice	-10.1443
▁rock	-10.1443
▁proglašen	-10.1445
▁stanu	-10.1446
▁popis	-10.1447
▁horvat	-10.1452
▁razinu	-10.1453
▁slike	-10.1457
▁sabora	-10.1461
▁radimo	-10.1466
▁javnog	-10.1466
▁odlazi	-10.1468
rina	-10.1485
▁zdravlja	-10.1488
▁va	-10.1488
▁uzeti	-10.1493
▁idemo	-10.1498
▁njemačka	-10.1499
▁postupka	-10.1499
▁sastanak	-10.1499
▁premda	-10.1499
▁takvu	-10.1499
ini	-10.1501
ona	-10.1509
▁mlada	-10.1518
▁ho	-10.1522
▁34	-10.1524
▁talent	-10.1526
▁intervju	-10.1527
▁pos	-10.1532
▁desetljeća	-10.1535
▁2020.	-10.1535
▁hrvata	-10.1539
▁odjednom	-10.1542
▁mozak	-10.1547
▁raznim	-10.1548
▁restoran	-10.1549
▁odmor	-10.155
▁roman	-10.1553
▁james	-10.1557
▁prednosti	-10.1561
▁priznala	-10.1566
godišnjeg	-10.1566
▁poslati	-10.1574
▁zajednice	-10.1583
▁gosti	-10.1583
▁policijski	-10.1587
▁tijeku	-10.1587
▁životinja	-10.1598
▁dečko	-10.1605
▁mogle	-10.1608
▁borba	-10.161
šen	-10.1614
▁povrće	-10.1616
▁izbornik	-10.1617
▁zagrebačke	-10.162
▁stanja	-10.162
▁mr	-10.1621
40	-10.1628
▁otišli	-10.1631
▁mnogih	-10.1631
▁korištenje	-10.1631
▁scene	-10.1632
▁seriji	-10.1638
▁licu	-10.1641
▁zadatak	-10.1643
▁snimke	-10.1643
’.	-10.1644
štu	-10.1651
▁iskoristiti	-10.1652
▁kolinda	-10.1655
▁postići	-10.1655
▁filip	-10.1664
▁bjelica	-10.1668
▁hrt	-10.1669
▁luci	-10.1669
nović	-10.1669
kić	-10.1671
▁ikada	-10.1675
▁glazbe	-10.1675
▁komad	-10.1679
jom	-10.168
▁selu	-10.1687
▁suprugu	-10.1687
▁chill	-10.1693
▁zauvijek	-10.17
▁presude	-10.1703
▁istovremeno	-10.1704
▁susreta	-10.1707
▁and	-10.1713
▁stariji	-10.1714
▁emisiji	-10.1716
▁tijesto	-10.1716
▁učinio	-10.1717
▁york	-10.1721
▁pret	-10.1726
▁ostatak	-10.1727
pra	-10.1729
ff	-10.1739
▁hrvati	-10.1739
▁prijave	-10.174
▁razlike	-10.1741
▁opcija	-10.1741
▁alkohol	-10.1749
▁izgubili	-10.1752
▁poginuo	-10.1752
ika	-10.1754
nski	-10.1756
gor	-10.1761
▁miss	-10.1764
▁vijeće	-10.1764
dra	-10.1771
pet	-10.1771
ški	-10.1776
▁prošla	-10.1777
▁čudno	-10.1777
▁38	-10.1789
▁trebamo	-10.1795
▁uvjete	-10.1797
nuo	-10.1801
▁dokaz	-10.181
▁marić	-10.1813
▁prvenstvo	-10.1814
▁shvatio	-10.1815
▁rekord	-10.1817
min	-10.1819
▁sinoć	-10.1819
▁institucije	-10.1823
▁ureda	-10.1829
▁cesti	-10.1829
nac	-10.1831
▁četvrti	-10.1832
▁vjeruju	-10.1835
▁del	-10.1847
ol	-10.1855
▁otkriti	-10.1856
▁dala	-10.1858
▁pojavila	-10.186
et	-10.187
we	-10.1871
▁sugovornik	-10.1875
▁strijelac	-10.1875
▁franjo	-10.188
mp	-10.1884
▁odbio	-10.1893
▁povodom	-10.19
put	-10.1906
▁rano	-10.1907
ren	-10.1912
▁čuti	-10.1912
▁prošlosti	-10.1913
id	-10.1913
▁upoznati	-10.1916
▁tr	-10.1919
▁važna	-10.1924
▁osigurati	-10.1927
▁kupio	-10.1927
▁majku	-10.1927
▁većinom	-10.1928
▁pratite	-10.1929
▁mnogim	-10.1932
▁provesti	-10.1937
▁europu	-10.1938
▁onog	-10.1944
▁spor	-10.1945
▁živio	-10.1948
▁ostavku	-10.1949
▁#	-10.195
ras	-10.1959
▁37	-10.196
▁građane	-10.1964
▁potvrdila	-10.1966
▁kandidat	-10.1971
▁otvorio	-10.1973
▁hrana	-10.1976
▁poslovni	-10.1977
▁spoj	-10.1981
▁let	-10.1981
▁kup	-10.1981
▁tražili	-10.1984
▁nikoga	-10.1986
▁ulazi	-10.1987
▁košta	-10.1988
▁nemamo	-10.1993
▁poraza	-10.1997
▁razdoblje	-10.1999
tko	-10.2001
▁kitarović	-10.2017
▁zrakoplov	-10.2021
▁smanjiti	-10.2023
▁kontakt	-10.2024
▁express	-10.2024
▁vozi	-10.2028
▁restorana	-10.2028
▁svojem	-10.2033
▁parlamenta	-10.2034
▁žalac	-10.2037
9,90	-10.2039
▁dinamov	-10.2039
▁luk	-10.2039
ali	-10.2043
▁razine	-10.2052
▁francuski	-10.2059
▁liječnik	-10.2059
▁mlijeka	-10.2062
▁agencije	-10.2062
plat	-10.2065
▁vrati	-10.2073
▁ženi	-10.2073
▁prolazi	-10.2073
▁nadzor	-10.2076
▁kazneno	-10.2077
▁martin	-10.2083
naj	-10.2089
▁intervjuu	-10.2094
▁pritisak	-10.21
▁okus	-10.2102
▁organizacija	-10.2102
▁kut	-10.2103
▁američkog	-10.211
▁publika	-10.211
▁usluge	-10.2112
▁knjigu	-10.2113
▁crne	-10.2121
▁suđenje	-10.2124
▁dobit	-10.2124
▁uključuje	-10.2125
▁istraga	-10.2126
▁državno	-10.2134
▁strašno	-10.2138
▁zraka	-10.2139
▁simbol	-10.2153
izma	-10.2154
▁spava	-10.2157
▁ovisno	-10.2158
▁dijelom	-10.2163
▁trenutka	-10.2163
▁zar	-10.2165
▁nesreća	-10.2166
▁mlijeko	-10.2176
▁utječe	-10.2176
san	-10.2176
ljen	-10.2177
▁znatno	-10.2188
▁ovakve	-10.2189
▁ivica	-10.2191
▁valja	-10.2193
sel	-10.2198
đen	-10.2199
▁generacije	-10.2214
▁gubitak	-10.2215
▁požara	-10.2224
▁mislila	-10.2226
▁pronašla	-10.2227
▁ze	-10.223
15	-10.2235
▁baviti	-10.2235
▁istu	-10.2236
▁pojavio	-10.2238
▁informacijama	-10.224
kre	-10.224
▁želji	-10.224
▁onako	-10.2242
▁korisnika	-10.2249
vić	-10.2251
▁poklon	-10.2252
▁gospodin	-10.2252
▁korist	-10.2256
gen	-10.2258
▁odlučiti	-10.2261
▁boju	-10.2262
▁kampanje	-10.2266
fu	-10.2266
▁izgledati	-10.2268
ist	-10.227
▁pokret	-10.2271
▁briga	-10.2271
▁ustvrdio	-10.2289
▁400	-10.2298
▁problemima	-10.2305
▁stadion	-10.2307
▁saveza	-10.2311
▁hotel	-10.2311
▁kor	-10.2312
▁zvuči	-10.2317
▁naslova	-10.2318
0.000	-10.2328
▁duga	-10.2331
▁kruh	-10.2331
▁zaključila	-10.2334
▁bernardić	-10.2336
nci	-10.2337
▁djevojčice	-10.2343
▁golman	-10.2343
▁pišu	-10.2345
▁građanima	-10.2345
▁zagrebačkog	-10.2346
ler	-10.2349
ger	-10.2349
▁naučiti	-10.2353
▁optužbe	-10.2356
▁kulture	-10.2356
▁marina	-10.2369
▁čokolade	-10.2369
▁mirno	-10.2369
jima	-10.2373
kad	-10.2374
ško	-10.2376
▁krug	-10.2377
▁princ	-10.2378
▁uvjeren	-10.2379
▁bira	-10.2381
▁razgovarali	-10.2382
▁vanjskih	-10.2387
▁pregleda	-10.2393
stav	-10.2394
▁očima	-10.2396
▁priznaje	-10.2397
uje	-10.2398
▁njihovog	-10.2403
▁uloga	-10.2403
▁ponuda	-10.2408
▁potvrdili	-10.2412
▁okolnosti	-10.2417
oko	-10.242
▁akcije	-10.2421
▁glasnogovornik	-10.2423
▁voće	-10.2423
so	-10.2426
▁društvenih	-10.2426
▁glavnog	-10.2433
▁osjećaju	-10.2439
▁ostaviti	-10.2439
▁kredit	-10.2444
kop	-10.2448
▁trenira	-10.2448
▁zadovoljni	-10.2456
▁otvoren	-10.2456
▁optužen	-10.2458
▁sredstava	-10.246
▁udarac	-10.2463
▁stavi	-10.2463
▁skrb	-10.2464
▁prave	-10.2464
▁očekuju	-10.2466
▁unos	-10.2469
▁njemački	-10.2472
▁potporu	-10.2473
▁savjetuje	-10.2474
▁bolja	-10.248
▁kine	-10.2482
▁ča	-10.2482
▁dodajući	-10.2488
▁michael	-10.2494
▁uprava	-10.2494
▁ruž	-10.2494
▁prometa	-10.2498
▁događaj	-10.2503
▁tekst	-10.2508
▁otpada	-10.2509
▁250	-10.2509
▁for	-10.2511
▁ondje	-10.2513
▁potiče	-10.2513
▁čudo	-10.2513
▁kina	-10.2518
rd	-10.2522
▁zrak	-10.2525
▁vuk	-10.2528
▁haljina	-10.2529
▁kombinacija	-10.2529
▁dodir	-10.253
ir	-10.2533
ya	-10.2534
▁otkaz	-10.2536
▁čekaju	-10.2537
▁veljači	-10.2539
▁dovodi	-10.2539
▁pričati	-10.2543
▁1991.	-10.2552
▁europska	-10.2552
▁kavu	-10.2554
▁juventus	-10.2561
▁mirovinu	-10.2565
▁tajna	-10.2566
ješ	-10.2568
let	-10.2569
▁pogledati	-10.257
▁čitajte	-10.258
▁koža	-10.2582
▁upoznao	-10.2586
▁putovanje	-10.2594
▁postaju	-10.2597
▁američka	-10.2605
▁prilike	-10.2607
▁75	-10.2607
▁preporučuje	-10.2608
▁mercedes	-10.2609
sen	-10.2612
▁postavlja	-10.2614
▁adresu	-10.2618
▁žu	-10.2619
▁pozornost	-10.2621
kli	-10.2621
▁komada	-10.2622
▁chef	-10.263
▁čišćenje	-10.2645
▁pomažu	-10.2645
▁2009.	-10.2645
▁pres	-10.2646
▁20-	-10.2646
▁prvim	-10.2653
▁dogodila	-10.2662
▁bre	-10.2664
▁pismo	-10.2668
▁koži	-10.2668
▁st	-10.2668
▁pobijediti	-10.267
▁kli	-10.2676
▁tj	-10.2679
bije	-10.2679
▁pot	-10.2679
▁shvatila	-10.2684
▁takvi	-10.2695
glas	-10.2695
▁moji	-10.27
▁zadržati	-10.27
▁martina	-10.2704
iranje	-10.2708
▁dijeli	-10.2709
▁pobjednik	-10.2709
▁haljinu	-10.2712
čević	-10.2712
▁igračima	-10.2713
▁brojnim	-10.2714
cha	-10.2721
▁reality	-10.2725
▁cijelom	-10.2725
▁povratak	-10.2726
▁vjenčanja	-10.2727
▁ču	-10.2736
▁osvojili	-10.2737
mar	-10.2737
▁političkih	-10.274
▁sporazuma	-10.2756
▁john	-10.2761
gan	-10.2766
▁brata	-10.2767
▁poznate	-10.2774
▁dečki	-10.2774
▁srušio	-10.2776
kar	-10.2777
▁savez	-10.2779
▁vladu	-10.2779
▁bmw	-10.2779
▁dres	-10.279
▁tjedno	-10.2795
han	-10.2796
▁unutra	-10.2804
▁ističu	-10.2806
▁klupi	-10.2806
▁teži	-10.2809
▁ulice	-10.2812
▁veseli	-10.2816
▁cm	-10.2821
▁servis	-10.2822
▁odluči	-10.2822
▁ostavlja	-10.2823
▁josipa	-10.2827
▁mjesecima	-10.2833
▁glavom	-10.2834
▁vožnje	-10.2834
▁životinje	-10.2834
▁težak	-10.2834
▁nemoj	-10.2835
▁glasa	-10.2836
▁naveo	-10.2839
▁sastav	-10.2843
▁jedni	-10.2846
▁rujna	-10.2847
▁2008.	-10.2848
▁sv	-10.2849
▁dokaza	-10.2854
▁općenito	-10.2855
▁zrakoplova	-10.2857
▁sok	-10.2859
▁držati	-10.2861
▁sceni	-10.2864
▁zastupnici	-10.2865
▁prethodno	-10.2869
▁francuske	-10.2874
▁poslove	-10.2875
▁želju	-10.2875
▁dobije	-10.2877
▁nogama	-10.288
▁novinare	-10.2884
▁stotine	-10.2888
▁srpnja	-10.2889
▁or	-10.2897
▁ben	-10.2901
▁prepun	-10.2907
▁usred	-10.2911
▁bivše	-10.2912
njak	-10.2914
▁pogodio	-10.2916
▁united	-10.2916
▁jeste	-10.2923
▁uzima	-10.2924
▁listopada	-10.2925
▁radnici	-10.2929
▁završi	-10.2929
▁darko	-10.293
▁ks	-10.2933
▁lak	-10.2937
▁pripadnici	-10.2938
▁krenuti	-10.2938
▁prof	-10.2949
ovac	-10.2951
▁šok	-10.296
žan	-10.2963
▁razgovora	-10.2967
▁pokušati	-10.2968
up	-10.2973
▁dnevnik	-10.2974
▁poručila	-10.2981
ret	-10.2983
▁osvojiti	-10.2983
▁prase	-10.2987
▁odnosima	-10.2991
▁bijele	-10.2992
▁veća	-10.2997
▁posjet	-10.2998
▁kvalitete	-10.2998
meta	-10.3009
▁temelj	-10.301
fo	-10.3015
slav	-10.3025
lin	-10.3026
▁otk	-10.3031
▁ući	-10.3034
▁plenkovića	-10.3037
▁prvenstveno	-10.3042
▁gr	-10.3042
nama	-10.3044
▁vaša	-10.3055
▁chelsea	-10.3059
▁23.	-10.306
fer	-10.306
▁potencijal	-10.3061
▁auta	-10.3062
▁paul	-10.3062
▁čula	-10.3064
▁bebu	-10.3071
▁65	-10.3076
bila	-10.308
▁lik	-10.3081
bar	-10.309
rk	-10.3094
▁temu	-10.3095
▁povjerenje	-10.31
▁120	-10.31
▁kovač	-10.3101
▁putnika	-10.3105
▁ronaldo	-10.3105
▁svibnju	-10.3109
▁suradnju	-10.3109
▁sudjelovati	-10.3113
chi	-10.3119
▁otok	-10.3119
▁mate	-10.3123
▁rođenja	-10.3123
▁postupku	-10.3123
▁posljednja	-10.3123
bor	-10.313
▁kre	-10.3132
▁pripada	-10.3137
▁dolazak	-10.3137
▁izlaska	-10.3138
▁trgu	-10.314
rio	-10.3142
▁određene	-10.3143
▁jaka	-10.3144
▁čekati	-10.3145
▁visoko	-10.3146
▁smanjen	-10.3149
wa	-10.3149
▁oružja	-10.3151
▁stranicama	-10.3156
▁teret	-10.3158
▁mogući	-10.3163
▁količine	-10.3165
▁nose	-10.317
▁pobijedila	-10.3177
▁poginulo	-10.3179
▁presudu	-10.3179
▁povremeno	-10.3182
▁drugačiji	-10.3183
▁1000	-10.3185
▁grudi	-10.3186
▁prijeti	-10.3187
▁brojnih	-10.3188
▁blago	-10.3191
▁kaznenog	-10.3197
▁kamion	-10.3197
▁snijeg	-10.3202
▁vodeći	-10.3203
▁prekida	-10.3217
▁iduće	-10.3221
▁smanjuje	-10.3222
▁brašna	-10.3222
▁državnom	-10.3223
▁održan	-10.3225
▁stare	-10.3228
▁položaj	-10.323
▁her	-10.3232
▁nogometa	-10.3232
▁ovakav	-10.3236
▁odjeće	-10.3236
▁str	-10.3236
▁zaboraviti	-10.3245
▁eto	-10.3245
▁dobrim	-10.3246
▁londonu	-10.3247
▁nekada	-10.3248
▁reakcije	-10.325
jan	-10.3252
▁smeta	-10.3252
▁povećanje	-10.3252
▁rani	-10.3256
▁plus	-10.3265
▁uskrs	-10.3268
▁sudionici	-10.327
▁opasnost	-10.3271
▁večernji	-10.3271
▁siječnju	-10.3278
▁kralj	-10.3279
▁nimalo	-10.3281
▁operacija	-10.3284
▁profil	-10.3287
▁ideju	-10.3289
▁gospodarstva	-10.3293
▁prostoru	-10.3298
land	-10.3303
▁djetetu	-10.3307
▁očiju	-10.3307
▁društveno	-10.3316
▁messi	-10.3321
▁broda	-10.3322
▁napravi	-10.3325
▁uživajte	-10.3326
▁zakonu	-10.3327
▁dražen	-10.3327
▁rezultata	-10.3328
▁spriječiti	-10.3329
▁srećom	-10.3335
▁upit	-10.3338
▁crveni	-10.3341
▁bri	-10.3342
90	-10.3342
▁30.	-10.3344
▁meč	-10.336
▁jutarnji	-10.3363
▁reprezentativac	-10.3364
▁vojske	-10.3364
▁42	-10.3366
▁natjecanje	-10.3372
čno	-10.3374
▁zadovoljan	-10.3379
▁presuda	-10.3379
▁različitim	-10.3389
▁trgovine	-10.3393
inu	-10.3403
▁trebate	-10.3405
gr	-10.3405
tt	-10.3407
▁pisao	-10.3408
▁rub	-10.3409
▁izravno	-10.3413
▁ostvariti	-10.3415
▁mnom	-10.3418
▁kakvo	-10.3419
▁domaći	-10.3425
▁vladimir	-10.3429
as	-10.343
▁mladića	-10.3432
▁(37)	-10.3436
▁barcelona	-10.3436
▁njena	-10.3444
▁stanovnika	-10.3444
▁odlaska	-10.3451
▁nikome	-10.3463
▁prosincu	-10.3465
▁bor	-10.3468
stan	-10.3472
▁bore	-10.3473
▁akciju	-10.348
▁22.	-10.3485
▁redatelj	-10.3486
▁kažem	-10.3486
▁mjestima	-10.3489
▁večeras	-10.35
▁željela	-10.3501
▁svojeg	-10.3502
▁pronašao	-10.3508
▁ušla	-10.3509
▁odabir	-10.3518
zija	-10.3521
▁žrtava	-10.3523
▁sretna	-10.3523
▁prijatelje	-10.3525
▁ubiti	-10.3527
▁horoskop	-10.3532
▁loš	-10.3533
▁rusiji	-10.3539
▁čin	-10.3542
▁nekome	-10.3545
▁oružje	-10.3545
▁48	-10.3545
čkog	-10.3547
▁pokušali	-10.355
▁objave	-10.3552
▁recimo	-10.3556
▁počne	-10.3558
▁svježe	-10.3558
▁međusobno	-10.3559
▁pije	-10.3566
▁ponude	-10.3567
▁živ	-10.357
vat	-10.357
▁razvoju	-10.3573
▁raznih	-10.3573
▁doznajemo	-10.3574
▁spomen	-10.3576
▁gen	-10.3577
ker	-10.358
▁vjetar	-10.3581
▁učinak	-10.3582
▁zločina	-10.3583
▁živjela	-10.3583
▁javne	-10.3584
ris	-10.3589
pali	-10.3592
▁sigurna	-10.3596
▁temperature	-10.3596
▁2-0	-10.3596
▁komisije	-10.3596
stu	-10.36
nta	-10.3602
▁mislili	-10.3604
▁maj	-10.3607
▁gri	-10.3609
▁crkva	-10.3611
▁materijala	-10.3614
▁pilot	-10.362
ll	-10.3621
▁splita	-10.3629
▁rastu	-10.363
▁spasiti	-10.3633
▁slučajevima	-10.3634
▁skup	-10.3635
▁ruci	-10.3641
▁rođena	-10.3649
▁povjerenstvo	-10.3655
kupi	-10.3655
▁energiju	-10.3658
▁fanovi	-10.3664
▁izgledaju	-10.3665
▁kombinaciji	-10.367
▁dolaska	-10.367
▁stručnjaka	-10.3674
▁istočn	-10.3676
▁potpisa	-10.3678
▁proba	-10.3681
▁sportski	-10.3681
▁uspjeha	-10.3683
▁americi	-10.3685
▁doktor	-10.3686
▁odvija	-10.3686
▁odgovorila	-10.3687
▁smjesu	-10.3699
▁spremna	-10.3699
▁započeo	-10.3699
▁slobode	-10.3699
▁uistinu	-10.3699
▁birača	-10.3701
▁europa	-10.3706
▁vino	-10.3712
▁naprosto	-10.3714
godišnjaka	-10.3716
▁kino	-10.3716
▁ver	-10.3718
▁bayern	-10.3726
▁obožavatelji	-10.3727
ovim	-10.3729
▁2007.	-10.3729
▁stručnjak	-10.373
▁pale	-10.3735
▁mjesečno	-10.3743
▁ručak	-10.3745
▁opće	-10.3749
▁zajednički	-10.3752
▁osjećati	-10.3754
▁vratili	-10.3754
▁lav	-10.3754
▁europskim	-10.3756
▁podrška	-10.3759
▁štetu	-10.376
▁pokraj	-10.3764
▁prirodno	-10.3765
▁tebi	-10.3769
▁reakcija	-10.3774
▁moju	-10.3776
ant	-10.3777
nke	-10.3784
▁većini	-10.3787
▁odvjetništvo	-10.3789
▁park	-10.3789
▁udaljen	-10.3789
▁podu	-10.3793
ilo	-10.3794
▁slučaja	-10.38
▁ljubi	-10.3805
▁britaniji	-10.3819
▁publike	-10.3819
▁izrazito	-10.382
▁serija	-10.3823
▁fazi	-10.3824
▁mijenjati	-10.3827
▁mjera	-10.3827
uju	-10.3834
▁obožava	-10.3844
▁promatra	-10.3846
▁ministarstvu	-10.3851
▁skokova	-10.3851
▁radom	-10.3853
▁humanitarn	-10.3855
isti	-10.3855
▁stvarima	-10.3857
▁pobijedili	-10.386
▁vlastite	-10.3864
▁jandroković	-10.3864
kama	-10.3866
▁teška	-10.3871
▁hotela	-10.3872
oz	-10.3874
▁proizvodnje	-10.3876
▁ušli	-10.3878
▁sabor	-10.388
▁učenika	-10.3885
▁baca	-10.3887
▁bend	-10.3892
▁publiku	-10.3894
▁kampanju	-10.3894
star	-10.3895
▁55	-10.3895
▁31	-10.3899
▁europskoj	-10.3902
▁krov	-10.3903
▁uskok	-10.3906
▁odbija	-10.3908
kova	-10.3909
▁vlasništvu	-10.3909
▁legendarni	-10.3914
ban	-10.3916
▁modrić	-10.3923
▁svjestan	-10.3924
▁kbc	-10.3925
▁vučić	-10.3926
▁kraljevsk	-10.3927
▁svjetlo	-10.3927
▁prsten	-10.3933
▁we	-10.3933
▁rukom	-10.3938
▁desno	-10.3945
▁osobi	-10.3946
▁žrtva	-10.3947
▁smiju	-10.3948
▁jača	-10.395
?!	-10.395
▁komentirati	-10.3953
▁prehrane	-10.3955
▁situacijama	-10.3959
gar	-10.3959
▁dodati	-10.3959
rs	-10.3959
▁hitno	-10.3964
▁pjeva	-10.397
▁zadovoljstvo	-10.397
▁čisti	-10.3974
▁svjetskih	-10.3983
▁utvrđeno	-10.3985
▁objavljuje	-10.3985
▁reprezentaciju	-10.3985
slu	-10.3986
▁sadržaja	-10.3987
▁trag	-10.3988
▁najgore	-10.3988
▁vjenčanje	-10.3989
▁doživio	-10.399
▁dogodio	-10.399
joj	-10.3996
▁kardashian	-10.4
▁sudjelovao	-10.4
▁zaključuje	-10.4
▁italiji	-10.4
▁regiji	-10.4001
▁hotelu	-10.4002
▁dođu	-10.4004
▁prijenos	-10.4005
▁nba	-10.4007
nda	-10.4008
▁iznosu	-10.4017
▁željeli	-10.4021
▁cro	-10.4022
▁hana	-10.4023
▁ugodno	-10.4026
▁prometne	-10.4026
▁institucija	-10.403
▁engleski	-10.4031
▁sredinom	-10.4032
▁američkih	-10.404
▁los	-10.4042
▁nastavi	-10.4042
▁drže	-10.4045
▁masti	-10.4049
▁mol	-10.4051
▁ulozi	-10.4052
▁hrvatsko	-10.4054
▁fran	-10.4059
▁znaka	-10.4059
▁emisije	-10.4062
▁tvari	-10.4062
▁pokušavaju	-10.4064
▁sustavu	-10.4066
▁nu	-10.4066
▁trud	-10.4069
▁seksualno	-10.4074
▁zamisliti	-10.4074
▁shvatiti	-10.4076
▁zadužen	-10.4077
▁veću	-10.4078
▁odgovornosti	-10.4082
▁tajnik	-10.4087
▁nosila	-10.4089
▁zahtjeva	-10.4092
▁smisla	-10.4092
▁ruski	-10.4101
▁zahtijeva	-10.4101
dar	-10.4102
▁kave	-10.4103
▁direktno	-10.4107
▁operaciju	-10.4108
cem	-10.4114
▁26.	-10.4125
▁liječenja	-10.4125
▁zagrebačkoj	-10.4126
rne	-10.4128
mr	-10.4137
▁travnju	-10.4139
▁pluća	-10.4139
▁sigurnosn	-10.4141
▁išla	-10.4141
var	-10.415
▁činjenice	-10.4154
▁izlazak	-10.4156
▁božić	-10.4157
▁imenom	-10.4161
▁datum	-10.4162
▁incident	-10.4167
▁kategoriji	-10.417
prije	-10.4173
▁otvara	-10.4173
▁istodobno	-10.4185
▁koncept	-10.4185
▁prijateljica	-10.4186
▁dalić	-10.4187
▁ponovo	-10.4191
▁ostavite	-10.4198
▁pravosuđa	-10.4201
▁pozdrav	-10.4203
jka	-10.4205
jo	-10.4208
▁organizira	-10.4208
▁prihvatiti	-10.4214
▁gradonačelnika	-10.4215
▁sjedi	-10.4216
▁vođa	-10.4217
tru	-10.4231
▁menadžer	-10.4231
▁jugoslavije	-10.4232
▁slične	-10.4232
▁temelji	-10.4238
▁vrhunski	-10.4239
▁sha	-10.4244
▁41	-10.4245
▁še	-10.4248
▁posudi	-10.4249
▁pokreta	-10.425
▁malih	-10.4251
▁bod	-10.4254
▁kaznen	-10.4255
▁izgubiti	-10.4265
▁člana	-10.4265
▁brend	-10.4268
▁gostima	-10.427
▁akcija	-10.4271
nicom	-10.4275
▁susjed	-10.4276
▁poziciju	-10.4279
▁stavio	-10.428
▁sobu	-10.4281
▁maksimiru	-10.4288
▁financija	-10.4288
▁poremećaj	-10.4294
▁duh	-10.4294
▁glazbu	-10.4295
▁titulu	-10.4295
▁proračuna	-10.4296
▁krivi	-10.4301
▁vo	-10.4304
▁trudna	-10.4308
▁predmet	-10.4313
▁relativno	-10.4317
▁gradi	-10.4323
▁preuzeo	-10.4326
čiti	-10.4334
▁generacija	-10.4335
zan	-10.4337
▁visoke	-10.434
▁ožujku	-10.4342
▁verzija	-10.4343
▁transfer	-10.4345
bit	-10.4345
par	-10.4348
▁proizvodnju	-10.4349
▁temelje	-10.435
▁+	-10.4352
25	-10.4355
zer	-10.4358
rez	-10.4359
▁straha	-10.436
▁popularni	-10.4363
▁zadar	-10.4373
▁dvadeset	-10.4378
▁stana	-10.438
▁krevet	-10.4386
▁hladno	-10.4387
▁haljine	-10.439
▁kvalitetu	-10.439
▁namirnice	-10.439
▁donijela	-10.439
samo	-10.4393
▁ispunjen	-10.4395
▁našla	-10.4398
▁stranice	-10.44
▁ostavi	-10.4403
▁emocije	-10.4406
▁navrata	-10.4406
din	-10.4407
▁tretman	-10.4409
▁unutarnjih	-10.4411
▁materijal	-10.4414
▁omogućiti	-10.442
▁droge	-10.442
▁ćorić	-10.4422
▁prodaji	-10.4422
▁razmišlja	-10.4427
nske	-10.443
▁križ	-10.4431
▁državu	-10.4438
▁vježbe	-10.4438
▁leđima	-10.4438
▁žlica	-10.4438
▁nogometni	-10.4438
▁promijenio	-10.4444
▁papir	-10.4448
▁pazi	-10.4449
▁provela	-10.4454
▁događaju	-10.4454
▁otvoriti	-10.4458
▁gi	-10.4459
▁trumpa	-10.4464
▁granica	-10.4466
▁službeni	-10.4468
▁sukoba	-10.4469
▁odlična	-10.447
wi	-10.4474
▁kosa	-10.4475
▁29.	-10.4476
!"	-10.4478
▁upoznali	-10.448
▁otoku	-10.4481
▁vara	-10.4481
▁pobjedom	-10.4486
▁točnije	-10.4486
▁28.	-10.4493
▁fakultet	-10.4503
▁mame	-10.4513
▁vatrogasn	-10.4518
▁izašla	-10.4518
▁fu	-10.4524
▁srbija	-10.4525
nova	-10.4526
▁služi	-10.4527
▁namirnica	-10.4527
▁zaustaviti	-10.4529
ut	-10.453
▁takvog	-10.4531
▁preuzeti	-10.4532
▁gledao	-10.4538
▁nastala	-10.4539
▁potpisao	-10.4541
▁paket	-10.4541
▁pamet	-10.4543
▁nos	-10.4546
rac	-10.4547
▁pokušala	-10.4548
▁nesreću	-10.455
▁fotografijama	-10.4556
▁komentar	-10.4557
▁nosio	-10.456
▁prijevoz	-10.4562
▁dnevni	-10.4563
é	-10.4566
▁otoka	-10.4567
▁doveo	-10.4568
▁gor	-10.4569
▁jezika	-10.4575
▁sjeća	-10.4577
▁izvući	-10.4577
▁reda	-10.4577
▁efekt	-10.4577
▁44	-10.4577
▁standard	-10.4579
▁osobnih	-10.4579
▁penal	-10.458
▁mamić	-10.4582
▁spavanje	-10.4583
▁volje	-10.4583
▁donald	-10.4588
▁25.	-10.4589
▁zasigurno	-10.4591
▁starije	-10.4593
▁piće	-10.4597
▁primjerak	-10.4597
▁stara	-10.4598
▁rečeno	-10.4602
▁puca	-10.4603
▁prozor	-10.4604
▁trenucima	-10.4604
▁en	-10.4614
▁prijavu	-10.4615
▁roditelje	-10.4615
▁led	-10.4616
▁pla	-10.4618
▁čvrsto	-10.4619
čna	-10.4619
▁samom	-10.462
▁osjećala	-10.4624
▁otvorena	-10.4624
▁kineski	-10.4627
čkom	-10.4634
▁slavio	-10.4637
▁kamo	-10.4637
▁maslaca	-10.4642
▁naprijed	-10.4647
▁njezini	-10.4652
▁snimanja	-10.4655
▁milana	-10.4657
▁mladen	-10.466
▁njime	-10.4663
▁količinu	-10.4664
▁pobjegao	-10.4664
▁troškove	-10.4664
▁stranku	-10.4665
▁sunce	-10.4667
▁uzor	-10.4668
▁drama	-10.4671
▁nizu	-10.4672
▁kg	-10.4673
▁predstavnici	-10.4674
pos	-10.468
▁blizanci	-10.468
▁sadrže	-10.468
▁yorku	-10.4686
▁sc	-10.4688
▁lijepa	-10.4689
▁prate	-10.4691
▁prioritet	-10.4696
nk	-10.4698
▁župan	-10.4699
iran	-10.4701
▁uživo	-10.4701
▁bicikl	-10.4703
▁medijsk	-10.4706
▁pozitivno	-10.4708
▁general	-10.4709
▁pričao	-10.4709
▁puli	-10.471
▁filmova	-10.4713
▁gradova	-10.4718
▁napustio	-10.4722
▁grob	-10.4722
▁osijeku	-10.4723
▁korisnici	-10.4725
▁unaprijed	-10.4728
▁opreme	-10.4729
▁makar	-10.4732
▁bla	-10.4734
▁djevojku	-10.4745
▁troši	-10.4746
▁smatram	-10.475
▁pijan	-10.4753
olog	-10.4755
▁štiti	-10.4757
▁imat	-10.4761
▁mislite	-10.4762
▁sjajan	-10.4764
nio	-10.4768
eri	-10.477
bol	-10.4771
▁proračun	-10.4772
ad	-10.4772
▁stranaka	-10.4773
▁em	-10.4775
▁terena	-10.4776
▁43	-10.4777
▁traga	-10.4781
▁rob	-10.4782
▁živog	-10.4786
tina	-10.479
▁nađe	-10.4791
▁kalorija	-10.4795
▁marka	-10.4796
▁zaredom	-10.4796
▁2-1	-10.4797
▁slobodan	-10.4798
▁radije	-10.48
▁majčin	-10.4802
▁seksi	-10.4803
▁čelnik	-10.4805
▁izjava	-10.4806
▁bogat	-10.4809
▁užas	-10.4814
▁madrid	-10.4817
rnu	-10.4817
▁riba	-10.482
jet	-10.482
nj	-10.483
▁zatražio	-10.4831
▁peti	-10.4835
▁mup	-10.4836
▁ciljem	-10.4841
rica	-10.4844
▁snima	-10.4852
▁puna	-10.4852
▁markle	-10.4855
▁centimetara	-10.4859
▁dani	-10.4861
▁talijanski	-10.4863
▁dane	-10.4863
▁požurite	-10.4864
ovom	-10.4864
▁ostalog	-10.4865
▁osijeka	-10.4871
che	-10.4876
▁nestao	-10.4878
▁obranu	-10.4878
▁umak	-10.488
▁umjetnosti	-10.4889
▁horoskopsk	-10.489
▁istoj	-10.4895
▁istre	-10.4895
▁izvještaj	-10.4896
▁županija	-10.4896
▁dragi	-10.4898
▁automobilu	-10.4902
▁odgoj	-10.4902
▁opasno	-10.4907
▁jennifer	-10.4911
▁zdravstva	-10.4912
▁neslužbeno	-10.4914
▁tajne	-10.4918
▁postalo	-10.4919
▁činilo	-10.4927
▁izvješće	-10.4928
▁sreća	-10.4928
▁istragu	-10.4929
▁hoda	-10.493
▁njezinog	-10.4931
▁trumpov	-10.4932
▁spominje	-10.4933
sno	-10.4935
▁upozorio	-10.4936
▁krumpir	-10.4939
▁upoznala	-10.494
rati	-10.494
▁govorila	-10.4946
▁naziv	-10.4949
sk	-10.495
▁onim	-10.4951
▁prolaz	-10.4951
▁stoje	-10.4952
▁pusti	-10.4956
▁vjerujemo	-10.4963
▁lokalne	-10.4964
▁dim	-10.4966
▁namjerno	-10.497
ključ	-10.4971
▁krene	-10.4979
▁ponašanja	-10.4985
▁nastavila	-10.4986
▁prepoznati	-10.4987
radi	-10.4988
▁bok	-10.4988
▁pravom	-10.4989
▁šalice	-10.4992
▁započela	-10.4996
rat	-10.5002
▁količina	-10.5007
▁okoliša	-10.5014
▁fer	-10.5016
▁vrtić	-10.5017
▁brinuti	-10.5017
▁njezinom	-10.502
▁predstavio	-10.5023
▁kamp	-10.5026
▁tiska	-10.5028
▁(34)	-10.5029
▁istraživanju	-10.503
tica	-10.5033
pun	-10.5034
▁čudi	-10.5035
▁skupini	-10.5037
▁napao	-10.5043
▁najbolju	-10.5044
dio	-10.5046
nde	-10.505
▁dis	-10.5058
jeti	-10.506
▁idem	-10.5062
▁nerijetko	-10.5063
▁promjenu	-10.5063
▁nazivom	-10.5063
▁ulaznice	-10.5065
▁ratni	-10.5071
▁jutros	-10.5074
▁fakulteta	-10.5075
nov	-10.5075
▁učenici	-10.5075
▁jovan	-10.5078
▁hitne	-10.508
▁predsjednice	-10.508
▁izbjeći	-10.508
▁objaviti	-10.5085
▁onome	-10.5085
▁nato	-10.5086
▁fo	-10.5086
▁svađa	-10.509
▁planet	-10.5094
▁jak	-10.5097
▁limuna	-10.51
▁ključ	-10.5101
▁dino	-10.5102
▁doprinos	-10.5103
▁najboljeg	-10.5105
▁kolovoza	-10.5108
▁idealno	-10.5111
▁har	-10.5112
▁poluvremenu	-10.5114
jen	-10.5117
▁uloge	-10.5118
▁poslovanja	-10.512
q	-10.5123
▁pokušaja	-10.5125
▁ozlijedio	-10.5127
▁poslali	-10.5128
▁pomogao	-10.5131
▁max	-10.5131
▁nositelj	-10.5132
▁utrka	-10.5133
▁objavljena	-10.5134
▁leži	-10.5134
▁iznenađenje	-10.5138
▁voljela	-10.5139
▁nekoj	-10.5139
▁podijelila	-10.514
▁sna	-10.514
nca	-10.5141
▁mlađi	-10.5143
sna	-10.5143
que	-10.5145
▁pali	-10.5146
ita	-10.5147
▁znanje	-10.5148
▁nožem	-10.5152
▁karakter	-10.5153
▁vidjet	-10.5153
▁dj	-10.5155
▁govorili	-10.5158
▁javio	-10.516
▁izabran	-10.5165
▁žličice	-10.5166
▁najvjerojatnije	-10.5166
▁svrhe	-10.5166
▁brašno	-10.5166
▁bliski	-10.5167
▁pripremiti	-10.5169
▁potrebne	-10.5171
kinja	-10.5178
▁izjavu	-10.5183
▁vlastiti	-10.5189
gle	-10.5191
▁izaziva	-10.5193
▁uvjeti	-10.5194
▁39	-10.5195
čne	-10.5196
▁imale	-10.5197
▁dužnosti	-10.5199
▁dragan	-10.5199
mije	-10.5206
▁listopadu	-10.5207
▁petar	-10.521
▁poprilično	-10.521
▁djed	-10.5215
▁malu	-10.5215
▁razina	-10.5217
▁nadamo	-10.5217
▁suradnje	-10.5217
▁sposobnosti	-10.5218
▁vodstvo	-10.5218
▁objavljen	-10.5231
▁organizator	-10.5234
▁faktor	-10.5234
bla	-10.5235
▁cipele	-10.5235
ks	-10.5235
▁washington	-10.5235
▁gledatelja	-10.5237
▁nike	-10.5241
▁osobama	-10.5242
45	-10.5244
cka	-10.5244
pisa	-10.5246
▁lud	-10.5247
taj	-10.5252
▁pisali	-10.5253
▁očevid	-10.5253
evi	-10.5259
▁hitnu	-10.5259
▁nož	-10.5261
▁stanice	-10.5262
▁ubojica	-10.5269
▁dresu	-10.5271
▁kontrolira	-10.5272
▁ulazak	-10.5274
▁nogometaša	-10.5279
pred	-10.5279
▁domaćin	-10.5281
▁saborski	-10.5283
▁fotke	-10.5287
▁umrla	-10.5287
▁muškarce	-10.5288
nicama	-10.5294
▁rakitić	-10.5302
▁zlato	-10.5306
sad	-10.5311
pr	-10.5313
▁namjerava	-10.5322
▁gledali	-10.5325
▁tereti	-10.5327
▁rađa	-10.5332
▁crno	-10.5332
voj	-10.5336
▁vikenda	-10.5336
▁sanader	-10.5336
▁fond	-10.5338
▁nužno	-10.5339
▁plaću	-10.534
bl	-10.5341
▁konačnici	-10.5342
▁malim	-10.5344
▁županijskog	-10.5348
▁gost	-10.5354
▁napadu	-10.5355
▁snimio	-10.5355
▁jednostavan	-10.5356
▁osobne	-10.5356
▁posebnu	-10.5356
▁uspjeti	-10.5356
don	-10.5358
▁shvatili	-10.5358
▁referendum	-10.5359
▁supruge	-10.5359
▁kiša	-10.5361
▁otkad	-10.5361
ljenje	-10.5364
▁cor	-10.5366
▁mojoj	-10.5366
▁zatvorsk	-10.5369
▁jutro	-10.537
▁posebice	-10.5374
▁sukladno	-10.5378
▁(21)	-10.5379
▁jesi	-10.5381
▁šta	-10.5383
▁koš	-10.5384
▁isplati	-10.5384
▁usluga	-10.5386
un	-10.539
▁nedostatak	-10.5391
▁svrhu	-10.5392
▁takvom	-10.5392
▁studije	-10.5394
▁bob	-10.5396
nula	-10.5402
▁saznati	-10.5408
▁osnovne	-10.5409
▁politička	-10.5409
▁povrća	-10.5409
▁prijava	-10.5409
▁bbc	-10.541
▁meta	-10.5411
▁skriva	-10.5411
nskog	-10.5416
▁stranica	-10.542
▁gospođa	-10.5427
▁tehnologije	-10.5427
▁1-0	-10.5427
tz	-10.5427
oni	-10.5428
▁objavi	-10.5431
▁navijačima	-10.5434
▁ocijenio	-10.5436
▁mal	-10.5437
▁voziti	-10.5442
lina	-10.5444
▁posebna	-10.5444
▁identitet	-10.5444
rka	-10.5447
▁con	-10.5448
99	-10.545
▁šalje	-10.5451
▁treninga	-10.5452
▁liga	-10.5453
▁prijavio	-10.5457
▁slaven	-10.5458
iš	-10.546
▁studenom	-10.5462
▁bosansk	-10.5463
rn	-10.5464
▁odgovoriti	-10.5466
▁pogleda	-10.5466
▁simptomi	-10.5467
▁pošto	-10.5467
rana	-10.5467
▁nećete	-10.547
▁osigurava	-10.5476
njom	-10.5477
▁inicijative	-10.548
▁držao	-10.548
for	-10.548
ok	-10.5483
▁majstor	-10.5483
▁start	-10.5494
▁hlače	-10.5497
▁privremeno	-10.5498
▁županiji	-10.5499
vije	-10.55
lici	-10.5503
▁tre	-10.5515
▁koljena	-10.5516
▁jaje	-10.5518
▁stečaj	-10.5519
▁jači	-10.552
▁pažnje	-10.5523
▁parizu	-10.5525
▁brani	-10.5531
▁restrukturiranj	-10.5532
▁dijelove	-10.5533
▁sukob	-10.5538
▁stresa	-10.554
12	-10.554
▁pojašnjava	-10.5551
▁činjenicu	-10.5551
▁posjeta	-10.5552
▁tottenham	-10.5552
▁uslijed	-10.5563
▁stvoriti	-10.5564
▁crkvi	-10.5569
▁opisao	-10.5569
▁juri	-10.557
▁sudionika	-10.557
▁49	-10.5573
▁motora	-10.5574
▁telefona	-10.5577
▁zločine	-10.5584
▁voća	-10.5588
▁spot	-10.5591
nte	-10.5594
▁štete	-10.5596
▁pokrenuo	-10.5597
▁nina	-10.5598
ura	-10.5603
gre	-10.5604
▁pojma	-10.5607
▁šire	-10.5608
▁susjedi	-10.561
▁sobe	-10.5619
▁brinu	-10.5621
▁pobjedi	-10.5622
▁rijeku	-10.5622
▁stadionu	-10.5625
▁viđen	-10.5632
▁tru	-10.5638
▁državama	-10.5642
▁oku	-10.5646
▁objasniti	-10.565
▁trajati	-10.565
▁razvod	-10.5651
▁živjeli	-10.566
▁poroda	-10.5661
▁posvećen	-10.5662
▁odbor	-10.5663
tni	-10.5664
▁zakonom	-10.5664
▁obveza	-10.5672
▁procesa	-10.5674
by	-10.5674
▁barcelone	-10.5676
▁medicinske	-10.5676
▁mišljenja	-10.5676
▁poziciji	-10.5676
▁odavno	-10.5677
▁dizajn	-10.5678
▁savršen	-10.5681
eta	-10.5685
▁videu	-10.5686
bom	-10.5692
▁praktički	-10.5694
▁središtu	-10.5695
▁sjednice	-10.5695
nijih	-10.5698
▁radova	-10.5703
▁dvaput	-10.5704
rski	-10.5706
▁pobjeći	-10.5713
▁pušten	-10.5715
▁47	-10.5717
▁partnerom	-10.5718
▁bačić	-10.5719
▁heroj	-10.5728
▁okusa	-10.573
▁televiziji	-10.5731
▁sastanka	-10.5731
▁stup	-10.5735
▁pića	-10.5736
rna	-10.5738
▁scena	-10.5739
nata	-10.574
▁povećati	-10.5749
▁prirodi	-10.5749
▁kamere	-10.5749
▁dinamu	-10.5749
▁lipnju	-10.5751
▁prehrani	-10.5751
▁27.	-10.5755
▁tipa	-10.5757
▁bakterija	-10.5767
▁šansu	-10.5767
▁promijenila	-10.5768
▁trofej	-10.5773
▁utjecaja	-10.5774
ard	-10.5777
▁pečenje	-10.5782
▁67	-10.5787
▁pomiješajte	-10.5788
▁lijekova	-10.5791
▁crvene	-10.5794
▁zamijeniti	-10.5795
stava	-10.5796
▁trebale	-10.5797
▁ya	-10.5801
▁valjda	-10.5804
▁alat	-10.5806
ik	-10.5807
▁javnom	-10.5811
▁osigura	-10.5811
rni	-10.5812
▁primio	-10.5813
▁novinari	-10.5813
▁gura	-10.5814
▁30-	-10.5818
▁make	-10.5818
pan	-10.5819
ati	-10.5821
▁britanije	-10.5822
▁ionako	-10.5822
irani	-10.5823
▁tvrdio	-10.5826
▁žrtvama	-10.5831
▁morsk	-10.5837
icama	-10.5838
▁cilja	-10.5839
▁povjerenstva	-10.584
▁zlatko	-10.5841
▁2005.	-10.5841
▁pravilima	-10.5841
▁korištenja	-10.5844
▁dečka	-10.5845
▁prometu	-10.5847
▁završili	-10.5849
▁podnijeti	-10.5851
net	-10.5855
▁spavati	-10.5855
▁utrke	-10.5859
▁tenisice	-10.586
▁čitatelj	-10.5862
▁očekivanja	-10.5863
▁značajno	-10.5863
▁muž	-10.5865
▁organizatori	-10.5876
▁(29)	-10.5877
▁desert	-10.5877
▁opisuje	-10.5883
▁46	-10.5883
▁same	-10.5884
▁đ	-10.5888
▁poručuje	-10.5896
▁zaslužuje	-10.5896
▁kontrole	-10.5896
▁2004.	-10.5896
▁nikakvih	-10.59
▁turnira	-10.59
▁nacionalne	-10.5903
▁vlastitu	-10.5906
rek	-10.5906
':	-10.5907
▁tisuću	-10.5914
▁prekid	-10.5916
▁maksimalno	-10.5916
▁maksimir	-10.5928
tali	-10.5928
▁potres	-10.5928
▁neugodno	-10.593
▁zadra	-10.5931
▁francuska	-10.5933
▁tjelesne	-10.5933
▁troškova	-10.5933
▁imalo	-10.5933
▁nude	-10.5936
▁zdravo	-10.5936
▁maslac	-10.5936
▁kraljica	-10.5937
ile	-10.5939
▁ograničen	-10.594
▁putin	-10.5941
▁obrazovanje	-10.5943
▁prijavila	-10.5947
▁govora	-10.5947
▁sveučilištu	-10.5951
▁imovine	-10.5951
▁odvjetnika	-10.5951
▁idući	-10.5952
▁gledaju	-10.5954
▁cure	-10.5956
▁donese	-10.5958
▁priznanje	-10.5965
▁brexit	-10.5967
▁privlači	-10.597
▁mrežu	-10.597
▁postigao	-10.597
▁obrana	-10.5971
ers	-10.5971
▁vitamina	-10.5973
▁goriva	-10.5976
stro	-10.5976
▁prosvjeda	-10.598
irali	-10.5983
▁topli	-10.5984
▁up	-10.5985
▁završava	-10.5986
80	-10.5988
▁kur	-10.5989
▁gledatelji	-10.5991
▁wi	-10.5994
▁zdrav	-10.5994
▁bacio	-10.5996
▁vidite	-10.5996
▁skandal	-10.5996
▁podsjetio	-10.6004
▁organizatora	-10.601
▁domaćih	-10.6011
▁bandića	-10.6012
▁napustiti	-10.6017
▁istinu	-10.6019
▁namijenjen	-10.602
pati	-10.6023
▁obiteljske	-10.6023
▁brodogradilišta	-10.6029
rov	-10.603
▁prođe	-10.6032
▁autorica	-10.604
▁stilu	-10.6042
ljiva	-10.6043
▁potrebu	-10.6044
▁treća	-10.6046
▁održavanje	-10.6047
▁prometnoj	-10.6047
▁tadašnji	-10.6049
▁potaknuti	-10.605
▁pratitelja	-10.6051
▁pis	-10.6053
iranja	-10.6055
▁zaposlen	-10.6056
▁osobni	-10.6056
▁mark	-10.6057
▁bolova	-10.606
▁kini	-10.6062
▁procesu	-10.6066
ld	-10.6067
▁dječj	-10.6068
▁funti	-10.6073
ora	-10.6075
▁dječje	-10.6075
▁rujnu	-10.6082
▁organizaciji	-10.6082
▁političari	-10.6082
▁petković	-10.6095
▁kriminal	-10.6099
▁plasman	-10.6101
▁politici	-10.6101
▁31.	-10.6107
▁izdanju	-10.6107
▁vezano	-10.6108
▁kolegama	-10.6111
▁oštećen	-10.6112
▁2000	-10.6113
▁razred	-10.6117
▁polufinalu	-10.612
▁izašli	-10.612
res	-10.6121
▁zvuk	-10.6128
▁pogon	-10.6129
’,	-10.6131
▁američko	-10.6133
vaju	-10.6137
▁poticaj	-10.614
1.	-10.6142
▁un	-10.6143
▁mlađe	-10.6143
▁kredita	-10.6145
▁današnji	-10.6146
▁george	-10.6147
▁partneri	-10.6148
▁austriji	-10.6158
▁kampanja	-10.6158
pod	-10.6158
▁javljaju	-10.6159
▁linije	-10.616
▁mile	-10.6161
▁bazi	-10.6165
▁prilog	-10.6166
▁znaku	-10.6167
▁milijana	-10.6167
▁vlasnika	-10.6172
mail	-10.6173
▁uvid	-10.6173
▁napadača	-10.6175
▁školama	-10.6176
▁budite	-10.6178
▁detalja	-10.618
▁wa	-10.6182
▁potreban	-10.6183
▁pretjerano	-10.6185
▁stanica	-10.6185
▁sira	-10.6187
▁ispr	-10.6189
jeva	-10.619
▁kamera	-10.6192
pp	-10.6193
▁službi	-10.6196
▁1999.	-10.6196
▁vrat	-10.6201
▁fan	-10.6201
▁razmišljati	-10.6204
▁istim	-10.6204
▁policajac	-10.6205
▁tjera	-10.6206
▁obavlja	-10.6209
▁tržišta	-10.6215
▁croatia	-10.6215
▁nikakav	-10.6216
▁pitala	-10.6216
▁vlak	-10.622
iraju	-10.623
▁kune	-10.6242
ent	-10.6244
▁pernar	-10.6244
kitarović	-10.6244
▁miru	-10.6248
▁veličine	-10.6253
▁prešao	-10.6253
▁pozvali	-10.6258
šan	-10.6258
▁dob	-10.6261
▁snimljen	-10.6264
▁umu	-10.6264
▁rasp	-10.6267
ple	-10.6272
▁crijeva	-10.6272
▁potrazi	-10.6272
▁doručak	-10.6272
▁vatre	-10.6276
▁pjevačice	-10.6277
▁ostvario	-10.6277
▁organiziran	-10.6278
▁pripremi	-10.6278
▁oglas	-10.6281
▁političara	-10.6281
sni	-10.6287
▁naknade	-10.6291
▁pjesmom	-10.6291
▁predmeta	-10.6293
▁snimanje	-10.6293
bre	-10.6293
▁prezime	-10.6295
▁(26)	-10.6296
▁rez	-10.6296
▁poslijepodne	-10.6299
ser	-10.6301
▁zvijezdama	-10.6302
▁festivalu	-10.6303
▁fokus	-10.6307
▁radilo	-10.631
▁prirode	-10.631
▁goste	-10.6311
▁domagoj	-10.6311
▁divjak	-10.6311
▁vu	-10.6312
▁metra	-10.6313
▁scenarij	-10.6315
▁kreira	-10.6317
čku	-10.6319
▁prosjeku	-10.632
▁spavanja	-10.6322
▁ponavlja	-10.6323
▁naglo	-10.6328
▁sastojke	-10.633
▁svojedobno	-10.633
▁prestati	-10.633
▁rtl	-10.6331
vale	-10.6331
▁trećem	-10.6331
▁posjed	-10.6332
▁elektroničk	-10.6333
▁ponosan	-10.6333
▁sunčan	-10.6341
▁kat	-10.6346
▁jesam	-10.6348
vac	-10.6348
▁najboljim	-10.635
▁vrstu	-10.635
▁poslala	-10.6351
▁krivo	-10.6354
jeg	-10.6357
▁djeluju	-10.6357
▁susretu	-10.636
▁roko	-10.6362
▁predstavljaju	-10.6366
liti	-10.6367
▁mreži	-10.6368
▁tradicionalno	-10.6368
▁times	-10.637
▁vidjelo	-10.6371
bje	-10.6372
▁komentare	-10.6373
▁sretno	-10.6376
▁hrvat	-10.6379
▁čisto	-10.6386
▁idealan	-10.6389
▁otpor	-10.6392
▁vašem	-10.6395
▁bave	-10.6399
▁dobivaju	-10.6401
▁mil	-10.6402
▁dijelovima	-10.6406
▁dvorištu	-10.6407
bili	-10.6408
▁daniel	-10.641
vik	-10.6416
▁zdravko	-10.6417
▁restoranu	-10.6417
▁osiguranje	-10.6419
▁vrijedan	-10.6427
dy	-10.6428
▁mnogima	-10.6429
▁pobjednika	-10.643
▁javni	-10.6435
▁180	-10.6436
rao	-10.6439
▁pojasnio	-10.644
irala	-10.6442
čko	-10.6442
▁cu	-10.6442
if	-10.6443
▁određeni	-10.6443
▁zanimljiv	-10.6446
▁dužnosnici	-10.6446
▁španjolske	-10.6446
▁ufc	-10.6447
▁prekršaj	-10.6447
▁manekenka	-10.6449
▁biznis	-10.6453
▁slijede	-10.6463
tal	-10.6463
▁konferencije	-10.6466
▁1992.	-10.6466
▁načine	-10.6468
▁osmijeh	-10.6478
▁slavlje	-10.6479
▁učinila	-10.6483
▁pitaju	-10.6484
novi	-10.6485
▁djevojčicu	-10.6485
▁epizodi	-10.6485
▁termin	-10.6485
▁koristio	-10.6486
čin	-10.6487
▁skuplja	-10.649
▁životom	-10.6495
▁jutra	-10.6498
▁otvorila	-10.6501
▁mišića	-10.6504
▁pjesama	-10.6505
▁čuje	-10.6506
▁zdravstvene	-10.6507
▁živimo	-10.6514
▁sunca	-10.6522
▁crni	-10.6523
▁provode	-10.6523
▁vojska	-10.6525
▁šali	-10.6529
60	-10.6532
▁dodatne	-10.6532
nku	-10.6533
▁kum	-10.6536
▁pacijenata	-10.6544
▁col	-10.6545
▁proveli	-10.6545
▁52	-10.6546
▁huawei	-10.6546
▁rusije	-10.655
▁banka	-10.655
▁napravljen	-10.655
▁shvaća	-10.6551
▁čekao	-10.6554
▁chi	-10.6556
▁pretpostavlja	-10.6559
▁savjete	-10.6562
▁ubijen	-10.6562
▁žiri	-10.6563
▁turnir	-10.6563
▁odlučuje	-10.6564
▁1995.	-10.6564
line	-10.6574
▁golom	-10.6576
▁internetsk	-10.6576
▁2000.	-10.6577
▁teme	-10.6577
br	-10.6578
▁vlasnici	-10.6581
▁večeru	-10.6581
▁slaže	-10.6583
▁izazvao	-10.6584
▁pripremu	-10.6584
broj	-10.6584
▁kreću	-10.6585
djel	-10.6586
nicima	-10.6587
▁ostavila	-10.6591
▁cesta	-10.6594
▁jackson	-10.6599
▁arsenal	-10.6599
▁sastanku	-10.6603
▁snimku	-10.6604
ošću	-10.6606
bilo	-10.6607
▁brzinu	-10.6607
▁ek	-10.6611
▁favorit	-10.6611
▁motiv	-10.6613
▁djelovanje	-10.6615
▁sch	-10.6619
▁sms	-10.6619
▁suprotno	-10.6621
▁omogućuje	-10.6623
▁(39)	-10.6623
▁šut	-10.6625
▁final	-10.6629
▁pripadnika	-10.6629
▁škorpion	-10.6632
▁bosne	-10.6633
▁mat	-10.6635
▁pen	-10.6636
▁spasio	-10.6637
▁posebnim	-10.664
ment	-10.664
▁bel	-10.6642
▁glumca	-10.6643
▁ljudska	-10.6643
▁sudjelovali	-10.6643
lar	-10.6643
▁sjednici	-10.6644
▁2006.	-10.6644
▁tren	-10.6644
▁priči	-10.6648
▁razgovara	-10.6655
▁upali	-10.6658
▁luku	-10.6658
▁tomislava	-10.666
▁liječi	-10.6661
▁atmosfera	-10.6663
▁francuskoj	-10.6664
▁pasa	-10.6665
▁kas	-10.6665
nc	-10.6669
▁klimatsk	-10.6672
▁umjetničk	-10.6673
nzi	-10.6677
▁kan	-10.6677
▁tvoju	-10.6678
▁vid	-10.668
▁dvorani	-10.6683
▁scenu	-10.6684
▁privatni	-10.6684
▁veoma	-10.6684
▁programu	-10.6686
▁doživljava	-10.6687
▁počele	-10.669
tur	-10.6696
▁vašeg	-10.6699
▁reagira	-10.6699
▁krajnje	-10.6703
▁misliš	-10.6704
val	-10.6708
▁ulicama	-10.6719
▁glavnih	-10.672
▁kremu	-10.672
▁vojnika	-10.6722
▁ekipe	-10.6723
▁ispitanika	-10.6724
▁regije	-10.6724
▁mc	-10.673
▁brodu	-10.6734
▁fra	-10.6739
▁obrani	-10.6739
▁plina	-10.6739
▁stjepan	-10.674
▁susjeda	-10.674
▁west	-10.6742
▁niko	-10.6743
▁umjeren	-10.6743
jak	-10.6745
▁cr	-10.675
▁podijeliti	-10.6754
▁automatski	-10.6754
bija	-10.6756
▁zlata	-10.6758
▁1,5	-10.6758
▁određen	-10.6762
▁dijelova	-10.6763
▁tvrtku	-10.6763
▁šefa	-10.6764
▁pojedin	-10.6772
▁pokrenuti	-10.6778
nder	-10.6781
▁google	-10.6782
▁kuščević	-10.6784
niku	-10.6785
▁pogrešno	-10.6785
▁porod	-10.6786
ista	-10.6791
▁teškim	-10.6792
▁bat	-10.6792
▁polju	-10.6792
▁pohvalio	-10.6793
▁trg	-10.6793
▁postavio	-10.6798
▁rs	-10.6802
▁podrške	-10.6804
▁neobično	-10.6804
▁pranje	-10.6806
▁zagrebačka	-10.6806
▁osvojen	-10.6806
▁izazvati	-10.6809
▁neposredno	-10.6811
▁pokaže	-10.6811
▁dar	-10.682
▁dm	-10.6821
▁kandidati	-10.6823
▁posebne	-10.6824
▁procjenjuje	-10.6824
▁uostalom	-10.6824
▁nekakv	-10.6827
▁objavljeno	-10.6828
.''	-10.6828
▁skloni	-10.6831
▁izjavi	-10.6833
▁pružiti	-10.6834
▁liječničk	-10.6835
▁svjetla	-10.6837
▁mini	-10.6838
▁postaviti	-10.684
▁90-	-10.684
▁odabrati	-10.6844
▁tragedija	-10.6844
▁parovi	-10.6846
▁dobrih	-10.6856
▁donijeli	-10.6857
▁razumije	-10.6859
▁natječaju	-10.686
▁600	-10.6863
▁studenog	-10.6863
▁roka	-10.6863
rod	-10.6864
▁kazneni	-10.6866
▁fondova	-10.6869
▁članovima	-10.687
▁mojih	-10.6874
▁branitelja	-10.688
▁čita	-10.6881
▁projekata	-10.6885
▁usput	-10.6885
ec	-10.6886
▁klubova	-10.6887
▁dobrom	-10.6892
▁pati	-10.6893
▁kombinira	-10.6894
▁izgubi	-10.6895
▁jeziku	-10.6897
▁lokacija	-10.6903
▁značajn	-10.6903
▁zabilježen	-10.6903
kup	-10.6904
▁njemačku	-10.6905
▁2003.	-10.6906
▁srcu	-10.6907
rak	-10.6907
▁pecite	-10.6908
▁potpis	-10.6918
▁dubrovnik	-10.6921
▁mržnje	-10.6926
rad	-10.6926
▁koševa	-10.6926
▁vezan	-10.6927
▁mladosti	-10.6931
▁zeleni	-10.6932
pom	-10.6935
▁urban	-10.6938
▁hvali	-10.6939
▁24.	-10.694
▁kata	-10.6941
▁div	-10.6941
▁projektu	-10.6943
▁omogućava	-10.6946
▁poslovne	-10.6946
▁cha	-10.6947
▁stao	-10.6947
▁glazbenik	-10.6948
▁smještaj	-10.6949
▁njegu	-10.6963
▁šoku	-10.6964
▁informaciju	-10.6967
www	-10.6967
▁prijetnje	-10.6967
▁socijalnu	-10.6968
▁službenici	-10.6969
▁virus	-10.6969
▁tražila	-10.6969
▁redom	-10.697
▁isprobati	-10.6979
▁hip	-10.698
▁besplatno	-10.6987
hod	-10.6988
▁nogometaši	-10.699
▁desni	-10.699
▁dočekao	-10.6998
▁savjeta	-10.6998
▁suze	-10.7002
▁zaštitn	-10.7004
▁gotov	-10.7005
▁političku	-10.7008
▁reprezentacija	-10.7008
▁akciji	-10.7009
sc	-10.7011
▁niže	-10.7011
▁nazvala	-10.7013
ore	-10.7018
▁proizvođača	-10.7021
▁konkretno	-10.7029
▁andreja	-10.7029
▁zapovjednik	-10.703
▁krugu	-10.7031
▁zaposlenika	-10.7033
▁izađe	-10.7034
▁pune	-10.7034
▁bijeli	-10.7037
▁cijelosti	-10.704
▁stadiona	-10.704
▁jadranu	-10.7045
70	-10.7047
▁(38)	-10.7049
nite	-10.7052
▁njene	-10.7054
litreni	-10.7055
▁der	-10.7058
▁ponaša	-10.7059
▁malog	-10.7063
16	-10.7063
▁tehnologija	-10.7068
ö	-10.707
▁dijele	-10.707
▁publici	-10.707
▁sličan	-10.7071
▁potpredsjednik	-10.7071
▁poznaje	-10.7071
▁porast	-10.7072
▁odakle	-10.7075
▁zabave	-10.7091
▁obu	-10.7095
▁izvoz	-10.7101
har	-10.7103
▁crna	-10.7105
▁varaždinu	-10.7105
▁životnih	-10.7106
▁54	-10.7106
▁stvaranje	-10.7108
▁zajednica	-10.711
▁ishod	-10.711
▁čovjeku	-10.711
▁stroj	-10.7111
▁ab	-10.7111
▁inicijativa	-10.7112
▁lijekove	-10.7116
▁međunarodni	-10.7116
▁onu	-10.7119
tis	-10.712
▁šarić	-10.7122
▁većim	-10.7125
▁snažno	-10.7126
▁obraća	-10.7129
▁kolač	-10.7129
dno	-10.713
▁uređaj	-10.713
▁smanjenje	-10.7131
▁pustite	-10.7131
▁državnih	-10.7131
▁izvješću	-10.7132
▁navike	-10.7134
▁njezinih	-10.7135
▁spol	-10.7138
▁krenulo	-10.7139
▁saznajte	-10.7139
*	-10.7142
spe	-10.7142
▁izrael	-10.7144
tka	-10.7145
▁pripremljen	-10.7147
aca	-10.7152
▁dame	-10.7152
ft	-10.7152
▁obrade	-10.7154
▁brzinom	-10.7156
▁svećenik	-10.7156
▁gordan	-10.7157
▁toplo	-10.7158
▁prisjetio	-10.7162
▁popodne	-10.7162
▁primijetili	-10.7163
▁glazbeni	-10.7164
svi	-10.7167
▁karlo	-10.7167
ljev	-10.7173
▁kombinaciju	-10.7174
▁afere	-10.7175
▁komentarima	-10.7176
▁braća	-10.7177
▁sredini	-10.7177
▁visine	-10.7181
▁brzine	-10.7183
▁lov	-10.7183
▁igrama	-10.7184
▁napominje	-10.7185
.“	-10.7186
▁dorh	-10.7187
▁brexita	-10.7188
▁lider	-10.7188
▁ljubavni	-10.7188
▁komentirala	-10.7193
▁pokreće	-10.7195
▁išli	-10.7197
▁toni	-10.7199
▁gre	-10.7201
▁ajax	-10.7202
▁psg	-10.7204
▁sjedinjen	-10.7204
▁ozlijeđeno	-10.7208
▁potrebi	-10.7217
▁molim	-10.7217
▁kosti	-10.7219
▁isil	-10.7221
vor	-10.7223
shi	-10.7223
dugo	-10.7224
▁promijeni	-10.7227
▁buk	-10.7229
▁prote	-10.7233
▁završilo	-10.7233
▁dobrog	-10.7235
▁trećeg	-10.7235
▁pisalo	-10.7238
▁mon	-10.7238
▁gostiju	-10.724
▁poznatih	-10.724
▁pokrenula	-10.7243
uk	-10.7243
▁karte	-10.7253
▁financijski	-10.7256
▁europsku	-10.7259
▁španjolski	-10.7259
snu	-10.7262
▁svakoga	-10.7263
▁poreza	-10.7266
▁miješa	-10.7266
bil	-10.7269
▁doznaje	-10.7274
mija	-10.7274
rci	-10.7275
▁mikro	-10.7275
▁kiše	-10.7279
▁vrha	-10.7287
▁mladog	-10.7289
nut	-10.7289
▁svira	-10.729
▁lijepe	-10.7291
▁spašava	-10.7291
▁uzela	-10.7292
▁zlo	-10.7293
ral	-10.7296
▁mah	-10.7297
▁žličica	-10.7301
▁spavać	-10.7301
▁antonio	-10.7303
▁otvoreni	-10.7305
▁radni	-10.7311
▁fenomen	-10.7315
▁utvrditi	-10.7315
sne	-10.7315
▁nastao	-10.7317
▁istaknuti	-10.7317
▁(33)	-10.7322
▁rasprave	-10.7323
▁težine	-10.7323
▁potvrditi	-10.733
▁inzistira	-10.7336
▁važnosti	-10.7336
▁pojaviti	-10.734
▁kapi	-10.7344
▁ostaju	-10.7345
dor	-10.7346
▁predstava	-10.7348
▁bon	-10.7353
▁10.000	-10.7355
▁osnivač	-10.7358
▁većine	-10.7359
čica	-10.7359
▁popisu	-10.7361
▁provjeriti	-10.7362
▁kuhar	-10.7364
▁pomogne	-10.7365
▁vrhovni	-10.7365
▁blizak	-10.7365
▁obveze	-10.7365
▁pravilno	-10.7365
▁odveo	-10.7369
▁can	-10.7373
▁beograd	-10.7374
▁rezultatima	-10.738
▁ponosni	-10.7382
▁usne	-10.7384
▁iznenadio	-10.7384
▁jan	-10.7385
▁britanija	-10.7386
▁mirovine	-10.7387
▁najteže	-10.7387
▁šu	-10.7389
▁golf	-10.7391
▁upitan	-10.7392
▁mrak	-10.7392
▁itd	-10.7392
▁smiri	-10.7393
▁bud	-10.7396
▁javi	-10.7403
▁prehranu	-10.7408
▁posudu	-10.7408
'',	-10.7409
▁uzvrat	-10.7409
▁izraz	-10.741
▁nigdje	-10.7411
▁krema	-10.7415
▁stvoren	-10.7421
zira	-10.7421
▁ljuti	-10.7423
▁prikazan	-10.7423
▁najveću	-10.7424
▁protu	-10.7425
▁ukupn	-10.7425
▁sinčić	-10.7425
▁kategorije	-10.7429
▁natjecanju	-10.7429
▁pozicije	-10.7429
▁zaposlenih	-10.7431
▁opć	-10.7433
▁golem	-10.744
▁64	-10.7441
▁piti	-10.7442
▁mojim	-10.7443
▁lijeva	-10.7444
▁kombinacije	-10.7451
▁sekunde	-10.7451
▁preminula	-10.7451
▁haljini	-10.7451
▁mjesecu	-10.7456
▁zamjenik	-10.7464
▁ham	-10.7468
?"	-10.747
▁mještani	-10.7472
▁beauty	-10.7473
▁pozitivan	-10.7473
▁kovačić	-10.7474
▁igara	-10.7478
▁najgori	-10.7488
▁joomboosu	-10.7488
one	-10.749
▁neto	-10.749
▁razdoblja	-10.7494
▁organizam	-10.7494
▁53	-10.7495
▁smijeh	-10.7495
▁preživjeti	-10.7496
▁obojica	-10.7496
▁zovu	-10.7498
▁miroslav	-10.7503
▁ple	-10.7506
▁pošte	-10.7508
▁natrag	-10.7509
▁gradskog	-10.7511
▁atmosferu	-10.7516
▁epizoda	-10.7516
▁mnoštvo	-10.7516
▁objavu	-10.7516
▁pokazatelj	-10.7516
tek	-10.7517
▁slomio	-10.7517
jedi	-10.7519
▁pitati	-10.752
▁početn	-10.7526
▁uključen	-10.7528
▁zube	-10.7529
▁sudjelovanje	-10.753
▁uspije	-10.753
▁85	-10.7532
▁dopustiti	-10.7534
▁kralja	-10.7535
▁specifičn	-10.7536
▁djetinjstva	-10.7538
▁tretira	-10.7538
▁fl	-10.7539
▁lady	-10.754
▁uživaju	-10.754
▁bjel	-10.7541
ud	-10.7543
▁sposobnost	-10.7544
▁legenda	-10.7545
▁krije	-10.7548
▁kompleks	-10.755
▁zaradio	-10.755
▁navija	-10.7551
▁radnog	-10.7554
▁metal	-10.7554
▁že	-10.7555
▁učinili	-10.7556
▁zavod	-10.7559
▁slavni	-10.7564
▁volimo	-10.7564
▁meda	-10.7564
ično	-10.7566
nčić	-10.7566
▁kasno	-10.7568
tno	-10.757
▁prijavljen	-10.7572
▁ubija	-10.7573
▁oblika	-10.7577
činjen	-10.7585
▁boravi	-10.7586
▁milošević	-10.7587
▁smješten	-10.7589
▁tito	-10.759
▁pojedini	-10.7591
▁loša	-10.7597
nat	-10.7598
▁pritvoru	-10.7599
▁kujundžić	-10.7603
▁(40)	-10.7603
▁zadnja	-10.7605
▁aktivnost	-10.7612
▁teških	-10.7619
▁nogometne	-10.762
▁ovome	-10.7621
▁posjetiti	-10.7624
▁raspolaganju	-10.7626
▁snova	-10.7627
▁lopta	-10.7629
▁dolje	-10.7632
▁proizvođač	-10.7633
▁režim	-10.7633
▁biljke	-10.7635
▁kriminalističko	-10.7636
▁zahvat	-10.7638
▁stalo	-10.7645
više	-10.7646
▁znakova	-10.7646
▁outfit	-10.7647
ow	-10.7648
▁kovačević	-10.765
▁bogatstvo	-10.765
▁grupi	-10.7652
▁porez	-10.7652
▁političkog	-10.7655
▁potreba	-10.7657
▁skok	-10.7658
▁laži	-10.7658
▁uđe	-10.7664
čio	-10.7669
▁odoljeti	-10.7669
▁krstičević	-10.7678
▁mobitela	-10.7678
▁nećeš	-10.7679
▁sloj	-10.768
▁audi	-10.7681
▁sjajna	-10.7681
▁nijedn	-10.7688
▁mara	-10.7688
▁automobilom	-10.7689
▁dobitnik	-10.769
▁obavezno	-10.7691
▁predstavnika	-10.7693
▁stići	-10.7695
▁dodatni	-10.7698
▁57	-10.7706
▁napravite	-10.7708
▁osjeti	-10.771
lni	-10.7713
17	-10.7713
▁osoblje	-10.7713
▁(32)	-10.7713
▁italije	-10.7714
▁kalup	-10.7714
▁reagirati	-10.7716
▁promjenama	-10.772
▁ponudio	-10.7721
▁bijela	-10.7721
čak	-10.7726
vica	-10.7727
▁malom	-10.7733
nuli	-10.7735
▁th	-10.7735
▁3-0	-10.7735
▁reforme	-10.7735
▁obavještajn	-10.7737
▁tenisač	-10.7741
▁detalj	-10.7742
▁rusija	-10.7743
▁pustiti	-10.7743
°	-10.7749
▁nazivaju	-10.775
▁preživio	-10.7751
▁upravlja	-10.7751
tin	-10.7752
pot	-10.7754
▁koristili	-10.7756
▁sala	-10.7758
▁asistencija	-10.7758
▁saudijsk	-10.7758
▁važne	-10.7758
▁dvoj	-10.776
▁trebati	-10.7761
▁krila	-10.7762
▁proljetn	-10.7762
acija	-10.7763
▁ostvari	-10.7764
▁pozira	-10.7766
-3	-10.7768
▁davno	-10.777
▁linija	-10.7774
▁posluži	-10.7775
▁muči	-10.7776
▁uspješni	-10.7776
▁uči	-10.7777
▁kupu	-10.7777
▁ulaz	-10.7779
▁pozornici	-10.778
▁sudjeluje	-10.778
▁sudeći	-10.7781
▁stotina	-10.7781
▁neprestano	-10.7781
▁važnost	-10.7783
▁vještine	-10.7786
▁predsjednikom	-10.7788
▁tolušić	-10.779
▁načelnik	-10.779
▁projekte	-10.7792
bolje	-10.7793
▁opis	-10.7795
▁ljut	-10.7795
ls	-10.7798
▁ak	-10.7798
▁maras	-10.7799
▁er	-10.78
▁koristite	-10.7802
▁komisija	-10.7802
▁otvorenom	-10.7803
▁kosova	-10.7805
▁europsko	-10.7808
▁pristupa	-10.7808
▁peto	-10.7811
▁mor	-10.7812
▁provjerite	-10.7813
tori	-10.7815
▁motocikl	-10.7818
vin	-10.7821
▁odgovore	-10.7823
del	-10.7824
▁područjima	-10.7825
▁pomogli	-10.7825
▁videa	-10.7826
licu	-10.7828
▁iskren	-10.7829
▁zlostavljanja	-10.7832
▁majci	-10.7832
▁sjećanja	-10.7835
▁promijenilo	-10.7836
ide	-10.7837
▁sinu	-10.784
▁smjer	-10.7845
▁gastro	-10.7846
▁stižu	-10.7848
▁mađarske	-10.7848
telj	-10.7849
▁ministrice	-10.785
▁kro	-10.7851
▁sveti	-10.7854
▁sletio	-10.7855
▁daljnje	-10.7862
▁leon	-10.7866
▁tenis	-10.7867
▁protivnika	-10.7868
▁morat	-10.7869
▁totalno	-10.7869
▁visoki	-10.7872
▁pohvalila	-10.7874
▁najavila	-10.788
▁donose	-10.7881
▁kop	-10.7882
▁zaustavio	-10.7883
▁ford	-10.7884
▁milijan	-10.7885
▁službenoj	-10.7885
▁cristiano	-10.7886
▁predviđa	-10.7886
▁ponuditi	-10.7891
▁državna	-10.7892
▁migranata	-10.7892
▁republici	-10.7892
▁glavne	-10.7892
▁odjela	-10.7893
▁far	-10.7894
▁točka	-10.7896
▁čas	-10.7897
▁miran	-10.7898
▁gran	-10.7899
▁wc	-10.7903
▁plaćanje	-10.7904
▁interneta	-10.7911
▁prijetio	-10.7911
▁svijesti	-10.7914
▁objava	-10.7914
▁opremu	-10.7915
▁plastike	-10.7915
▁zgrada	-10.7915
▁industrija	-10.7915
▁craft	-10.7916
▁luksuz	-10.7916
▁pozitivne	-10.7918
▁novine	-10.7919
▁političar	-10.792
.500	-10.7923
▁željka	-10.7924
▁pokušaju	-10.7929
▁skida	-10.7934
▁pep	-10.7934
▁brazil	-10.7934
▁tjednu	-10.7937
▁fakultetu	-10.7939
▁aktivno	-10.7943
bel	-10.7944
ul	-10.795
▁pobačaj	-10.795
▁nogometu	-10.795
▁uzrokovati	-10.7951
sci	-10.7954
▁samostalno	-10.7955
▁rođeni	-10.7957
▁nazvan	-10.7957
▁glava	-10.7957
▁dvostruko	-10.796
▁dobiju	-10.796
▁njezinim	-10.796
▁seriju	-10.7964
▁predstaviti	-10.7965
▁odlaze	-10.7966
▁svoga	-10.7966
▁sjeverne	-10.797
▁uredu	-10.7972
▁prijaviti	-10.7978
▁palo	-10.7981
▁proljeća	-10.7983
▁posjetio	-10.7983
▁bran	-10.7983
▁poslužiti	-10.7983
▁liječenju	-10.7984
▁51	-10.7984
▁ep	-10.7985
▁granici	-10.7986
▁lopte	-10.7987
▁poručili	-10.799
▁osjećaje	-10.799
▁zabranjen	-10.8
▁nekima	-10.8002
▁vratima	-10.8005
▁dozvole	-10.8005
▁rasprava	-10.8006
▁cestama	-10.8009
▁točke	-10.801
▁kava	-10.8011
▁povući	-10.8016
▁stvaraju	-10.8017
▁reagirao	-10.8017
▁pacijent	-10.8021
▁zlostavljanje	-10.8022
▁borac	-10.8024
▁slab	-10.8027
▁srba	-10.8031
▁brojke	-10.8031
▁rođene	-10.8031
▁ulaska	-10.8032
▁zavoda	-10.8032
▁soba	-10.8033
▁pretvara	-10.8037
▁stranicu	-10.8038
▁oscara	-10.8039
▁zajedničko	-10.8046
▁otpad	-10.8047
▁umor	-10.8048
▁roditelj	-10.8048
▁tlak	-10.805
▁borio	-10.805
▁kuhinji	-10.8051
▁zaključak	-10.8051
aktiv	-10.8052
▁(31)	-10.8056
▁odgovorili	-10.8056
▁slatko	-10.8061
vlada	-10.8066
sha	-10.8067
▁bosni	-10.8068
▁gru	-10.8069
▁financira	-10.807
▁okvir	-10.8071
▁savjetnik	-10.8073
▁prevezen	-10.8074
▁pojas	-10.8074
▁dužnost	-10.8077
▁dvij	-10.8078
ts	-10.8083
▁sjaj	-10.8083
▁djelomično	-10.8084
▁jedinica	-10.8086
▁trbuh	-10.8092
▁poveća	-10.8093
inom	-10.8095
▁sloveniji	-10.8097
▁skriven	-10.8098
lf	-10.8101
▁seksualni	-10.8101
▁grand	-10.8104
▁križa	-10.8106
▁liniju	-10.8106
▁72	-10.8107
▁brutalno	-10.8108
▁ispovijesti	-10.8109
▁srbiju	-10.8109
▁(19	-10.8119
▁ratne	-10.812
▁voliš	-10.812
▁pojavljuje	-10.812
▁ignorira	-10.812
▁snimka	-10.8121
▁uzrokuje	-10.8121
▁kontaktu	-10.8126
▁doživjela	-10.8129
▁bale	-10.8131
▁razum	-10.8132
ight	-10.8133
▁boga	-10.8134
▁prazni	-10.8137
▁naučio	-10.8138
▁davida	-10.8142
▁pročitaj	-10.8143
▁ruža	-10.8143
▁karleuša	-10.8143
▁odradio	-10.8145
▁party	-10.8149
▁slave	-10.815
▁dogovora	-10.8155
▁sastojaka	-10.8157
▁pričaju	-10.8162
▁izboru	-10.8162
▁izvora	-10.8163
▁okviru	-10.8163
▁gregurević	-10.8166
▁medicine	-10.8166
▁površine	-10.8166
▁manja	-10.8167
▁stipe	-10.8168
▁oduševljeni	-10.8168
▁fotograf	-10.817
šće	-10.8176
▁salon	-10.8179
▁igrala	-10.8179
▁platio	-10.8179
čara	-10.8181
▁aparat	-10.8184
▁bad	-10.8185
ble	-10.8188
▁ozlijeđenih	-10.8189
▁oduševila	-10.819
▁(27)	-10.819
▁justin	-10.8192
sljed	-10.8192
▁tepih	-10.8195
▁kosi	-10.8195
▁oreškovićev	-10.8196
▁she	-10.8197
▁pomak	-10.8199
tera	-10.8201
ure	-10.8204
▁odigrali	-10.8205
▁vrb	-10.8206
tna	-10.8208
▁dodatnih	-10.8208
▁reper	-10.8209
▁propisan	-10.8212
▁odustati	-10.8213
▁pogodak	-10.8213
▁promovira	-10.8213
▁suđenja	-10.8214
▁navijače	-10.8215
▁tlo	-10.8215
▁news	-10.8219
ovski	-10.8226
▁brenda	-10.8227
▁muškarcima	-10.8234
▁niza	-10.8236
▁napredak	-10.8236
▁čekali	-10.8236
▁pouzdan	-10.8236
▁ispalo	-10.8236
▁ispit	-10.824
▁unutrašnjosti	-10.8241
▁autu	-10.8242
▁sram	-10.8242
▁(23)	-10.8243
▁inspirira	-10.8245
jesti	-10.8246
▁kru	-10.8246
▁prank	-10.8247
▁najvažniji	-10.8249
▁okrenuo	-10.8249
▁prodati	-10.8251
▁stavili	-10.8254
▁povezan	-10.8257
▁udala	-10.8259
▁hercegovine	-10.8259
▁kampanji	-10.8259
▁proučava	-10.8259
▁oštro	-10.826
▁utrku	-10.826
▁nacionalnog	-10.8268
:00	-10.8269
▁žirija	-10.827
ljeni	-10.8271
▁živote	-10.8272
▁radite	-10.8274
▁london	-10.8279
▁krvni	-10.8284
▁gripe	-10.8285
▁upozoravaju	-10.8287
her	-10.8287
▁shvati	-10.8287
kor	-10.829
▁detalji	-10.8294
▁obraz	-10.8298
▁službene	-10.8299
▁prekrasna	-10.8306
▁završetka	-10.8306
▁odgovori	-10.8308
▁iskaza	-10.8311
▁kap	-10.8312
▁istra	-10.8313
▁novcem	-10.8314
▁genijalnih	-10.8317
▁struka	-10.8317
jim	-10.8318
▁prihvaća	-10.8319
▁spomenuti	-10.8323
▁predstavljen	-10.8324
▁ljubavne	-10.8325
osa	-10.8328
▁industrije	-10.833
▁vožnju	-10.833
▁počinio	-10.833
▁odlukom	-10.833
▁negativno	-10.8333
▁tekućine	-10.8335
▁istraživači	-10.8337
▁braniti	-10.8338
gin	-10.8338
les	-10.834
▁mit	-10.834
▁paziti	-10.834
▁pan	-10.8342
▁japan	-10.8343
▁bazen	-10.8343
vija	-10.8345
▁odgovoran	-10.835
▁slušati	-10.8352
▁desetljećima	-10.8353
▁karijera	-10.8353
▁predsjedništva	-10.8353
▁1998.	-10.8354
▁prelazi	-10.8354
▁amerike	-10.8354
▁prenose	-10.8355
▁bruno	-10.8356
▁pravilo	-10.8356
▁povjerenja	-10.8356
▁kratkom	-10.8357
▁otvaranje	-10.8358
pad	-10.8361
▁pozvala	-10.8361
▁bakom	-10.8362
pol	-10.8363
▁sjeverno	-10.8365
ške	-10.8366
▁slam	-10.8372
▁(25)	-10.8377
▁prijateljice	-10.8379
▁liverpoola	-10.8381
▁ovakvim	-10.8381
tku	-10.8382
▁hodati	-10.8386
▁glavnom	-10.8388
ture	-10.8393
▁najpoznatijih	-10.8394
▁današnje	-10.8396
▁visokog	-10.8397
spor	-10.8398
▁digital	-10.8401
▁vatru	-10.8401
▁intera	-10.8403
▁met	-10.8404
dija	-10.8406
▁tona	-10.8407
▁nekadašnji	-10.8407
▁povijesn	-10.8412
▁petka	-10.8417
▁intervjue	-10.8419
▁mišljenju	-10.8425
▁prikazuje	-10.8425
▁ravno	-10.8425
▁prirodni	-10.8425
▁primiti	-10.8426
▁louis	-10.8426
▁poslovnih	-10.843
▁vida	-10.8431
▁ubili	-10.8433
▁navedene	-10.844
▁jače	-10.844
gao	-10.8446
▁kylie	-10.8448
▁slažu	-10.8449
▁posjetitelji	-10.845
▁govorimo	-10.845
▁kaj	-10.8451
▁island	-10.8451
▁prolaze	-10.8452
▁parku	-10.8454
▁nadalje	-10.8456
▁osvoji	-10.8457
▁fr	-10.8457
▁trans	-10.8458
▁povrat	-10.846
▁mega	-10.8462
▁izdanje	-10.8462
▁birati	-10.8463
▁radno	-10.8464
▁studiju	-10.847
▁bakterije	-10.8472
▁spektakl	-10.8472
▁stanovnici	-10.8472
▁sutkinja	-10.8472
▁trgovina	-10.8473
▁zvao	-10.8476
▁sluša	-10.8476
▁utjecajem	-10.8482
▁najpoznatiji	-10.8482
▁kazni	-10.8484
13	-10.8485
▁išlo	-10.8486
▁događalo	-10.8486
▁usmjeren	-10.8492
▁peter	-10.8492
▁sindikata	-10.8495
▁hss	-10.8499
▁ispada	-10.8502
35	-10.8503
▁sporta	-10.8508
▁zdrava	-10.8511
sije	-10.8511
▁kaznena	-10.8512
▁uništen	-10.8512
zom	-10.8515
▁trbuhu	-10.8517
▁presudi	-10.8518
▁gospodarstvo	-10.8521
▁dijelovi	-10.8521
▁općine	-10.8525
▁direktora	-10.8525
▁odraditi	-10.8527
▁glad	-10.8528
▁vaga	-10.8528
▁medicinski	-10.8529
▁samopouzdanje	-10.8529
▁stra	-10.853
▁živa	-10.8533
▁milanović	-10.8535
▁šokirao	-10.8535
▁kvaliteta	-10.8537
▁ban	-10.8539
▁62	-10.8543
▁branko	-10.8544
▁sredstvo	-10.8544
▁rajčice	-10.8544
▁snažan	-10.8545
▁slavko	-10.8545
▁pasti	-10.8547
tke	-10.8549
▁peru	-10.855
▁jong	-10.8552
▁zdravstveno	-10.8553
zati	-10.8553
▁dopušta	-10.8554
▁konkurent	-10.8555
▁bišćan	-10.8556
▁udarca	-10.8558
lna	-10.8559
▁budem	-10.8561
▁visokim	-10.8561
▁najvećim	-10.8562
▁splitsko	-10.8567
▁ispita	-10.8567
riti	-10.8568
▁savršeni	-10.8568
▁neprepoznatljiv	-10.8568
▁slovenije	-10.8568
▁kritike	-10.857
▁zvali	-10.8572
▁pokuša	-10.8574
▁duge	-10.8575
▁značilo	-10.8576
▁uvjereni	-10.8576
kan	-10.8576
▁autora	-10.858
▁63	-10.8582
▁uljaniku	-10.8582
bru	-10.8583
▁brzina	-10.8586
▁povezuje	-10.8593
▁food	-10.8594
▁primijetio	-10.8595
▁razvijen	-10.8595
▁prizor	-10.8596
▁mas	-10.8597
▁sportske	-10.8598
▁posljednjem	-10.8601
▁ponovio	-10.8605
▁kraljevske	-10.8607
▁autori	-10.8607
▁brojem	-10.8613
▁pronađeno	-10.8614
▁fin	-10.8614
vod	-10.8616
▁sudbina	-10.8617
▁street	-10.8618
ori	-10.8619
▁kreme	-10.862
▁kle	-10.862
▁marjan	-10.8621
▁bura	-10.8622
▁ozljedama	-10.8622
▁ži	-10.8625
▁klima	-10.8625
▁visok	-10.8625
▁kasni	-10.8627
▁razgovarao	-10.8629
ljuje	-10.863
▁rose	-10.8632
▁papar	-10.8633
▁odgovaraju	-10.8634
▁vremensk	-10.8635
▁protivnik	-10.8635
▁formi	-10.8637
▁trik	-10.8639
▁akademije	-10.8641
▁krešimir	-10.8641
▁sastoji	-10.8641
▁pojava	-10.8641
▁španjolska	-10.8641
▁ugled	-10.8642
▁volite	-10.8642
▁trajno	-10.8642
kaz	-10.8643
▁osjetio	-10.8648
▁policajaca	-10.8653
▁obožavatelja	-10.8653
▁blokira	-10.8658
pl	-10.866
▁stavila	-10.8661
▁ed	-10.8661
▁izbacio	-10.8661
▁albuma	-10.8663
▁charles	-10.8663
▁otrov	-10.8664
nima	-10.8665
▁pisati	-10.8666
▁osjećaja	-10.8667
▁predstavnik	-10.8668
▁višak	-10.867
▁izdanja	-10.8671
▁ostvaren	-10.8674
▁kvalitetno	-10.8674
▁ostat	-10.8676
▁pametno	-10.8681
▁spaja	-10.8681
vima	-10.8685
▁učini	-10.8686
▁branio	-10.8688
▁marke	-10.8689
▁mladim	-10.8689
▁angažman	-10.869
▁proglasio	-10.869
▁svjesna	-10.869
▁tragedije	-10.869
▁pomogla	-10.869
▁ulaganja	-10.869
▁raspravu	-10.869
▁olmo	-10.8691
▁osvaja	-10.8692
▁pucao	-10.8693
▁bojama	-10.8694
▁vodenjak	-10.8698
▁samim	-10.8699
▁premijeru	-10.87
▁nogometnog	-10.8703
▁vodila	-10.8704
▁zdrave	-10.8706
▁pravni	-10.8708
lt	-10.8708
▁zabavlja	-10.8709
ds	-10.8712
▁student	-10.8713
▁zraku	-10.8714
%)	-10.8714
▁inicijativu	-10.8714
▁bunjac	-10.8714
▁dojke	-10.8715
▁pevec	-10.8715
▁ispao	-10.8716
▁glumci	-10.8716
▁iskaz	-10.8719
▁dvo	-10.8721
▁vođe	-10.8723
▁izgledalo	-10.8723
▁zoni	-10.8725
19	-10.8726
▁splitski	-10.8726
▁životni	-10.8727
▁varaždin	-10.8728
▁učinkovit	-10.873
▁krivim	-10.8737
blje	-10.8737
▁sudjeluju	-10.8739
▁bro	-10.8742
kriv	-10.8747
▁han	-10.8751
▁ohladi	-10.8751
vina	-10.8751
▁omjer	-10.8751
izmu	-10.8752
▁uspijeva	-10.8752
▁trenu	-10.8752
dro	-10.8753
@	-10.8755
▁zo	-10.8755
▁orešković	-10.8757
▁osjećao	-10.8761
▁kvar	-10.8761
▁benfice	-10.8763
▁frizura	-10.8763
▁približava	-10.8763
▁kontrolom	-10.8763
▁trajala	-10.8763
▁zdravstvo	-10.8764
▁rukomet	-10.8764
▁2002.	-10.8764
▁2001.	-10.8765
▁pronađen	-10.8766
▁reg	-10.8767
lla	-10.877
▁seksualne	-10.877
pić	-10.8771
▁poslovanje	-10.8771
▁odrasli	-10.8773
▁očevida	-10.8774
▁doveli	-10.8775
▁šaban	-10.8775
▁voljen	-10.8777
ljak	-10.8778
ct	-10.8779
alno	-10.878
ram	-10.8782
▁proizvodima	-10.8785
▁češnjak	-10.8788
▁usprkos	-10.8788
▁krize	-10.8788
▁nafte	-10.879
▁branimir	-10.8792
▁druženje	-10.8794
▁šte	-10.8796
▁bogu	-10.8796
▁aktualni	-10.8797
▁druži	-10.8798
▁an	-10.8798
▁uzeli	-10.8799
▁obaviti	-10.8801
juće	-10.8805
▁osjetila	-10.8812
▁podatak	-10.8813
▁popularnost	-10.8813
▁referenduma	-10.8814
▁tvrdnje	-10.8815
▁spomenik	-10.8817
3.	-10.8817
▁laž	-10.8818
▁nastavili	-10.8821
▁kakvi	-10.8825
▁automobili	-10.8829
ic	-10.883
▁prihvatio	-10.8832
vanjem	-10.8834
▁lokalni	-10.8835
▁uređaja	-10.8835
▁pojesti	-10.8835
vice	-10.8836
▁isključen	-10.8836
▁volkswagen	-10.8837
ten	-10.8839
▁dubrovniku	-10.8843
yja	-10.8843
▁partneru	-10.8844
▁rodi	-10.8846
anje	-10.8849
▁love	-10.885
▁zabili	-10.8851
▁saznali	-10.8851
▁56	-10.8851
▁izraelsk	-10.8853
-1	-10.8858
▁boravak	-10.8862
▁nikakvu	-10.8862
▁podrazumijeva	-10.8862
▁svjedoci	-10.8862
▁turizma	-10.8862
▁(35)	-10.8862
mil	-10.8863
▁vanilije	-10.8864
▁visoka	-10.8864
▁djelovanja	-10.8865
▁srpskog	-10.8865
▁vlastitim	-10.8867
▁tele	-10.8868
▁marijan	-10.8869
▁poštovanje	-10.8869
▁idealna	-10.887
▁bolju	-10.8874
▁kostim	-10.8877
▁osigurao	-10.8879
▁tumor	-10.8881
▁očekujemo	-10.8885
▁uhitili	-10.8887
sija	-10.8888
▁bolnica	-10.8895
▁razmišljanja	-10.8899
▁seksu	-10.8899
▁upućen	-10.8901
▁srbi	-10.8901
▁globaln	-10.8902
▁odmara	-10.8904
lović	-10.8904
▁es	-10.8908
▁sponzor	-10.891
▁izgradnju	-10.8912
▁suđenju	-10.8912
▁krvav	-10.8913
▁izrazio	-10.8913
▁studira	-10.8915
▁gledam	-10.8918
▁istri	-10.8919
▁ostavili	-10.8919
▁mijenjaju	-10.8922
▁et	-10.8922
▁dodik	-10.8922
ero	-10.8923
▁karadžić	-10.8924
▁15-	-10.8926
▁povukao	-10.8928
▁živim	-10.8928
▁naučila	-10.8931
▁simptome	-10.8931
▁predsjedniku	-10.8933
▁uključuju	-10.8933
▁američkim	-10.8935
som	-10.8935
▁skupštine	-10.8937
▁upravljanje	-10.8938
tion	-10.8939
▁drugoga	-10.894
▁mamu	-10.8941
▁simon	-10.895
rade	-10.8951
pak	-10.8952
▁savjesti	-10.8954
▁leden	-10.8959
▁liberal	-10.8959
▁graditi	-10.896
▁financijske	-10.8962
▁korupcije	-10.8962
▁najmlađi	-10.8962
▁hrvoje	-10.8962
▁suradnja	-10.8962
▁majkom	-10.8965
▁proslavio	-10.8972
ksi	-10.8973
▁ulaznica	-10.8973
▁crnog	-10.8978
▁gaga	-10.898
ičan	-10.8982
▁komentira	-10.8983
ndo	-10.8986
▁cjelovit	-10.8987
▁pećnicu	-10.8987
▁minutu	-10.8987
▁povezani	-10.8988
tv	-10.8988
▁upisati	-10.8988
▁obaveza	-10.899
▁rođenje	-10.8991
▁klupsk	-10.8993
▁uputio	-10.8993
▁korijen	-10.8994
▁razmisli	-10.8995
ller	-10.8997
▁glumice	-10.8998
len	-10.9
▁mac	-10.9
inja	-10.9001
▁raspoloženje	-10.9001
▁nabavili	-10.9002
▁partnerima	-10.9008
▁crta	-10.9012
▁utječu	-10.9012
▁naglasila	-10.9012
▁trideset	-10.9013
▁ocean	-10.9016
▁odjeven	-10.9017
▁prosječno	-10.9018
▁radionice	-10.9021
▁županijski	-10.9024
nin	-10.9024
ota	-10.9025
▁bivšim	-10.9026
▁transparent	-10.9027
▁završen	-10.9029
▁iskoristio	-10.903
▁smanji	-10.903
▁osumnjičeni	-10.9032
▁obilježava	-10.9032
▁političkim	-10.9034
▁junior	-10.9037
▁glazba	-10.9038
▁oduševio	-10.9038
▁nedjelje	-10.9038
▁skroz	-10.9038
▁strast	-10.9038
▁emocija	-10.904
▁spoju	-10.9046
▁psi	-10.9049
▁dogovorili	-10.9051
▁detaljno	-10.9054
leta	-10.9054
▁junak	-10.9055
▁obiteljima	-10.9055
▁rubu	-10.9058
▁izlaz	-10.9059
▁don	-10.9062
▁budemo	-10.9063
▁opcije	-10.9067
▁68	-10.9068
▁kupuje	-10.907
▁/	-10.9074
▁ruka	-10.9076
▁izbjegava	-10.9079
▁milijune	-10.9079
▁položaju	-10.9079
nema	-10.9079
ljubav	-10.908
▁hitna	-10.908
▁oslobođen	-10.908
▁mila	-10.9082
▁spomenut	-10.9087
▁verziju	-10.9088
▁(46)	-10.9088
▁zgradu	-10.9089
▁nestala	-10.909
▁čitati	-10.9091
ncija	-10.9092
▁5000	-10.9092
▁cop	-10.9094
▁nazvali	-10.9094
▁zaključili	-10.9096
▁osjećate	-10.91
▁mentalno	-10.9102
▁glumačk	-10.9102
▁mirisa	-10.9104
diti	-10.9108
▁javnim	-10.9109
▁posljednjeg	-10.9114
▁stoljeću	-10.9114
▁vruće	-10.9114
▁plesač	-10.9116
▁veznjak	-10.9117
▁helikopter	-10.9117
ovca	-10.912
▁kupi	-10.9121
▁izvukli	-10.9122
njaka	-10.9122
▁odmora	-10.9126
▁prepoznatljiv	-10.9126
▁odjel	-10.9129
▁pratili	-10.913
▁crkvu	-10.9139
▁industriji	-10.9139
▁izvješća	-10.9139
▁očekivao	-10.9139
▁(28)	-10.9139
▁zgradi	-10.9139
▁dvojice	-10.9141
▁sladoled	-10.9142
▁signal	-10.9143
▁izvijestila	-10.9144
▁vlastitog	-10.9147
▁kolovozu	-10.9148
▁jugo	-10.9148
▁životne	-10.9148
▁che	-10.9152
▁aktivni	-10.9157
▁donira	-10.916
▁agent	-10.9161
▁tomu	-10.9161
▁obećao	-10.9165
▁kakvom	-10.9165
▁severina	-10.9166
▁pištolj	-10.9166
▁uvjeta	-10.9173
▁komp	-10.9174
▁uvoz	-10.9176
▁čelnika	-10.9179
kv	-10.918
▁sastavu	-10.9186
▁koalicije	-10.919
▁pogađa	-10.919
▁napisali	-10.9191
▁osjećaš	-10.9192
▁komunicira	-10.9193
▁nemaš	-10.9194
lli	-10.9194
▁marijana	-10.9195
▁zastupa	-10.9195
▁slova	-10.9197
▁benda	-10.9203
▁periodu	-10.9205
▁interese	-10.9207
▁period	-10.9208
▁pratitelji	-10.9208
▁iran	-10.921
▁vrtu	-10.9214
▁apartman	-10.9216
▁teorija	-10.9217
rođen	-10.9218
▁američkom	-10.9218
▁čekamo	-10.9219
▁slavili	-10.922
▁podijelio	-10.9221
▁karton	-10.9229
▁znakove	-10.923
ziran	-10.9231
▁tobom	-10.9231
▁remi	-10.9237
▁šk	-10.9237
▁osnova	-10.9239
▁bliže	-10.9239
ovci	-10.924
▁naknadu	-10.9242
▁pozornicu	-10.9242
▁ovlasti	-10.9242
▁treću	-10.9243
▁spas	-10.9244
▁look	-10.9246
mba	-10.9249
grill	-10.925
gleda	-10.9251
▁tima	-10.9252
spa	-10.9253
▁provoditi	-10.9254
▁human	-10.9255
nny	-10.9256
lek	-10.9258
+	-10.926
▁raj	-10.9266
▁glavnu	-10.9268
▁odabrala	-10.9268
▁amerikanci	-10.9268
▁razumjeti	-10.9268
▁zdravlju	-10.9269
ena	-10.9271
▁svašta	-10.9273
riju	-10.9273
▁andrea	-10.9276
▁kafiću	-10.9276
▁okoliš	-10.9279
▁izgledao	-10.928
▁plin	-10.9282
▁grill	-10.9283
▁njenom	-10.9283
▁baj	-10.9284
rit	-10.9286
▁rizika	-10.929
dina	-10.9292
▁automobile	-10.9292
▁jake	-10.9293
▁smisao	-10.9294
▁trgovini	-10.9294
▁osnovi	-10.9294
▁pratio	-10.9294
godišnjakinja	-10.9295
▁drugome	-10.9298
▁afera	-10.9298
nor	-10.9304
velike	-10.9304
▁omiljeni	-10.9307
▁tanjur	-10.9308
▁uvjet	-10.9309
▁ljudsko	-10.9319
▁španjolskoj	-10.932
▁kontekstu	-10.9324
▁modne	-10.9325
▁zaposlenici	-10.9326
▁parova	-10.9327
▁radiš	-10.9328
▁kila	-10.9328
zne	-10.9329
▁svjetska	-10.933
▁vozilom	-10.933
▁nemate	-10.933
▁govoreći	-10.9331
▁kurir	-10.9337
▁snijega	-10.9339
▁princa	-10.9339
▁nalog	-10.9344
▁svjedoka	-10.9344
▁psiholog	-10.9345
▁imunitet	-10.9346
▁pojave	-10.9346
▁pecivo	-10.9346
▁izvodi	-10.935
▁istoku	-10.9352
▁matija	-10.9354
▁članice	-10.9357
▁las	-10.9357
▁obrok	-10.9363
tta	-10.9363
▁najavljen	-10.9366
▁crvena	-10.9366
▁fantastično	-10.9368
▁proizvodnja	-10.9369
▁zabavno	-10.9372
▁sarajevu	-10.9372
▁počinju	-10.9372
▁1990.	-10.9372
▁učiti	-10.9375
▁vraćaju	-10.9381
▁članove	-10.9385
▁priopćil	-10.9386
▁producent	-10.9389
▁gro	-10.9392
▁profesionalni	-10.9395
▁bara	-10.9397
▁pogreške	-10.9398
▁priveden	-10.9399
▁pitanjima	-10.9399
▁strogo	-10.9403
▁konačn	-10.9404
▁kapacitet	-10.9405
biti	-10.9407
▁kuk	-10.9412
▁dvor	-10.9414
▁glavno	-10.9415
▁provjeri	-10.9421
27	-10.9421
▁vodili	-10.9422
▁okrenuti	-10.9422
▁1994.	-10.9424
▁izlasku	-10.9425
godišnje	-10.9425
▁hnk	-10.9425
▁izbio	-10.9426
▁dijeta	-10.9426
▁djelovati	-10.9427
▁snazi	-10.9428
▁skupinu	-10.9429
▁odbila	-10.9429
▁čelnici	-10.943
▁obiteljski	-10.9432
▁kupnju	-10.9432
▁inženjer	-10.9433
▁građansk	-10.9434
▁najavili	-10.9436
▁bal	-10.9436
▁zvan	-10.9443
▁stopala	-10.9444
▁staklen	-10.9445
▁žutom	-10.9447
▁analizira	-10.9447
▁mili	-10.9449
▁eksplozije	-10.945
▁trećoj	-10.945
▁dovoljan	-10.945
▁predstave	-10.9451
▁eli	-10.9456
čića	-10.9457
▁slovenski	-10.9458
▁znoj	-10.9458
rta	-10.946
▁pravog	-10.946
tte	-10.9461
▁ispuniti	-10.9462
rca	-10.9462
▁dokument	-10.9465
▁poljudu	-10.9465
▁penis	-10.9466
▁svjedoči	-10.9467
▁kombi	-10.9468
port	-10.9469
bin	-10.9471
▁pobijedi	-10.9471
▁potrebni	-10.9472
▁smiješ	-10.9473
▁lokalnih	-10.9474
▁konzerva	-10.9477
▁oporavak	-10.9477
▁uhitila	-10.9477
▁rane	-10.9478
▁pothvat	-10.9478
▁srpnju	-10.9478
čnu	-10.9479
▁tribina	-10.9481
▁sloboda	-10.9485
ssi	-10.9486
▁dodatak	-10.9487
▁moguć	-10.9488
▁posjeti	-10.9489
vid	-10.949
▁ram	-10.9491
▁nedaleko	-10.9491
▁kruha	-10.9493
▁oprez	-10.9495
▁anđeosk	-10.9498
▁izazvala	-10.9499
▁jede	-10.9501
▁podnosi	-10.9503
▁dozvolu	-10.9503
▁običaj	-10.9503
▁odvjetništvu	-10.9503
▁poljoprivrede	-10.9503
▁dojavu	-10.9503
▁osjetiti	-10.9504
▁vel	-10.9504
▁kit	-10.9505
▁59	-10.9506
▁stajati	-10.9507
nskom	-10.9508
▁proizveden	-10.9508
▁britanska	-10.9508
ham	-10.951
▁nazvati	-10.951
▁danu	-10.9511
▁66	-10.9512
▁izradi	-10.9513
▁planove	-10.9516
▁alen	-10.9519
▁pse	-10.9521
▁sklon	-10.9521
▁obroka	-10.9523
godišnju	-10.9523
▁zabava	-10.9523
▁mekan	-10.9523
nska	-10.9524
▁radnih	-10.9529
▁jednostavna	-10.953
▁nekretnina	-10.953
▁(41)	-10.953
▁dodavši	-10.953
▁state	-10.953
▁kazalište	-10.953
▁sjajni	-10.9537
db	-10.9538
▁testira	-10.9539
▁foto	-10.9539
▁putuje	-10.954
▁jugoslavensk	-10.9543
alne	-10.9544
▁specijaln	-10.9546
▁dokazati	-10.9549
▁bojan	-10.9549
▁kreveta	-10.955
▁brigu	-10.9551
▁mode	-10.9556
▁komunikacija	-10.9556
▁polufinale	-10.9556
▁pupovac	-10.9556
▁autocesti	-10.9556
▁predlaže	-10.9556
▁obiteljskog	-10.9557
▁zapalio	-10.9557
poli	-10.956
▁preda	-10.9564
▁uobičajeno	-10.9566
▁svježi	-10.9569
jeli	-10.957
▁stražnji	-10.957
▁civiln	-10.957
žni	-10.9571
▁61	-10.9575
▁pogledu	-10.9576
govor	-10.9577
▁radnicima	-10.9578
▁ljubo	-10.9583
▁komunikacije	-10.9583
▁razmatra	-10.9583
▁pogođen	-10.9583
▁opasne	-10.9583
▁stajao	-10.9587
▁profesionalno	-10.9587
škog	-10.9589
▁crnu	-10.9591
2.	-10.9595
▁100.000	-10.9597
▁vozači	-10.9602
▁utakmicama	-10.9603
zov	-10.9608
▁madridu	-10.9609
▁kolakušić	-10.961
▁orgazam	-10.961
▁podržati	-10.961
▁rejting	-10.961
▁sudjelovala	-10.961
▁vjenčali	-10.961
▁funkciju	-10.961
▁raspored	-10.961
▁krvn	-10.9612
vio	-10.9614
▁povećan	-10.9614
▁kaos	-10.9617
▁kontrolirati	-10.9618
▁petrov	-10.9619
ph	-10.9621
▁madrida	-10.9622
▁vjerojatnost	-10.9623
nger	-10.9625
▁zdravstvenih	-10.9627
▁dugu	-10.963
▁derbi	-10.9631
▁žali	-10.9636
▁poza	-10.9636
▁mozgu	-10.9637
▁oporavlja	-10.9637
▁češnjaka	-10.9637
▁usporedbi	-10.9637
▁značaj	-10.9639
▁čestitke	-10.9639
rena	-10.964
▁ljepotica	-10.9641
▁prijateljstvo	-10.9643
▁lažne	-10.9644
štima	-10.9644
titi	-10.9645
med	-10.9645
▁3-1	-10.9647
▁forma	-10.9652
▁buduće	-10.9656
▁smijemo	-10.9659
▁bruxellesu	-10.9663
▁temperaturu	-10.9664
▁pdv	-10.9664
▁prehrana	-10.9664
▁(36)	-10.9664
▁victoria	-10.9664
▁cvijeće	-10.9664
▁troškovi	-10.9668
▁ger	-10.9671
▁privatnom	-10.9671
▁reformi	-10.9673
rap	-10.9674
▁700	-10.9675
▁rješava	-10.9676
▁spa	-10.9679
▁kevin	-10.968
▁britanske	-10.9684
▁plod	-10.9685
▁provjerava	-10.9686
zor	-10.9689
▁inozemstvu	-10.969
▁naposljetku	-10.969
▁slobodna	-10.969
▁analiza	-10.9691
▁zabavu	-10.9691
▁apple	-10.9691
▁dodjeli	-10.9691
▁gubitka	-10.9691
▁sestru	-10.9691
▁individualn	-10.9695
▁popularne	-10.9695
▁devedesetih	-10.9695
▁fri	-10.9698
▁matičn	-10.9698
top	-10.9699
▁korisnik	-10.9701
treba	-10.9702
▁tuđman	-10.9703
▁gradskom	-10.9704
▁izgledom	-10.9704
▁nika	-10.9709
▁nakit	-10.9711
▁otvori	-10.9712
▁prahu	-10.9712
▁upitao	-10.9713
▁komunističk	-10.9715
▁blic	-10.9715
▁spada	-10.9716
▁odlične	-10.9718
▁bana	-10.9718
▁vježbanje	-10.9719
▁ciljeve	-10.9721
▁trenutaka	-10.9725
▁vodič	-10.9726
▁postavljen	-10.973
▁barceloni	-10.9731
▁moguća	-10.9733
▁stvorio	-10.9735
▁padne	-10.9737
▁balkan	-10.974
▁sudjelovanja	-10.9745
▁potpore	-10.9745
▁privatne	-10.9745
▁1993.	-10.9745
▁australiji	-10.9745
▁nastoji	-10.9745
▁večera	-10.9746
▁glasi	-10.9747
▁golu	-10.975
▁prekinuti	-10.9752
▁40-	-10.9752
▁zdravi	-10.9753
▁jack	-10.9756
▁duhovn	-10.9761
▁okolnostima	-10.9767
▁zatvara	-10.9771
▁opremljen	-10.9772
▁ploča	-10.9772
▁merkel	-10.9772
▁pismu	-10.9772
▁igračke	-10.9773
▁pušta	-10.9781
▁ciklus	-10.9784
▁ponos	-10.9785
▁lijep	-10.9785
▁odgovarajući	-10.9786
▁pokriva	-10.9786
▁dodaju	-10.9787
▁utvrdili	-10.9788
▁zanimalo	-10.9788
▁saznala	-10.9788
▁njenog	-10.9789
▁simptoma	-10.979
anja	-10.979
▁skrbi	-10.9791
▁reala	-10.9792
▁mel	-10.9794
▁izmjene	-10.9799
▁1996.	-10.9799
▁cardiff	-10.9799
▁utrci	-10.98
▁cestu	-10.98
▁izlet	-10.98
▁pojavi	-10.98
▁održat	-10.9803
▁domovinskog	-10.9804
ovića	-10.9806
▁voljeli	-10.9807
▁petero	-10.9809
▁oštećenja	-10.9811
▁ljudskih	-10.9812
▁sukobu	-10.9818
▁nacističk	-10.9819
▁kore	-10.982
▁povez	-10.9823
kinu	-10.9823
▁lana	-10.9824
▁izazove	-10.9824
▁nepravomoćno	-10.9825
▁vožnji	-10.9826
▁dugoročno	-10.9826
▁doduše	-10.9826
▁istražni	-10.9827
▁televizije	-10.9827
▁predavanja	-10.9828
▁povišen	-10.9831
vre	-10.9833
/1,	-10.9834
▁žar	-10.9835
▁realno	-10.9837
▁prihoda	-10.9838
▁kriminala	-10.9839
▁izvori	-10.9839
▁razreda	-10.9841
sson	-10.9841
▁by	-10.9842
▁zorana	-10.9842
▁franje	-10.9843
▁osiguranja	-10.9845
graf	-10.9845
▁pravilu	-10.9846
▁uhićenja	-10.9849
▁najmanj	-10.9851
▁infekcija	-10.9854
▁(30)	-10.9854
ting	-10.9854
▁smith	-10.9854
▁gotova	-10.9856
▁diploma	-10.9859
▁zabavi	-10.986
▁autom	-10.9861
▁sjajne	-10.987
▁završn	-10.987
▁formira	-10.9874
dije	-10.9875
▁filmovima	-10.9876
▁svome	-10.9879
letio	-10.9879
▁instrument	-10.9881
▁stigne	-10.9881
▁filipović	-10.9881
▁svjetsko	-10.9881
izmom	-10.9886
▁bilježi	-10.9886
▁njemačkog	-10.9887
▁struje	-10.9887
čem	-10.9887
▁zapad	-10.9892
▁58	-10.9892
▁voljeti	-10.9893
▁strateški	-10.9895
▁upale	-10.9897
dić	-10.9897
▁ženski	-10.9898
▁postavili	-10.9902
▁mase	-10.9902
▁komentirali	-10.9903
▁viktor	-10.9904
▁vrhnja	-10.9905
▁chris	-10.9905
▁aktivnostima	-10.9906
ljenja	-10.9907
▁šala	-10.9908
▁djetetom	-10.9909
▁stravičn	-10.9909
▁valentinovo	-10.991
▁aktivira	-10.9914
▁savršenom	-10.9915
▁setu	-10.9916
▁čar	-10.9917
▁min	-10.9921
▁pjevati	-10.9922
lika	-10.9923
▁oscar	-10.9924
▁poslužite	-10.9928
▁inf	-10.9929
▁štoviše	-10.9929
▁neovisno	-10.9931
▁boban	-10.9931
▁ugrožen	-10.9934
▁kupila	-10.9935
▁pavl	-10.9935
▁smrću	-10.9936
▁izdvaja	-10.9936
▁vojne	-10.9937
▁normalan	-10.9937
▁william	-10.9939
▁bilje	-10.9939
▁uvjerava	-10.994
▁kontra	-10.9944
▁perišić	-10.9952
▁pir	-10.9954
▁postaja	-10.9957
▁kamiona	-10.9957
▁obale	-10.9961
▁kupili	-10.9962
▁jedinice	-10.9962
▁boravka	-10.9964
▁infekcije	-10.9964
▁kvalifikacije	-10.9964
▁servira	-10.9964
▁odluci	-10.9964
▁bradley	-10.9965
▁pripremili	-10.9966
▁rimac	-10.9967
▁mike	-10.9967
▁starija	-10.997
▁bizarn	-10.9971
▁izgubljen	-10.9971
▁istinski	-10.9978
▁dugogodišnji	-10.9979
▁sportu	-10.9979
▁peri	-10.998
kul	-10.9984
▁vašu	-10.9986
▁bomba	-10.9987
▁plat	-10.9988
ning	-10.9988
▁povjesničar	-10.9992
▁izvijestio	-10.9992
▁psihički	-10.9992
▁odvesti	-10.9993
▁ustav	-10.9993
▁uništava	-10.9994
▁žuti	-10.9996
berg	-10.9997
▁zadovoljna	-10.9997
▁ispali	-10.9998
▁povratka	-10.9999
čini	-11
▁sljedećeg	-11.0001
▁prekršaja	-11.0001
▁pete	-11.0002
▁dugi	-11.0003
kos	-11.0008
član	-11.0009
▁poduzetnik	-11.0011
▁registriran	-11.0012
▁otkriven	-11.0012
▁izbjegavati	-11.0017
▁demokracije	-11.002
▁optužbi	-11.002
▁neymar	-11.002
▁art	-11.0022
ye	-11.0022
▁dvadesetak	-11.0023
▁širom	-11.0024
▁divi	-11.0027
▁socijalne	-11.0028
▁osuđeni	-11.0029
▁električni	-11.0032
▁predan	-11.0032
burg	-11.0033
▁pečen	-11.0033
▁popraviti	-11.0038
▁slovensk	-11.0038
ling	-11.0044
▁(44)	-11.0048
▁trajao	-11.0048
▁pravoslavn	-11.0048
▁opisati	-11.0048
▁jordan	-11.0049
▁novaca	-11.005
▁50-	-11.0052
-10	-11.0053
▁visini	-11.0053
rima	-11.0053
▁podići	-11.0053
▁postale	-11.0054
▁rasti	-11.0054
▁odgovorni	-11.0055
▁objavljeni	-11.0056
▁vedran	-11.0057
▁poznatog	-11.0057
▁tajni	-11.0058
▁plenkovićev	-11.0059
like	-11.006
▁organizirati	-11.006
▁obali	-11.0063
▁zi	-11.0065
▁cijenama	-11.0065
▁ozlijeđena	-11.0068
lova	-11.0069
▁planiraju	-11.007
rala	-11.0073
sv	-11.0075
▁trudnoći	-11.0076
▁grupu	-11.0077
▁svijest	-11.0081
▁(1	-11.0084
▁anton	-11.0084
▁masovn	-11.0084
▁pjevača	-11.0084
pola	-11.0085
▁kompliciran	-11.0086
▁cura	-11.0087
ney	-11.0091
vit	-11.0097
▁instituta	-11.01
čar	-11.0101
pravi	-11.0102
tha	-11.0103
▁studenti	-11.0103
▁komercijaln	-11.0104
▁ekonomski	-11.0104
kada	-11.0104
▁trošak	-11.0104
▁červar	-11.0104
zmu	-11.0104
▁traperice	-11.0105
▁jedinstven	-11.0105
▁tužiteljstvo	-11.0106
▁vlastitom	-11.0106
▁nikakva	-11.0106
▁nesretni	-11.0107
▁koša	-11.0108
▁služba	-11.0109
▁svemirsk	-11.0109
▁poklonima	-11.011
▁kafić	-11.0114
▁modeli	-11.0114
▁ponosno	-11.0115
▁ravnatelja	-11.0116
▁ponosna	-11.0116
▁raspada	-11.012
▁pacijenti	-11.0124
▁tuđe	-11.0128
▁ličko	-11.0129
▁brand	-11.0129
▁aleksandar	-11.0132
▁kuhinje	-11.0132
▁čokoladu	-11.0132
▁bdp	-11.0132
▁srpska	-11.0132
bora	-11.0134
▁istražitelji	-11.0135
▁izazova	-11.0135
▁javila	-11.0136
▁areni	-11.0137
mišljen	-11.0137
nz	-11.0147
▁oduševljen	-11.0148
▁kapital	-11.015
▁složen	-11.0152
nisam	-11.0153
▁javnih	-11.0155
▁otkrivaju	-11.0158
▁alex	-11.0159
▁ostanak	-11.016
▁hranom	-11.016
▁vjerovao	-11.0161
bez	-11.0161
▁trojica	-11.0162
▁dužnosnika	-11.0162
▁osumnjičen	-11.0164
▁kuhanje	-11.0165
▁indijsk	-11.0166
▁javiti	-11.0168
▁spasili	-11.0174
▁upala	-11.0174
▁gušt	-11.0174
ivan	-11.0175
ny	-11.0176
▁zubi	-11.0178
▁agrokor	-11.0178
život	-11.0178
▁komade	-11.018
▁događanja	-11.0182
▁dvoboj	-11.0185
▁com	-11.0187
▁aplikacije	-11.0189
▁investicija	-11.0189
▁thomas	-11.0189
▁ovakva	-11.0189
▁pritiska	-11.0189
▁poljoprivredn	-11.0191
▁oružan	-11.0191
▁odgovarati	-11.0192
▁svečano	-11.0192
▁postav	-11.0192
▁pomoćnik	-11.0193
▁nadu	-11.0193
▁borna	-11.0193
▁roma	-11.0196
▁zamisli	-11.0198
lly	-11.0199
▁dennisom	-11.0202
▁zaštitni	-11.0202
▁banane	-11.0203
▁potražite	-11.0205
▁1-1	-11.0207
gro	-11.0208
▁klubovi	-11.021
▁izgledala	-11.0213
rice	-11.0214
▁kirurg	-11.0215
▁užasno	-11.0216
▁psihičk	-11.0216
▁kulturu	-11.0217
▁crvenom	-11.0217
▁optužnicu	-11.0218
▁misliti	-11.0218
▁izborni	-11.0219
▁bojim	-11.022
▁prisjetila	-11.0222
vna	-11.0222
sud	-11.0226
▁činiti	-11.0229
▁stolu	-11.0232
dre	-11.0234
▁dokaze	-11.0236
love	-11.0237
▁bogati	-11.0241
▁najvećeg	-11.0241
▁nalaz	-11.0244
vlja	-11.0246
▁vatra	-11.0247
▁obavljen	-11.0247
▁69	-11.0249
daj	-11.0249
lc	-11.025
▁domaća	-11.0251
▁npr	-11.0251
▁priznanja	-11.0251
▁djelatnici	-11.0252
▁minimalno	-11.0256
iza	-11.0256
▁punom	-11.0258
▁95	-11.026
▁zv	-11.0263
▁kroničn	-11.0265
▁danijel	-11.0265
▁gradovima	-11.0267
▁zu	-11.0268
▁crnoj	-11.0272
▁prihvati	-11.0272
▁ljestvici	-11.0274
▁ozbiljan	-11.0274
▁prekrasno	-11.0274
▁stanovništva	-11.0274
▁naranče	-11.0274
▁vjerovali	-11.0275
lića	-11.0275
▁gorivo	-11.0277
▁dušu	-11.0278
▁argument	-11.0279
▁liječniku	-11.0281
▁bos	-11.0281
▁godišnji	-11.0282
sada	-11.0283
kl	-11.0285
▁kinezi	-11.0287
▁pronađe	-11.029
▁prošlost	-11.029
ček	-11.0298
▁dub	-11.0299
▁načinu	-11.0301
▁konstantno	-11.0301
▁domianom	-11.0303
▁eksplozija	-11.0303
▁analize	-11.0303
▁1997.	-11.0303
▁smeće	-11.0303
▁oznaka	-11.0303
▁traju	-11.0308
▁najnovije	-11.031
▁brad	-11.0311
▁dopusti	-11.0313
▁uzgoj	-11.0314
▁započeti	-11.0316
▁brodova	-11.0317
slo	-11.0318
▁pripadnik	-11.0323
▁bake	-11.0324
▁dovoljna	-11.0325
▁rješavanje	-11.0328
▁zamjenu	-11.0331
▁premier	-11.0332
▁pažljivo	-11.0332
▁mađarska	-11.0332
▁zime	-11.0334
▁000	-11.0335
▁diana	-11.0336
▁razlozi	-11.0339
▁političkoj	-11.0339
▁pisan	-11.0343
▁autobusa	-11.0344
▁plesa	-11.0348
▁primili	-11.0348
▁glasine	-11.035
▁uzme	-11.0351
▁energetsk	-11.0354
▁emocionalno	-11.036
▁fizičke	-11.036
▁renault	-11.036
▁sljedećoj	-11.036
▁naročito	-11.036
▁kinu	-11.036
▁dolaskom	-11.0361
▁subote	-11.0362
▁taman	-11.0362
▁hoću	-11.0362
▁73	-11.0362
▁plaži	-11.0363
▁2,5	-11.0366
▁vezane	-11.0366
▁koncu	-11.037
▁dočekali	-11.0378
▁frank	-11.038
▁prijavi	-11.0381
▁parfem	-11.0381
sić	-11.0384
▁rukometn	-11.0384
čina	-11.0387
▁dnevn	-11.0388
▁bes	-11.0388
kn	-11.0388
▁leonard	-11.0389
▁borili	-11.0391
▁navijač	-11.0391
▁treningu	-11.0392
▁atletico	-11.0392
▁svađe	-11.0393
▁prikuplja	-11.0394
▁incidenta	-11.0395
▁govorim	-11.0396
▁noću	-11.0397
▁njeno	-11.0397
vođenja	-11.0405
▁jasan	-11.0407
▁bogate	-11.041
ire	-11.0412
▁turistički	-11.0412
▁konjsk	-11.0414
des	-11.0416
▁cho	-11.0417
▁biskvit	-11.0418
▁objašnjenje	-11.0418
▁zla	-11.0418
▁hvata	-11.042
▁dokazi	-11.042
▁traktor	-11.0421
▁plana	-11.0422
▁razvijati	-11.0427
▁mirovinsk	-11.0428
▁predao	-11.0428
▁podnio	-11.0428
▁gume	-11.043
▁napor	-11.043
▁republika	-11.0434
▁općina	-11.0435
▁prekomjern	-11.0437
▁76	-11.0437
▁80-	-11.0438
▁gora	-11.0439
▁novinama	-11.0441
▁prestižn	-11.0441
▁daljnji	-11.0444
bb	-11.0445
8.	-11.0445
▁nacionalni	-11.0446
▁funkcije	-11.0447
▁grubnić	-11.0448
▁plaćaju	-11.0452
▁jazz	-11.0456
▁crveno	-11.0457
▁gradski	-11.0457
▁australsk	-11.0459
▁opa	-11.0459
▁logično	-11.0462
▁pokušavao	-11.0463
▁radnike	-11.0463
gura	-11.0464
▁obećava	-11.0464
▁nabaviti	-11.0466
evima	-11.0467
▁gel	-11.0471
▁okuplja	-11.0472
▁brun	-11.0473
▁sendvič	-11.0474
▁nekretnine	-11.0476
▁održao	-11.0476
▁ozbiljne	-11.0476
▁potraga	-11.0476
▁zatvoren	-11.0477
▁ukrao	-11.0479
▁bogdanović	-11.048
▁story	-11.048
▁granicu	-11.048
▁školsk	-11.0481
▁naruči	-11.0484
▁prostorije	-11.0485
▁ekstrem	-11.0486
▁ferrari	-11.0486
tjera	-11.0487
▁pisanju	-11.0489
▁sr	-11.049
▁podržavaju	-11.049
▁pripremite	-11.0495
▁vagi	-11.0497
▁ključna	-11.0497
▁ex	-11.05
ples	-11.0501
▁bože	-11.0502
letjela	-11.0503
čkih	-11.0503
stal	-11.0505
▁doživljaj	-11.0506
▁mandžukić	-11.0506
▁trgovinu	-11.0506
▁blažević	-11.0506
▁kosovu	-11.0506
▁bijes	-11.0506
▁suncu	-11.051
▁oka	-11.0512
ovanje	-11.0512
▁metoda	-11.0512
čkoj	-11.0523
▁prostorima	-11.0524
▁ustavni	-11.0526
nike	-11.0526
?'	-11.0528
▁hod	-11.0529
▁truda	-11.053
▁brige	-11.053
▁tešku	-11.0531
▁definira	-11.0531
▁koalicija	-11.0535
▁zajednici	-11.0535
▁vojsku	-11.0535
▁trenutke	-11.0535
jević	-11.0537
▁jones	-11.0539
▁medvjed	-11.054
▁jutarnj	-11.0541
▁y	-11.0544
cc	-11.0544
▁vitamin	-11.0545
▁detaljima	-11.0545
▁dnu	-11.0547
▁skupu	-11.0549
▁obožavatelje	-11.0553
▁dijeliti	-11.0555
▁vatrogasaca	-11.0558
▁inspektor	-11.0558
▁stručni	-11.0558
tova	-11.056
▁nauči	-11.0563
11	-11.0563
▁prag	-11.0563
▁osiguran	-11.0564
▁ukraden	-11.0564
▁obračun	-11.0566
▁fla	-11.0566
▁sjever	-11.0567
▁uniji	-11.0568
▁glazbene	-11.0568
▁povratku	-11.0569
▁sjedio	-11.0571
▁pretvoriti	-11.0578
▁teškom	-11.0582
▁kliničk	-11.0583
▁optužio	-11.0583
▁rublje	-11.0586
lop	-11.0587
mina	-11.059
▁svećenika	-11.0591
▁provjere	-11.0592
▁zakup	-11.0593
▁thompson	-11.0594
▁potragu	-11.0594
▁potiču	-11.0594
▁radnik	-11.0594
ike	-11.0594
▁dovela	-11.0595
▁čašu	-11.0595
nko	-11.0597
▁redovima	-11.0598
75	-11.0599
▁oboljelih	-11.0599
▁radikaln	-11.0602
jih	-11.0602
▁umjetnost	-11.0608
ovanja	-11.0608
▁japansk	-11.061
▁moćni	-11.0612
▁filmove	-11.0612
▁800	-11.0612
▁službenim	-11.0613
▁aspekt	-11.0615
▁82	-11.0615
▁čiste	-11.0616
▁viši	-11.0617
▁jogurt	-11.0618
▁bitna	-11.0619
▁predložio	-11.0619
▁pulsk	-11.0619
▁matić	-11.0621
▁kućni	-11.0622
▁aplikacija	-11.0623
▁trajalo	-11.0623
▁(42)	-11.0623
▁nadimak	-11.0624
▁frizer	-11.0625
▁princeza	-11.0626
▁mladima	-11.0628
nar	-11.0629
▁play	-11.0629
vca	-11.063
▁rog	-11.0631
▁nov	-11.0632
▁starta	-11.0635
▁jesen	-11.0635
▁high	-11.0636
▁napušten	-11.0636
▁sumnjiv	-11.0636
▁važnije	-11.0637
▁najdraži	-11.0638
▁dopis	-11.0641
▁penala	-11.0643
▁ostanu	-11.0643
▁ponoviti	-11.0644
▁ruši	-11.0647
▁osjetljiv	-11.0647
▁sila	-11.0647
pao	-11.0648
▁uvođenje	-11.0649
▁lea	-11.0649
▁davati	-11.0651
▁novosti	-11.0651
▁wal	-11.0652
▁nalik	-11.0652
▁istražuje	-11.0653
▁izdržati	-11.0653
▁prirodne	-11.0653
▁engleskoj	-11.0654
▁burger	-11.0654
▁odgovora	-11.0657
▁popović	-11.0659
ote	-11.0659
▁drukčije	-11.066
▁litara	-11.0661
vara	-11.0665
▁oporbe	-11.0665
▁varga	-11.0666
▁(22)	-11.0666
▁izvrsno	-11.067
rot	-11.067
▁doktori	-11.067
rast	-11.0674
▁muzej	-11.0674
▁iskoristi	-11.0674
▁proveden	-11.0682
▁držala	-11.0683
▁rončević	-11.0683
▁lopez	-11.0683
▁zeleno	-11.0684
tala	-11.0686
▁energija	-11.0687
▁limun	-11.0688
▁moli	-11.069
▁sestara	-11.0691
▁ubila	-11.0691
▁alarm	-11.0694
▁snimila	-11.0694
sion	-11.0695
▁trup	-11.0697
▁lan	-11.0698
bacite	-11.0699
▁laboratorij	-11.07
▁doživjeti	-11.07
▁miro	-11.0701
▁državnim	-11.0703
▁stopa	-11.0705
▁privatnosti	-11.0708
▁dodaj	-11.071
▁očekivali	-11.0713
▁reakciju	-11.0713
▁zajedničke	-11.0713
▁znanstveno	-11.0713
▁ekipu	-11.0713
▁dapače	-11.0713
▁datuma	-11.0715
▁ranjen	-11.0716
▁boston	-11.0718
▁radovi	-11.0718
ići	-11.0723
▁članka	-11.0724
mara	-11.0725
▁naletio	-11.0726
▁sapun	-11.073
▁biskup	-11.0731
▁kal	-11.0734
▁čo	-11.0736
▁dalmaciji	-11.0743
▁zaslužio	-11.0743
▁širok	-11.0745
jmo	-11.075
▁prsa	-11.075
▁imovinsk	-11.0751
▁jezera	-11.0751
▁(24)	-11.0752
▁osvrnuo	-11.0752
▁potencijalno	-11.0754
▁postavi	-11.0754
▁košarkaš	-11.0757
▁udio	-11.0761
▁skandala	-11.0761
▁bivšem	-11.0764
▁son	-11.0767
▁različiti	-11.0768
▁razvoda	-11.0769
▁ključno	-11.0769
▁starog	-11.0771
glav	-11.0772
▁površinu	-11.0773
▁(47)	-11.0773
▁vranješ	-11.0773
▁lutka	-11.0774
▁najniž	-11.0774
▁poveo	-11.0775
▁druženja	-11.0776
▁optužnica	-11.0777
tora	-11.0779
▁strasti	-11.0779
▁predizborn	-11.0781
▁tortu	-11.0782
▁upravljanja	-11.0783
▁kliku	-11.0784
▁rasporedu	-11.0786
▁bijelu	-11.0788
▁novak	-11.0789
▁ključni	-11.079
▁spremno	-11.0794
▁ginekolog	-11.0803
▁ljepote	-11.0803
▁prebačen	-11.0803
▁pomoglo	-11.0803
▁pregovora	-11.0803
▁središnj	-11.0803
▁posjeduje	-11.0804
▁theres	-11.0806
▁kažnjava	-11.0806
▁prljav	-11.0806
▁130	-11.0807
▁vrijeđa	-11.0808
opa	-11.0808
▁humor	-11.081
▁plavi	-11.0815
▁jose	-11.0819
▁golmana	-11.082
▁duha	-11.0821
▁live	-11.0822
▁međunarodnog	-11.0823
▁koz	-11.0824
(	-11.0825
▁mlad	-11.0826
▁sudačk	-11.0827
▁bub	-11.0829
▁vrijedno	-11.0832
▁prijeći	-11.0832
▁prepreka	-11.0833
▁ryan	-11.0833
▁jakov	-11.0835
▁doseg	-11.0837
▁uređen	-11.0838
▁nacionalnu	-11.0838
▁posluša	-11.0839
▁ministri	-11.0841
▁kraće	-11.0843
▁ruže	-11.0844
▁ograničenja	-11.0846
▁postanu	-11.0848
čani	-11.0849
▁vidljivo	-11.085
▁polja	-11.0853
▁širenje	-11.0853
kat	-11.0853
misli	-11.0854
▁romana	-11.0857
vest	-11.0858
▁duše	-11.0859
▁stala	-11.0859
▁dužnosnik	-11.0861
▁oliver	-11.0861
▁pedofil	-11.0863
▁najljepše	-11.0863
▁prestane	-11.0863
▁slična	-11.0864
▁umjetni	-11.0865
▁katastrofa	-11.0867
▁posvetio	-11.0869
▁vojni	-11.0871
▁smjera	-11.0872
▁blogu	-11.0873
▁čilić	-11.0874
▁orban	-11.0876
▁graničn	-11.0876
cent	-11.0877
▁izvrsn	-11.0877
▁trgovački	-11.0881
▁parkiran	-11.0882
▁sjeo	-11.0884
zdrav	-11.0884
▁poče	-11.0885
mora	-11.0885
▁modno	-11.0886
▁otvorili	-11.0887
▁filmski	-11.0887
▁aba	-11.0887
▁zahvalio	-11.0888
▁eventualno	-11.0892
▁stanova	-11.0893
▁marihuane	-11.0894
sch	-11.0896
▁prelijte	-11.0897
▁mentor	-11.09
▁desnice	-11.09
▁potraži	-11.0901
rbi	-11.0902
▁radna	-11.0906
▁sličnih	-11.0907
▁bračni	-11.0908
▁težinu	-11.0908
▁maslinovo	-11.0912
▁ruskog	-11.0912
▁drag	-11.0914
▁najboljem	-11.0915
▁ometa	-11.0915
▁urednik	-11.0916
▁nezavisn	-11.0916
▁elektro	-11.0918
▁josipović	-11.0922
▁crnom	-11.0922
▁razočara	-11.0923
▁frizuru	-11.0924
▁taylor	-11.0924
▁vlasnica	-11.0925
▁strahu	-11.0925
▁čista	-11.0925
▁promiješajte	-11.0926
mat	-11.0927
▁snimci	-11.0927
▁nagradni	-11.0932
ljena	-11.0934
▁tara	-11.0935
▁ps	-11.0938
pis	-11.0942
▁aleksandra	-11.0943
ula	-11.0947
izacije	-11.095
▁premijerka	-11.095
▁slijep	-11.0953
▁emisiju	-11.0955
▁pamćenje	-11.0955
▁supruzi	-11.0955
▁izradu	-11.0955
▁praksi	-11.0955
▁zabrana	-11.0956
▁singl	-11.0958
oči	-11.0959
▁brz	-11.0959
▁negativne	-11.0961
▁prometnu	-11.0961
▁žalost	-11.0963
▁rođendana	-11.0964
▁gledajući	-11.0966
▁ocem	-11.0969
▁bijelog	-11.0971
▁nadaju	-11.0973
▁kupci	-11.0975
▁odbacio	-11.0976
▁zaraditi	-11.0976
▁zaustavlja	-11.0976
▁kriminalističk	-11.0979
▁donji	-11.098
tch	-11.0981
▁obratiti	-11.0981
izaciju	-11.0984
dis	-11.0985
▁hercegovini	-11.0985
▁maltretira	-11.0985
▁ressler	-11.0985
▁predsjednici	-11.0985
▁prijestolja	-11.0985
▁klupe	-11.0985
▁potpora	-11.0985
▁prepričava	-11.0985
▁izvesti	-11.0986
▁gorana	-11.0988
▁odigra	-11.0989
▁popularna	-11.099
▁mars	-11.0993
▁stvori	-11.0993
▁banci	-11.0994
▁razumijevanje	-11.0995
lud	-11.0995
▁sugerira	-11.0996
▁(20	-11.0997
stre	-11.0998
▁petrović	-11.0999
▁džep	-11.1003
žite	-11.1008
▁harryja	-11.1014
škom	-11.1015
▁šir	-11.1016
▁depresije	-11.1016
▁terapije	-11.1016
▁(43)	-11.1016
▁najjači	-11.1016
▁priopćenje	-11.1016
tura	-11.1017
ničar	-11.1017
čice	-11.1018
▁francuskog	-11.1019
▁predstavi	-11.1019
▁nastave	-11.1019
ranje	-11.102
▁prerano	-11.1022
▁intenzivno	-11.1023
vidi	-11.1023
▁pozicija	-11.1024
▁panel	-11.1029
▁nijedan	-11.1033
nis	-11.1034
▁pametni	-11.1035
▁vrhnje	-11.1036
▁pl	-11.1039
▁fini	-11.104
onal	-11.1046
▁potencijaln	-11.1046
▁vis	-11.1046
▁klopp	-11.1047
▁boeing	-11.1047
▁gornji	-11.1049
▁braće	-11.1051
▁srednjoj	-11.1052
nina	-11.1054
▁pokrenuli	-11.1054
▁ocu	-11.1061
▁pavić	-11.1064
▁električnih	-11.1064
▁draga	-11.1066
▁maleni	-11.1068
▁stranih	-11.1068
šev	-11.1069
▁nježno	-11.1076
▁milijardu	-11.1078
▁oreščanin	-11.1078
▁prihvaćen	-11.1078
▁uspješan	-11.1078
▁dobavljač	-11.1078
▁neviđen	-11.1078
▁terapija	-11.1079
▁engleskog	-11.1079
▁zvonimir	-11.1079
▁komičar	-11.1081
▁spolno	-11.1081
▁nepoznati	-11.1081
▁tečaj	-11.1082
▁moraln	-11.1083
▁prodaja	-11.1084
▁nives	-11.1087
spite	-11.1089
jela	-11.1091
▁lijevi	-11.1092
▁71	-11.1092
▁tar	-11.1093
▁neuro	-11.1096
tel	-11.1099
▁ispunjava	-11.1102
bot	-11.1105
▁peći	-11.1106
▁žestoko	-11.1108
▁pripremaju	-11.1108
▁poduzeća	-11.1109
▁potvrđuje	-11.1109
▁uzastopn	-11.1109
▁ujedinjeni	-11.1109
rila	-11.1113
▁razmišljao	-11.1114
kali	-11.1116
▁trendove	-11.1117
ari	-11.1119
▁74	-11.1119
▁modelu	-11.112
▁čekala	-11.112
▁bijeg	-11.1121
▁jasna	-11.1124
▁poslovima	-11.1124
nga	-11.1125
raj	-11.1127
-16	-11.1129
▁suho	-11.1129
▁zakonski	-11.1129
▁sitno	-11.113
lio	-11.1133
▁navika	-11.1133
▁mami	-11.1134
▁bek	-11.1137
▁tuš	-11.1137
▁nadbiskup	-11.1139
▁1/2	-11.114
▁kom	-11.114
▁palm	-11.114
▁kandidatkinja	-11.1141
▁medalju	-11.1142
▁služe	-11.1142
▁poboljša	-11.1145
▁portala	-11.1147
▁sredine	-11.1147
▁zor	-11.1148
▁kuhati	-11.1148
čev	-11.1152
▁saznao	-11.1153
▁print	-11.1159
▁konce	-11.1161
▁eksperiment	-11.1162
šku	-11.1163
telja	-11.1163
▁prihvatili	-11.1164
▁fonda	-11.1164
▁zara	-11.1166
valo	-11.117
▁arhitekt	-11.1171
▁smanjio	-11.1171
▁ogroman	-11.1171
▁trudnoću	-11.1171
▁odabrao	-11.1171
▁prisutni	-11.1171
▁dostupna	-11.1171
▁pritiskom	-11.1172
▁odrasle	-11.1172
▁optužnice	-11.1173
▁nicolas	-11.1173
▁majicu	-11.1174
▁upisao	-11.1174
▁bliži	-11.1176
▁fanove	-11.1176
▁bus	-11.1178
▁većih	-11.1179
▁sportaša	-11.118
▁droga	-11.1183
▁državljanin	-11.1185
▁stvarnosti	-11.1185
▁sara	-11.1187
▁gorice	-11.1188
▁uredno	-11.1195
niju	-11.1195
zar	-11.1197
▁zahtjeve	-11.1197
▁you	-11.1197
▁bolničk	-11.1198
▁poremećaja	-11.1198
▁svjedok	-11.1198
▁plzen	-11.12
▁77	-11.12
▁jugu	-11.1201
čili	-11.1201
▁trgovinama	-11.1201
▁požaru	-11.1201
▁čuvati	-11.1203
▁ubojice	-11.1203
▁dolasku	-11.1203
▁plaćen	-11.1204
▁potrebama	-11.1204
▁fotografiji	-11.1205
▁vegan	-11.1205
▁lino	-11.1208
▁nazad	-11.1209
obi	-11.121
▁air	-11.1211
liku	-11.1211
▁povezana	-11.1212
▁napade	-11.1214
boli	-11.1216
▁prijevremen	-11.1218
▁vrući	-11.1219
▁kob	-11.122
14	-11.1222
▁donalda	-11.1222
▁kora	-11.1226
▁bogata	-11.1228
▁dijagnosticiran	-11.123
▁ovogodišnji	-11.1231
▁ukus	-11.1233
hit	-11.1233
▁šminke	-11.1234
▁zamjena	-11.1234
▁potvrdu	-11.1234
▁20.000	-11.1234
▁drugačija	-11.1235
▁ispi	-11.1236
▁eventualn	-11.1236
▁nekoć	-11.1238
▁punu	-11.1239
budi	-11.1243
▁denis	-11.1245
▁ubacio	-11.1246
▁upozna	-11.1248
▁uvjerljivo	-11.1252
voz	-11.1258
▁sever	-11.1261
▁doris	-11.1261
▁počast	-11.1261
▁dizajner	-11.1262
▁kokaina	-11.1262
▁engleske	-11.1266
▁kolekcija	-11.1266
▁sudjelovalo	-11.1266
▁vjetra	-11.1266
▁oženio	-11.1266
▁postignut	-11.1266
▁glasnogovornica	-11.1267
▁šlag	-11.1267
▁partija	-11.1268
▁naknadno	-11.1268
▁osigurali	-11.1268
▁18-	-11.1274
▁talijanskog	-11.1274
▁emisija	-11.1275
▁praktično	-11.1276
▁priuštiti	-11.1277
▁određenim	-11.1279
ani	-11.128
▁modri	-11.1281
▁rit	-11.1283
▁kopa	-11.1283
▁gospodina	-11.1286
▁zlatni	-11.1287
▁otopi	-11.1288
▁sistem	-11.1289
kta	-11.1289
▁cityja	-11.1292
▁ostvarila	-11.1297
ijih	-11.1297
▁dolazio	-11.1297
▁>>>	-11.1297
▁andrija	-11.1298
▁posade	-11.1298
▁vatri	-11.13
▁čijem	-11.13
▁vrhunac	-11.13
▁kokain	-11.1301
▁zvučn	-11.1304
dna	-11.1305
▁hormona	-11.1306
▁hitler	-11.1306
▁cipela	-11.1306
▁talentiran	-11.1307
▁sky	-11.1308
▁zaustavi	-11.1309
▁razmišljaju	-11.131
zni	-11.131
▁porno	-11.1314
▁zaštićen	-11.1314
▁islam	-11.1314
car	-11.1318
28	-11.1326
▁različita	-11.1327
▁izraela	-11.1328
▁osobom	-11.1329
▁pojavljuju	-11.1329
▁posljednjoj	-11.1329
▁sankcije	-11.1329
▁lokacije	-11.1329
▁soka	-11.1329
▁organizma	-11.133
▁ženske	-11.133
▁seksualnog	-11.133
▁kultura	-11.133
▁zet	-11.133
▁institut	-11.1331
▁ispostavilo	-11.1332
▁kardinal	-11.1333
▁mer	-11.1333
▁ski	-11.1333
▁tramvaj	-11.1333
▁engleskom	-11.1334
djela	-11.1335
▁svetog	-11.1336
▁konzumira	-11.1339
ruk	-11.1342
▁q	-11.1345
▁poginuli	-11.1345
▁službenika	-11.1346
▁bed	-11.1348
▁leda	-11.1349
▁režima	-11.1349
▁kolegica	-11.1352
▁pekar	-11.1357
▁skinuti	-11.1357
▁stradao	-11.1357
29	-11.1357
▁infrastrukture	-11.1361
▁medicinska	-11.1361
▁terapiju	-11.1361
▁ručnik	-11.1361
▁prep	-11.1361
▁šansa	-11.1362
▁kol	-11.1362
▁sumnjiči	-11.1362
▁nastaje	-11.1362
▁promila	-11.1363
▁komšić	-11.1364
▁postera	-11.1364
▁političkom	-11.1365
nti	-11.1366
▁slavna	-11.1367
▁iznenađenja	-11.1368
gru	-11.1369
▁zagrijte	-11.1369
▁marković	-11.137
▁nuklearn	-11.1372
▁°	-11.1373
▁uništiti	-11.1374
▁lijevo	-11.1376
▁dario	-11.1377
▁uključiti	-11.138
▁pojačan	-11.1384
▁izlaze	-11.1388
▁rupe	-11.1389
▁plaćati	-11.139
▁izvukao	-11.1391
▁dostupan	-11.1393
▁zagrljaj	-11.1393
izacija	-11.1393
▁koktel	-11.1394
▁zabranu	-11.1394
▁kredite	-11.14
▁dubok	-11.1401
▁okruženju	-11.1402
▁plakati	-11.1402
▁ronalda	-11.1402
▁duž	-11.1404
vno	-11.1405
▁račune	-11.1407
▁konja	-11.1407
form	-11.1407
dućih	-11.1408
▁zaštititi	-11.1411
▁logor	-11.1411
▁manjina	-11.1413
▁kakvih	-11.1413
▁fali	-11.1415
▁emotivn	-11.1419
26	-11.1424
pres	-11.1424
▁autorsk	-11.1425
▁komunikaciju	-11.1425
▁ugljikohidrata	-11.1425
▁mrtva	-11.1425
▁naselju	-11.1426
▁televizija	-11.1426
▁partizan	-11.1428
▁uključeni	-11.1429
▁angažiran	-11.1431
▁kvalifikacija	-11.1434
▁prosječna	-11.1435
▁minus	-11.1437
▁smatrali	-11.1437
▁muža	-11.1439
▁londona	-11.1439
▁skijaš	-11.144
▁klijent	-11.1441
ssa	-11.1441
▁facebooka	-11.1442
▁probati	-11.1442
mislim	-11.1443
▁ulica	-11.1444
dati	-11.1449
▁faze	-11.1451
▁najvažnijih	-11.1451
▁dominira	-11.1452
ida	-11.1452
▁časopisu	-11.1453
▁trenirao	-11.1453
itet	-11.1453
fil	-11.1454
▁sinom	-11.1456
▁assange	-11.1457
▁dvorište	-11.1457
▁tkiva	-11.1457
▁uzgaja	-11.1457
▁sdss	-11.1457
▁todorić	-11.1457
▁transport	-11.1457
▁hzzo	-11.1457
▁kurikulum	-11.1458
▁obiteljsko	-11.1459
▁aferi	-11.1459
▁poslom	-11.1459
▁puk	-11.146
▁boluje	-11.1461
▁vijek	-11.1461
▁plamen	-11.1462
uče	-11.1462
ičar	-11.1463
▁protokol	-11.1464
▁koristila	-11.1465
▁prodao	-11.1466
▁plave	-11.1467
▁neprijatelj	-11.1468
▁toalet	-11.147
▁profesorica	-11.1472
▁leta	-11.1473
▁muški	-11.1475
fin	-11.1476
hy	-11.148
▁djelatnika	-11.148
▁jesmo	-11.1482
▁održavanja	-11.1482
▁cla	-11.1484
▁odgovorno	-11.1485
▁tvrtkama	-11.1486
▁ostvarili	-11.1487
▁roštilj	-11.1488
▁prilagođen	-11.1489
▁hranjiv	-11.1489
▁antonija	-11.1492
▁bas	-11.1492
▁taksi	-11.1493
▁avionu	-11.1494
▁tamno	-11.1496
ves	-11.1497
▁prov	-11.1497
▁zadnjem	-11.1497
rine	-11.1499
▁pogodila	-11.1504
▁my	-11.1505
lle	-11.1506
kala	-11.151
mira	-11.1513
▁radnom	-11.1516
▁ker	-11.1516
▁svakome	-11.1517
▁ukloni	-11.1518
▁dalmacije	-11.1522
▁oglasio	-11.1522
▁sramota	-11.1523
▁anto	-11.1523
▁10-	-11.1523
▁naporno	-11.1524
▁ukloniti	-11.1524
▁pričali	-11.1524
▁knjižarama	-11.1524
▁macron	-11.1525
▁matt	-11.1525
▁martić	-11.1527
▁prst	-11.1528
▁iznose	-11.1528
▁šokirala	-11.1531
▁bik	-11.1531
▁živce	-11.1532
▁blaž	-11.1532
▁donje	-11.1532
▁zaključiti	-11.1533
▁stvarnost	-11.1535
▁odvoji	-11.1536
▁izborne	-11.1536
ther	-11.1537
▁loših	-11.1538
▁tak	-11.1539
dob	-11.154
▁ponoći	-11.154
▁povezanost	-11.1541
▁dočekati	-11.1544
67	-11.1544
▁predstavila	-11.1545
▁očekujem	-11.155
▁1500	-11.1551
▁obližnj	-11.1553
evo	-11.1553
▁asistencije	-11.1554
▁odabrali	-11.1554
▁prekinuo	-11.1554
▁cnn	-11.1554
▁bježi	-11.1554
▁greške	-11.1555
▁proteina	-11.1556
▁tužitelj	-11.1556
▁disanje	-11.1557
rke	-11.1557
▁šumi	-11.1558
biju	-11.1559
▁klase	-11.1559
▁navela	-11.156
▁ovan	-11.156
ill	-11.156
▁pustili	-11.1561
▁zidu	-11.1561
▁smatrao	-11.1563
pala	-11.1565
▁vrećica	-11.1565
▁ramena	-11.1566
▁učenje	-11.1569
▁stalni	-11.1569
▁postotak	-11.157
▁mobiln	-11.1571
▁zabrinuti	-11.1573
▁salata	-11.1573
33	-11.1575
▁mediteransk	-11.1576
glu	-11.1581
▁važni	-11.1584
▁sadašnji	-11.1586
iv	-11.1586
▁hladnjaku	-11.1587
▁milojko	-11.1587
▁iznenađenjima	-11.1587
▁stotinjak	-11.1587
▁odjeća	-11.1587
▁vele	-11.1588
▁ritam	-11.1588
▁pazite	-11.1589
▁upozorenje	-11.1592
▁izgrađen	-11.1594
▁sjeveru	-11.1594
▁milorad	-11.1596
▁ovakvih	-11.1596
čnih	-11.1599
▁krši	-11.1601
▁lokalnim	-11.1601
▁primijetiti	-11.1603
▁tipičn	-11.1603
▁srpskih	-11.1603
lozi	-11.1605
▁dovelo	-11.1606
▁prilagoditi	-11.1607
▁zone	-11.1607
▁salate	-11.1609
nge	-11.161
▁parkira	-11.161
▁bala	-11.1611
▁roberta	-11.1611
▁srbin	-11.1615
▁ikakve	-11.162
▁grudnjak	-11.162
▁guaido	-11.162
▁kretanja	-11.162
▁paula	-11.162
▁zabavni	-11.162
▁voditelja	-11.1621
▁gledamo	-11.1623
▁rus	-11.1626
▁napali	-11.1626
▁omogućio	-11.1626
▁čekam	-11.1626
hrani	-11.1628
▁marketing	-11.1629
već	-11.163
▁(3	-11.163
▁zanimljiva	-11.163
▁košarkašk	-11.1631
▁prepoznali	-11.1632
▁poli	-11.1633
▁zapita	-11.1633
▁testiranja	-11.1633
▁parišk	-11.1634
▁održavaju	-11.1638
▁(2	-11.1639
▁tajnosti	-11.1641
▁japanu	-11.1646
miješa	-11.1648
▁poboljšava	-11.1649
▁mislimo	-11.1652
ros	-11.1652
▁ispitivanja	-11.1652
▁opisala	-11.1653
▁gabrijela	-11.1653
▁moderni	-11.1655
▁podizanje	-11.1655
▁savršenog	-11.1656
▁naoružan	-11.1656
▁pliva	-11.1658
▁(19)	-11.1658
▁isprva	-11.1659
mjesečn	-11.166
▁vezani	-11.1662
▁značiti	-11.1662
▁predviđen	-11.1662
▁računati	-11.1666
▁znanost	-11.1667
▁provedeno	-11.1669
▁tvom	-11.1669
▁vojnik	-11.1672
▁najam	-11.1673
▁brkića	-11.1674
▁obračuna	-11.1675
▁branitelj	-11.1675
cher	-11.1675
▁liniji	-11.1676
dobro	-11.1676
▁odigrati	-11.1677
▁prigovor	-11.1677
▁ulaze	-11.1677
▁ocijeni	-11.1679
▁cilju	-11.168
▁točan	-11.168
▁guardian	-11.1685
▁putovati	-11.1686
▁event	-11.1686
▁tragično	-11.1686
▁medalje	-11.1687
▁bruxelles	-11.1693
▁prste	-11.1694
▁hladnjak	-11.1694
▁sl	-11.1694
evoj	-11.1695
▁boca	-11.1696
▁upoznat	-11.1698
▁stekao	-11.1699
▁element	-11.17
▁lagan	-11.1701
▁bacite	-11.1705
▁dokumente	-11.1705
▁mamića	-11.1707
▁vukovar	-11.1708
▁osudio	-11.1709
▁beograda	-11.1711
▁suv	-11.1711
▁staru	-11.1711
▁nosili	-11.1711
▁prihvatljiv	-11.1714
▁razumijem	-11.1717
▁procjene	-11.1718
▁stiglo	-11.1718
▁(50)	-11.1718
▁jadransk	-11.1718
▁meksičk	-11.1719
▁vezama	-11.1719
▁ljudski	-11.172
..."	-11.1721
▁crvenog	-11.1721
▁brži	-11.1723
▁ženom	-11.1723
▁poslovnog	-11.1724
▁upute	-11.1724
▁odradili	-11.1733
▁sandra	-11.1734
▁domaćem	-11.1735
▁dc	-11.1744
sport	-11.1745
▁sjeti	-11.1745
▁tribinama	-11.1747
▁mislav	-11.1751
pit	-11.1751
▁sljedeća	-11.1751
▁svlačionici	-11.1751
čine	-11.1752
▁skinuo	-11.1752
▁vrećice	-11.1752
▁nadi	-11.1753
▁rusk	-11.1758
▁negira	-11.1759
▁spar	-11.176
seks	-11.176
▁suradnik	-11.1761
▁šibenik	-11.1761
▁robu	-11.1763
▁plesn	-11.1764
▁sudaca	-11.1765
ranja	-11.1766
▁preživjeli	-11.177
▁slomljen	-11.1772
▁trofeja	-11.1777
▁cap	-11.1777
▁plovi	-11.1778
▁dodat	-11.1778
▁ludo	-11.1778
još	-11.1779
▁youtubeu	-11.1779
▁koncerta	-11.1782
▁benfica	-11.1785
▁kolekcije	-11.1785
▁pogreška	-11.1785
▁posvuda	-11.1785
▁saamopetraa	-11.1785
▁snažna	-11.1785
▁izabrati	-11.1785
▁podigao	-11.1785
▁mirovina	-11.1785
▁grah	-11.1786
▁dvojac	-11.1786
▁otkrijte	-11.1787
▁tumači	-11.1789
▁ribar	-11.179
klon	-11.179
▁navedeno	-11.1791
▁išta	-11.1795
▁gradnju	-11.1796
▁nade	-11.1798
▁određeno	-11.1801
▁njemačkom	-11.1804
▁predstavili	-11.1807
▁rodio	-11.1807
5.	-11.1808
▁poboljšati	-11.1809
ićem	-11.1812
▁pule	-11.1815
▁vukovara	-11.1816
▁ponovi	-11.1816
▁youtuber	-11.1817
▁djetinjstvo	-11.1818
▁zbunjen	-11.1818
▁budžet	-11.1818
▁fotku	-11.1818
▁dnk	-11.1822
▁prevelik	-11.1822
▁dora	-11.1823
▁horor	-11.1823
▁prometni	-11.1828
▁stupi	-11.1828
šiti	-11.1828
▁propisa	-11.183
▁teksta	-11.183
▁odrediti	-11.1831
▁99	-11.1831
▁danijela	-11.1832
▁puder	-11.1832
▁slom	-11.1835
▁stavljen	-11.1837
rinu	-11.1838
▁as	-11.1839
▁domaćim	-11.1845
▁snove	-11.1845
▁či	-11.1845
oze	-11.1845
my	-11.1845
▁gradom	-11.1846
▁hrabrosti	-11.1849
▁pozivaju	-11.1849
▁zaborav	-11.1849
▁smrtno	-11.185
▁mrtav	-11.1851
▁nevjerojatan	-11.1851
▁četrdeset	-11.1851
▁ukratko	-11.1851
▁(49)	-11.1851
▁naselja	-11.1851
▁zalogaj	-11.1852
▁žlicu	-11.1852
▁katarina	-11.1853
▁pristao	-11.1854
▁desne	-11.1856
▁pohod	-11.1856
▁biraju	-11.1857
▁vremenski	-11.1861
▁plaćanja	-11.1861
▁snažni	-11.1862
ez	-11.1862
▁sofi	-11.1864
▁notre	-11.1864
▁razbija	-11.1866
▁kreativni	-11.1869
▁lovren	-11.187
▁elitn	-11.1872
▁dostupni	-11.1878
stari	-11.188
▁obožavaju	-11.188
▁zajedničkog	-11.188
▁svježeg	-11.1884
▁utvrđen	-11.1884
▁mrzi	-11.1884
▁križaljkama	-11.1885
▁proživljava	-11.1885
▁temperaturi	-11.1885
▁uspjelo	-11.1885
▁rekavši	-11.1885
▁držali	-11.1885
▁metode	-11.1885
▁cvijet	-11.1885
▁jagode	-11.1885
▁božinović	-11.1886
▁amazon	-11.1886
▁dućan	-11.1887
▁balon	-11.1888
▁razbio	-11.1889
▁350	-11.1891
▁lansira	-11.1893
▁povod	-11.1894
▁gledala	-11.1894
▁kilogram	-11.1894
▁ručno	-11.1895
▁turniru	-11.1896
▁razmišljanje	-11.1898
▁itko	-11.1899
▁čović	-11.1899
▁pronađena	-11.19
▁izvijestili	-11.1901
▁pokojni	-11.1903
▁proslavila	-11.1905
▁kam	-11.1906
vis	-11.1906
▁nered	-11.1906
▁preuzela	-11.1909
▁vjero	-11.1915
▁djevojaka	-11.1919
▁genocid	-11.1919
▁precool	-11.1919
▁trajanju	-11.1919
▁zaručnik	-11.1919
▁sakriti	-11.1919
▁ognjen	-11.1919
▁opasan	-11.1919
▁praksa	-11.1919
▁chodom	-11.1919
▁propada	-11.192
▁djelu	-11.1922
▁klinci	-11.1923
▁šuma	-11.1925
▁zabrinutost	-11.1925
▁prenijeti	-11.1925
▁pomno	-11.1926
▁specijal	-11.1927
▁jna	-11.1931
▁visokih	-11.1931
▁front	-11.1935
▁plati	-11.1938
▁ministara	-11.194
▁razmjer	-11.194
▁fokusira	-11.1942
▁uporno	-11.1943
▁spavala	-11.1943
▁sun	-11.1944
▁desetaka	-11.1945
▁antun	-11.1945
▁horvatinčić	-11.1952
▁jugoslaviji	-11.1952
▁glatko	-11.1952
▁trčanje	-11.1952
▁1989.	-11.1952
▁masnoća	-11.1953
▁specijaliziran	-11.1953
▁kazališn	-11.1954
▁troše	-11.1954
▁andrić	-11.1954
▁zaštita	-11.1954
▁tajnu	-11.1954
▁bitan	-11.1957
▁čaja	-11.1957
▁natjera	-11.1961
▁temama	-11.1962
vukao	-11.1962
▁ugljen	-11.1963
lnog	-11.1964
▁pilota	-11.1966
▁sličnim	-11.1969
▁hal	-11.1969
rani	-11.197
▁projektima	-11.197
zz	-11.1973
▁hrskav	-11.1975
▁ludi	-11.1976
tivno	-11.1976
▁tempo	-11.1982
▁bivših	-11.1982
▁green	-11.1984
▁kilometra	-11.1986
▁reprezentaciji	-11.1986
▁obnovu	-11.1986
▁(45)	-11.1986
▁tehnika	-11.1986
▁palfi	-11.1987
▁octa	-11.1987
▁južne	-11.1988
▁gin	-11.1991
▁ustraj	-11.1991
▁upravljao	-11.1995
▁koraka	-11.1996
▁listić	-11.1998
▁mlađa	-11.1999
▁jačanje	-11.1999
!'.	-11.1999
▁zabiti	-11.2001
▁pridružio	-11.2001
▁dokazano	-11.2002
▁bolove	-11.2003
▁obranio	-11.2004
▁mljeven	-11.2006
▁dočeka	-11.2007
▁kriva	-11.2007
▁maha	-11.201
▁pin	-11.2012
▁nijemci	-11.2016
▁prost	-11.2019
▁studio	-11.202
▁hajrović	-11.202
▁ves	-11.2021
▁udari	-11.2021
▁zvezde	-11.2022
▁christian	-11.2022
▁malena	-11.2022
▁78	-11.2023
usa	-11.2024
▁partnerica	-11.2025
▁nm	-11.2029
▁dobiven	-11.2029
▁životno	-11.2029
▁darova	-11.2036
▁mateo	-11.2037
▁plenkoviću	-11.204
▁branič	-11.2043
▁žestok	-11.2044
▁suradnika	-11.2045
▁kanala	-11.2046
čkim	-11.2049
ere	-11.205
▁(20)	-11.2052
▁plj	-11.2052
▁dna	-11.2053
▁ozbiljna	-11.2054
▁perspektive	-11.2054
▁započinje	-11.2054
▁tužbe	-11.2054
▁zaslužan	-11.2054
▁đoković	-11.2054
▁jenner	-11.2055
▁odijelo	-11.2056
▁vječno	-11.2056
▁mišiće	-11.2057
▁dulji	-11.2059
▁snižen	-11.2059
▁rim	-11.2062
▁lokal	-11.2063
▁davne	-11.2064
▁uvjeriti	-11.2064
▁fotka	-11.2066
▁portalu	-11.2068
▁potpisali	-11.2068
▁smiješno	-11.2068
▁koncertu	-11.2069
▁kritika	-11.2069
▁pečenja	-11.2072
jedno	-11.2073
pravda	-11.2074
▁zadnjeg	-11.2076
▁takozvan	-11.2076
vih	-11.2076
''.	-11.2077
jedna	-11.2078
▁terorističk	-11.2078
▁dionica	-11.2078
▁ad	-11.2079
▁starih	-11.2083
▁bavio	-11.2084
▁duško	-11.2084
▁richard	-11.2087
▁vodstvom	-11.2087
▁drugdje	-11.2089
▁arhiv	-11.2089
▁tribine	-11.2089
▁užitak	-11.2089
▁grmoja	-11.2089
▁uniteda	-11.2089
▁sirom	-11.209
spi	-11.2091
▁zimsk	-11.2092
▁najvažnija	-11.2092
▁salatu	-11.2093
▁starom	-11.2094
▁brodogradilište	-11.2095
▁bandiću	-11.2096
ovcu	-11.2098
▁prijedloga	-11.2098
dva	-11.2099
▁mašta	-11.21
▁porsche	-11.2102
▁sindrom	-11.2103
▁raspravlja	-11.2103
▁petrino	-11.2106
▁nabavi	-11.2107
▁iskusni	-11.211
▁bolesni	-11.2111
▁plakat	-11.2111
bert	-11.2114
▁misija	-11.2114
▁sk	-11.2118
▁brzi	-11.2119
tati	-11.2119
rdi	-11.2122
▁asistent	-11.2123
▁demokratske	-11.2123
▁katoličke	-11.2123
▁konferencija	-11.2123
▁polovice	-11.2123
▁palačinke	-11.2123
▁ultra	-11.2123
▁daruvarac	-11.2123
▁fotografijom	-11.2124
▁ameriku	-11.2124
▁popularan	-11.2124
dnevn	-11.2125
▁vol	-11.2129
▁glumio	-11.213
▁pamti	-11.2133
▁problemu	-11.214
▁zatražila	-11.214
▁84	-11.2141
▁dogovoriti	-11.2141
▁posvetiti	-11.2142
▁drvo	-11.2142
evu	-11.2144
▁radničk	-11.2144
▁utvrdila	-11.2144
▁inspiriran	-11.2145
▁pjevaju	-11.2147
▁struk	-11.2148
tvo	-11.2149
▁odabrani	-11.2149
▁odrasta	-11.2149
▁upis	-11.215
puca	-11.2152
rović	-11.2153
▁pomislio	-11.2153
▁morski	-11.2154
▁redovn	-11.2155
▁anonimn	-11.2156
vele	-11.2157
▁dalmacija	-11.2157
▁policajca	-11.2157
▁postigli	-11.2157
▁djevica	-11.2157
▁spavao	-11.2158
▁potraživanja	-11.2159
▁kakvog	-11.2161
▁čokoladn	-11.2163
▁izdvojiti	-11.2164
▁bulj	-11.2164
▁pohvaliti	-11.2165
▁vladajuće	-11.2166
our	-11.2166
▁zainteresirani	-11.2168
con	-11.2169
▁kritizira	-11.217
▁mrtvih	-11.217
▁dodatna	-11.217
▁digitalne	-11.217
▁direktorica	-11.2172
▁multi	-11.2174
▁wales	-11.2174
▁sarah	-11.2176
▁moždani	-11.2179
tti	-11.2184
spava	-11.2186
viti	-11.2191
▁najbitnije	-11.2192
▁četvrtfinalu	-11.2192
▁naočale	-11.2192
▁jabuke	-11.2192
▁kremast	-11.2194
▁predvodi	-11.2195
▁kvadrata	-11.2195
šević	-11.2199
▁organizirao	-11.22
▁kaput	-11.2201
▁istraži	-11.2207
▁istine	-11.2207
rok	-11.2209
▁židovsk	-11.221
▁boce	-11.2216
▁razmišljam	-11.2217
▁zabija	-11.2217
▁prekinut	-11.2218
tika	-11.2218
▁navedeni	-11.2222
▁znanstveni	-11.2223
▁nominiran	-11.2225
▁ljubitelj	-11.2226
▁frizure	-11.2227
▁plastične	-11.2227
▁četvrtfinale	-11.2227
▁analizu	-11.2227
▁all	-11.2227
▁izgradnje	-11.2227
▁opskrb	-11.2227
▁opasni	-11.2228
▁uživali	-11.223
▁uvesti	-11.223
▁...	-11.2232
▁šo	-11.2233
izirati	-11.2235
▁zabranjeno	-11.2235
▁proziva	-11.2236
▁divno	-11.2236
▁ravnateljica	-11.2236
▁zatvorena	-11.2236
tanje	-11.2238
telji	-11.2239
▁stručno	-11.2239
▁otp	-11.2241
▁pacijenta	-11.2241
▁king	-11.2243
▁lijekovi	-11.2244
▁zatražiti	-11.2245
mio	-11.2246
kog	-11.2249
▁studij	-11.225
▁alternativn	-11.225
▁prijavili	-11.2251
▁jure	-11.2253
▁trenirati	-11.2253
▁specijalist	-11.2253
▁saša	-11.2256
lagati	-11.2256
▁glasno	-11.2261
®	-11.2262
▁najavljuje	-11.2262
▁kameru	-11.2262
▁duhovit	-11.2262
▁uhvaćen	-11.2262
▁sudom	-11.2262
▁kazališta	-11.2262
▁optužnici	-11.2263
▁posljednjim	-11.2264
▁zbilja	-11.2264
▁vrhunsko	-11.2265
rska	-11.2265
▁pravne	-11.2265
lak	-11.2266
▁nagađa	-11.2267
▁soa	-11.2267
▁francuz	-11.2269
▁modele	-11.227
▁karl	-11.2273
▁karla	-11.2274
▁siniša	-11.2275
▁optuženi	-11.2279
llo	-11.2279
▁sektor	-11.2283
▁vene	-11.229
ntu	-11.2291
▁izbaciti	-11.2291
▁turista	-11.2294
▁blagdan	-11.2295
▁nacional	-11.2296
▁intenzitet	-11.2297
▁poginula	-11.2297
▁pokazale	-11.2297
▁prirodu	-11.2297
▁organizaciju	-11.2297
▁oštri	-11.2297
▁klinike	-11.2297
▁maternice	-11.2297
▁nabave	-11.2297
istički	-11.2297
▁pravim	-11.2299
▁sudski	-11.23
ben	-11.23
▁preuzima	-11.23
▁odveli	-11.2301
kralj	-11.2303
▁oprema	-11.2305
▁pokušavali	-11.2305
njeg	-11.231
▁potrošača	-11.2311
▁lošeg	-11.2313
100	-11.2316
▁zatvoriti	-11.2316
rry	-11.2318
yl	-11.2318
▁ogradu	-11.2321
▁pridruži	-11.2325
▁počnu	-11.2325
▁lici	-11.2329
▁novčani	-11.2329
▁muče	-11.233
▁skupštini	-11.2332
▁venezueli	-11.2332
▁izgradnji	-11.2332
▁tijesta	-11.2332
▁uslugu	-11.2332
▁dodjele	-11.2332
▁pristaje	-11.2332
▁sarajeva	-11.2332
▁zauzima	-11.2332
▁mađarskoj	-11.2332
▁utvrdi	-11.2335
▁angelesu	-11.2335
rač	-11.2338
▁radija	-11.2339
!'	-11.234
▁znalo	-11.2341
▁složili	-11.2343
▁pere	-11.2344
tini	-11.2345
▁vrtića	-11.2345
▁ovakvo	-11.2345
▁šume	-11.2346
▁blažen	-11.2347
▁djelatnosti	-11.2347
vci	-11.2347
▁potrošiti	-11.2348
▁valentina	-11.2348
▁lidija	-11.2349
▁slični	-11.2349
▁časopis	-11.2354
▁hajdukov	-11.2357
▁papira	-11.2359
▁zanimanje	-11.236
▁tinejdžer	-11.236
▁vanjski	-11.236
▁hrabro	-11.2362
▁gorica	-11.2364
▁epizode	-11.2367
▁pobjegla	-11.2367
▁povlači	-11.2367
▁zlatnu	-11.2367
▁poljske	-11.2368
▁popravi	-11.2371
ono	-11.2373
▁stoper	-11.2373
▁cijevi	-11.2376
▁smiren	-11.2376
▁kartu	-11.2377
▁odabran	-11.2377
▁znat	-11.2379
▁iznenadila	-11.2381
▁korisnicima	-11.2382
▁zapadu	-11.2382
▁desetke	-11.2383
▁60-	-11.2384
▁stola	-11.2386
▁bandićev	-11.2386
▁slobodni	-11.2387
▁tuđmana	-11.2387
▁down	-11.2387
▁slabije	-11.2387
yo	-11.2388
▁kras	-11.2389
lima	-11.2391
▁imenovan	-11.2393
▁izum	-11.2396
▁događaje	-11.2396
▁održiv	-11.2397
▁životinjama	-11.2398
▁nanosi	-11.24
▁silu	-11.2401
▁procuril	-11.2401
▁79	-11.2402
▁muškarcu	-11.2402
▁sveučilište	-11.2402
▁obaveze	-11.2403
▁posjetitelja	-11.2404
▁vjerujte	-11.2408
▁etničk	-11.2409
▁izložen	-11.2409
irano	-11.241
▁zahvaliti	-11.2415
plan	-11.2416
▁nastupio	-11.2417
▁lijepu	-11.2417
▁war	-11.2421
▁ken	-11.2425
▁ugleda	-11.2425
▁momenta	-11.2426
▁ratova	-11.2427
▁pronađeni	-11.2427
▁složiti	-11.243
▁tražimo	-11.2432
▁emotivno	-11.2434
▁ris	-11.2434
▁konzum	-11.2435
▁najdraže	-11.2438
▁prisutan	-11.2438
▁2021.	-11.2438
▁civila	-11.2438
▁kratke	-11.2438
▁vraćen	-11.2438
▁povezati	-11.2438
▁rebić	-11.2439
▁uvjerljiv	-11.244
dav	-11.2442
▁ormar	-11.2443
▁tulum	-11.2444
▁upozorila	-11.2445
▁ubrzava	-11.2446
▁šminka	-11.2447
▁podrum	-11.2448
▁genijaln	-11.2451
▁volju	-11.2453
▁korake	-11.2453
▁svjež	-11.2455
▁umjetnik	-11.2456
▁dijalog	-11.2457
▁najčešći	-11.2458
▁pripremio	-11.246
▁županijskom	-11.2462
renja	-11.2463
▁vice	-11.2471
▁kompromis	-11.2473
▁konkurenciji	-11.2473
▁polufinala	-11.2473
▁slobodne	-11.2473
▁televiziju	-11.2473
▁verzije	-11.2473
▁čokolada	-11.2473
▁avanture	-11.2473
▁pohađa	-11.2473
▁predstavu	-11.2473
▁veteran	-11.2473
▁zagrli	-11.2475
manje	-11.2475
▁4000	-11.2475
▁drame	-11.2476
▁prijateljstva	-11.2477
jaka	-11.2479
▁johnson	-11.248
▁sirup	-11.248
▁legendarn	-11.248
prava	-11.2481
▁žila	-11.2481
vnu	-11.2481
▁izvana	-11.2483
▁javna	-11.2483
▁formule	-11.2484
▁ispravno	-11.2485
▁britanskog	-11.2485
▁učenicima	-11.2486
▁snimili	-11.2487
▁milanu	-11.2489
▁blok	-11.2492
▁zaigrati	-11.2492
▁namjera	-11.2494
▁grana	-11.2495
▁većeg	-11.2495
▁razgovore	-11.2497
▁popiti	-11.2497
▁kolumbij	-11.25
▁proslavi	-11.2501
▁dip	-11.2501
▁gospodar	-11.2501
▁podsjećaju	-11.2503
▁hajduku	-11.2507
jskog	-11.2508
roz	-11.2508
▁novinarka	-11.2508
▁vukovaru	-11.2509
▁zakone	-11.2509
▁trudnoća	-11.2509
▁verziji	-11.2509
▁naglasiti	-11.2509
▁international	-11.2509
▁lete	-11.251
▁kockice	-11.251
▁osigurala	-11.2514
▁andre	-11.2516
▁dozu	-11.2518
▁probavn	-11.2519
▁napomenuti	-11.2519
▁lovro	-11.2519
▁suci	-11.2521
▁rijetkih	-11.2525
▁nemoć	-11.2527
▁ispriča	-11.2527
▁doktora	-11.2528
▁izrađen	-11.2531
▁odjelu	-11.2531
-11	-11.2533
▁financiranje	-11.2536
▁ljubitelji	-11.2539
▁mornar	-11.2539
▁japanski	-11.254
▁interesu	-11.254
▁pritvor	-11.2541
▁sudar	-11.2541
▁suvremen	-11.2543
▁studenata	-11.2545
▁zasluženo	-11.2545
▁komunaln	-11.2545
▁vodostaj	-11.2545
▁funkcija	-11.2545
▁turističke	-11.2545
▁suđeno	-11.2546
▁staze	-11.2549
▁olakša	-11.2549
▁omekša	-11.255
▁vozilu	-11.2551
▁jeftin	-11.2552
kcija	-11.2552
jske	-11.2557
▁četvrto	-11.2558
▁trebam	-11.256
▁mlađim	-11.2561
▁sektora	-11.2564
▁tita	-11.2564
▁pojedinih	-11.2564
▁87	-11.2565
▁odraslih	-11.2568
ologije	-11.2569
▁istok	-11.257
▁kongres	-11.2571
▁organa	-11.2572
zam	-11.2573
▁50.000	-11.2575
tici	-11.2575
▁pravno	-11.2577
▁katastrofaln	-11.2577
▁dejan	-11.2578
▁ljudske	-11.2581
▁poljskoj	-11.2581
▁pregovore	-11.2581
▁veličina	-11.2581
▁matea	-11.2581
▁kost	-11.2582
▁dvojicu	-11.2583
▁kriza	-11.2583
▁pozdravlja	-11.2585
▁cooper	-11.2586
▁zvati	-11.2587
▁pravda	-11.259
▁siriji	-11.2591
▁južnoj	-11.2592
▁pregovara	-11.2594
▁bayerna	-11.2596
▁komadi	-11.2597
▁čitanje	-11.2598
▁mršav	-11.2599
▁spušta	-11.2602
▁krem	-11.2603
▁nestali	-11.2603
▁osobnosti	-11.2604
▁stvorili	-11.2605
▁onom	-11.2605
▁počasti	-11.2605
▁bračn	-11.2606
tike	-11.2606
▁sitni	-11.2607
▁pričala	-11.2607
▁formu	-11.2609
▁ph	-11.2609
▁gust	-11.261
▁pratitelje	-11.2611
36	-11.2611
▁povezane	-11.2615
▁barcelonu	-11.2617
▁najbrži	-11.2617
▁ovlašten	-11.2617
▁pjesmi	-11.2617
▁preporuka	-11.2617
▁napominju	-11.2617
▁silovao	-11.2617
▁okupili	-11.2617
▁́	-11.2617
▁jastuk	-11.2617
▁napisati	-11.2618
▁spomenuo	-11.2618
▁majice	-11.2622
▁daljnj	-11.2623
▁saborsk	-11.2623
▁pisma	-11.2624
▁kosovo	-11.2625
▁joe	-11.2626
▁3000	-11.2626
irane	-11.2627
▁troj	-11.2627
▁terorist	-11.2629
▁brojna	-11.2629
▁sjedala	-11.2631
▁nestalo	-11.2633
▁williams	-11.2633
▁adam	-11.2634
▁holivudsk	-11.2635
mann	-11.2636
▁prim	-11.2637
▁putnici	-11.2639
▁određenih	-11.264
rob	-11.2641
▁odluče	-11.2648
▁liječnica	-11.2653
▁regionalni	-11.2653
▁tužna	-11.2653
▁iznutra	-11.2653
▁silovanje	-11.2653
▁sočne	-11.2654
▁dira	-11.2655
▁privući	-11.2656
▁poljima	-11.2657
▁društveni	-11.2658
▁sunčev	-11.266
▁zaražen	-11.266
▁uzbudljiv	-11.266
vedi	-11.2661
▁isproba	-11.2661
▁pit	-11.2665
▁spašavanja	-11.2666
▁osmo	-11.2666
65	-11.2668
▁svojevrsn	-11.2669
▁zadovoljava	-11.267
jedan	-11.2677
▁emitira	-11.2681
▁biljka	-11.2681
▁88	-11.2684
▁potvrđeno	-11.2685
▁medved	-11.2688
▁sredstvima	-11.2689
▁varteks	-11.269
▁okršaj	-11.269
▁škoro	-11.269
▁podnijela	-11.269
▁austrije	-11.269
▁slavnih	-11.269
▁namjeru	-11.269
▁sazna	-11.2692
▁ponašati	-11.2693
▁turske	-11.2695
▁podne	-11.2695
ville	-11.2697
▁kolica	-11.2698
▁mačke	-11.2699
▁tekstu	-11.27
▁prikaz	-11.2701
▁slavila	-11.2701
▁spola	-11.2701
može	-11.2703
ćom	-11.2704
▁spremi	-11.2704
▁odrastao	-11.2706
▁okolici	-11.2707
▁napustila	-11.2708
▁dodali	-11.2709
▁olimpijsk	-11.271
▁šalica	-11.2711
▁lažnih	-11.2712
▁zmaj	-11.2714
▁potražiti	-11.2717
▁donjem	-11.2718
▁maska	-11.2718
▁uzrokova	-11.2721
▁prodan	-11.2721
▁uništio	-11.2721
▁nastupiti	-11.2723
▁staro	-11.2724
▁atmosferi	-11.2726
▁ljetne	-11.2726
▁površini	-11.2726
▁pratnji	-11.2726
▁prekinula	-11.2726
▁prijetnji	-11.2726
▁krenu	-11.2726
▁masnoće	-11.2727
tama	-11.2728
18	-11.2729
▁sjede	-11.2731
▁očaj	-11.2731
▁solo	-11.2732
▁svjet	-11.2735
▁lijeve	-11.2737
▁rupa	-11.2739
63	-11.274
▁obnovi	-11.2741
▁razviti	-11.2741
mit	-11.2743
▁kažnjen	-11.2743
▁benzin	-11.2745
▁sklad	-11.2746
▁šećerom	-11.2751
▁vladin	-11.2752
▁jednak	-11.2755
▁karamarko	-11.2758
▁posjetili	-11.2759
▁vatreni	-11.2759
▁ozbiljnije	-11.276
▁učenik	-11.2762
▁impresivn	-11.2763
▁pravosuđe	-11.2763
▁lokaciji	-11.2763
▁umrijeti	-11.2763
▁kretanje	-11.2763
▁6-4	-11.2764
▁vitaln	-11.2764
ćem	-11.2765
▁ispitan	-11.2765
▁open	-11.2765
▁prestao	-11.2766
▁pojam	-11.277
▁american	-11.277
▁pretjera	-11.277
▁kosovsk	-11.277
▁yu	-11.2771
▁titov	-11.2773
▁prosvjednici	-11.2774
▁sjevernom	-11.2774
▁kotače	-11.2776
▁jagoda	-11.2777
▁prizna	-11.2777
▁sačuva	-11.2778
▁opušten	-11.2778
▁kuka	-11.2781
▁radost	-11.2781
▁rezerviran	-11.2781
▁paru	-11.2782
šle	-11.2783
rp	-11.2784
▁ratnog	-11.2792
▁puknu	-11.2793
▁obavijesti	-11.2794
▁pink	-11.2794
▁zadržava	-11.2796
▁rana	-11.2799
▁cestovn	-11.2799
▁djevojkom	-11.2799
▁eintracht	-11.2799
▁ponedjeljka	-11.2799
▁lončar	-11.2799
▁ruske	-11.2799
▁trajanja	-11.2799
▁jadran	-11.28
▁udalji	-11.28
▁poražen	-11.28
▁dvorane	-11.28
▁raspravi	-11.28
▁osjećamo	-11.2803
drug	-11.2804
▁rudeš	-11.2806
▁vuče	-11.2806
▁matej	-11.2807
▁maria	-11.2807
▁kvalitetan	-11.281
▁punjenje	-11.2811
▁duša	-11.2813
dne	-11.2814
▁trećine	-11.2815
▁naprave	-11.2816
▁uložiti	-11.2817
▁izvršni	-11.2817
▁mare	-11.2817
▁globalno	-11.2819
▁vojnici	-11.2819
▁vladimira	-11.2821
▁balet	-11.2825
▁primila	-11.2825
▁visoku	-11.2826
▁ključnih	-11.2826
▁otkup	-11.2834
▁računu	-11.2835
▁bora	-11.2836
▁faza	-11.2836
▁izvanredno	-11.2836
▁nasjeckan	-11.2836
▁jednostavne	-11.2836
▁sugovornica	-11.2836
▁turskoj	-11.2836
▁tužbu	-11.2836
▁hrabri	-11.2836
vine	-11.2836
▁alexander	-11.2836
▁eurosongu	-11.2837
▁grozni	-11.2838
▁sanadera	-11.2839
▁tvog	-11.2841
▁sor	-11.2841
▁ugrožava	-11.2842
zak	-11.2845
▁pošten	-11.2846
▁njenu	-11.2847
▁viđa	-11.285
▁gospodarski	-11.2851
▁bill	-11.2852
▁oprostiti	-11.2852
▁institucijama	-11.2854
▁rezultatom	-11.2855
ević	-11.2856
▁krivu	-11.2856
▁jana	-11.2856
▁stefan	-11.2858
nic	-11.286
▁nadzora	-11.2863
▁suca	-11.2864
▁dno	-11.2865
▁pozornosti	-11.2867
▁arena	-11.2869
nove	-11.2869
▁pratiteljima	-11.2872
▁zdravka	-11.2873
▁čarobn	-11.2873
▁cvijeća	-11.2873
▁izvještava	-11.2873
▁pobjednici	-11.2873
▁tehnologiju	-11.2873
▁vojvotkinja	-11.2873
▁sprovod	-11.2873
▁ženska	-11.2874
▁željezničk	-11.2876
▁roditeljsk	-11.2876
▁medalja	-11.2876
lijte	-11.2878
▁rublja	-11.2878
ličnu	-11.288
▁iznosa	-11.2881
rz	-11.2882
▁sezonsk	-11.2883
▁auti	-11.2885
▁starijih	-11.2885
▁prah	-11.2886
▁trgovačkog	-11.2887
▁lovi	-11.2888
plesa	-11.2889
▁lijeka	-11.2891
▁znanstvenika	-11.2891
▁otkriveno	-11.2894
▁konačni	-11.2895
ljka	-11.2896
▁primanja	-11.2898
▁došle	-11.2899
▁obožavateljima	-11.29
▁osobnim	-11.29
▁naučili	-11.29
▁materijaln	-11.2902
way	-11.2903
▁savršena	-11.2904
▁telefonski	-11.2906
▁1⁄	-11.291
▁francusku	-11.291
▁ocjenu	-11.291
▁relevantn	-11.291
▁reuters	-11.291
▁trijumf	-11.2911
▁ovakvu	-11.2911
▁(48)	-11.2911
▁ponuđen	-11.2911
▁primjera	-11.2912
▁ten	-11.2913
ologiju	-11.2913
▁operativn	-11.2913
▁struke	-11.2914
▁takvoj	-11.2915
▁oguli	-11.2916
▁čestitam	-11.2919
▁prijateljski	-11.292
7.	-11.292
mol	-11.292
▁količinama	-11.2923
▁sjediti	-11.2928
▁poginulih	-11.2929
▁domaćeg	-11.2933
▁najs	-11.2934
▁prepoznaju	-11.2937
▁najveć	-11.2937
▁posebni	-11.2938
▁oduzima	-11.2939
▁članku	-11.294
▁portugal	-11.2941
▁propustio	-11.2941
gori	-11.2941
▁frend	-11.2942
▁osnovan	-11.2943
▁mma	-11.2944
▁vlastitih	-11.2945
ys	-11.2945
▁nastupe	-11.2945
▁osnovao	-11.2946
▁zajedničku	-11.2948
▁započeli	-11.2948
▁(52)	-11.2948
▁utemeljen	-11.2948
▁adresi	-11.2948
▁ankete	-11.2948
▁kazalištu	-11.2948
▁istoimen	-11.2948
▁slavu	-11.2949
▁anketi	-11.2949
▁znanstvenik	-11.2949
▁čestit	-11.295
▁austrijski	-11.2951
▁pustio	-11.2951
▁svjesno	-11.2952
▁uhvatio	-11.2952
veza	-11.2954
▁natjecatelji	-11.2954
▁istih	-11.2955
▁istaknut	-11.2957
▁mane	-11.2957
▁stane	-11.2959
▁juventusa	-11.296
▁legendarnog	-11.2962
▁šarm	-11.2962
dana	-11.2963
▁nestalih	-11.2964
▁očekivano	-11.2965
▁spora	-11.2966
▁jarac	-11.2967
▁redatelja	-11.2967
▁vjerni	-11.2968
▁usporava	-11.2969
▁najljepši	-11.297
▁poduzeti	-11.2971
▁nenada	-11.2972
ćeg	-11.2975
▁održana	-11.2975
▁vjeru	-11.2976
▁prihvatila	-11.2977
▁charlotte	-11.2985
▁epizodu	-11.2985
▁lajkova	-11.2985
▁plastična	-11.2985
▁siromašni	-11.2986
▁madež	-11.2986
▁kelly	-11.2986
▁talijanska	-11.2987
▁roditi	-11.2988
▁beljak	-11.2989
▁nogom	-11.299
▁objekt	-11.2991
stani	-11.2992
▁značajan	-11.2992
▁saznanja	-11.2993
▁kratki	-11.2994
▁doživjeli	-11.2994
▁testiranje	-11.2994
▁pozvati	-11.2998
▁hep	-11.3
▁prilagodi	-11.3
▁zapošljavanje	-11.3002
rce	-11.3005
▁kruga	-11.3009
▁140	-11.3012
▁pisanje	-11.3014
▁ronald	-11.3019
sil	-11.3019
▁posljednju	-11.3023
▁dostupne	-11.3023
▁reforma	-11.3023
▁prestaje	-11.3023
▁odbili	-11.3023
psi	-11.3023
▁jar	-11.3026
▁proizvodnji	-11.3026
▁šestero	-11.3027
▁kineske	-11.3028
▁dodatnu	-11.303
▁korišten	-11.303
▁fotografira	-11.3032
▁upravi	-11.3032
▁mari	-11.3036
▁lopov	-11.3037
▁profesora	-11.3039
▁raš	-11.3042
▁srčani	-11.3045
▁nacionalnih	-11.3047
▁vještina	-11.3048
▁balkon	-11.3051
▁brazilac	-11.3051
▁born	-11.3052
▁proširio	-11.3056
▁izbaci	-11.306
▁cvjeta	-11.3061
▁kulinarsk	-11.3061
▁uspješna	-11.3061
▁proizvođači	-11.3061
▁šaulić	-11.3061
▁vožnja	-11.3061
▁odustao	-11.3061
▁struktura	-11.3061
▁operaciji	-11.3061
▁stotinu	-11.3061
▁vrhunske	-11.3062
win	-11.3067
▁jamči	-11.3071
sin	-11.3071
▁školske	-11.3074
jere	-11.3076
▁izbjeglica	-11.3076
▁press	-11.3083
▁teškog	-11.3084
▁zaboravi	-11.309
▁mesni	-11.3091
▁vili	-11.3093
nošću	-11.3095
▁legende	-11.3097
▁jeziv	-11.3099
▁deseci	-11.3099
▁prestala	-11.3099
▁70-	-11.31
▁narezan	-11.31
▁učio	-11.3101
▁odvod	-11.3101
▁novost	-11.3103
kru	-11.3104
▁zamijenio	-11.3105
▁potpisan	-11.3106
▁ovisnosti	-11.3109
▁probudio	-11.3109
▁razvijaju	-11.3111
▁plakala	-11.3111
▁oduševljenje	-11.3112
▁glazbenika	-11.3113
sjed	-11.3114
uri	-11.3114
▁umirovljeni	-11.3115
▁zadovoljiti	-11.3117
▁oružjem	-11.3117
▁sand	-11.312
▁nijemac	-11.3121
▁bebi	-11.3124
off	-11.3124
vost	-11.3127
▁jasmin	-11.313
▁dolazili	-11.3131
▁sektoru	-11.3132
zla	-11.3132
▁logora	-11.3133
▁svijetom	-11.3133
▁kakvim	-11.3134
▁ispu	-11.3136
▁business	-11.3137
▁cosmopolitan	-11.3137
▁federer	-11.3137
▁natjecanjima	-11.3137
▁populacije	-11.3137
▁nakratko	-11.3137
▁lee	-11.3137
▁zabrane	-11.3138
▁stali	-11.3138
vani	-11.3138
▁leo	-11.3138
▁primi	-11.3138
▁oporavi	-11.3139
.”	-11.3145
▁fbi	-11.3147
▁stratešk	-11.3148
▁zlostavljao	-11.3148
▁studiji	-11.3148
▁black	-11.3148
▁zidane	-11.3149
▁kazali	-11.315
▁vidiš	-11.3151
mena	-11.3152
▁pojavile	-11.3152
▁iznenaditi	-11.3152
▁kupaca	-11.3154
▁dija	-11.3155
▁ljubavno	-11.3157
▁najstariji	-11.3159
▁namaz	-11.3162
▁punim	-11.3163
▁novce	-11.3168
▁kupcima	-11.3169
▁maduro	-11.317
nsku	-11.3172
▁dogovoru	-11.3173
kcijom	-11.3174
▁bivšoj	-11.3175
▁platforme	-11.3175
▁zadržao	-11.3175
▁slovenija	-11.3175
▁(55)	-11.3175
▁inspiracija	-11.3175
▁nestanka	-11.3175
▁predivno	-11.3175
▁korisno	-11.3175
▁postelji	-11.3176
qui	-11.3176
▁preživjela	-11.3177
▁potpuni	-11.3178
▁opciju	-11.3179
▁eteričn	-11.3179
▁uljem	-11.318
▁određena	-11.318
▁ostatke	-11.318
▁manjim	-11.3181
▁moždanog	-11.3182
bro	-11.3184
▁prenio	-11.3185
▁uzrokovan	-11.3185
šut	-11.3185
▁demokrati	-11.3186
▁seksualna	-11.3186
▁najnoviji	-11.3189
tona	-11.3191
▁diže	-11.3191
▁ov	-11.3194
5.000	-11.3195
sva	-11.3196
ksa	-11.3197
▁fanovima	-11.3197
▁original	-11.3199
▁polje	-11.3201
▁suzama	-11.3203
▁zakonsk	-11.3204
▁govoru	-11.3206
▁kraljevsko	-11.3206
▁tony	-11.3208
▁unija	-11.3208
▁zatražili	-11.3209
▁smatramo	-11.321
▁mirni	-11.3211
▁pogledao	-11.3211
▁rap	-11.3211
▁dlan	-11.3212
▁identiteta	-11.3213
▁istaknuli	-11.3213
▁ljestvice	-11.3213
▁prilagođava	-11.3213
▁supružnici	-11.3213
▁besplatni	-11.3213
▁svakim	-11.3214
▁najviši	-11.3215
▁raketa	-11.3215
▁uspon	-11.3217
▁istrazi	-11.3217
▁komentirajući	-11.3217
▁katu	-11.3217
▁hiv	-11.3217
▁doktorat	-11.3218
▁tenisačica	-11.3218
▁pošteno	-11.3219
▁ravnopravn	-11.3221
▁brazilsk	-11.3223
▁isplatiti	-11.3224
ara	-11.3225
▁napušta	-11.3226
ludi	-11.3226
bs	-11.3228
▁bezbroj	-11.3228
▁primijetila	-11.3231
▁drven	-11.3231
rge	-11.3233
▁stub	-11.3234
▁masa	-11.3236
▁cjelokupn	-11.3236
▁berlinu	-11.3237
▁baciti	-11.3237
▁ive	-11.3239
sona	-11.3239
▁današnjeg	-11.3241
▁ulaže	-11.3243
▁veleposlanik	-11.3243
▁30.000	-11.3247
▁okrugl	-11.3247
▁boksač	-11.325
▁europarlamentar	-11.3251
▁najskuplji	-11.3251
▁livaković	-11.3251
▁barišić	-11.3252
▁slatke	-11.3252
▁kalinić	-11.3252
▁vjere	-11.3252
▁odlasku	-11.3253
▁povlačenja	-11.3254
▁klubovima	-11.3255
tine	-11.3258
▁padu	-11.3258
▁tadašnj	-11.326
▁johna	-11.326
▁stupanj	-11.3261
▁rame	-11.3264
▁predmete	-11.3266
▁life	-11.3268
▁radnje	-11.3268
▁fino	-11.3268
▁razočaran	-11.327
▁fine	-11.3272
▁slabo	-11.3272
nsi	-11.3279
▁sestri	-11.328
slika	-11.328
▁viška	-11.328
▁opisu	-11.3282
nki	-11.3282
▁šalju	-11.3284
▁ren	-11.3286
▁zlostavlja	-11.3287
▁štrajk	-11.3289
▁slobodi	-11.329
▁duvnjak	-11.329
▁prodavao	-11.329
▁prakse	-11.329
▁svrha	-11.3291
▁obilježen	-11.3292
▁sportaš	-11.3293
▁media	-11.3294
▁ozlijeđeni	-11.3296
svoje	-11.3297
▁namjere	-11.3299
▁izgraditi	-11.3301
▁organizirali	-11.3302
▁koreja	-11.3302
▁najpopularnijih	-11.3303
▁snimati	-11.3304
▁otvorene	-11.3306
peri	-11.3307
▁osvajanje	-11.3308
▁bernard	-11.3309
nine	-11.331
▁gay	-11.3311
▁obvezni	-11.3313
▁britansk	-11.3314
▁korisnike	-11.3315
▁predstavljati	-11.3316
▁platili	-11.3316
▁učitelj	-11.3319
▁nadjev	-11.332
hdz	-11.3321
▁primjeraka	-11.3321
pravo	-11.3323
▁prosvjedu	-11.3324
▁dogovoren	-11.3324
▁davao	-11.3326
▁đakić	-11.3328
▁uhićeni	-11.3328
▁zamišlja	-11.3329
▁1945.	-11.3329
▁energijom	-11.3329
▁curry	-11.3329
▁ideal	-11.3329
▁potvrda	-11.333
▁italija	-11.333
▁hor	-11.3331
▁spremnik	-11.3333
▁ostaci	-11.3334
▁četvornih	-11.3334
▁zaigrao	-11.3336
▁formalno	-11.3339
nskoj	-11.334
▁središnje	-11.3341
▁programe	-11.3342
zg	-11.3342
▁1,2	-11.3342
▁izjavama	-11.3343
▁odigran	-11.3345
▁trudnica	-11.3345
▁jeseni	-11.3345
▁tunel	-11.3347
▁službenom	-11.335
nakon	-11.335
tični	-11.335
▁pate	-11.3352
▁lijevom	-11.3352
▁86	-11.3353
jski	-11.3353
▁vlažn	-11.3356
▁odbijen	-11.3358
▁dostavi	-11.3359
▁gradskih	-11.3359
▁držite	-11.336
▁protok	-11.3361
vne	-11.3361
▁kožn	-11.3362
▁javili	-11.3366
▁senzor	-11.3368
▁nečemu	-11.3368
▁dominik	-11.3369
▁australije	-11.3369
▁uzvratio	-11.337
▁roger	-11.337
▁zagovara	-11.3371
▁apelira	-11.3373
▁amerika	-11.3375
▁spasila	-11.3375
▁večere	-11.3376
▁kunu	-11.3378
▁bonus	-11.3379
▁89	-11.338
▁progon	-11.3382
cijski	-11.3382
▁azil	-11.3382
▁ugovore	-11.3382
▁počasni	-11.3383
▁mrtvo	-11.3384
▁plast	-11.3385
bori	-11.3386
▁nogometna	-11.3391
▁igramo	-11.3391
▁psihijatri	-11.3392
▁190	-11.3392
▁uzimati	-11.3395
▁hol	-11.3395
▁smeđe	-11.3396
▁industrijsk	-11.3398
hrvatska	-11.3398
▁piju	-11.3399
▁rival	-11.34
▁mirka	-11.3401
▁ukrajinsk	-11.3407
▁srednju	-11.3407
▁tamne	-11.3409
▁uključi	-11.3409
▁perry	-11.341
▁pokolj	-11.341
▁reagirala	-11.341
▁vrag	-11.3411
▁maloj	-11.3413
▁veže	-11.3413
▁asistirao	-11.3416
nijeli	-11.3416
▁lim	-11.3418
4.	-11.3418
lnu	-11.342
▁borilačk	-11.3421
▁premalo	-11.3421
vic	-11.3423
▁kristina	-11.3424
▁pregovori	-11.3425
▁dobile	-11.3426
▁stranački	-11.3428
▁očekivan	-11.3428
▁prekri	-11.3429
▁prev	-11.3429
can	-11.3434
▁razloge	-11.3436
žić	-11.3438
▁guma	-11.3439
▁filozof	-11.344
▁složio	-11.3444
želim	-11.3445
xa	-11.3446
▁erdogan	-11.3446
▁vaterpolist	-11.3446
▁vrhovnog	-11.3446
▁iskorak	-11.3446
▁monte	-11.3447
▁nađite	-11.3447
▁ulazu	-11.3448
▁dvorana	-11.3448
▁pojede	-11.3448
▁našalio	-11.3448
▁izražen	-11.3451
▁kuš	-11.3451
▁dakako	-11.3456
▁nikakvog	-11.3458
21	-11.3459
sco	-11.346
▁2019	-11.346
▁nedovoljno	-11.3462
▁razlikuje	-11.3463
▁usvoji	-11.347
▁vile	-11.347
lis	-11.3471
▁kritičar	-11.3471
▁ekstremno	-11.3474
jesi	-11.3476
ljivo	-11.3477
▁srodn	-11.3477
▁najbliži	-11.3477
▁iskorištava	-11.3477
zbog	-11.3479
▁posjetila	-11.3481
godišnjoj	-11.3482
▁izložbe	-11.3485
▁privremeni	-11.3485
▁sveučilišn	-11.3485
▁upotrebu	-11.3485
▁važnu	-11.3485
▁(51)	-11.3485
▁ndh	-11.3485
▁talijanske	-11.3487
▁bombe	-11.3488
▁zoben	-11.349
▁sportskih	-11.3491
lik	-11.3493
▁stožer	-11.3493
▁rukometaš	-11.3496
▁hrvatima	-11.3498
▁probudi	-11.3499
dal	-11.3499
▁razni	-11.35
▁slobodnog	-11.3501
▁proširiti	-11.3501
▁sjeverna	-11.3502
▁najljepših	-11.3502
▁nadzorn	-11.3503
▁pročitati	-11.3504
▁analitičari	-11.3505
▁novinsk	-11.3509
▁iznenađen	-11.3509
nskih	-11.3509
▁sačuvati	-11.351
▁vojno	-11.351
▁tjednik	-11.3513
▁crnim	-11.3513
▁pokretanje	-11.3514
▁zamolio	-11.3518
pop	-11.3521
▁akademsk	-11.3525
▁ikakvih	-11.3525
▁komentator	-11.3525
▁kuhinju	-11.3525
▁ljepota	-11.3525
▁beckham	-11.3525
▁odrasla	-11.3525
▁proda	-11.3528
▁rečenica	-11.353
▁plinsk	-11.3531
▁udaraca	-11.3532
▁pozvan	-11.3533
▁unutarnje	-11.3533
▁twitter	-11.3534
▁birači	-11.3539
▁skrivaju	-11.354
▁privole	-11.3542
bon	-11.3544
▁ubijeno	-11.3544
▁preselio	-11.3545
▁potpisati	-11.3547
▁olakšati	-11.355
▁sokol	-11.355
-2	-11.3553
▁slastičar	-11.3554
▁duži	-11.3554
piti	-11.3554
▁dizajna	-11.3558
ring	-11.3559
▁mise	-11.356
▁riješio	-11.3561
▁čist	-11.3564
▁celebrity	-11.3565
▁financijska	-11.3565
▁investicijsk	-11.3565
▁khloe	-11.3565
▁sljedeću	-11.3565
▁zajednicu	-11.3565
▁moskvi	-11.3565
▁jabuka	-11.3565
▁dvoranu	-11.3565
ford	-11.3565
▁promocije	-11.3565
/1	-11.3566
▁hvale	-11.3566
▁barbara	-11.3567
▁dublje	-11.3568
▁imenu	-11.3568
▁kombinirati	-11.3568
▁rijetki	-11.357
▁vidović	-11.357
▁povećao	-11.3572
▁visokom	-11.3573
▁divlje	-11.3573
▁zimi	-11.3574
▁19-	-11.3575
▁kultn	-11.3575
▁jurić	-11.3576
kal	-11.3577
▁tlu	-11.3578
▁sar	-11.3578
▁jug	-11.3579
▁uhvatili	-11.3579
▁bijeloj	-11.3579
▁odmori	-11.358
reći	-11.3581
▁prezentira	-11.3582
gur	-11.3582
▁povijesni	-11.3582
▁objasnili	-11.3584
▁vinsk	-11.3584
▁njeni	-11.3586
95	-11.3587
▁olimpijski	-11.3587
▁karaktera	-11.359
▁zaustavili	-11.359
▁trpi	-11.3591
43	-11.3593
zašto	-11.3596
▁stran	-11.3597
▁kvadrat	-11.3597
▁probi	-11.3597
▁kaznenom	-11.3598
▁nacija	-11.3598
▁projekti	-11.3599
▁boljeg	-11.36
▁obavijest	-11.3602
▁pedeset	-11.3603
▁funkcionirati	-11.3604
▁inspekcija	-11.3604
▁stimulira	-11.3604
▁žrtvu	-11.3604
▁oslanja	-11.3604
▁adresa	-11.3604
jete	-11.3605
▁izdan	-11.3605
▁ugrađen	-11.3605
▁ritual	-11.3605
▁stabla	-11.3605
▁posjetitelje	-11.3606
▁državljanstvo	-11.3606
▁baby	-11.3607
pravni	-11.3607
▁boj	-11.3607
vide	-11.3608
▁dosadašnje	-11.3611
▁oskar	-11.3612
▁slavne	-11.3613
▁sudionik	-11.3613
▁grb	-11.3614
55	-11.3618
▁buduć	-11.3618
▁pitam	-11.3618
▁predati	-11.3619
▁vozače	-11.3619
▁nagraditi	-11.362
▁turski	-11.3621
▁digitalni	-11.3621
otok	-11.3623
▁odobrenje	-11.3623
▁uzimaju	-11.3623
▁sportskim	-11.3625
05	-11.3626
▁skupi	-11.3627
lijep	-11.3628
▁manjak	-11.3628
▁uzrokuju	-11.3629
▁podijeljen	-11.363
▁sile	-11.363
▁udarila	-11.3634
▁bundeku	-11.3637
▁čvor	-11.364
▁vaši	-11.3641
64	-11.3642
▁lažno	-11.3642
▁jedu	-11.3643
▁baci	-11.3644
▁katastrofe	-11.3644
▁osuđuje	-11.3644
▁činjenicom	-11.3644
▁tijelima	-11.3644
▁demokratski	-11.3645
▁nataša	-11.3645
▁stakla	-11.3647
▁klinici	-11.365
▁zdravstveni	-11.365
▁tjednima	-11.3651
▁popust	-11.3651
▁kamerama	-11.3652
▁mati	-11.3654
▁masakr	-11.3658
▁ella	-11.3658
▁prirodnim	-11.3659
▁vašim	-11.3661
ria	-11.3663
▁napustili	-11.3663
▁pokopa	-11.3664
▁zanimljive	-11.3666
▁stamben	-11.3668
▁shop	-11.3668
▁gotovi	-11.3669
▁povećanja	-11.3669
▁iskoristili	-11.3672
▁odlučuju	-11.3672
▁stvorila	-11.3673
▁volan	-11.3673
▁šator	-11.3674
▁položaja	-11.3674
▁glasom	-11.3675
32	-11.3678
▁djetetov	-11.3685
▁komplikacija	-11.3685
▁koordinacij	-11.3685
▁ponajviše	-11.3685
▁iznenada	-11.3685
▁klasične	-11.3685
▁scott	-11.3685
▁tomašić	-11.3685
▁šti	-11.369
▁davora	-11.369
▁fit	-11.3691
▁maraton	-11.3692
▁naredn	-11.3694
▁sjajnu	-11.3696
▁zarazn	-11.3696
▁roštilja	-11.3697
▁razinama	-11.3697
▁steve	-11.3698
▁izboriti	-11.3699
-4	-11.3699
▁(18)	-11.3699
▁kafića	-11.37
▁kriminaln	-11.3703
▁prijetnja	-11.3703
iste	-11.3704
▁uklanjanje	-11.3704
▁desnom	-11.3705
▁izloženi	-11.3705
mbo	-11.3709
▁plače	-11.371
▁ža	-11.3712
▁dee	-11.3713
▁ključne	-11.3717
▁odlučile	-11.3717
▁rav	-11.3718
▁musliman	-11.372
▁glavobolje	-11.3725
▁murganić	-11.3725
▁zahvalna	-11.3725
▁šampon	-11.3725
▁naknada	-11.3725
▁imidž	-11.3725
▁nokte	-11.3726
▁nelson	-11.3726
▁aferu	-11.3726
▁srcem	-11.3727
▁jelovnik	-11.3727
▁čuda	-11.3729
▁sedmi	-11.3729
▁pamtiti	-11.373
22	-11.373
▁tamara	-11.3731
▁dopušten	-11.3731
▁22-	-11.3734
mini	-11.3735
▁izvadite	-11.3735
▁splitskog	-11.3735
▁lokalnom	-11.3736
▁zapošljava	-11.3736
tvrd	-11.3736
▁sirijsk	-11.3738
▁teški	-11.374
▁treninge	-11.374
▁nek	-11.3742
osvoji	-11.3744
▁travnjak	-11.3744
▁šesto	-11.3746
▁slučajevi	-11.3746
▁bogato	-11.3749
▁diplomat	-11.375
▁proslaviti	-11.3751
▁predaje	-11.3752
▁umjetnika	-11.3752
zma	-11.3753
▁liječnicima	-11.3754
▁%	-11.3755
▁nk	-11.3755
▁preporuči	-11.3756
▁sjesti	-11.3758
▁poboljšanje	-11.3759
menta	-11.376
▁plava	-11.3761
▁ozbiljni	-11.3762
▁vojvod	-11.3765
▁otežava	-11.3765
▁španjolac	-11.3765
▁dodijeljen	-11.3765
▁recepata	-11.3765
▁prijatelju	-11.3766
▁žalbu	-11.3766
fra	-11.3766
▁odaziv	-11.3767
▁poznaju	-11.3768
▁zvala	-11.377
▁frajer	-11.377
▁muzeja	-11.3772
▁kupon	-11.3774
▁vašoj	-11.3775
▁službenik	-11.3775
▁balkona	-11.3776
▁iznio	-11.3777
▁št	-11.3778
▁stavove	-11.3778
▁sukobi	-11.3779
▁općinskom	-11.378
▁predstavnicima	-11.3781
▁izražava	-11.3781
▁maslinovog	-11.3781
▁generalno	-11.3782
▁sedmo	-11.3783
kula	-11.3785
hvala	-11.3785
živjeti	-11.3786
▁najvećem	-11.3786
▁uhvatiti	-11.3786
▁poštuje	-11.3786
▁mjerama	-11.3786
▁usamljen	-11.3787
6.	-11.3787
▁meča	-11.3788
▁završni	-11.3789
▁pregovorima	-11.3789
▁članstvo	-11.3792
▁napadima	-11.3795
▁tvrdili	-11.3797
▁brazila	-11.3797
▁organi	-11.3797
▁hobi	-11.3798
▁gađa	-11.3801
▁dobijete	-11.3804
▁komadić	-11.3806
▁porukama	-11.3806
▁kozmetičk	-11.3806
▁poluvremena	-11.3806
▁ravnotežu	-11.3806
▁dvd	-11.3806
▁postojala	-11.3807
▁podsjećamo	-11.3808
▁ljeti	-11.3808
▁kosor	-11.3808
▁edi	-11.3809
▁snježn	-11.3809
▁mladu	-11.3811
▁kupova	-11.3812
▁berlin	-11.3812
▁kopira	-11.3813
▁igrat	-11.3816
ian	-11.3816
▁prethodnih	-11.3817
▁prstima	-11.3817
▁kapetana	-11.382
▁prostorijama	-11.382
▁boljim	-11.382
▁popusti	-11.3821
▁blokiran	-11.3821
▁bijelo	-11.3825
▁povezano	-11.3825
▁klasik	-11.3828
▁blagdansk	-11.3832
▁osobnog	-11.3835
▁prepusti	-11.3838
▁bitku	-11.3841
▁isteka	-11.3841
▁bul	-11.3842
▁rang	-11.3842
▁gold	-11.3844
zd	-11.3845
▁državnoj	-11.3846
▁frankfurt	-11.3847
▁kuhinja	-11.3847
▁middleton	-11.3847
▁nezaboravn	-11.3847
▁pizze	-11.3847
▁postupno	-11.3847
▁žanr	-11.3847
iako	-11.3848
▁okej	-11.3849
▁vježbati	-11.3849
▁dokazuje	-11.3849
▁snimao	-11.3849
▁doček	-11.3849
▁viktorije	-11.3849
▁ptica	-11.3851
▁proširen	-11.3851
▁mrlje	-11.3852
▁obožavam	-11.3852
▁nebo	-11.3853
▁ribu	-11.3854
▁šareni	-11.3855
▁kv	-11.3855
▁tin	-11.3856
▁luksuzni	-11.3856
▁fanova	-11.3857
▁sprječava	-11.386
▁primljen	-11.386
▁izazovima	-11.386
▁trbuha	-11.3862
▁onakv	-11.3863
▁gene	-11.3864
inga	-11.3866
▁optužil	-11.3867
▁niki	-11.3868
▁marije	-11.3868
▁zuba	-11.3868
▁pridružiti	-11.3873
▁poklopi	-11.3874
▁jedinstveni	-11.3875
▁poslovanju	-11.3875
▁odgodi	-11.3875
▁uživanje	-11.3876
▁sisačko	-11.3879
zvijezde	-11.3879
▁pip	-11.388
zelen	-11.3882
▁zli	-11.3885
▁privatno	-11.3885
▁poslan	-11.3886
▁lokomotiva	-11.3887
▁kolodvor	-11.3888
▁osobna	-11.3888
▁uspomene	-11.3888
▁venezuele	-11.3888
▁kontrola	-11.3888
▁naredio	-11.3888
letjeli	-11.389
▁krađe	-11.389
▁pomorsk	-11.3891
žnja	-11.3891
▁popusta	-11.3891
▁organsk	-11.3892
▁likova	-11.3892
▁white	-11.3894
▁tehnički	-11.3899
▁camp	-11.39
▁odgaja	-11.3901
hel	-11.3901
▁kategorija	-11.3906
▁noćni	-11.3907
velo	-11.3908
▁posvetila	-11.3909
▁ustanovi	-11.391
▁vaših	-11.3912
▁psiho	-11.3913
▁šalicu	-11.3914
▁vrate	-11.3914
▁trudi	-11.3915
▁afganistan	-11.3915
▁međimursk	-11.3916
▁raskoš	-11.3916
▁osvajač	-11.3916
▁ocat	-11.3918
▁pojavili	-11.3919
▁tretmana	-11.3919
▁ispalio	-11.3921
▁korijena	-11.3925
▁spriječi	-11.3927
▁izračuna	-11.3927
▁houston	-11.3929
▁kramarić	-11.3929
▁garantira	-11.3929
▁zelene	-11.3929
▁gastronomsk	-11.3929
▁srbijansk	-11.393
▁koljeno	-11.3931
▁samopouzdanja	-11.3932
jska	-11.3932
▁hormon	-11.3933
▁uživao	-11.3935
▁kuhajte	-11.3936
nijim	-11.3937
▁valu	-11.3937
▁glumila	-11.3939
▁računala	-11.394
far	-11.394
▁milu	-11.3941
▁službena	-11.3942
▁suditi	-11.3942
▁privatnog	-11.3943
▁značenje	-11.3945
stat	-11.3947
▁format	-11.3947
▁izvlači	-11.3948
▁omiljena	-11.3952
▁chelseaja	-11.3953
▁božo	-11.3954
▁idućeg	-11.3954
▁napomenuo	-11.3955
▁skuplje	-11.3961
▁omiljene	-11.3965
▁stvaranja	-11.3967
38	-11.3968
▁filmovi	-11.3968
▁slabi	-11.3969
▁djevojkama	-11.3969
▁samouvjeren	-11.397
▁kolekciju	-11.397
▁marketinšk	-11.397
▁nedostatka	-11.397
▁označava	-11.397
▁zarađuje	-11.397
▁poljubac	-11.397
▁registracija	-11.3971
▁svugdje	-11.3971
▁misterij	-11.3971
▁karlovcu	-11.3972
▁zapada	-11.3972
cy	-11.3972
▁naveli	-11.3972
▁regija	-11.3973
▁isključi	-11.3973
▁sjeni	-11.3976
jeve	-11.3976
▁dužan	-11.3977
▁modna	-11.3979
▁jasmina	-11.398
▁iva	-11.3981
▁odbiti	-11.3981
danas	-11.3982
čnog	-11.3984
▁lokomotiv	-11.3985
▁krumpira	-11.3985
▁manju	-11.3986
▁brze	-11.3986
▁kućama	-11.3987
▁profila	-11.3987
▁eko	-11.3988
▁osmi	-11.399
▁općinskog	-11.3993
▁jetre	-11.3993
▁socijal	-11.3994
▁len	-11.3994
▁nametnu	-11.3995
▁vrijedni	-11.3996
▁ispričati	-11.3997
▁zaustavila	-11.3999
▁preokret	-11.3999
▁aktivist	-11.4
▁dužni	-11.4004
▁stvarni	-11.4005
▁ajaxa	-11.4007
▁192	-11.4008
naca	-11.4008
▁spašavanje	-11.4009
fr	-11.4009
▁omogući	-11.401
▁destinacija	-11.4012
▁katedrale	-11.4012
▁nevjerojatna	-11.4012
▁turizam	-11.4012
▁proguta	-11.4012
▁otkrilo	-11.4012
▁rajčica	-11.4012
▁boys	-11.4013
▁komore	-11.4013
▁parka	-11.4013
▁citira	-11.4013
▁isprati	-11.4014
▁poslovnim	-11.4015
▁svidjelo	-11.4016
23	-11.4017
▁uzorak	-11.4017
▁tablete	-11.4019
▁krim	-11.402
▁šokantn	-11.4023
▁redovno	-11.4024
▁financiranja	-11.4025
▁osnovnih	-11.4026
▁ustavnog	-11.4026
ino	-11.4026
▁pokrenut	-11.4028
▁psihijatrijsk	-11.4028
▁pričekati	-11.4028
▁michaela	-11.4028
▁end	-11.4029
▁očistiti	-11.4032
▁derbiju	-11.4032
▁110	-11.4038
▁slati	-11.4039
▁prirodnih	-11.4039
zv	-11.404
▁bell	-11.4041
▁izbornog	-11.4044
▁limunov	-11.4046
▁njome	-11.4047
▁spavaju	-11.4047
▁naveden	-11.4047
▁tragovi	-11.4049
▁kontinuirano	-11.4049
▁narodu	-11.4049
▁ostojić	-11.4053
▁ubuduće	-11.4053
▁vježbi	-11.4053
▁izbačen	-11.4053
▁otišlo	-11.4053
▁politikom	-11.4053
▁lauren	-11.4054
▁imovinu	-11.4054
▁sjemenke	-11.4054
žnje	-11.4054
▁moto	-11.4054
▁šuput	-11.4055
▁navedenog	-11.4055
▁hurem	-11.4055
▁razumijevanja	-11.4055
▁okretnog	-11.4056
▁smio	-11.4056
▁izveo	-11.4057
▁160	-11.4059
▁privatnim	-11.406
▁radove	-11.4061
▁ponašanju	-11.4061
▁uzbuđen	-11.4065
▁ubijena	-11.4065
▁postupa	-11.4067
▁majica	-11.4068
▁sportskog	-11.4068
▁prevezli	-11.407
▁princip	-11.4072
▁dozvoli	-11.4073
▁sankcija	-11.4074
▁humanitarne	-11.4078
▁will	-11.4081
▁smeđ	-11.4082
▁oslobodi	-11.4082
war	-11.4083
▁rođak	-11.4085
▁mjesečn	-11.4087
▁omiljenih	-11.4087
▁porto	-11.4088
▁makedonije	-11.4095
▁medicinu	-11.4095
▁smrtonosn	-11.4095
▁tradicija	-11.4095
▁tužbi	-11.4095
▁bivšu	-11.4095
▁ukazuje	-11.4095
▁fitness	-11.4095
▁odvjetnici	-11.4096
▁teorije	-11.4096
nsa	-11.4097
▁groblju	-11.4098
▁silva	-11.4098
▁pravomoćno	-11.4098
▁uslijedio	-11.4098
▁kamata	-11.4099
▁prihvaćaju	-11.4101
▁nevin	-11.4103
▁upozorili	-11.4103
▁tumora	-11.4103
▁oblak	-11.4104
▁krajeva	-11.4107
▁tople	-11.4108
▁sindikat	-11.4109
▁zajedničkom	-11.4111
▁gube	-11.4111
olu	-11.4115
▁teškoj	-11.4116
▁islamske	-11.4116
▁slovi	-11.4116
▁pokloni	-11.4119
▁kupuju	-11.4122
▁jović	-11.4122
▁baru	-11.4124
polj	-11.4124
▁špi	-11.4125
▁vezana	-11.4125
▁sjeme	-11.4125
▁lok	-11.4125
▁stani	-11.4125
▁vegeta	-11.4126
pt	-11.4126
▁rukometaši	-11.4128
▁sudara	-11.4128
▁mladost	-11.4131
▁salonu	-11.4132
▁cal	-11.4132
▁vratar	-11.4132
ljeno	-11.4132
zirao	-11.4134
▁dugogodišnj	-11.4134
▁iskreni	-11.4135
▁objavljene	-11.4137
▁katar	-11.4137
▁izvršen	-11.4137
▁svjetlost	-11.4137
▁platformi	-11.4137
▁prstohvat	-11.4137
▁reprezentativn	-11.4137
▁kolinde	-11.4137
▁posavec	-11.4137
▁oporba	-11.4137
▁ukazuju	-11.4138
▁međunarodnim	-11.4138
▁donacija	-11.4138
▁ulaganje	-11.4138
▁princeze	-11.4138
▁tužitelji	-11.414
▁banana	-11.4142
▁poručuju	-11.4142
▁prodajn	-11.4144
▁pokojn	-11.4144
▁vlakana	-11.4145
▁najbrutalnije	-11.4146
▁kir	-11.4146
▁javnu	-11.4147
▁temi	-11.4147
▁zabrinut	-11.415
▁jamesa	-11.4151
400	-11.4151
▁neočekivano	-11.4151
▁krivnju	-11.4153
▁omot	-11.4154
▁motivira	-11.4154
▁pjevala	-11.4156
▁divlja	-11.4156
▁popularno	-11.4156
▁predvodio	-11.4157
▁vila	-11.4158
▁darka	-11.4158
eni	-11.4159
▁iskrena	-11.4159
▁solidarnosti	-11.416
▁puši	-11.4164
▁čuvar	-11.4164
▁burn	-11.4167
▁čitatelji	-11.4167
▁sindikati	-11.4168
ijski	-11.417
▁radionica	-11.4172
▁priroda	-11.4173
▁pratila	-11.4176
▁odvaja	-11.4177
▁bull	-11.4177
▁gasi	-11.4178
▁cedevita	-11.418
▁konkurencija	-11.418
▁odvjetništva	-11.418
▁tehničar	-11.418
▁posveti	-11.418
▁ljetno	-11.418
▁skinula	-11.418
▁izraelski	-11.4181
▁razumiju	-11.4181
▁čuven	-11.4182
▁perković	-11.4183
▁viša	-11.4184
▁zadarske	-11.4185
▁postojanja	-11.4185
▁nacionalnoj	-11.4188
▁sjeverni	-11.4189
▁objasni	-11.4191
▁port	-11.4192
▁donošenje	-11.4193
▁posebnog	-11.4193
▁odobren	-11.4194
▁zaboravio	-11.4195
▁slatki	-11.4196
▁telefonsk	-11.4196
▁golišave	-11.4203
▁mig	-11.4203
▁starim	-11.4204
▁građe	-11.4205
▁eva	-11.4206
▁uvjerenja	-11.4206
▁jon	-11.4206
▁neočekivan	-11.4208
▁kvalifikacijama	-11.4209
▁albansk	-11.4212
▁washingtonu	-11.4214
▁karta	-11.4214
▁unutrašnjost	-11.4215
▁glo	-11.4216
▁oprostio	-11.4219
▁agresivni	-11.4222
▁dortmund	-11.4222
▁konferenciju	-11.4222
▁zodijaka	-11.4222
▁prirodna	-11.4222
▁čišćenja	-11.4222
▁ponegdje	-11.4222
▁kostelić	-11.4222
▁proslave	-11.4222
▁nezadovoljstvo	-11.4222
▁zadaća	-11.4222
▁psihologinja	-11.4222
▁noćas	-11.4225
▁krilo	-11.4225
▁masovno	-11.4225
▁mađarski	-11.4226
žen	-11.4226
rali	-11.4227
▁bare	-11.4229
▁manjine	-11.4229
▁uče	-11.423
▁invaliditetom	-11.423
▁muzeju	-11.4231
▁ukupni	-11.4232
▁sprej	-11.4233
▁treninzima	-11.4233
div	-11.4234
▁zadarski	-11.4234
▁ivanu	-11.4235
▁indija	-11.4235
▁službenog	-11.4236
▁dečkom	-11.4238
▁završe	-11.4239
rki	-11.4241
▁pružaju	-11.4242
▁šri	-11.4243
▁glumaca	-11.4245
▁tehnološk	-11.4245
▁off	-11.4247
▁veterinarsk	-11.4247
▁radić	-11.4249
▁maz	-11.4249
▁mađari	-11.4252
▁nick	-11.4255
▁stabilnost	-11.4259
ens	-11.426
▁isus	-11.426
▁ogromna	-11.4264
▁očekivala	-11.4264
▁prisutna	-11.4264
▁pizzu	-11.4264
▁otkriće	-11.4264
▁ogromni	-11.4265
▁reagirali	-11.4265
▁alan	-11.4265
▁dragičević	-11.4265
▁trčati	-11.4266
▁oluja	-11.4266
▁naljuti	-11.4269
▁zatraži	-11.427
▁avionom	-11.4271
▁milanovića	-11.4272
▁21-	-11.4273
▁zapadne	-11.4273
▁podijeli	-11.4274
▁milja	-11.4274
▁francuzi	-11.4276
mama	-11.4276
▁šteti	-11.4276
▁snimiti	-11.4282
▁sluz	-11.4282
▁vidu	-11.4283
▁izveden	-11.4284
▁ugledni	-11.4284
▁suradnici	-11.4284
▁vidno	-11.4286
▁filmske	-11.4286
▁klasični	-11.4288
▁svinje	-11.4289
dala	-11.4289
dit	-11.4289
▁startu	-11.429
44	-11.4291
▁mačka	-11.4291
▁uber	-11.4293
▁talijan	-11.4293
▁pravilnik	-11.4294
▁stvarati	-11.4295
▁reci	-11.4299
▁ulicu	-11.4302
▁kupljen	-11.4304
rno	-11.4305
▁majstora	-11.4306
▁doza	-11.4306
▁blender	-11.4307
▁dokrajčil	-11.4307
▁dokumenata	-11.4307
▁glazbi	-11.4307
▁vijetnam	-11.4307
▁polovica	-11.4307
▁dokumentarac	-11.4307
▁afričk	-11.4308
▁državljana	-11.4309
▁kukuruz	-11.431
▁sposobni	-11.431
▁gt	-11.4311
▁navijačk	-11.4311
▁imenima	-11.4313
▁baza	-11.4313
▁preselila	-11.4316
▁dozna	-11.4317
▁izdavač	-11.4318
▁vikao	-11.4319
moja	-11.432
▁natpis	-11.432
▁klasi	-11.4321
▁uputili	-11.4321
ljudi	-11.4324
▁raspoložen	-11.4324
bile	-11.4325
▁ustima	-11.4326
▁pobačaja	-11.4326
ički	-11.4328
ložila	-11.4328
▁silno	-11.4328
day	-11.4329
sy	-11.4332
▁probuditi	-11.4332
▁komentari	-11.4333
▁suočava	-11.4335
▁unuk	-11.4336
▁ukras	-11.4337
jača	-11.4338
▁financijskih	-11.4339
▁česti	-11.434
▁identificira	-11.4341
sdp	-11.4342
▁obratio	-11.4343
▁slici	-11.4343
▁napetosti	-11.4344
▁cik	-11.4347
▁zapadn	-11.4349
▁policijsku	-11.435
▁sjevernokorejsk	-11.435
▁drastično	-11.435
▁upućuje	-11.435
▁financije	-11.435
▁sarajevsk	-11.435
▁naglasak	-11.435
▁krizu	-11.435
▁gladi	-11.435
▁nisko	-11.4351
▁pećnici	-11.4351
▁jessica	-11.4351
▁pisala	-11.4351
▁rusi	-11.4351
▁apetit	-11.4351
▁vadi	-11.4353
▁tugu	-11.4354
▁četvrtka	-11.4355
real	-11.4357
▁vjenčanju	-11.4358
▁pacijentima	-11.4358
▁tehničk	-11.4358
▁nećak	-11.4362
sat	-11.4362
▁fred	-11.4363
▁pavelić	-11.4363
▁zamijeni	-11.4365
▁zarobljen	-11.4368
▁istanbul	-11.4368
▁sportova	-11.4369
▁čujem	-11.4372
▁hrvate	-11.4374
▁jaku	-11.4375
▁nadoknadi	-11.4376
▁praktičn	-11.4377
▁kiselina	-11.4381
▁pojedinci	-11.4381
▁škar	-11.4381
▁slijediti	-11.4384
▁kul	-11.4385
tinu	-11.4386
▁tomić	-11.4386
▁oslobađa	-11.4392
▁mirror	-11.4393
▁pretrage	-11.4393
▁1986.	-11.4393
▁mjesn	-11.4393
▁pretvorio	-11.4393
▁donijelo	-11.4394
▁poduzima	-11.4394
▁istup	-11.4395
▁dubrovnika	-11.4395
▁svjetlu	-11.4396
▁6-3	-11.4396
▁zaljubljen	-11.4397
▁fazu	-11.4399
▁nosa	-11.44
▁radijsk	-11.4401
▁većem	-11.4401
▁ljubavnu	-11.4402
▁uefa	-11.4403
tivni	-11.4408
▁akcijsk	-11.4409
▁hlad	-11.441
▁studentica	-11.441
▁strankama	-11.4411
▁zbor	-11.4412
▁zainteresiran	-11.4412
▁domovinskom	-11.4412
▁stvaranju	-11.4413
▁korisni	-11.4413
87	-11.4414
▁podijelili	-11.4414
▁pojedinaca	-11.4415
▁pakistan	-11.4417
▁originalno	-11.442
▁kriterij	-11.4421
▁č	-11.4421
▁450	-11.4424
▁pariz	-11.4429
▁prijelaz	-11.4433
▁uši	-11.4433
59	-11.4435
▁domaćina	-11.4436
▁riješili	-11.4436
▁pripadaju	-11.4436
▁mjehur	-11.4436
▁dozvola	-11.4437
▁kvaliteti	-11.4437
▁ocjene	-11.4437
▁postupke	-11.4437
▁preporučuju	-11.4437
▁vrijedna	-11.4437
▁vrijedne	-11.4437
▁prekinuli	-11.4437
▁tehnike	-11.4437
▁netflix	-11.4437
▁suvozač	-11.4437
▁srami	-11.4438
▁predrag	-11.4438
▁albert	-11.4438
▁upozorenja	-11.4439
▁ego	-11.4439
▁azerbajdžan	-11.4443
▁doveden	-11.4444
▁zgodn	-11.4444
▁praznik	-11.4446
▁mostov	-11.4448
▁snimanju	-11.4451
▁navodeći	-11.4451
▁zaljubljeni	-11.4451
▁nariban	-11.4452
hn	-11.4452
▁zeza	-11.4454
▁savjetnika	-11.4455
low	-11.4456
nsko	-11.4456
▁saborskog	-11.4456
85	-11.4458
▁potrudi	-11.4458
▁oduzeti	-11.4459
▁lika	-11.446
▁kupovati	-11.4461
▁milijarder	-11.4461
▁stru	-11.4462
ovaca	-11.4464
▁vježbanja	-11.4465
tne	-11.4468
▁hollywood	-11.4469
▁preuzimanje	-11.447
đan	-11.4471
▁mišićn	-11.4473
▁dogovara	-11.4474
rh	-11.4477
▁dima	-11.4478
dosta	-11.4478
▁šibeniku	-11.4479
▁cigareta	-11.448
▁tkivo	-11.448
▁veličanstven	-11.448
▁vrijede	-11.448
▁galeriju	-11.448
▁jugoistočn	-11.448
▁1980.	-11.448
▁eksperimentira	-11.448
▁kompakt	-11.448
▁jamstva	-11.448
▁školski	-11.4482
▁kolika	-11.4482
▁odlučivati	-11.4483
knuti	-11.4483
▁znakovima	-11.4484
▁predsjedničke	-11.4484
▁servisa	-11.4484
▁umre	-11.4485
žena	-11.4486
▁glavnim	-11.4487
rane	-11.449
▁propisima	-11.4492
▁povlačenje	-11.4493
sav	-11.4499
▁očigledno	-11.45
▁platforma	-11.4501
▁suza	-11.4501
▁napusti	-11.4502
▁kupnje	-11.4504
▁trči	-11.4509
▁židov	-11.451
▁obrazovn	-11.4512
▁ekran	-11.4512
!?	-11.4513
▁prosvjedi	-11.4515
renje	-11.4517
▁kreativno	-11.4518
▁vrti	-11.4518
vet	-11.4521
▁štapić	-11.4521
▁starijim	-11.4521
▁ocjenjiva	-11.4524
▁oprašta	-11.4524
▁pronalazi	-11.4524
▁švicarskoj	-11.4524
▁požgaj	-11.4524
▁šunjić	-11.4524
▁zlatne	-11.4524
▁mikulić	-11.4524
▁vekić	-11.4525
69	-11.4527
▁začina	-11.4528
▁karata	-11.4528
▁kiseline	-11.4533
▁ustaški	-11.4534
letjeti	-11.4536
▁pisac	-11.4541
▁bića	-11.4543
▁glasove	-11.4544
▁čuvaju	-11.4546
▁messija	-11.4549
▁poznava	-11.4551
▁mrtvi	-11.4552
▁raspravljati	-11.4553
tic	-11.4553
▁lijevog	-11.4554
▁zlatno	-11.4554
▁(7	-11.4554
▁miller	-11.4554
▁iznosio	-11.4556
▁ubod	-11.4558
▁kartona	-11.4559
▁borila	-11.456
▁baku	-11.4564
▁ugostiteljsk	-11.4564
▁glavobolja	-11.4568
▁konkurenciju	-11.4568
▁ljepše	-11.4568
▁zahvalni	-11.4568
▁odbačen	-11.4568
▁kanadi	-11.4568
▁sretne	-11.4568
▁zelena	-11.4568
▁prikupljanje	-11.4568
▁opasna	-11.4568
▁prišao	-11.4568
▁zlostavljač	-11.4572
▁biljaka	-11.4573
▁šibensk	-11.4573
▁tesla	-11.4573
▁uklanja	-11.4575
▁radovan	-11.4576
▁onoj	-11.4577
▁opel	-11.4579
▁dvoboju	-11.4582
49	-11.4582
▁lokalnoj	-11.4582
▁glumiti	-11.4582
▁mad	-11.4583
▁obramben	-11.4585
yn	-11.4586
▁zamislite	-11.4587
▁vir	-11.4589
▁luta	-11.4589
▁zaigra	-11.4589
▁maju	-11.4591
▁lanac	-11.4592
▁okuse	-11.4592
pic	-11.4593
▁konj	-11.4593
▁disk	-11.4596
▁potpisom	-11.4596
▁dočekala	-11.4596
▁serijal	-11.4598
▁prosjek	-11.4599
▁mirna	-11.4601
▁vrši	-11.4602
▁biološk	-11.4604
▁nečim	-11.4604
▁jasni	-11.4605
▁olimpijske	-11.4607
▁promijenili	-11.461
▁zamjera	-11.4611
▁izborio	-11.4611
▁loren	-11.4611
▁restoranima	-11.4611
▁znajući	-11.4612
▁akademiji	-11.4612
▁obaviješten	-11.4612
▁obnavlja	-11.4612
▁popravlja	-11.4612
▁površina	-11.4612
▁lokaciju	-11.4612
▁ispitivanje	-11.4612
▁oltar	-11.4612
▁nepravilnosti	-11.4612
▁dramsk	-11.4612
▁karcinoma	-11.4612
▁pročitao	-11.4614
▁men	-11.4616
▁kampu	-11.4618
▁olakšava	-11.4618
▁loši	-11.462
▁iscrpljen	-11.462
▁šeks	-11.462
▁nasljednik	-11.4621
▁cl	-11.4621
▁komplet	-11.4623
▁dobitak	-11.4626
▁biljn	-11.4626
▁dvornik	-11.4626
▁četvrtom	-11.4626
▁tadašnjeg	-11.4627
▁aerodromu	-11.4627
▁900	-11.4628
▁zg	-11.4629
▁vod	-11.4629
▁oporben	-11.4629
▁sportaši	-11.4631
▁anna	-11.4633
tara	-11.4635
▁nicol	-11.4635
▁gosp	-11.4636
▁željezn	-11.4636
▁umaka	-11.4638
▁proljetni	-11.4647
▁zimski	-11.4647
▁lučić	-11.4648
jeni	-11.4648
▁špic	-11.4652
▁vatikan	-11.4655
▁nijanse	-11.4656
▁postrojbe	-11.4656
▁krvarenje	-11.4656
▁obnaša	-11.4656
▁prozvao	-11.4656
▁kruzer	-11.4656
▁nedavn	-11.4657
▁svinjsk	-11.4658
traži	-11.4658
▁shi	-11.4659
▁skočio	-11.466
▁trga	-11.466
ound	-11.4661
▁plijen	-11.4662
▁ciljeva	-11.4663
kica	-11.4663
▁tenisk	-11.4665
▁cvjetn	-11.4666
▁čvrst	-11.4667
▁pojasnila	-11.4669
▁poznajem	-11.4669
▁stilist	-11.4671
▁lagani	-11.4671
▁kineskog	-11.4672
▁kud	-11.4673
▁misleći	-11.4673
▁postavljanje	-11.4674
▁crvenu	-11.4674
▁procijeniti	-11.4674
▁maca	-11.4676
▁ljetni	-11.4678
▁jezero	-11.4679
▁stavljaju	-11.4681
▁bron	-11.4684
▁dizajniran	-11.4684
▁zračni	-11.4685
rman	-11.4685
▁sanira	-11.4685
▁curić	-11.4685
▁nikole	-11.4686
▁nečega	-11.4686
▁milinović	-11.4687
▁prodavač	-11.4689
▁napuni	-11.469
▁šuška	-11.469
▁marc	-11.4691
▁sigurnosni	-11.4692
▁sjedištem	-11.4692
▁sportom	-11.4694
▁blagdanski	-11.4694
▁umjetno	-11.4695
▁jr	-11.4696
▁litre	-11.4697
▁klin	-11.4698
▁zavoj	-11.47
▁podrijetla	-11.47
_	-11.47
▁vrhuncu	-11.47
▁upečatljiv	-11.47
▁(56)	-11.47
▁onoliko	-11.47
▁ranjiv	-11.47
▁završetku	-11.47
▁važeć	-11.47
▁mnoga	-11.4701
▁podiže	-11.4701
▁neprimjeren	-11.4701
▁svladao	-11.4701
▁veselo	-11.4701
▁pripremati	-11.4701
▁krasi	-11.4702
▁voze	-11.4702
▁dodan	-11.4702
▁tužno	-11.4703
▁uslijedila	-11.4703
▁osobnost	-11.4703
▁prekršajn	-11.4704
▁brza	-11.4705
▁razgovori	-11.4706
▁velikana	-11.4707
▁moderne	-11.4709
▁ilegalno	-11.471
▁odjenula	-11.471
▁kocka	-11.4712
▁stephen	-11.4714
▁nemoguć	-11.4714
▁precizno	-11.4717
▁nuklearnog	-11.4718
▁kritičari	-11.472
▁punk	-11.472
▁zabrani	-11.4721
▁otvaranja	-11.4722
▁vještak	-11.4725
▁obavi	-11.4727
▁ambiciozn	-11.4728
▁dolaziti	-11.4728
▁neovisni	-11.4729
▁platila	-11.4733
▁postavila	-11.4734
ons	-11.4735
▁pero	-11.4735
▁socijalističk	-11.4736
▁odmak	-11.4736
▁bitka	-11.4736
▁krivotvoren	-11.4737
▁savjeti	-11.4738
all	-11.4738
knuo	-11.4738
▁družiti	-11.4741
▁varaždina	-11.4742
▁donesena	-11.4744
▁trač	-11.4744
▁clippers	-11.4745
▁mehanizam	-11.4745
▁pokvari	-11.4745
▁regionalne	-11.4745
▁hgss	-11.4745
▁objekata	-11.4745
▁nastavka	-11.4745
▁umire	-11.4746
ise	-11.4747
▁petri	-11.4747
▁vladavine	-11.4747
▁počiva	-11.4748
▁udruženja	-11.4748
▁kontroli	-11.4749
▁fox	-11.475
▁nevjerojatnih	-11.4752
▁sadašnj	-11.4753
▁postojao	-11.4754
▁gabriel	-11.4756
▁old	-11.4757
▁izrade	-11.4758
▁trkač	-11.4759
▁snagama	-11.4761
▁vesna	-11.4763
▁gon	-11.4763
▁doktorica	-11.4763
▁slaviti	-11.4763
▁raspon	-11.4764
▁81	-11.4767
▁91	-11.4768
▁savezn	-11.4769
▁sakuplja	-11.4769
▁raspad	-11.477
▁glasovanje	-11.4771
▁jaki	-11.4771
▁zakoni	-11.4772
▁učenja	-11.4774
▁medicinskih	-11.4774
▁šeta	-11.4774
lit	-11.4777
maz	-11.4777
▁kuhanja	-11.4778
▁organ	-11.4779
▁lip	-11.478
▁farmer	-11.4781
▁šokirani	-11.4782
▁rješavati	-11.4783
ložiti	-11.4785
yer	-11.4786
▁naizgled	-11.4789
▁brown	-11.4789
▁dijagnozu	-11.479
▁edukacije	-11.479
▁intervencija	-11.479
▁caktaš	-11.479
▁smjesa	-11.479
▁nestanak	-11.479
▁ploče	-11.479
▁izabrao	-11.479
▁aktivan	-11.479
▁adapt	-11.479
▁torbe	-11.479
▁spontano	-11.479
▁juniorsk	-11.4791
▁mađar	-11.4792
'?	-11.4792
▁kontroverzn	-11.4793
▁dugova	-11.4794
▁dobilo	-11.4794
▁yorka	-11.4797
▁čarapama	-11.4798
▁pitate	-11.4798
▁mak	-11.4798
naš	-11.4799
▁automobilima	-11.4799
▁sjednica	-11.48
▁uživala	-11.48
▁cirkus	-11.48
▁krist	-11.4801
kinje	-11.4801
▁stresom	-11.4803
▁poljud	-11.4804
nički	-11.4805
▁vrsti	-11.4805
▁čude	-11.4806
volja	-11.4806
▁razmišljala	-11.4806
▁gradnje	-11.4806
34	-11.4808
▁rundi	-11.4808
vici	-11.4811
79	-11.4812
▁uhvati	-11.4812
▁dovode	-11.4814
▁laže	-11.4816
▁paris	-11.4818
▁odgovorna	-11.4818
▁odraz	-11.4818
▁komu	-11.4819
▁osjetljivi	-11.482
▁parlamentarn	-11.4821
▁motiviran	-11.4822
▁nikakvo	-11.4822
▁sjajnim	-11.4822
kove	-11.4823
▁pozitivni	-11.4824
▁prosjeka	-11.4826
▁dalmatinsk	-11.4826
zagreb	-11.4826
▁surađivati	-11.4827
▁remen	-11.4828
▁materijalna	-11.4829
mel	-11.483
nikad	-11.483
▁prošloga	-11.4831
▁uzbuđenje	-11.4833
▁grli	-11.4834
▁virtualn	-11.4835
▁fantastičan	-11.4835
▁investicije	-11.4835
▁metabolizam	-11.4835
▁netanyahu	-11.4835
▁zaslužuju	-11.4835
▁polufinaln	-11.4835
▁srebro	-11.4835
▁zaslužili	-11.4835
▁zatekli	-11.4836
▁ostalima	-11.4836
▁barba	-11.4836
▁ispala	-11.4836
▁lijepi	-11.4837
▁ht	-11.4837
ong	-11.4838
▁rimu	-11.4838
09	-11.4838
▁godišnjicu	-11.484
▁pozitivna	-11.4841
▁neobičn	-11.4842
nuta	-11.4842
▁vučića	-11.4842
▁teritorija	-11.4844
▁brojka	-11.4846
▁informira	-11.4848
▁opusti	-11.4848
niz	-11.485
▁24-	-11.4851
slobo	-11.4851
▁pogrešn	-11.4852
▁dnevne	-11.4852
▁riječki	-11.4852
▁škr	-11.4854
▁balkanu	-11.4854
vode	-11.4859
▁dragana	-11.4862
rda	-11.4862
▁svjetskoj	-11.4864
▁lokomotive	-11.4865
▁uvod	-11.4866
▁mart	-11.4868
▁kroj	-11.4871
▁splitskom	-11.4872
91	-11.4874
▁učenike	-11.4875
▁reza	-11.4876
▁zapis	-11.4877
▁automat	-11.4877
▁izbjegli	-11.4878
▁povodu	-11.4878
48	-11.4879
▁radeći	-11.4879
▁elizabeth	-11.488
▁pozadini	-11.488
▁svlačionicu	-11.488
▁lewis	-11.488
▁veselje	-11.488
▁piletinu	-11.488
▁veljača	-11.488
▁indeks	-11.488
▁staklo	-11.4881
▁ustanove	-11.4881
▁putovao	-11.4881
▁dogovorio	-11.4883
▁otkud	-11.4883
▁popeo	-11.4885
▁goru	-11.4885
▁naftn	-11.4886
▁rupu	-11.4887
▁predavanje	-11.4887
stvom	-11.4888
maj	-11.4888
▁vrta	-11.489
▁premažite	-11.4892
▁francuskom	-11.4893
▁koreje	-11.4894
▁haha	-11.4895
▁narežite	-11.4896
▁svemir	-11.4898
ijim	-11.49
▁okruženje	-11.49
▁samoj	-11.49
▁udaljenosti	-11.49
03	-11.4902
viz	-11.4908
well	-11.4909
▁poznatim	-11.491
▁cup	-11.4913
koji	-11.4914
▁usto	-11.4917
▁čekanja	-11.4918
▁plesati	-11.4918
▁davis	-11.4919
▁kip	-11.492
šak	-11.4921
vuk	-11.4924
▁yo	-11.4925
▁proračunu	-11.4925
▁posjete	-11.4925
▁cjepiva	-11.4925
▁djevojci	-11.4925
▁kategoriju	-11.4925
▁stanovništvo	-11.4925
▁šetnju	-11.4925
▁kartice	-11.4926
▁intenzivni	-11.4926
▁zastupničk	-11.4926
▁greška	-11.4926
▁pripremama	-11.4927
▁83	-11.4928
▁iznova	-11.4928
▁otapa	-11.4928
▁stajala	-11.4929
▁izricanj	-11.4932
▁stila	-11.4932
▁izdvojili	-11.4933
▁muke	-11.4935
kati	-11.4935
▁nacrta	-11.4937
▁četvrta	-11.4937
▁začinite	-11.4938
▁zelandu	-11.4939
čuva	-11.494
age	-11.4941
▁podržali	-11.4943
▁djelatnik	-11.4945
▁(4	-11.4945
▁provede	-11.4949
▁razveseli	-11.4949
▁tražeći	-11.4949
▁igračem	-11.495
▁brexitu	-11.495
nose	-11.4951
▁tijelom	-11.4953
▁pomislila	-11.4953
prati	-11.4956
▁slanje	-11.4959
▁dizajnersk	-11.4959
▁minimaln	-11.4961
-20	-11.4962
▁pogorša	-11.4964
tski	-11.4968
▁funkcionaln	-11.497
▁godišnj	-11.4971
▁egzotičn	-11.4971
▁misteriozn	-11.4971
▁ocjena	-11.4971
▁ročište	-11.4971
▁uspješne	-11.4971
▁klupu	-11.4971
▁shopping	-11.4971
▁zahvalan	-11.4971
▁potpisuje	-11.4972
▁petom	-11.4973
▁ljubimac	-11.4973
▁autoritet	-11.4973
▁tvrdoglav	-11.4974
▁roland	-11.4976
cker	-11.4976
▁zakonima	-11.4977
▁upisan	-11.4984
▁izbo	-11.4985
▁pokušavala	-11.499
▁zarobljeni	-11.4991
▁regulira	-11.4991
▁bijelim	-11.4993
▁izmjena	-11.4994
▁treneri	-11.4994
▁poslovi	-11.4995
▁upao	-11.4996
▁izazovu	-11.4997
▁suprotnom	-11.5004
▁marketinga	-11.5007
pon	-11.5007
konja	-11.5008
▁sonja	-11.5008
▁iskr	-11.5008
lk	-11.5009
▁većoj	-11.501
▁trgovinsk	-11.501
▁plesni	-11.5012
84	-11.5013
▁bošnjak	-11.5015
▁92	-11.5015
▁ane	-11.5016
▁makedonsk	-11.5017
▁pavičić	-11.5017
▁izoliran	-11.5019
▁napitak	-11.5019
pek	-11.502
▁trudnice	-11.5021
▁pros	-11.5024
▁nalazio	-11.5025
▁toliki	-11.5027
▁favorita	-11.5028
▁prevladava	-11.5028
▁predvođen	-11.503
▁okružen	-11.5033
▁sigurnosnih	-11.5037
▁poduzetnika	-11.5037
▁zabije	-11.5038
▁napore	-11.5039
▁planinsk	-11.504
▁riskira	-11.504
▁zub	-11.5043
▁dubrovačko	-11.5044
ljani	-11.5044
▁tel	-11.5046
▁prijedlogu	-11.5048
▁šibenika	-11.505
▁emil	-11.5051
▁vozačke	-11.5053
▁spis	-11.5053
▁broji	-11.5054
▁postojeće	-11.5055
bal	-11.5056
▁znače	-11.5057
▁lupa	-11.5058
▁tottenhama	-11.506
▁muškarcem	-11.506
▁unutarnji	-11.5061
▁jednoga	-11.5061
▁začini	-11.5063
▁autoceste	-11.5063
▁ministru	-11.5063
▁polovicu	-11.5063
▁osmišljen	-11.5063
▁prijetnju	-11.5064
▁slabiji	-11.5064
▁prosvjednika	-11.5065
▁propao	-11.5068
stein	-11.5068
▁rizičn	-11.5068
▁apsolutni	-11.5069
▁posebnom	-11.507
▁trostruk	-11.5071
▁predmetu	-11.5071
▁poželi	-11.5072
▁rivi	-11.5073
▁obećanja	-11.5073
▁skupio	-11.5075
▁dobrobit	-11.5077
▁idealni	-11.5077
stavi	-11.5079
▁marco	-11.5079
▁beču	-11.5079
liju	-11.5081
▁dokumenti	-11.5083
▁novoga	-11.5083
dd	-11.5085
▁ojača	-11.5087
▁usudi	-11.5088
▁bijelom	-11.5089
▁kisika	-11.5092
▁medijski	-11.5094
tov	-11.5097
▁navodn	-11.5099
▁intelektual	-11.5101
▁tajani	-11.5102
▁navedenih	-11.5102
▁bleiburgu	-11.5103
▁legal	-11.5104
▁lakši	-11.5106
▁stečaja	-11.5107
▁zahtijevaju	-11.5109
▁kupovinu	-11.5109
▁opsjednut	-11.5109
▁televizor	-11.5109
▁tradiciju	-11.5109
▁karticu	-11.5109
▁polovici	-11.5109
▁izjavom	-11.511
▁veličini	-11.511
▁odgađa	-11.511
▁manuel	-11.511
▁strategije	-11.5111
▁bahat	-11.5112
▁stupa	-11.5113
41	-11.5115
▁okupljanje	-11.5115
▁namještaj	-11.5117
▁pobjedničk	-11.5118
▁formula	-11.5118
▁ramos	-11.5118
▁vukovarsko	-11.5119
▁primijeti	-11.5121
▁negativnih	-11.5122
▁napravljena	-11.5122
▁održavati	-11.5128
▁okonča	-11.5129
▁moment	-11.513
▁vozilima	-11.5131
▁praćenje	-11.5132
▁spriječili	-11.5132
▁analitičar	-11.5132
▁muške	-11.5133
▁potresa	-11.5134
▁bezos	-11.5136
▁globalni	-11.5137
▁doprinosi	-11.5137
▁pridržava	-11.5137
▁zanimaju	-11.5141
▁reli	-11.5141
▁svidjela	-11.5141
▁fun	-11.5147
▁robot	-11.5147
▁win	-11.5148
▁donedavno	-11.5148
▁učitelji	-11.515
▁sućut	-11.515
▁oprezni	-11.5151
▁opisuju	-11.5151
▁istoka	-11.5152
▁curi	-11.5153
đenja	-11.5154
▁kl	-11.5155
▁umjereno	-11.5155
▁elemenata	-11.5156
▁koeficijent	-11.5156
▁postojeći	-11.5156
▁kolicima	-11.5156
▁vlasništvo	-11.5156
▁šešelj	-11.5156
▁pionir	-11.5156
▁madura	-11.5156
▁pojačava	-11.5156
▁prisili	-11.5157
▁obnove	-11.5157
▁anderson	-11.5158
trčao	-11.5159
▁mm	-11.5159
▁oz	-11.5159
▁icardi	-11.5159
▁house	-11.5159
brat	-11.5159
▁knežević	-11.5162
2019	-11.5162
▁izvođača	-11.5162
▁ekskluzivno	-11.5164
▁šesti	-11.5169
▁duši	-11.5169
▁125	-11.517
▁ademi	-11.5171
▁pjevao	-11.5171
▁zastupnike	-11.5171
▁šah	-11.5172
▁strip	-11.5172
▁etičk	-11.5174
▁obalu	-11.5175
▁korisničk	-11.5175
▁približi	-11.5176
▁23-	-11.5177
▁orah	-11.5177
▁stazi	-11.5177
▁okupljanja	-11.5178
▁uhvatila	-11.5179
▁zagrebačkih	-11.5179
▁regionalnog	-11.5179
odgovor	-11.518
▁izručenje	-11.5181
pen	-11.5181
▁kupite	-11.5181
▁dubrovačk	-11.5181
▁slušali	-11.5182
▁tenisica	-11.5185
▁kostiju	-11.5186
▁sporno	-11.5187
▁zaštitar	-11.5187
▁nastupati	-11.5188
37	-11.5191
▁zdravstvenog	-11.5191
sreć	-11.5199
▁uvodi	-11.5199
field	-11.5199
▁obećanje	-11.5199
grada	-11.52
lnim	-11.52
▁münchenu	-11.5202
▁najavi	-11.5202
▁juan	-11.5202
▁kontejner	-11.5203
▁nestabiln	-11.5203
▁osoblja	-11.5203
▁ashley	-11.5203
▁partije	-11.5203
▁vodstva	-11.5203
▁prekriven	-11.5204
▁pritvorsk	-11.5205
▁mandić	-11.5205
▁obrazovan	-11.5205
▁mjestim	-11.5206
▁ugostitelj	-11.5206
▁kupona	-11.5206
▁dosje	-11.5207
tent	-11.5208
▁tragove	-11.521
▁andrew	-11.521
▁dnevnog	-11.5213
udara	-11.5214
▁učiteljica	-11.5214
▁visokoj	-11.5215
lagali	-11.5215
▁eksperimentaln	-11.5217
▁demografsk	-11.5218
▁sustavom	-11.522
▁novina	-11.522
▁ugodni	-11.5221
▁nekakav	-11.5222
▁pruži	-11.5226
▁odabiru	-11.5227
▁sklop	-11.523
▁biće	-11.5233
▁xi	-11.5234
demokrat	-11.5235
▁ubijeni	-11.5239
▁okret	-11.5239
ella	-11.524
▁eric	-11.5243
▁jutarnjim	-11.5246
▁debeljak	-11.525
▁hasanbegović	-11.525
▁pizza	-11.525
▁normalna	-11.525
▁putovanju	-11.525
▁pristigl	-11.525
▁okupilo	-11.525
gel	-11.525
▁bankovn	-11.525
ington	-11.525
▁kanadsk	-11.5251
▁uklapa	-11.5251
▁zadnju	-11.5251
▁nježni	-11.5253
▁stajali	-11.5254
▁like	-11.5254
▁diva	-11.5257
▁učitelja	-11.5259
▁pire	-11.5261
▁otkaza	-11.5261
47	-11.5262
▁šale	-11.5262
▁časnik	-11.5262
▁općinsko	-11.5262
▁krenule	-11.5264
mila	-11.5265
▁srušila	-11.5265
▁osnovni	-11.5266
▁mišić	-11.5267
▁aleksandr	-11.5268
▁igranje	-11.5268
▁diplomatsk	-11.5269
▁mostu	-11.527
▁torti	-11.527
vrati	-11.5271
54	-11.5276
▁posljedicama	-11.5277
▁objavilo	-11.5279
▁poteza	-11.5279
▁zadobio	-11.528
▁pravima	-11.528
▁odlični	-11.528
chen	-11.5283
88	-11.5284
meni	-11.5284
ata	-11.5288
▁mont	-11.5289
▁grm	-11.5289
▁okoln	-11.5289
▁osječko	-11.5291
▁dosadno	-11.5291
▁tavi	-11.5291
▁grčki	-11.5293
▁socijalni	-11.5293
▁premijerom	-11.5295
▁ambasador	-11.5297
▁journal	-11.5297
▁objavom	-11.5297
▁podravka	-11.5297
▁tvornici	-11.5297
▁ubojstava	-11.5297
▁odnio	-11.5297
▁mrsić	-11.5297
▁prikazati	-11.5297
▁navikli	-11.5298
▁prodavati	-11.5298
▁odradi	-11.5298
▁predavač	-11.5298
▁spomenika	-11.5298
▁poštuju	-11.5298
▁arapski	-11.5299
▁ničega	-11.53
fik	-11.5301
▁poplava	-11.5301
▁šampion	-11.5302
▁stožera	-11.5303
pjeva	-11.5303
▁samuel	-11.5303
▁ekološk	-11.5304
▁hoćete	-11.5304
▁cool	-11.5305
▁potencijalni	-11.5308
▁medicinskog	-11.5309
▁važniji	-11.5309
▁specijalitete	-11.5309
▁kolegi	-11.531
▁mesić	-11.5311
▁političko	-11.5312
šića	-11.5312
▁struju	-11.5312
▁definiran	-11.5315
▁dobroj	-11.5315
▁bocu	-11.5317
▁koalicijski	-11.5317
jevi	-11.5317
-5	-11.5323
▁nasilno	-11.5324
▁smanjenja	-11.5324
stor	-11.5325
▁zaprešić	-11.5326
▁umiru	-11.5326
▁porezne	-11.5326
tter	-11.5327
▁krajnji	-11.5327
▁ispravn	-11.5328
▁uveo	-11.5329
▁moro	-11.5329
▁blue	-11.5329
bok	-11.5329
▁ponašanjem	-11.5331
▁kombinacijama	-11.5331
rve	-11.5331
ntno	-11.5332
▁seniorsk	-11.5333
▁ogorčen	-11.5334
▁židova	-11.5336
▁mary	-11.5337
▁stabilno	-11.5338
▁osvježavajuć	-11.5339
▁pristupačn	-11.5344
▁djetinjstvu	-11.5344
▁kontinuitet	-11.5344
▁najbrže	-11.5344
▁pronašle	-11.5344
▁tolerancije	-11.5344
▁zadnjoj	-11.5344
▁najopasnij	-11.5344
▁kolegu	-11.5344
▁turistička	-11.5345
▁dokumentaciju	-11.5345
▁odem	-11.5345
▁težina	-11.5347
▁grčke	-11.5347
▁raf	-11.5348
▁kanade	-11.5348
▁čaše	-11.5349
mana	-11.535
živi	-11.5351
▁bodove	-11.5352
▁blaženka	-11.5353
▁nezadovoljni	-11.5355
▁konobar	-11.5355
▁vjera	-11.5356
▁pozirala	-11.5358
▁tvrdila	-11.5359
dove	-11.536
▁manjih	-11.5361
▁organizirala	-11.5363
▁stupnja	-11.5364
▁ekstrakt	-11.5364
▁zatvoreni	-11.5366
vući	-11.5367
▁koristim	-11.5369
▁desnog	-11.537
▁nastupu	-11.537
▁prvostupanjsk	-11.5373
▁radnja	-11.5375
▁statusa	-11.5376
▁tuge	-11.5376
▁sastavljen	-11.5378
▁iskoristila	-11.5379
▁kult	-11.538
▁brane	-11.5383
možda	-11.5384
▁ljudskog	-11.5384
▁žuri	-11.5384
▁poslovnom	-11.5384
▁svjedočio	-11.5388
računa	-11.5388
▁spoja	-11.5389
▁prepoznao	-11.539
▁pranja	-11.5391
▁desničar	-11.5391
▁juncker	-11.5392
▁sarajevo	-11.5392
[...]
